{
  "version": "1.0",
  "truncation": {
    "direction": "Right",
    "max_length": 256,
    "strategy": "LongestFirst",
    "stride": 0
  },
  "padding": {
    "strategy": "BatchLongest",
    "direction": "Right",
    "pad_to_multiple_of": null,
    "pad_id": 0,
    "pad_type_id": 0,
    "pad_token": "PAD"
  },
  "added_tokens": [
    {
      "id": 0,
      "content": "PAD",
      "single_word": false,
      "lstrip": false,
      "rstrip": false,
      "normalized": false,
      "special": true
    },
    {
      "id": 1,
      "content": "UNK",
      "single_word": false,
      "lstrip": false,
      "rstrip": false,
      "normalized": false,
      "special": true
    },
    {
      "id": 2,
      "content": "UTT_BOUNDARY",
      "single_word": false,
      "lstrip": false,
      "rstrip": false,
      "normalized": false,
      "special": true
    }
  ],
  "normalizer": {
    "type": "Sequence",
    "normalizers": [
      {
        "type": "NFC"
      },
      {
        "type": "Lowercase"
      },
      {
        "type": "Strip",
        "strip_left": true,
        "strip_right": true
      }
    ]
  },
  "pre_tokenizer": {
    "type": "ByteLevel",
    "add_prefix_space": true,
    "trim_offsets": true,
    "use_regex": true
  },
  "post_processor": {
    "type": "TemplateProcessing",
    "single": [
      {
        "SpecialToken": {
          "id": "UTT_BOUNDARY",
          "type_id": 0
        }
      },
      {
        "Sequence": {
          "id": "A",
          "type_id": 0
        }
      }
    ],
    "pair": [
      {
        "SpecialToken": {
          "id": "UTT_BOUNDARY",
          "type_id": 0
        }
      },
      {
        "Sequence": {
          "id": "A",
          "type_id": 0
        }
      },
      {
        "SpecialToken": {
          "id": "UTT_BOUNDARY",
          "type_id": 1
        }
      },
      {
        "Sequence": {
          "id": "B",
          "type_id": 1
        }
      }
    ],
    "special_tokens": {
      "UTT_BOUNDARY": {
        "id": "UTT_BOUNDARY",
        "ids": [
          2
        ],
        "tokens": [
          "UTT_BOUNDARY"
        ]
      }
    }
  },
  "decoder": {
    "type": "ByteLevel",
    "add_prefix_space": true,
    "trim_offsets": true,
    "use_regex": true
  },
  "model": {
    "type": "BPE",
    "dropout": null,
    "unk_token": "UNK",
    "continuing_subword_prefix": null,
    "end_of_word_suffix": null,
    "fuse_unk": false,
    "byte_fallback": false,
    "ignore_merges": false,
    "vocab": {
      "PAD": 0,
      "UNK": 1,
      "UTT_BOUNDARY": 2,
      "!": 3,
      "\"": 4,
      "#": 5,
      "$": 6,
      "%": 7,
      "&": 8,
      "'": 9,
      "(": 10,
      ")": 11,
      "*": 12,
      "+": 13,
      ",": 14,
      "-": 15,
      ".": 16,
      "/": 17,
      "0": 18,
      "1": 19,
      "2": 20,
      "3": 21,
      "4": 22,
      "5": 23,
      "6": 24,
      "7": 25,
      "8": 26,
      "9": 27,
      ":": 28,
      ";": 29,
      "=": 30,
      "?": 31,
      "@": 32,
      "[": 33,
      "\\": 34,
      "]": 35,
      "^": 36,
      "_": 37,
      "`": 38,
      "a": 39,
      "b": 40,
      "c": 41,
      "d": 42,
      "e": 43,
      "f": 44,
      "g": 45,
      "h": 46,
      "i": 47,
      "j": 48,
      "k": 49,
      "l": 50,
      "m": 51,
      "n": 52,
      "o": 53,
      "p": 54,
      "q": 55,
      "r": 56,
      "s": 57,
      "t": 58,
      "u": 59,
      "v": 60,
      "w": 61,
      "x": 62,
      "y": 63,
      "z": 64,
      "{": 65,
      "|": 66,
      "}": 67,
      "~": 68,
      "¡": 69,
      "¢": 70,
      "£": 71,
      "¤": 72,
      "¥": 73,
      "¦": 74,
      "§": 75,
      "¨": 76,
      "©": 77,
      "ª": 78,
      "«": 79,
      "¬": 80,
      "®": 81,
      "¯": 82,
      "°": 83,
      "±": 84,
      "²": 85,
      "³": 86,
      "´": 87,
      "µ": 88,
      "¶": 89,
      "·": 90,
      "¸": 91,
      "¹": 92,
      "º": 93,
      "»": 94,
      "¼": 95,
      "½": 96,
      "¾": 97,
      "¿": 98,
      "Â": 99,
      "Ã": 100,
      "Ä": 101,
      "Å": 102,
      "Æ": 103,
      "Ç": 104,
      "È": 105,
      "É": 106,
      "Ê": 107,
      "Ë": 108,
      "Ì": 109,
      "Ø": 110,
      "Ù": 111,
      "Û": 112,
      "à": 113,
      "á": 114,
      "â": 115,
      "ã": 116,
      "ï": 117,
      "ô": 118,
      "ĉ": 119,
      "Ġ": 120,
      "ġ": 121,
      "Ģ": 122,
      "ģ": 123,
      "Ĥ": 124,
      "ĥ": 125,
      "Ħ": 126,
      "ħ": 127,
      "Ĩ": 128,
      "ĩ": 129,
      "Ī": 130,
      "ī": 131,
      "Ĭ": 132,
      "ĭ": 133,
      "Į": 134,
      "į": 135,
      "İ": 136,
      "ı": 137,
      "Ĳ": 138,
      "ĳ": 139,
      "Ĵ": 140,
      "ĵ": 141,
      "Ķ": 142,
      "ķ": 143,
      "ĸ": 144,
      "Ĺ": 145,
      "ĺ": 146,
      "Ļ": 147,
      "ļ": 148,
      "Ľ": 149,
      "ľ": 150,
      "Ŀ": 151,
      "ŀ": 152,
      "Ł": 153,
      "ł": 154,
      "Ń": 155,
      "Ġt": 156,
      "he": 157,
      "Ġa": 158,
      "in": 159,
      "Ġw": 160,
      "Ġthe": 161,
      "Ġs": 162,
      "Ġ*": 163,
      "ou": 164,
      "re": 165,
      "Ġi": 166,
      "ha": 167,
      "Ġo": 168,
      "Ġb": 169,
      "ot": 170,
      "hi": 171,
      "Ġm": 172,
      "er": 173,
      "Ġc": 174,
      "nd": 175,
      "Ġd": 176,
      "Ġy": 177,
      "Ġf": 178,
      "on": 179,
      "ing": 180,
      "mot": 181,
      "Ġto": 182,
      "ll": 183,
      "Ġp": 184,
      "Ġyou": 185,
      "Ġg": 186,
      "an": 187,
      "Ġl": 188,
      "es": 189,
      "or": 190,
      "ed": 191,
      "hat": 192,
      "en": 193,
      "Ġn": 194,
      "Ġand": 195,
      "it": 196,
      "ar": 197,
      "chi": 198,
      "at": 199,
      "Ġin": 200,
      "Ġof": 201,
      "Ġhe": 202,
      "as": 203,
      "om": 204,
      "Ġit": 205,
      "ow": 206,
      "'s": 207,
      "Ġha": 208,
      "le": 209,
      "st": 210,
      "ve": 211,
      "ay": 212,
      "Ġon": 213,
      "Ġthat": 214,
      "et": 215,
      "ri": 216,
      "gh": 217,
      "Ġbe": 218,
      "Ġwe": 219,
      "Ġe": 220,
      "se": 221,
      "Ġu": 222,
      "Ġis": 223,
      "ld": 224,
      "his": 225,
      "id": 226,
      "al": 227,
      "oo": 228,
      "ut": 229,
      "ic": 230,
      "Ġwas": 231,
      "Ġk": 232,
      "Ġre": 233,
      "ad": 234,
      "ac": 235,
      "'t": 236,
      "Ġ=": 237,
      "Ġst": 238,
      "ver": 239,
      "Ġh": 240,
      "Ġth": 241,
      "Ġfor": 242,
      "is": 243,
      "ro": 244,
      "..": 245,
      "Ġdo": 246,
      "ke": 247,
      "ght": 248,
      "ch": 249,
      "ly": 250,
      "am": 251,
      "ent": 252,
      "ion": 253,
      "Ġj": 254,
      "ir": 255,
      "out": 256,
      "Ġme": 257,
      "Ġan": 258,
      "Ġ\"": 259,
      "ith": 260,
      "Ġli": 261,
      "ea": 262,
      "Ġgo": 263,
      "Ġwith": 264,
      "Ġse": 265,
      "her": 266,
      "all": 267,
      "ome": 268,
      "Ġas": 269,
      "Ġ[": 270,
      "and": 271,
      "Ġat": 272,
      "Ġthis": 273,
      "Ġnot": 274,
      "âĢ": 275,
      "ur": 276,
      "ould": 277,
      "Ġhave": 278,
      "Ġwhat": 279,
      "ce": 280,
      "Ġshe": 281,
      "ter": 282,
      "Ġkn": 283,
      "Ġthey": 284,
      "Ġ-": 285,
      "ill": 286,
      "Ġare": 287,
      "Ġhi": 288,
      "Ġso": 289,
      "Ġr": 290,
      "ct": 291,
      "Ġthere": 292,
      "ust": 293,
      "im": 294,
      "ant": 295,
      "ook": 296,
      "ho": 297,
      "un": 298,
      "Ġne": 299,
      "Ġone": 300,
      "Ġdon": 301,
      "Ġhis": 302,
      "Ġno": 303,
      "Ġyour": 304,
      "Ġbut": 305,
      "Ġknow": 306,
      "Ġcan": 307,
      "xx": 308,
      "Ġher": 309,
      "um": 310,
      "au": 311,
      "il": 312,
      "Ġfr": 313,
      "ain": 314,
      "Ġup": 315,
      "eah": 316,
      "Ġmy": 317,
      "here": 318,
      "Ġall": 319,
      "...": 320,
      "Ġde": 321,
      "Ġmo": 322,
      "pp": 323,
      "Ġhad": 324,
      "ck": 325,
      "ab": 326,
      "ie": 327,
      "ge": 328,
      "Ġlike": 329,
      "us": 330,
      "our": 331,
      "Ġal": 332,
      "Ġ1": 333,
      "ell": 334,
      "oh": 335,
      "Ġsa": 336,
      "ĠĠ": 337,
      "Ġab": 338,
      "Ġri": 339,
      "art": 340,
      "ood": 341,
      "ack": 342,
      "op": 343,
      "Ġout": 344,
      "Ġhim": 345,
      "Ġpl": 346,
      "Ġget": 347,
      "ink": 348,
      "ake": 349,
      "th": 350,
      "ry": 351,
      "Ġsu": 352,
      "Ġfrom": 353,
      "'re": 354,
      "ol": 355,
      "you": 356,
      "Ġv": 357,
      "Ġdid": 358,
      "han": 359,
      "ess": 360,
      "qu": 361,
      "very": 362,
      "red": 363,
      "ight": 364,
      "hen": 365,
      "ra": 366,
      "Ġor": 367,
      "Ġsee": 368,
      "ation": 369,
      "one": 370,
      "Ġby": 371,
      "ers": 372,
      "ul": 373,
      "what": 374,
      "'m": 375,
      "est": 376,
      "no": 377,
      "Ġwere": 378,
      "na": 379,
      "ig": 380,
      "Ġcom": 381,
      "fat": 382,
      "Ġjust": 383,
      "Ġsh": 384,
      "Ġif": 385,
      "Ġsome": 386,
      "ame": 387,
      "ound": 388,
      "ind": 389,
      "Ġsp": 390,
      "Ġwhi": 391,
      "Ġ2": 392,
      "el": 393,
      "res": 394,
      "Ġlook": 395,
      "Ġhere": 396,
      "Ġthem": 397,
      "itt": 398,
      "Ġwor": 399,
      "Ġbo": 400,
      "ard": 401,
      "Ġabout": 402,
      "Ġthink": 403,
      "Ġgot": 404,
      "Ġcon": 405,
      "ally": 406,
      "nt": 407,
      "own": 408,
      "ak": 409,
      "Ġwant": 410,
      "inv": 411,
      "yeah": 412,
      "fe": 413,
      "ast": 414,
      "ong": 415,
      "ive": 416,
      "Ġthen": 417,
      "Ġwould": 418,
      "ap": 419,
      "].": 420,
      "Ġwhen": 421,
      "Ġnow": 422,
      "Ġwho": 423,
      "Ġdi": 424,
      "Ġex": 425,
      "ate": 426,
      "'ll": 427,
      "Ġman": 428,
      "Ġ(": 429,
      "Ġsaid": 430,
      "os": 431,
      "ĠâĢ": 432,
      "Ġany": 433,
      "Ġright": 434,
      "Ġer": 435,
      "Ġro": 436,
      "Ġpro": 437,
      "xxx": 438,
      "Ġwill": 439,
      "ven": 440,
      "em": 441,
      "kay": 442,
      "ort": 443,
      "Ġtw": 444,
      "Ġtim": 445,
      "ber": 446,
      "Ġlo": 447,
      "--": 448,
      "Ġus": 449,
      "ough": 450,
      "Ġar": 451,
      "Ġsay": 452,
      "ep": 453,
      "Ġwell": 454,
      "ag": 455,
      "are": 456,
      "Ġcl": 457,
      "that": 458,
      "Ġgood": 459,
      "Ġag": 460,
      "hing": 461,
      "Ġam": 462,
      "Ġle": 463,
      "ine": 464,
      "ice": 465,
      "Ġint": 466,
      ".\"": 467,
      "the": 468,
      "other": 469,
      "ore": 470,
      "ittle": 471,
      "we": 472,
      "ous": 473,
      "Ġchi": 474,
      "hy": 475,
      "Ġtr": 476,
      "ies": 477,
      "ther": 478,
      "Ġhow": 479,
      "Ġback": 480,
      "Ġfe": 481,
      "Ġlittle": 482,
      "Ġdown": 483,
      "Ġ20": 484,
      "Ġbr": 485,
      "Ġco": 486,
      "ft": 487,
      "Ġput": 488,
      "uh": 489,
      "Ġtime": 490,
      "ause": 491,
      "Ġcould": 492,
      "Ġcome": 493,
      "Ġgoing": 494,
      "way": 495,
      "Ġbeen": 496,
      "ick": 497,
      "Ġover": 498,
      "'ve": 499,
      "Ġaf": 500,
      "Ġpe": 501,
      "Ġqu": 502,
      "Ġun": 503,
      "Ġoff": 504,
      "Ġhas": 505,
      "Ġmore": 506,
      "Ġ19": 507,
      "dy": 508,
      "Ġvery": 509,
      "ex": 510,
      "Ġgr": 511,
      "Ġyeah": 512,
      "Ġwhich": 513,
      "ity": 514,
      "ist": 515,
      "lf": 516,
      "ĠâĢľ": 517,
      "ace": 518,
      "Ġtoo": 519,
      "so": 520,
      "Ġbl": 521,
      "ree": 522,
      "âĢĻ": 523,
      "ide": 524,
      "Ġtwo": 525,
      "Ġcha": 526,
      "Ġthan": 527,
      "Ġother": 528,
      "end": 529,
      "my": 530,
      "cause": 531,
      "Ġtheir": 532,
      "Ġplay": 533,
      "âĢĿ": 534,
      "Ġen": 535,
      "Ġoh": 536,
      "ĠĠĠĠ": 537,
      "ose": 538,
      "yes": 539,
      ",\"": 540,
      "Ġthing": 541,
      "ment": 542,
      "Ġlet": 543,
      "Ġwhere": 544,
      "Ġxxx": 545,
      "ure": 546,
      "reat": 547,
      "alk": 548,
      "Ġ'": 549,
      "ars": 550,
      "exp": 551,
      "Ġpo": 552,
      "onna": 553,
      "par": 554,
      "ase": 555,
      "urn": 556,
      "orn": 557,
      "omet": 558,
      "ish": 559,
      "ud": 560,
      "iss": 561,
      "age": 562,
      "ought": 563,
      "Ġgonna": 564,
      "uck": 565,
      "Ġfl": 566,
      "pe": 567,
      "nder": 568,
      "ps": 569,
      "ian": 570,
      "hed": 571,
      "Ġagain": 572,
      "do": 573,
      "ite": 574,
      "be": 575,
      "if": 576,
      "Ġinto": 577,
      "Ġyes": 578,
      "Ġmake": 579,
      "Ġsc": 580,
      "ople": 581,
      "Ġway": 582,
      "Ġtake": 583,
      "Ġafter": 584,
      "Ġfir": 585,
      "Ġsomet": 586,
      "ue": 587,
      "Ġdoes": 588,
      "Ġpeople": 589,
      "Ġmar": 590,
      "ount": 591,
      "ble": 592,
      "ass": 593,
      "ia": 594,
      "pt": 595,
      "Ġwork": 596,
      "Ġcar": 597,
      "ving": 598,
      "ade": 599,
      "Ġtell": 600,
      "pl": 601,
      "Ġfirst": 602,
      "ma": 603,
      "bo": 604,
      "Ġpart": 605,
      "ves": 606,
      "act": 607,
      "ved": 608,
      "Ġday": 609,
      "okay": 610,
      "Ġmu": 611,
      "ff": 612,
      "Ġmr": 613,
      "ater": 614,
      "Ġevery": 615,
      "Ġmean": 616,
      "Ġgu": 617,
      "Ġcall": 618,
      "ary": 619,
      "Ġmay": 620,
      "Ġneed": 621,
      "per": 622,
      "Ġte": 623,
      "Ġad": 624,
      "les": 625,
      "ren": 626,
      "Ġhand": 627,
      "Ġbet": 628,
      "Ġnew": 629,
      "Ġour": 630,
      "self": 631,
      "Ġye": 632,
      "Ġsha": 633,
      "Ġshould": 634,
      "ress": 635,
      "where": 636,
      "co": 637,
      "Ġpre": 638,
      "wn": 639,
      "ah": 640,
      "ang": 641,
      "te": 642,
      "right": 643,
      "Ġthese": 644,
      "ull": 645,
      "there": 646,
      "ty": 647,
      "augh": 648,
      "Ġonly": 649,
      "int": 650,
      "Ġac": 651,
      "Ġfo": 652,
      "ord": 653,
      "Ġreally": 654,
      "day": 655,
      "Ġthr": 656,
      "fore": 657,
      "Ġboy": 658,
      "ci": 659,
      "Ġdidn": 660,
      "Ġmuch": 661,
      "Ġwhy": 662,
      "Ġbecause": 663,
      "able": 664,
      "ather": 665,
      "ady": 666,
      "hm": 667,
      "Ġpr": 668,
      "Ġho": 669,
      "cl": 670,
      "ach": 671,
      "Ġsomething": 672,
      "Ġch": 673,
      "de": 674,
      "Ġsm": 675,
      "thing": 676,
      "Ġokay": 677,
      "ance": 678,
      "ool": 679,
      "Ġdis": 680,
      "Ġper": 681,
      "but": 682,
      "mp": 683,
      "Ġhapp": 684,
      "ting": 685,
      "irl": 686,
      "anna": 687,
      "ouse": 688,
      "Ġmade": 689,
      "Ġchild": 690,
      "well": 691,
      "Ġact": 692,
      "Ġlong": 693,
      "Ġbefore": 694,
      "iz": 695,
      "Ġhel": 696,
      "av": 697,
      "Ġwr": 698,
      "get": 699,
      "Ġtalk": 700,
      "ru": 701,
      "ise": 702,
      "ated": 703,
      "Ġunder": 704,
      "Ġjo": 705,
      "Ġcomp": 706,
      "Ġrem": 707,
      "Ġhar": 708,
      "Ġgirl": 709,
      "Ġbig": 710,
      "man": 711,
      "ne": 712,
      "ory": 713,
      "Ġaway": 714,
      "Ġbu": 715,
      "Ġthree": 716,
      "?\"": 717,
      "hes": 718,
      "add": 719,
      "Ġnever": 720,
      "Ġwent": 721,
      "ward": 722,
      "'d": 723,
      "Ġgreat": 724,
      "li": 725,
      "can": 726,
      "Ġthose": 727,
      "ire": 728,
      "ks": 729,
      "Ġeven": 730,
      "ions": 731,
      "Ġold": 732,
      "Ġcount": 733,
      "ence": 734,
      "gg": 735,
      "Ġwanna": 736,
      "Ġke": 737,
      ".]": 738,
      "Ġdoing": 739,
      "Ġple": 740,
      "Ġalso": 741,
      "Ġapp": 742,
      "Ġturn": 743,
      "Ġlea": 744,
      "Ġmom": 745,
      "let": 746,
      "Ġmin": 747,
      "atch": 748,
      "ffe": 749,
      "Ġhome": 750,
      "ens": 751,
      "Ġcont": 752,
      "bl": 753,
      "Ġbab": 754,
      "Ġthought": 755,
      "Ġask": 756,
      "ful": 757,
      "Ġhouse": 758,
      "Ġbook": 759,
      "Ġser": 760,
      "Ġcame": 761,
      "Ġerm": 762,
      "laugh": 763,
      "Ġgive": 764,
      "Ġthings": 765,
      "ix": 766,
      "riend": 767,
      "look": 768,
      "mo": 769,
      "ect": 770,
      "Ġcomm": 771,
      "Ġ%": 772,
      "Ġ201": 773,
      "Ġlove": 774,
      "¿½": 775,
      "ï¿½": 776,
      "Ġche": 777,
      "Ġmust": 778,
      "Ġhead": 779,
      "Ġwa": 780,
      "Ġmany": 781,
      "Ġcr": 782,
      "Ġbit": 783,
      "Ġanother": 784,
      "00": 785,
      "ons": 786,
      "ors": 787,
      "Ġfind": 788,
      "ings": 789,
      "ried": 790,
      "Ġstart": 791,
      "Ġstill": 792,
      "Ġthrough": 793,
      "come": 794,
      "Ġmiss": 795,
      "ans": 796,
      "Ġel": 797,
      "Ġtry": 798,
      "Ġhelp": 799,
      "Ġlast": 800,
      "Ġdone": 801,
      "Ġres": 802,
      "bro": 803,
      "sis": 804,
      "Ġshow": 805,
      "Ġchan": 806,
      "Ġmother": 807,
      "Ġ.": 808,
      "aking": 809,
      "ss": 810,
      "Ġeat": 811,
      "Ġbel": 812,
      "Ġname": 813,
      "up": 814,
      "Ġsl": 815,
      "ily": 816,
      "Ġsch": 817,
      "ious": 818,
      "Ġuh": 819,
      "ath": 820,
      "ys": 821,
      "aw": 822,
      "ms": 823,
      "Ġwon": 824,
      "Ġdad": 825,
      "Ġmost": 826,
      "air": 827,
      "Ġnight": 828,
      "land": 829,
      "now": 830,
      "mm": 831,
      "tain": 832,
      "akes": 833,
      "Ġmight": 834,
      "gma": 835,
      "Ġmon": 836,
      "ple": 837,
      "ign": 838,
      "Ġind": 839,
      "ened": 840,
      "ling": 841,
      "Ġlot": 842,
      "ww": 843,
      "als": 844,
      "Ġfound": 845,
      "Ġsec": 846,
      "Ġop": 847,
      "ates": 848,
      "Ġits": 849,
      "âĻ": 850,
      "ict": 851,
      "ock": 852,
      "Ġkind": 853,
      "Ġpol": 854,
      "Ġbot": 855,
      "ually": 856,
      "not": 857,
      "Ġgl": 858,
      "laughs": 859,
      "Ġcare": 860,
      "ummy": 861,
      "bab": 862,
      "Ġbaby": 863,
      "Ġdr": 864,
      "ark": 865,
      "ng": 866,
      "Ġchar": 867,
      "ail": 868,
      "Ġsure": 869,
      "âĻª": 870,
      "Ġlife": 871,
      "Ġdes": 872,
      "oney": 873,
      "Ġfriend": 874,
      "Ġcol": 875,
      "Ġcour": 876,
      "Ġkeep": 877,
      "body": 878,
      "Ġfeel": 879,
      "unn": 880,
      "Ġpres": 881,
      "Ġsuch": 882,
      "Ġown": 883,
      "side": 884,
      "Ġend": 885,
      "Ġsw": 886,
      "ye": 887,
      "Ġbetter": 888,
      ".âĢĿ": 889,
      "Ġfour": 890,
      "Ġcalled": 891,
      "ited": 892,
      "Ġatt": 893,
      "Ġaround": 894,
      "Ġsho": 895,
      "Ġlooks": 896,
      "ĠĠĠĠĠĠĠĠ": 897,
      "Ġused": 898,
      "orm": 899,
      "rent": 900,
      "Ġschool": 901,
      "Ġwhile": 902,
      "Ġpri": 903,
      "huh": 904,
      "Ġsit": 905,
      "how": 906,
      "ds": 907,
      "Ġfin": 908,
      "Ġisn": 909,
      "Ġyears": 910,
      "Ġmat": 911,
      "Ġbeing": 912,
      "Ġed": 913,
      "ces": 914,
      "Ġplease": 915,
      "ember": 916,
      "Ġanything": 917,
      "Ġwar": 918,
      "Ġplace": 919,
      "Ġgi": 920,
      "Ġstr": 921,
      "she": 922,
      "me": 923,
      "Ġnice": 924,
      "orry": 925,
      "Ġwater": 926,
      "Ġbre": 927,
      "Ġsame": 928,
      "Ġdist": 929,
      "ĠâĻª": 930,
      "gr": 931,
      "Ġfar": 932,
      "Ġrep": 933,
      "rest": 934,
      "uc": 935,
      "Ġfather": 936,
      "mch": 937,
      "ways": 938,
      "Ġsupp": 939,
      "this": 940,
      "ince": 941,
      "xt": 942,
      "oun": 943,
      "go": 944,
      "eric": 945,
      "Ġtri": 946,
      "ip": 947,
      "Ġcle": 948,
      "ction": 949,
      "Ġimp": 950,
      "to": 951,
      "der": 952,
      "nan": 953,
      "Ġball": 954,
      "Ġvo": 955,
      "vers": 956,
      "Ġnext": 957,
      "Ġroom": 958,
      "Ġdoesn": 959,
      "Ġ3": 960,
      "Ġma": 961,
      "cha": 962,
      "Ġthank": 963,
      "Ġmot": 964,
      "ank": 965,
      "Ġset": 966,
      "ta": 967,
      "ations": 968,
      "ute": 969,
      "ild": 970,
      "they": 971,
      "Ġtold": 972,
      "Ġacc": 973,
      "Ġcap": 974,
      "Ġele": 975,
      "inn": 976,
      "row": 977,
      "dad": 978,
      "ical": 979,
      "und": 980,
      "ave": 981,
      "Ġelse": 982,
      "Ġpoint": 983,
      "ition": 984,
      "Ġbus": 985,
      "Ġalways": 986,
      "arly": 987,
      "Ġeng": 988,
      "Ġleft": 989,
      "Ġwait": 990,
      "ts": 991,
      "oss": 992,
      "ung": 993,
      "ub": 994,
      "Ġworld": 995,
      "Ġmen": 996,
      "who": 997,
      "Ġwee": 998,
      "vel": 999,
      "ied": 1000,
      "aught": 1001,
      "mer": 1002,
      "don": 1003,
      "Ġbeg": 1004,
      "why": 1005,
      "Ġfam": 1006,
      "mber": 1007,
      "outh": 1008,
      "Ġhold": 1009,
      "Ġshi": 1010,
      "ream": 1011,
      "Ġunt": 1012,
      "Ġsorry": 1013,
      "Ġdiffe": 1014,
      "Ġair": 1015,
      "Ġlist": 1016,
      "med": 1017,
      "Ġread": 1018,
      "iv": 1019,
      "mhm": 1020,
      "Ġameric": 1021,
      "ness": 1022,
      "Ġspe": 1023,
      "Ġpret": 1024,
      "!\"": 1025,
      "Ġreg": 1026,
      "Ġ200": 1027,
      "Ġwom": 1028,
      "og": 1029,
      "Ġ_": 1030,
      "Ġuse": 1031,
      "ohn": 1032,
      "ph": 1033,
      "Ġface": 1034,
      "Ġpers": 1035,
      "Ġsaw": 1036,
      "Ġnor": 1037,
      "Ġrec": 1038,
      "Ġmoney": 1039,
      "ever": 1040,
      "Ġwalk": 1041,
      "Ġquite": 1042,
      "Ġhard": 1043,
      "Ġinter": 1044,
      "cc": 1045,
      "Ġtook": 1046,
      "Ġsur": 1047,
      "Ġdra": 1048,
      "Ġnothing": 1049,
      "Ġgre": 1050,
      "Ġbed": 1051,
      "Ġstand": 1052,
      ",âĢĿ": 1053,
      "Ġgone": 1054,
      "Ġtom": 1055,
      "pped": 1056,
      "Ġter": 1057,
      "Ġob": 1058,
      "ident": 1059,
      "Ġbro": 1060,
      "Ġum": 1061,
      "Ġthough": 1062,
      "ger": 1063,
      "Ġbest": 1064,
      "Ġfive": 1065,
      "leep": 1066,
      "Ġ202": 1067,
      "Ġenough": 1068,
      "ows": 1069,
      "Ġuntil": 1070,
      "Ġhey": 1071,
      "Ġever": 1072,
      "cle": 1073,
      "Ġste": 1074,
      "Ġbox": 1075,
      "Ġnum": 1076,
      "Ġtoday": 1077,
      "Ġlight": 1078,
      "Ġbri": 1079,
      "ane": 1080,
      "\".": 1081,
      "Ġyoung": 1082,
      "Ġsing": 1083,
      "Ġkne": 1084,
      "Ġstay": 1085,
      "Ġstop": 1086,
      "Ġreal": 1087,
      "ile": 1088,
      "Ġopen": 1089,
      "Ġthi": 1090,
      "Ġcoming": 1091,
      "----": 1092,
      "cond": 1093,
      "Ġgod": 1094,
      "Ġhear": 1095,
      "ished": 1096,
      "Ġgoes": 1097,
      "ins": 1098,
      "Ġgen": 1099,
      "Ġsays": 1100,
      "anc": 1101,
      "Ġcity": 1102,
      "Ġyear": 1103,
      "Ġdoor": 1104,
      "Ġmrs": 1105,
      "br": 1106,
      "ton": 1107,
      "Ġz": 1108,
      "ug": 1109,
      "Ġmag": 1110,
      "Ġpap": 1111,
      "Ġcourse": 1112,
      "amp": 1113,
      "ult": 1114,
      "Ġret": 1115,
      "Ġpass": 1116,
      "Ġmil": 1117,
      "Ġyet": 1118,
      "Ġmorn": 1119,
      "Ġred": 1120,
      "ret": 1121,
      "gether": 1122,
      "ject": 1123,
      "cal": 1124,
      "Ġside": 1125,
      "Ġmus": 1126,
      "vent": 1127,
      "Ġsecond": 1128,
      "Ġhur": 1129,
      "Ġmm": 1130,
      "eak": 1131,
      "ris": 1132,
      "tea": 1133,
      "pect": 1134,
      "Ġpu": 1135,
      "led": 1136,
      "arn": 1137,
      "Ġeyes": 1138,
      "Ġ18": 1139,
      "Ġknown": 1140,
      "Ġent": 1141,
      "Ġrel": 1142,
      "Ġbelie": 1143,
      "Ġfew": 1144,
      "Ġonce": 1145,
      "az": 1146,
      "Ġsix": 1147,
      "Ġchildren": 1148,
      "Ġjohn": 1149,
      "ible": 1150,
      "Ġwind": 1151,
      "ason": 1152,
      "io": 1153,
      "urs": 1154,
      "ope": 1155,
      "Ġfall": 1156,
      "Ġmorning": 1157,
      "ational": 1158,
      "Ġpick": 1159,
      "Ġasked": 1160,
      "Ġhigh": 1161,
      "ump": 1162,
      "llo": 1163,
      "Ġsir": 1164,
      "Ġfoot": 1165,
      "Ġid": 1166,
      "Ġseen": 1167,
      "llow": 1168,
      "Ġbir": 1169,
      "Ġupon": 1170,
      "Ġkill": 1171,
      "did": 1172,
      "ball": 1173,
      "Ġchair": 1174,
      "Ġleave": 1175,
      "Ġfell": 1176,
      "ames": 1177,
      "Ġdear": 1178,
      "fta": 1179,
      "Ġremember": 1180,
      "Ġdep": 1181,
      "Ġdifferent": 1182,
      "Ġwo": 1183,
      "ross": 1184,
      "Ġem": 1185,
      "Ġsil": 1186,
      "tle": 1187,
      "Ġdaddy": 1188,
      "ower": 1189,
      "Ġboth": 1190,
      "ba": 1191,
      "Ġlooking": 1192,
      "Ġlar": 1193,
      "Ġhands": 1194,
      "Ġmind": 1195,
      "Ġtogether": 1196,
      "ters": 1197,
      "Ġsound": 1198,
      "vie": 1199,
      "Ġinst": 1200,
      "ased": 1201,
      "ef": 1202,
      "Ġeach": 1203,
      "uring": 1204,
      "Ġwatch": 1205,
      "uff": 1206,
      "Ġcent": 1207,
      "rist": 1208,
      "Ġround": 1209,
      "ont": 1210,
      "Ġlater": 1211,
      "Ġgetting": 1212,
      "Ġhafta": 1213,
      "ween": 1214,
      "Ġstate": 1215,
      ").": 1216,
      "ired": 1217,
      "Ġcons": 1218,
      "Ġsmall": 1219,
      "ten": 1220,
      "Ġrest": 1221,
      "child": 1222,
      "ures": 1223,
      "Ġblack": 1224,
      "Ġbad": 1225,
      "Ġcounty": 1226,
      "ines": 1227,
      "Ġbetween": 1228,
      "Ġwithout": 1229,
      "less": 1230,
      "Ġben": 1231,
      "ial": 1232,
      "Ġheart": 1233,
      "Ġrun": 1234,
      "ister": 1235,
      "Ġanim": 1236,
      "Ġhimself": 1237,
      "most": 1238,
      "Ġeverything": 1239,
      "Ġpie": 1240,
      "Ġap": 1241,
      "Ġhaving": 1242,
      "Ġhalf": 1243,
      "Ġgrand": 1244,
      "Ġperson": 1245,
      "Ġsk": 1246,
      "Ġdar": 1247,
      "stand": 1248,
      "Ġdri": 1249,
      "ating": 1250,
      "Ġdire": 1251,
      "Ġmaybe": 1252,
      "ange": 1253,
      "Ġcat": 1254,
      "Ġsleep": 1255,
      "Ġsince": 1256,
      "Ġtop": 1257,
      "ush": 1258,
      "Ġheard": 1259,
      "ctor": 1260,
      "Ġsoon": 1261,
      "fch": 1262,
      "Ġtable": 1263,
      "lly": 1264,
      "une": 1265,
      "Ġagainst": 1266,
      "Ġla": 1267,
      "Ġpar": 1268,
      "vis": 1269,
      "Ġshall": 1270,
      "Ġamerican": 1271,
      "enn": 1272,
      "Ġmove": 1273,
      "Ġtown": 1274,
      "by": 1275,
      "aster": 1276,
      "Ġ4": 1277,
      "son": 1278,
      "put": 1279,
      "Ġfire": 1280,
      "Ġpat": 1281,
      "Ġdec": 1282,
      "Ġmet": 1283,
      "Ġmaking": 1284,
      "Ġnoise": 1285,
      "Ġfollow": 1286,
      "Ġï¿½": 1287,
      "ork": 1288,
      "Ġdied": 1289,
      "Ġsort": 1290,
      "its": 1291,
      "ready": 1292,
      "gra": 1293,
      "Ġhor": 1294,
      "Ġsy": 1295,
      "Ġknew": 1296,
      "den": 1297,
      "Ġinte": 1298,
      "Ġmoment": 1299,
      "Ġhaven": 1300,
      "ama": 1301,
      "Ġger": 1302,
      "good": 1303,
      "Ġpretty": 1304,
      "Ġmeet": 1305,
      "Ġfamily": 1306,
      "Ġbar": 1307,
      "ertain": 1308,
      "Ġlooked": 1309,
      "Ġwanted": 1310,
      "Ġhappened": 1311,
      "form": 1312,
      "Ġtalking": 1313,
      "ale": 1314,
      "ries": 1315,
      "ann": 1316,
      "Ġass": 1317,
      "Ġlive": 1318,
      "Ġpop": 1319,
      "Ġinv": 1320,
      "ared": 1321,
      "Ġactually": 1322,
      "Ġ5": 1323,
      "Ġsub": 1324,
      "Ġ199": 1325,
      "Ġnumber": 1326,
      "Ġstates": 1327,
      "cept": 1328,
      "Ġexc": 1329,
      "Ġans": 1330,
      "Ġdog": 1331,
      "Ġunited": 1332,
      "ets": 1333,
      "aut": 1334,
      "Ġph": 1335,
      "Ġpay": 1336,
      "ĠâĢĵ": 1337,
      "Ġduring": 1338,
      "Ġgame": 1339,
      "\",": 1340,
      "ched": 1341,
      "unny": 1342,
      "ged": 1343,
      "Ġborn": 1344,
      "ches": 1345,
      "rew": 1346,
      "Ġcut": 1347,
      "Ġready": 1348,
      "Ġhour": 1349,
      "Ġstory": 1350,
      "Ġsat": 1351,
      "sha": 1352,
      "Ġbec": 1353,
      "Ġtra": 1354,
      "Ġinterest": 1355,
      "key": 1356,
      "Ġdays": 1357,
      "Ġteam": 1358,
      "Ġadd": 1359,
      "Ġah": 1360,
      "unt": 1361,
      "Ġspo": 1362,
      "Ġkid": 1363,
      "Ġthir": 1364,
      "Ġbring": 1365,
      "Ġflo": 1366,
      "osed": 1367,
      "wards": 1368,
      "Ġquest": 1369,
      "Ġcoll": 1370,
      "Ġbreak": 1371,
      "ises": 1372,
      "),": 1373,
      "Ġswe": 1374,
      "cial": 1375,
      "Ġbelieve": 1376,
      "Ġpict": 1377,
      "col": 1378,
      "Ġgave": 1379,
      "Ġboys": 1380,
      "Ġfood": 1381,
      "een": 1382,
      "see": 1383,
      "www": 1384,
      "Ġ,": 1385,
      "iness": 1386,
      "Ġju": 1387,
      "ib": 1388,
      "Ġeight": 1389,
      "sh": 1390,
      "clud": 1391,
      "ier": 1392,
      "Ġhat": 1393,
      "sel": 1394,
      "Ġtrain": 1395,
      "iet": 1396,
      "po": 1397,
      "Ġsqu": 1398,
      "Ġnat": 1399,
      "Ġsim": 1400,
      "unk": 1401,
      "Ġfact": 1402,
      "Ġnorth": 1403,
      "bably": 1404,
      "jo": 1405,
      "Ġson": 1406,
      "ced": 1407,
      "Ġwhite": 1408,
      "Ġhot": 1409,
      "Ġfull": 1410,
      "Ġalong": 1411,
      "Ġexp": 1412,
      "uss": 1413,
      "Ġspeak": 1414,
      "cted": 1415,
      "Ġtrying": 1416,
      "Ġdistri": 1417,
      "Ġgener": 1418,
      "any": 1419,
      "Ġbrother": 1420,
      "ster": 1421,
      "ash": 1422,
      "Ġpaper": 1423,
      "than": 1424,
      "Ġland": 1425,
      "Ġmatter": 1426,
      "ual": 1427,
      "Ġwhole": 1428,
      "vern": 1429,
      "Ġchrist": 1430,
      "Ġwhe": 1431,
      "Ġwasn": 1432,
      "Ġjob": 1433,
      "Ġwi": 1434,
      "Ġking": 1435,
      "Ġparty": 1436,
      "aul": 1437,
      "Ġalmost": 1438,
      "Ġunderstand": 1439,
      "ither": 1440,
      "Ġjack": 1441,
      "Ġbuild": 1442,
      "Ġlaugh": 1443,
      "Ġlady": 1444,
      "Ġbom": 1445,
      "enty": 1446,
      "kes": 1447,
      "Ġalready": 1448,
      "hip": 1449,
      "Ġwoman": 1450,
      "Ġcho": 1451,
      "orrow": 1452,
      "ular": 1453,
      "uth": 1454,
      "Ġprobably": 1455,
      "Ġclose": 1456,
      "ding": 1457,
      "Ġwonder": 1458,
      "Ġge": 1459,
      "Ġconf": 1460,
      "ted": 1461,
      "ient": 1462,
      "Ġtimes": 1463,
      "igh": 1464,
      "Ġcomes": 1465,
      "ants": 1466,
      "mb": 1467,
      "ined": 1468,
      "Ġdarling": 1469,
      "Ġref": 1470,
      "els": 1471,
      "Ġten": 1472,
      "app": 1473,
      "Ġsaying": 1474,
      "Ġstarted": 1475,
      "Ġreturn": 1476,
      "Ġwouldn": 1477,
      "Ġstick": 1478,
      "mom": 1479,
      "Ġnear": 1480,
      "Ġsign": 1481,
      "sing": 1482,
      "Ġposs": 1483,
      "Ġdraw": 1484,
      "Ã©": 1485,
      "just": 1486,
      "Ġcur": 1487,
      "Ġdro": 1488,
      "Ġpresent": 1489,
      "aken": 1490,
      "Ġdrink": 1491,
      "Ġstuff": 1492,
      "Ġplaying": 1493,
      "Ġguess": 1494,
      "Ġlisten": 1495,
      "imes": 1496,
      "Ġ6": 1497,
      "ield": 1498,
      "Ġhope": 1499,
      "mummy": 1500,
      "Ġmusic": 1501,
      "ered": 1502,
      "Ġblue": 1503,
      "ouch": 1504,
      "Ġaw": 1505,
      "elt": 1506,
      "ina": 1507,
      "Ġdeath": 1508,
      "hey": 1509,
      "ying": 1510,
      "Ġcal": 1511,
      "Ġsent": 1512,
      "Ġfine": 1513,
      "ities": 1514,
      "Ġmummy": 1515,
      "Ġgovern": 1516,
      "Ġdel": 1517,
      "Ġfriends": 1518,
      "ric": 1519,
      "ony": 1520,
      "Ġ198": 1521,
      "ring": 1522,
      "Ġpull": 1523,
      "Ġeas": 1524,
      "oup": 1525,
      "Ġext": 1526,
      "Ġvoice": 1527,
      "Ġmic": 1528,
      "Ġhair": 1529,
      "Ġword": 1530,
      "ï¿½ï¿½": 1531,
      "Ġform": 1532,
      "Ġev": 1533,
      "Ġproble": 1534,
      "Ġriver": 1535,
      "Ġplayed": 1536,
      "Ġcountry": 1537,
      "thank": 1538,
      "Ġwrong": 1539,
      "ues": 1540,
      "ics": 1541,
      "Ġes": 1542,
      "Ġinclud": 1543,
      "gs": 1544,
      "cy": 1545,
      "Ġgreen": 1546,
      "Ġminute": 1547,
      "Ġmed": 1548,
      "Ġmonth": 1549,
      "Ġfeet": 1550,
      "eter": 1551,
      "Ġdou": 1552,
      "Ġinc": 1553,
      "Ġbeaut": 1554,
      "Ġ8": 1555,
      "Ġjap": 1556,
      "Ġvis": 1557,
      "like": 1558,
      "Ġje": 1559,
      "Ġlost": 1560,
      "Ġra": 1561,
      "Ġpoor": 1562,
      "?âĢĿ": 1563,
      "kf": 1564,
      "wer": 1565,
      "Ġhappy": 1566,
      "Ġnational": 1567,
      "Ġgirls": 1568,
      "Ġmark": 1569,
      "Ġcertain": 1570,
      "Ġmeans": 1571,
      "ital": 1572,
      "use": 1573,
      "19": 1574,
      "Ġprod": 1575,
      "Ġfloor": 1576,
      "Ġshort": 1577,
      "cess": 1578,
      "Ġtre": 1579,
      "Ġfun": 1580,
      "Ġexpl": 1581,
      "Ġfro": 1582,
      "Ġbrought": 1583,
      "Ġidea": 1584,
      "Ġhuh": 1585,
      "ense": 1586,
      "Ġrather": 1587,
      "Ġbart": 1588,
      "Ġ7": 1589,
      "Ġmid": 1590,
      "Ġmovie": 1591,
      "Ġcontin": 1592,
      "Ġlead": 1593,
      "Ġguy": 1594,
      "Ġage": 1595,
      "ments": 1596,
      "undred": 1597,
      "haps": 1598,
      "aces": 1599,
      "Ġbat": 1600,
      "sc": 1601,
      "Ġquick": 1602,
      "ove": 1603,
      "Ġcup": 1604,
      "Ġprov": 1605,
      "Ġmommy": 1606,
      "airs": 1607,
      "Ġones": 1608,
      "Ġdistrict": 1609,
      "Ġbecame": 1610,
      "Ġyourself": 1611,
      "ones": 1612,
      "Ġhundred": 1613,
      "ully": 1614,
      "ize": 1615,
      "Ġseemed": 1616,
      "ken": 1617,
      "Ġsong": 1618,
      "Ġserv": 1619,
      "ages": 1620,
      "Ġweek": 1621,
      "Ġim": 1622,
      "Ġcra": 1623,
      "Ġhum": 1624,
      "Ġgotta": 1625,
      "Ġarea": 1626,
      "Ġtele": 1627,
      "Ġhist": 1628,
      "Ġty": 1629,
      "Ġoffic": 1630,
      "Ġfront": 1631,
      "Ġpain": 1632,
      "inner": 1633,
      "Ġmain": 1634,
      "Ġrecord": 1635,
      "gan": 1636,
      "cil": 1637,
      "Ġdoll": 1638,
      "vision": 1639,
      "utes": 1640,
      "Ġwords": 1641,
      "Ġsometimes": 1642,
      "bles": 1643,
      "ask": 1644,
      "Ġturned": 1645,
      "ese": 1646,
      "Ġstra": 1647,
      "ots": 1648,
      "Ġfight": 1649,
      "Ġrock": 1650,
      "Ġmakes": 1651,
      "cer": 1652,
      "Ġmer": 1653,
      "Ġroad": 1654,
      "Ġbegan": 1655,
      "Ġcry": 1656,
      "Ġdead": 1657,
      "hind": 1658,
      "Ġsum": 1659,
      "Ġ197": 1660,
      "Ġboat": 1661,
      "Ġcolor": 1662,
      "Ġline": 1663,
      "ley": 1664,
      "room": 1665,
      "ative": 1666,
      "got": 1667,
      "che": 1668,
      "itting": 1669,
      "bye": 1670,
      "Ġaren": 1671,
      "then": 1672,
      "Ġtaken": 1673,
      "Ġmill": 1674,
      "Ġfav": 1675,
      "Ġcir": 1676,
      "ffic": 1677,
      "Ġpen": 1678,
      "ided": 1679,
      "Ġmyself": 1680,
      "Ġbear": 1681,
      "ention": 1682,
      "Ġuni": 1683,
      "Ġyell": 1684,
      "tw": 1685,
      "Ġbusiness": 1686,
      "Ġmouth": 1687,
      "gin": 1688,
      "]?": 1689,
      "ner": 1690,
      "Ġlaw": 1691,
      "Ġsouth": 1692,
      "Ġable": 1693,
      "Ġfuck": 1694,
      "Ġoutside": 1695,
      "bru": 1696,
      "Ġbehind": 1697,
      "whi": 1698,
      "ific": 1699,
      "ured": 1700,
      "fect": 1701,
      "for": 1702,
      "ressed": 1703,
      "ford": 1704,
      "Ġsomeone": 1705,
      "Ġwants": 1706,
      "Ġimport": 1707,
      "sp": 1708,
      "oud": 1709,
      "ey": 1710,
      "aser": 1711,
      "ury": 1712,
      "Ġless": 1713,
      "Ġguys": 1714,
      "Ġcase": 1715,
      "Ġorder": 1716,
      "Ġstre": 1717,
      "ald": 1718,
      "Ġmine": 1719,
      "Ġcor": 1720,
      "ele": 1721,
      "Ġtaking": 1722,
      "bruary": 1723,
      "Ġhappen": 1724,
      "Ġoften": 1725,
      "iful": 1726,
      "ape": 1727,
      "head": 1728,
      "Ġgra": 1729,
      "Ġhon": 1730,
      "ime": 1731,
      "ized": 1732,
      "gie": 1733,
      "more": 1734,
      "Ġ9": 1735,
      "Ġearly": 1736,
      "Ġhowever": 1737,
      "ift": 1738,
      "Ġfore": 1739,
      "selves": 1740,
      "Ġbase": 1741,
      "Ġpubl": 1742,
      "Ġphi": 1743,
      "Ġgiven": 1744,
      "ral": 1745,
      "Ġdav": 1746,
      "Ġmad": 1747,
      "Ġmess": 1748,
      "fl": 1749,
      "Ġtrans": 1750,
      "Ġfelt": 1751,
      "Ġart": 1752,
      "vo": 1753,
      "Ġdeal": 1754,
      "Ġlate": 1755,
      "fully": 1756,
      "Ġminutes": 1757,
      "Ġchange": 1758,
      "Ġjapan": 1759,
      "zz": 1760,
      "port": 1761,
      "Ġhit": 1762,
      "lish": 1763,
      "Ġtill": 1764,
      "dge": 1765,
      "Ġfunny": 1766,
      "ee": 1767,
      "Ġquestion": 1768,
      "com": 1769,
      "Ġocc": 1770,
      "ii": 1771,
      "read": 1772,
      "because": 1773,
      "Ġstar": 1774,
      "Ġfebruary": 1775,
      "Ġeither": 1776,
      "Ġarm": 1777,
      "Ġanimals": 1778,
      "ering": 1779,
      "ents": 1780,
      "Ġdef": 1781,
      "essie": 1782,
      "Ġperhaps": 1783,
      "eth": 1784,
      "Ġda": 1785,
      "Ġwat": 1786,
      "ĠâĢĺ": 1787,
      "Ġpresident": 1788,
      "Ġfair": 1789,
      "Ġpicture": 1790,
      "Ġtwenty": 1791,
      "Ġcouldn": 1792,
      "anger": 1793,
      "ised": 1794,
      "Ġjan": 1795,
      "Ġwrite": 1796,
      "Ġbomba": 1797,
      "dden": 1798,
      "shall": 1799,
      "char": 1800,
      "have": 1801,
      "Ġok": 1802,
      "ote": 1803,
      "Ġcold": 1804,
      "Ġfootball": 1805,
      "Ġwh": 1806,
      "Ġwin": 1807,
      "Ġlearn": 1808,
      "gn": 1809,
      "Ġ196": 1810,
      "min": 1811,
      "rence": 1812,
      "Ġpower": 1813,
      "Ġsweet": 1814,
      "Ã¡": 1815,
      "ron": 1816,
      "Ġpur": 1817,
      "Ġpolit": 1818,
      "Ġtoys": 1819,
      "Ġleast": 1820,
      "Ġdepart": 1821,
      "ĠĠĠĠĠĠĠĠĠĠĠĠĠĠĠĠ": 1822,
      "Ġduck": 1823,
      "ze": 1824,
      "Ġseven": 1825,
      "ained": 1826,
      "Ġclot": 1827,
      "tern": 1828,
      "Ġfig": 1829,
      "Ġothers": 1830,
      "Ġsn": 1831,
      "Ġisland": 1832,
      "Ġyork": 1833,
      "Ġtrue": 1834,
      "Ġindian": 1835,
      "Ġcook": 1836,
      "iting": 1837,
      "Ġcheck": 1838,
      "fort": 1839,
      "Ġsto": 1840,
      "olog": 1841,
      "Ġlarge": 1842,
      "Ġprof": 1843,
      "Ġpiece": 1844,
      "ming": 1845,
      "Ġrele": 1846,
      "Ġbirth": 1847,
      "Ġprom": 1848,
      "Ġhorse": 1849,
      "Ġalone": 1850,
      "Ġstrong": 1851,
      "Ġill": 1852,
      "aughter": 1853,
      "Ġbeautiful": 1854,
      "ality": 1855,
      "amed": 1856,
      "Ġdark": 1857,
      "Ġsun": 1858,
      "Ġcoun": 1859,
      "bed": 1860,
      "Ġlad": 1861,
      "ander": 1862,
      "aus": 1863,
      "ste": 1864,
      "Ġwish": 1865,
      "arent": 1866,
      "Ġtrou": 1867,
      "Ġamong": 1868,
      "Ġwife": 1869,
      "Ġbody": 1870,
      "Ġbooks": 1871,
      "Ġopp": 1872,
      "Ġcompany": 1873,
      "Ġalright": 1874,
      "lo": 1875,
      "Ġago": 1876,
      "Ġcamp": 1877,
      "oops": 1878,
      "Ġdoctor": 1879,
      "unch": 1880,
      "ains": 1881,
      "born": 1882,
      "Ġinside": 1883,
      "Ġins": 1884,
      "Ġsea": 1885,
      "ards": 1886,
      "Ġcaptain": 1887,
      "Ġthanks": 1888,
      "Ġhello": 1889,
      "Ġbill": 1890,
      "Ġgun": 1891,
      "Ġground": 1892,
      "uary": 1893,
      "Ġsister": 1894,
      "Ġconst": 1895,
      "Ġprot": 1896,
      "Ġrepl": 1897,
      "Ġimportant": 1898,
      "Ġwest": 1899,
      "Ġlang": 1900,
      "Ġ10": 1901,
      "Ġvill": 1902,
      "pping": 1903,
      "cr": 1904,
      "Ġstep": 1905,
      "Ġletter": 1906,
      "Ġplan": 1907,
      "Ġgroup": 1908,
      "Ġwood": 1909,
      "bit": 1910,
      "Ġstud": 1911,
      "Ġherself": 1912,
      "Ġhurt": 1913,
      "dle": 1914,
      "Ġcos": 1915,
      "ril": 1916,
      "Ġworking": 1917,
      "20": 1918,
      "Ġexam": 1919,
      "ik": 1920,
      "oot": 1921,
      "Ġbur": 1922,
      "Ġreason": 1923,
      "alright": 1924,
      "Ġtree": 1925,
      "Ġfree": 1926,
      "Ġbessie": 1927,
      "Ġgent": 1928,
      "ax": 1929,
      "gas": 1930,
      "Ġber": 1931,
      "Ġdinner": 1932,
      "Ġmaj": 1933,
      "ety": 1934,
      "anor": 1935,
      "Ġsever": 1936,
      "Ġseries": 1937,
      "ike": 1938,
      "Ġann": 1939,
      "Ġchap": 1940,
      "Ġpast": 1941,
      "Ġlay": 1942,
      "Ġfing": 1943,
      "Ġclass": 1944,
      "does": 1945,
      "Ġunivers": 1946,
      "mommy": 1947,
      "Ġgets": 1948,
      "ator": 1949,
      "Ġwear": 1950,
      "Ġseat": 1951,
      "Ġwomen": 1952,
      "ept": 1953,
      "Ġwall": 1954,
      "bert": 1955,
      "Ġobject": 1956,
      "unning": 1957,
      "aim": 1958,
      "icip": 1959,
      "Ġglad": 1960,
      "oof": 1961,
      "ousand": 1962,
      "Ġseveral": 1963,
      "Ġreco": 1964,
      "Ġyellow": 1965,
      "hael": 1966,
      "Ġve": 1967,
      "may": 1968,
      "ooh": 1969,
      "ately": 1970,
      "Ġsal": 1971,
      "Ġ17": 1972,
      "Ġchance": 1973,
      "when": 1974,
      "Ġsand": 1975,
      "Ġblock": 1976,
      "iously": 1977,
      "aced": 1978,
      "Ġpos": 1979,
      "Ġrece": 1980,
      "Ġran": 1981,
      "Ġthousand": 1982,
      "Ġfinished": 1983,
      "Ġtried": 1984,
      "--------": 1985,
      "ional": 1986,
      "000": 1987,
      "gy": 1988,
      "Ġfil": 1989,
      "Ġclean": 1990,
      "Ġacross": 1991,
      "Ġthrow": 1992,
      "Ġphone": 1993,
      "Ġgold": 1994,
      "Ġcross": 1995,
      "Ġsilver": 1996,
      "Ġbath": 1997,
      "Ġ!": 1998,
      "eng": 1999,
      "Ġfort": 2000,
      "wa": 2001,
      "Ġ195": 2002,
      "Ġblood": 2003,
      "Ġmur": 2004,
      "Ġenglish": 2005,
      "Ġtouch": 2006,
      "rap": 2007,
      "Ġdat": 2008,
      "Ġproblem": 2009,
      "Ġpot": 2010,
      "Ġroll": 2011,
      "cent": 2012,
      "Ġuncle": 2013,
      "Ġreac": 2014,
      "Ġfish": 2015,
      "lex": 2016,
      "ides": 2017,
      "Ġjanuary": 2018,
      "Ġbuy": 2019,
      "Ġsomebody": 2020,
      "Ġlived": 2021,
      "Ġseems": 2022,
      "Ġtomorrow": 2023,
      "king": 2024,
      "Ġsend": 2025,
      "bs": 2026,
      "Ġcam": 2027,
      "Ġtur": 2028,
      "ana": 2029,
      "Ġattack": 2030,
      "mon": 2031,
      "ider": 2032,
      "Ġexpect": 2033,
      "Ġhistory": 2034,
      "Ġsitting": 2035,
      "Ġbag": 2036,
      "cks": 2037,
      "arch": 2038,
      "Ġ...": 2039,
      "Ġkiss": 2040,
      "say": 2041,
      "Ġfield": 2042,
      "Ġdavid": 2043,
      "ience": 2044,
      "uk": 2045,
      "Ġallow": 2046,
      "Ġbob": 2047,
      "Ġstreet": 2048,
      "oop": 2049,
      "cri": 2050,
      "ham": 2051,
      "acher": 2052,
      "ek": 2053,
      "Ġtea": 2054,
      "ists": 2055,
      "Ġfavor": 2056,
      "vember": 2057,
      "Ġcommun": 2058,
      "Ġcreat": 2059,
      "Ġgeneral": 2060,
      "Ġsurp": 2061,
      "fr": 2062,
      "raid": 2063,
      "Ġcri": 2064,
      "Ġthinking": 2065,
      "Ġappro": 2066,
      "Ġgeor": 2067,
      "Ġfift": 2068,
      "Ġreport": 2069,
      "daddy": 2070,
      "Ġnine": 2071,
      "Ġsudden": 2072,
      "Ġx": 2073,
      "Ġkilled": 2074,
      "Ġtoy": 2075,
      "Ġheld": 2076,
      "Ġliving": 2077,
      "Ġtakes": 2078,
      "Ġfast": 2079,
      "Ġhall": 2080,
      "Ġknows": 2081,
      "que": 2082,
      "Ġdepartment": 2083,
      "Ġquiet": 2084,
      "Ġclear": 2085,
      "Ġpost": 2086,
      "velop": 2087,
      "Ġgerman": 2088,
      "Ġbrit": 2089,
      "Ġton": 2090,
      "eared": 2091,
      "though": 2092,
      "Ġest": 2093,
      "Ġdream": 2094,
      "Ġpark": 2095,
      "ara": 2096,
      "Ġ15": 2097,
      "mother": 2098,
      "ution": 2099,
      "Ġlangu": 2100,
      "har": 2101,
      "Ġcou": 2102,
      "vered": 2103,
      "Ġappe": 2104,
      "ued": 2105,
      "Ġya": 2106,
      "two": 2107,
      "singing": 2108,
      "hello": 2109,
      "ulation": 2110,
      "Ġcorn": 2111,
      "car": 2112,
      "Ġtem": 2113,
      "gue": 2114,
      "hel": 2115,
      "ges": 2116,
      "Ġear": 2117,
      "Ġgovernment": 2118,
      "Ġgames": 2119,
      "Ġmilk": 2120,
      "ives": 2121,
      "Ġyours": 2122,
      "Ġusually": 2123,
      "Ġanswer": 2124,
      "Ġmember": 2125,
      "Ġnovember": 2126,
      "Ġbra": 2127,
      "Ġhung": 2128,
      "con": 2129,
      "Ġjane": 2130,
      "Ġgrow": 2131,
      "Ġadv": 2132,
      "ney": 2133,
      "ract": 2134,
      "Ġdet": 2135,
      "arth": 2136,
      "Ġspecial": 2137,
      "Ġ194": 2138,
      "Ġwhether": 2139,
      "Ġbirthday": 2140,
      "va": 2141,
      "Ġabs": 2142,
      "Ġcarry": 2143,
      "Ġain": 2144,
      "iter": 2145,
      "ices": 2146,
      "Ġsold": 2147,
      "ya": 2148,
      "Ġband": 2149,
      "Ġwithin": 2150,
      "Ġafraid": 2151,
      "ically": 2152,
      "ls": 2153,
      "Ġport": 2154,
      "men": 2155,
      "Ġori": 2156,
      "Ġeverybody": 2157,
      "itten": 2158,
      "Ġmount": 2159,
      "Ġdie": 2160,
      "Ġring": 2161,
      "Ġ2021": 2162,
      "uro": 2163,
      "Ġoct": 2164,
      "rench": 2165,
      "Ġ2020": 2166,
      "Ġexact": 2167,
      "ler": 2168,
      "Ġsoft": 2169,
      "Ġkept": 2170,
      "ural": 2171,
      "ilt": 2172,
      "Ġpoints": 2173,
      "Ġdress": 2174,
      "itc": 2175,
      "Ġpage": 2176,
      "ium": 2177,
      "Ġsus": 2178,
      "Ġlovely": 2179,
      "Ġdaughter": 2180,
      "Ġnin": 2181,
      "gram": 2182,
      "Ġfrance": 2183,
      "Ġcharac": 2184,
      "Ġval": 2185,
      "Ġcray": 2186,
      "stem": 2187,
      "Ġfly": 2188,
      "Ġshut": 2189,
      "Ġmaggie": 2190,
      "ism": 2191,
      "ility": 2192,
      "Ġrunning": 2193,
      "la": 2194,
      "Ġpolice": 2195,
      "Ġice": 2196,
      "ician": 2197,
      "Ġstation": 2198,
      "Ġsecret": 2199,
      "Ġtrouble": 2200,
      "Ġwhatever": 2201,
      "Ġheav": 2202,
      "Ġdevelop": 2203,
      "Ġlow": 2204,
      "tom": 2205,
      "zy": 2206,
      "Ġ?": 2207,
      "Ġstri": 2208,
      "net": 2209,
      "alth": 2210,
      "aint": 2211,
      "Ġmarch": 2212,
      "Ġuniversity": 2213,
      "Ġaunt": 2214,
      "itch": 2215,
      "Ġstraight": 2216,
      "your": 2217,
      "ats": 2218,
      "Ġhang": 2219,
      "Ġcast": 2220,
      "ked": 2221,
      "yo": 2222,
      "Ġvocal": 2223,
      "Ġtelevision": 2224,
      "Ġphil": 2225,
      "Ġleg": 2226,
      "Ġfit": 2227,
      "Ġnose": 2228,
      "Ġpleas": 2229,
      "Ġeast": 2230,
      "Ġfix": 2231,
      "Ġsuppose": 2232,
      "makes": 2233,
      "Ġmonths": 2234,
      "Ġsystem": 2235,
      "Ġhours": 2236,
      "Ġanyway": 2237,
      "Ġapril": 2238,
      "ober": 2239,
      "Ġbreat": 2240,
      "band": 2241,
      "Ġbecome": 2242,
      "Ġpolic": 2243,
      "Ġprofess": 2244,
      "lt": 2245,
      "Ġdam": 2246,
      "Ġeasy": 2247,
      "ived": 2248,
      "Ġforward": 2249,
      "inning": 2250,
      "Ġcannot": 2251,
      "Ġcond": 2252,
      "Ġworked": 2253,
      "Ġchur": 2254,
      "Ġfre": 2255,
      "uhhuh": 2256,
      "ggy": 2257,
      "osp": 2258,
      "Ġmum": 2259,
      "Ġmarried": 2260,
      "Ġstood": 2261,
      "Ġlives": 2262,
      "Ġsuper": 2263,
      "Ġsounds": 2264,
      "Ġrain": 2265,
      "Ġslow": 2266,
      "Ġpartic": 2267,
      "Ġ16": 2268,
      "wered": 2269,
      "play": 2270,
      "Ġnamed": 2271,
      "Ġjuly": 2272,
      "Ġru": 2273,
      "Ġvict": 2274,
      "Ġoffice": 2275,
      "Ġfur": 2276,
      "ery": 2277,
      "Ġchamp": 2278,
      "ration": 2279,
      "Ġlie": 2280,
      "Ġproper": 2281,
      "Ġnews": 2282,
      "Ġspec": 2283,
      "Ġforget": 2284,
      "Ġlab": 2285,
      "Ġcried": 2286,
      "Ġmun": 2287,
      "Ġjump": 2288,
      "Ġ12": 2289,
      "Ġclim": 2290,
      ".'": 2291,
      "Ġtired": 2292,
      "some": 2293,
      "ti": 2294,
      "!âĢĿ": 2295,
      "Ġthemselves": 2296,
      "Ġcontro": 2297,
      "gar": 2298,
      "Ġoper": 2299,
      "gu": 2300,
      "wh": 2301,
      "Ġrad": 2302,
      "Ġalthough": 2303,
      "ndon": 2304,
      "ptember": 2305,
      "Ġimm": 2306,
      "hern": 2307,
      "ently": 2308,
      "Ġfrank": 2309,
      "Ġanswered": 2310,
      "Ġexper": 2311,
      "Ġbes": 2312,
      "Ġvar": 2313,
      "Ġros": 2314,
      "Ġclothes": 2315,
      "Ġseem": 2316,
      "Ġkids": 2317,
      "Ġmajor": 2318,
      "Ġfraser": 2319,
      "hold": 2320,
      "ude": 2321,
      "yed": 2322,
      "Ġmaster": 2323,
      "Ġluck": 2324,
      "Ġvie": 2325,
      "aged": 2326,
      "Ġdisc": 2327,
      "Ġpassed": 2328,
      "Ġcirc": 2329,
      "Ġcouple": 2330,
      "Ġoctober": 2331,
      "Ġbull": 2332,
      "Ġpossible": 2333,
      "gasps": 2334,
      "Ġbas": 2335,
      "Ġdest": 2336,
      "Ġshar": 2337,
      "fer": 2338,
      "âĢĵ": 2339,
      "bt": 2340,
      "Ġfeeling": 2341,
      "Ġeating": 2342,
      "ories": 2343,
      "Ġorgan": 2344,
      "Ġaust": 2345,
      "Ġbow": 2346,
      "Ġvi": 2347,
      "Ġce": 2348,
      "Ġdanger": 2349,
      "Ġgentle": 2350,
      "sk": 2351,
      "ead": 2352,
      "Ġtex": 2353,
      "Ġmam": 2354,
      "Ġmiles": 2355,
      "Ġhy": 2356,
      "Ġcouncil": 2357,
      "Ġcatch": 2358,
      "Ġdece": 2359,
      "Ġcharl": 2360,
      "Ġted": 2361,
      "ino": 2362,
      "Ġevent": 2363,
      "Ġterri": 2364,
      "Ġalex": 2365,
      "Ġarri": 2366,
      "Ġview": 2367,
      "Ġsucc": 2368,
      "stairs": 2369,
      "Ġaug": 2370,
      "Ġgar": 2371,
      "Ġrob": 2372,
      "Ġclub": 2373,
      "Ġseason": 2374,
      "Ġhol": 2375,
      "Ġsummer": 2376,
      "Ġexactly": 2377,
      "Ġ193": 2378,
      "Ġtonight": 2379,
      "Ġtick": 2380,
      "Ġsupport": 2381,
      "which": 2382,
      "Ġbye": 2383,
      "Ġfrench": 2384,
      "Ġpa": 2385,
      "Ġpig": 2386,
      "ounds": 2387,
      "box": 2388,
      "Ġedna": 2389,
      "Ġseptember": 2390,
      "Ġdiffic": 2391,
      "Ġhus": 2392,
      "Ġmillion": 2393,
      "Ġenjo": 2394,
      "Ġequ": 2395,
      "Ġorigin": 2396,
      "Ġknock": 2397,
      "Ġpal": 2398,
      "uri": 2399,
      "Ġlots": 2400,
      "Ġcow": 2401,
      "Ġgard": 2402,
      "illy": 2403,
      "Ġwaiting": 2404,
      "friend": 2405,
      "Ġmal": 2406,
      "atic": 2407,
      "Ġegg": 2408,
      "phone": 2409,
      "Ġinstead": 2410,
      "Ġtest": 2411,
      "lete": 2412,
      "Ġprodu": 2413,
      "Ġlikes": 2414,
      "Ġlondon": 2415,
      "Ġputting": 2416,
      "ances": 2417,
      "Ġarms": 2418,
      "Ġneeds": 2419,
      "Ġinde": 2420,
      "Ġabove": 2421,
      "Ġchief": 2422,
      "âĢĶ": 2423,
      "Ġperfect": 2424,
      "Ġmiddle": 2425,
      "Ġaugust": 2426,
      "Ġworry": 2427,
      "Ġbroken": 2428,
      "foot": 2429,
      "Ġwindow": 2430,
      "Ġreleased": 2431,
      "ÃŃ": 2432,
      "Ġeffe": 2433,
      "Ġboard": 2434,
      "ended": 2435,
      "Ġbrown": 2436,
      "Ġwild": 2437,
      "nday": 2438,
      "Ġvisit": 2439,
      "Ġeye": 2440,
      "Ġsuccess": 2441,
      "Ġstanding": 2442,
      "mas": 2443,
      "ager": 2444,
      "Ġservice": 2445,
      "Ġver": 2446,
      "Ġmoved": 2447,
      "Ġshot": 2448,
      "Ġcool": 2449,
      "Ġregion": 2450,
      "wow": 2451,
      "Ġthirty": 2452,
      "Ġchapter": 2453,
      "Ġmama": 2454,
      "Ġsnow": 2455,
      "Ġrom": 2456,
      "itty": 2457,
      "Ġinform": 2458,
      "babbles": 2459,
      "'.": 2460,
      "Ġcost": 2461,
      "Ġmunicip": 2462,
      "Ġchurch": 2463,
      "Ġsol": 2464,
      "gen": 2465,
      "Ġtot": 2466,
      "Ġstru": 2467,
      "ardon": 2468,
      "emy": 2469,
      "Ġblow": 2470,
      "Ġrequ": 2471,
      "cket": 2472,
      "Ġshoot": 2473,
      "Ġmist": 2474,
      "rop": 2475,
      "Ġnoises": 2476,
      "ato": 2477,
      "Ġrepres": 2478,
      "mbers": 2479,
      "Ġmis": 2480,
      "Ġcop": 2481,
      "owers": 2482,
      "Ġeuro": 2483,
      "Ġdeep": 2484,
      "Ġprogram": 2485,
      "Ġchanged": 2486,
      "Ġtowards": 2487,
      "Ġclos": 2488,
      "Ġpublic": 2489,
      ",--": 2490,
      "Ġfarm": 2491,
      "noon": 2492,
      "chard": 2493,
      "Ġpaul": 2494,
      "Ġtrust": 2495,
      "Ġcommon": 2496,
      "ich": 2497,
      "Ġputs": 2498,
      "Ġrecogn": 2499,
      "iam": 2500,
      "oose": 2501,
      "Ġmeant": 2502,
      "Ġeffect": 2503,
      "Ġgri": 2504,
      "Ġtelling": 2505,
      "Ġdev": 2506,
      "will": 2507,
      "Ġformer": 2508,
      "Ġeveryone": 2509,
      "Ġpopulation": 2510,
      "Ġhors": 2511,
      "Ġdirect": 2512,
      "Ġwhom": 2513,
      "time": 2514,
      "Ġfollowing": 2515,
      "Ġbuilding": 2516,
      "sings": 2517,
      "Ġsight": 2518,
      "was": 2519,
      "Ġexcept": 2520,
      "Ġwritten": 2521,
      "uced": 2522,
      "night": 2523,
      "Ġpress": 2524,
      "Ġhill": 2525,
      "Ġhell": 2526,
      "Ġforgot": 2527,
      "Ġang": 2528,
      "nce": 2529,
      "Ġanyone": 2530,
      "Ġintern": 2531,
      "Ġ#": 2532,
      "Ġexcl": 2533,
      "era": 2534,
      "Ġfill": 2535,
      "gress": 2536,
      "ĠĠĠĠĠĠ": 2537,
      "ging": 2538,
      "nes": 2539,
      "Ġmichael": 2540,
      "coun": 2541,
      "Ġearth": 2542,
      "give": 2543,
      "ceed": 2544,
      "ppy": 2545,
      "Ġpract": 2546,
      "Ġcareful": 2547,
      "Ġcaught": 2548,
      "Ġevening": 2549,
      "Ġresp": 2550,
      "asp": 2551,
      "Ġfear": 2552,
      "Ġauth": 2553,
      "Ġsick": 2554,
      "Ġut": 2555,
      "terday": 2556,
      "Ġdisapp": 2557,
      "Ġlanguage": 2558,
      "Ġindeed": 2559,
      "Ġhosp": 2560,
      "Ġburn": 2561,
      "Ġhoney": 2562,
      "Ġcover": 2563,
      "Ġhusband": 2564,
      "ror": 2565,
      "Ġreturned": 2566,
      "itchen": 2567,
      "Ġfa": 2568,
      "ene": 2569,
      "Ġmembers": 2570,
      "Ġalb": 2571,
      "Ġ11": 2572,
      "omas": 2573,
      "Ġjune": 2574,
      "ffee": 2575,
      "Ġship": 2576,
      "Ġcolle": 2577,
      "Ġvillage": 2578,
      "Ġchick": 2579,
      "fast": 2580,
      "used": 2581,
      "Ġafternoon": 2582,
      "Ġesc": 2583,
      "sy": 2584,
      "Ġfellow": 2585,
      "counter": 2586,
      "vi": 2587,
      "Ġnearly": 2588,
      "Ġexcuse": 2589,
      "]!": 2590,
      "empt": 2591,
      "please": 2592,
      "would": 2593,
      "Ġquickly": 2594,
      "Ġroy": 2595,
      "Ġcareer": 2596,
      "miss": 2597,
      "Ġnet": 2598,
      "Ġkitchen": 2599,
      "Ġdrive": 2600,
      "Ġbud": 2601,
      "Ġcre": 2602,
      "Ġvocalises": 2603,
      "Ġdut": 2604,
      "Ġsave": 2605,
      "Ġprop": 2606,
      "Ġ2018": 2607,
      "Ġmc": 2608,
      "Ġwel": 2609,
      "Ġtruck": 2610,
      "rupt": 2611,
      "maybe": 2612,
      "pes": 2613,
      "Ġjud": 2614,
      "Ġtreat": 2615,
      "Ġahead": 2616,
      "ggest": 2617,
      "ground": 2618,
      "Ġpet": 2619,
      "Ġturns": 2620,
      "Ġcharacter": 2621,
      "Ġtoward": 2622,
      "ston": 2623,
      "baby": 2624,
      "Ġdecember": 2625,
      "whis": 2626,
      "Ġconcer": 2627,
      "Ġfrog": 2628,
      "Ġsuggest": 2629,
      "bur": 2630,
      "Ġthird": 2631,
      "Ġbritish": 2632,
      "ament": 2633,
      "Ġought": 2634,
      "Ġlat": 2635,
      "cially": 2636,
      "Ġprotect": 2637,
      "Ġsam": 2638,
      "ert": 2639,
      "Ġparent": 2640,
      "Ġlord": 2641,
      "ement": 2642,
      "Ġadam": 2643,
      "Ġlonger": 2644,
      "iling": 2645,
      "Ġsafe": 2646,
      "Ġcertainly": 2647,
      "mit": 2648,
      "Ġhop": 2649,
      "Ġride": 2650,
      "ula": 2651,
      "Ġyesterday": 2652,
      "Ġchildes": 2653,
      "Ġcomplete": 2654,
      "childes": 2655,
      "Ġhuman": 2656,
      "Ġcurrent": 2657,
      "Ġbroke": 2658,
      "Ġrepresent": 2659,
      "Ġposition": 2660,
      "Ġur": 2661,
      "aimed": 2662,
      "Ġexpress": 2663,
      "Ġsuddenly": 2664,
      "rod": 2665,
      "Ġjoe": 2666,
      "Ġspend": 2667,
      "Ġfigure": 2668,
      "sit": 2669,
      "Ġtow": 2670,
      "Ġworth": 2671,
      "Ġworks": 2672,
      "ights": 2673,
      "Ġshoes": 2674,
      "Ġsilence": 2675,
      "reek": 2676,
      "view": 2677,
      "mar": 2678,
      "iff": 2679,
      "Ġcourt": 2680,
      "idence": 2681,
      "Ġarmy": 2682,
      "Ġteacher": 2683,
      "Ġreplied": 2684,
      "gest": 2685,
      "oth": 2686,
      "bing": 2687,
      "ray": 2688,
      "Ġmass": 2689,
      "erv": 2690,
      "Ġbank": 2691,
      "Ġauthor": 2692,
      "Ġhu": 2693,
      "Ġusing": 2694,
      "uation": 2695,
      "Ġbrad": 2696,
      "Ġengland": 2697,
      "Ġled": 2698,
      "Ġhappens": 2699,
      "note": 2700,
      "Ġsad": 2701,
      "Ġperform": 2702,
      "Ġmeeting": 2703,
      "Ġplaces": 2704,
      "Ġcoffee": 2705,
      "Ġwrote": 2706,
      "Ġ2019": 2707,
      "with": 2708,
      "Ġjim": 2709,
      "ighb": 2710,
      "Ġgall": 2711,
      "Ġrub": 2712,
      "Ġ14": 2713,
      "Ġdecided": 2714,
      "Ġdoubt": 2715,
      "Ġiss": 2716,
      "Ġgiving": 2717,
      "Ġengine": 2718,
      "Ġhen": 2719,
      "Ġheavy": 2720,
      "Ġtape": 2721,
      "Ġcab": 2722,
      "Ġvol": 2723,
      "Ġbuilt": 2724,
      "Ġsupposed": 2725,
      "Ġluc": 2726,
      "Ġprin": 2727,
      "Ġinterested": 2728,
      "acy": 2729,
      "Ġfail": 2730,
      "Ġpack": 2731,
      "Ġhospital": 2732,
      "uit": 2733,
      "oseph": 2734,
      "Ġmart": 2735,
      "Ġwhose": 2736,
      "Ġstrange": 2737,
      "Ġpieces": 2738,
      "Ġlou": 2739,
      "of": 2740,
      "ining": 2741,
      "estern": 2742,
      "Ġquar": 2743,
      "chan": 2744,
      "oint": 2745,
      "Ġchristmas": 2746,
      "Ġbang": 2747,
      "Ġlocal": 2748,
      "Ġappear": 2749,
      "Ġpretend": 2750,
      "Ġbutter": 2751,
      "Ġfollowed": 2752,
      "tered": 2753,
      "Ġfavorite": 2754,
      "Ġleaving": 2755,
      "bers": 2756,
      "orence": 2757,
      "Ġgeorge": 2758,
      "wor": 2759,
      "olute": 2760,
      "din": 2761,
      "Ġcas": 2762,
      "Ġsomewhere": 2763,
      "Ġcommune": 2764,
      "Ġeurope": 2765,
      "Ġairport": 2766,
      "Ġcand": 2767,
      "Ġcause": 2768,
      "ians": 2769,
      "Ġfinish": 2770,
      "itted": 2771,
      "Ġelect": 2772,
      "Ġkick": 2773,
      "ushed": 2774,
      "teen": 2775,
      "val": 2776,
      "Ġ13": 2777,
      "eleanor": 2778,
      "da": 2779,
      "Ġmatch": 2780,
      "Ġflorence": 2781,
      "Ġopened": 2782,
      "Ġpolitician": 2783,
      "Ġreached": 2784,
      "Ġcollege": 2785,
      "Ġhealth": 2786,
      "Ġbell": 2787,
      "Ġet": 2788,
      "Ġspot": 2789,
      "Ġswim": 2790,
      "Ġwhis": 2791,
      "Ġwand": 2792,
      "Ġsingle": 2793,
      "rise": 2794,
      "Ġstuck": 2795,
      "Ġlevel": 2796,
      "Ġbelong": 2797,
      "Ġhun": 2798,
      "Ġnobody": 2799,
      "Ġletters": 2800,
      "Ġdescri": 2801,
      "ograp": 2802,
      "Ġshit": 2803,
      "ada": 2804,
      "Ġleague": 2805,
      "Ġstopped": 2806,
      "Ġgarden": 2807,
      "take": 2808,
      "iny": 2809,
      "Ġeduc": 2810,
      "Ġaccount": 2811,
      "Ġshout": 2812,
      "Ġbreakfast": 2813,
      "Ġtor": 2814,
      "Ġdecl": 2815,
      "Ġlegs": 2816,
      "Ġdisco": 2817,
      "tell": 2818,
      "dd": 2819,
      "Ġta": 2820,
      "Ġanimal": 2821,
      "Ġbright": 2822,
      "iled": 2823,
      "Ġcomfort": 2824,
      "Ġ2022": 2825,
      "ums": 2826,
      "ified": 2827,
      "Ġbought": 2828,
      "Ġweeks": 2829,
      "onel": 2830,
      "Ġmoving": 2831,
      "des": 2832,
      "Ġapart": 2833,
      "Ġsense": 2834,
      "Ġban": 2835,
      "aly": 2836,
      "Ġkitty": 2837,
      "Ġstu": 2838,
      "Ġnorm": 2839,
      "Ġdesign": 2840,
      "work": 2841,
      "Ġlunch": 2842,
      "tr": 2843,
      "Ġnone": 2844,
      "Ġdiv": 2845,
      "Ġexample": 2846,
      "Ġdefe": 2847,
      "Ġstone": 2848,
      "Ġreceived": 2849,
      "Ġcaus": 2850,
      "amy": 2851,
      "Ġanybody": 2852,
      "Ġwilliam": 2853,
      "Ġmunicipality": 2854,
      "Ġforce": 2855,
      "ura": 2856,
      "wait": 2857,
      "Ġbird": 2858,
      "Ġperio": 2859,
      "Ġwarm": 2860,
      "Ġaward": 2861,
      "ishing": 2862,
      "ob": 2863,
      "Ġprison": 2864,
      "Ġprovince": 2865,
      "Ġdifficult": 2866,
      "ki": 2867,
      "Ġmonkey": 2868,
      "Ġaccord": 2869,
      "Ġholds": 2870,
      "Ġwatches": 2871,
      "Ġfurther": 2872,
      "Ġaccept": 2873,
      "Ġlaughs": 2874,
      "yn": 2875,
      "Ġmention": 2876,
      "phan": 2877,
      "Ġsout": 2878,
      "Ġpush": 2879,
      "Ġspir": 2880,
      "Ġtruth": 2881,
      "Ġcrazy": 2882,
      "Ġtall": 2883,
      "eder": 2884,
      "hol": 2885,
      "Ġvide": 2886,
      "Ġcompan": 2887,
      "Ġchampions": 2888,
      "bled": 2889,
      "Ġjuice": 2890,
      "Ġden": 2891,
      "Ġange": 2892,
      "Ġdry": 2893,
      "Ġbottom": 2894,
      "Ġcrayon": 2895,
      "Ġmor": 2896,
      "footnote": 2897,
      "oul": 2898,
      "Ġcamera": 2899,
      "Ġtv": 2900,
      "Ġdance": 2901,
      "Ġpink": 2902,
      "Ġlau": 2903,
      "Ġincluding": 2904,
      "Ġaut": 2905,
      "Ġhig": 2906,
      "Ġinternational": 2907,
      "ott": 2908,
      "Ġfat": 2909,
      "Ġnort": 2910,
      "Ġimag": 2911,
      "Ġrev": 2912,
      "ourn": 2913,
      "Ġleaves": 2914,
      "cut": 2915,
      "ille": 2916,
      "ĠâĢĻ": 2917,
      "Ġfifty": 2918,
      "ature": 2919,
      "Ġvan": 2920,
      "Ġreach": 2921,
      "Ġrac": 2922,
      "oke": 2923,
      "Ġdir": 2924,
      "Ġcrying": 2925,
      "Ġtype": 2926,
      "Ġhan": 2927,
      "Ġjames": 2928,
      "cel": 2929,
      "Ġneck": 2930,
      "Ġplayer": 2931,
      "gl": 2932,
      "omin": 2933,
      "phi": 2934,
      "Ġthomas": 2935,
      "Ġloc": 2936,
      "bling": 2937,
      "Ġglass": 2938,
      "Ġcompet": 2939,
      "Ġ30": 2940,
      "jw": 2941,
      "ka": 2942,
      "Ġdan": 2943,
      "Ġbeat": 2944,
      "Ġneighb": 2945,
      "af": 2946,
      "Ġlift": 2947,
      "plo": 2948,
      "Ġruss": 2949,
      "Ġincre": 2950,
      "Ġspace": 2951,
      "ization": 2952,
      "Ġappeared": 2953,
      "Ġtrees": 2954,
      "Ġtech": 2955,
      "Ġbridge": 2956,
      "Ġwatching": 2957,
      "Ġ$": 2958,
      "iforn": 2959,
      "Ġfinger": 2960,
      "xic": 2961,
      "over": 2962,
      "Ġsell": 2963,
      "ior": 2964,
      "aud": 2965,
      "Ġcarried": 2966,
      "Ġspoke": 2967,
      "Ġnames": 2968,
      "ien": 2969,
      "Ġsilly": 2970,
      "Ġcens": 2971,
      "hoh": 2972,
      "pecially": 2973,
      "Ġfucking": 2974,
      "Ġattention": 2975,
      "Ġ]": 2976,
      "Ġpan": 2977,
      "Ġbusy": 2978,
      "zer": 2979,
      "Ġbased": 2980,
      "Ġsex": 2981,
      "orts": 2982,
      "rer": 2983,
      "Ġep": 2984,
      "Ġcaliforn": 2985,
      "Ġtrack": 2986,
      "Ġabsolute": 2987,
      "Ġpeter": 2988,
      "igg": 2989,
      "lin": 2990,
      "Ġlos": 2991,
      "Ġconsider": 2992,
      "Ġhasn": 2993,
      "Ġcolonel": 2994,
      "Ġallowed": 2995,
      "vin": 2996,
      "Ġfle": 2997,
      "Ġamerica": 2998,
      "mic": 2999,
      "....": 3000,
      "Ġanymore": 3001,
      "Ġpictures": 3002,
      "Ġbroad": 3003,
      "Ġself": 3004,
      "Ġcollect": 3005,
      "Ġjenn": 3006,
      "Ġshouldn": 3007,
      "Ġcommand": 3008,
      "Ġbread": 3009,
      "Ġcapital": 3010,
      "Ġbeginning": 3011,
      "Ġhungry": 3012,
      "Ġcake": 3013,
      "Ġsli": 3014,
      "Ġslight": 3015,
      "Ġdu": 3016,
      "Ġfres": 3017,
      "_,": 3018,
      "Ġjer": 3019,
      "Ġactiv": 3020,
      "Ġperiod": 3021,
      "Ġnecess": 3022,
      "Ġmod": 3023,
      "Ġcalifornia": 3024,
      "Ġdor": 3025,
      "Ġaccident": 3026,
      "Ġmem": 3027,
      "Ġwriting": 3028,
      "ned": 3029,
      "ously": 3030,
      "Ġhorses": 3031,
      "Ġir": 3032,
      "umb": 3033,
      "Ġcapt": 3034,
      "Ġbreath": 3035,
      "Ġcorner": 3036,
      "pper": 3037,
      "Ġhurry": 3038,
      "Ġfut": 3039,
      "Ġadded": 3040,
      "house": 3041,
      "Ġwet": 3042,
      "Ġmac": 3043,
      "ashi": 3044,
      "Ġdem": 3045,
      "asket": 3046,
      "Ġparents": 3047,
      "Ġtig": 3048,
      "Ġinvol": 3049,
      "Ġca": 3050,
      "Ġagre": 3051,
      "rem": 3052,
      "Ġalexander": 3053,
      ",'": 3054,
      "Ġdistance": 3055,
      "Ġcontrol": 3056,
      "aur": 3057,
      "Ġtast": 3058,
      "Ġwash": 3059,
      "Ġsmell": 3060,
      "Ġcensus": 3061,
      "Ġaustral": 3062,
      "Ġitself": 3063,
      "Ġexclaimed": 3064,
      "cher": 3065,
      "ingly": 3066,
      "Ġcompl": 3067,
      "down": 3068,
      "rel": 3069,
      "west": 3070,
      "Ġsky": 3071,
      "sn": 3072,
      "Ġstore": 3073,
      "Ġseeing": 3074,
      "Ġ25": 3075,
      "ology": 3076,
      "Ġhous": 3077,
      "Ġfinally": 3078,
      "off": 3079,
      "Ġlem": 3080,
      "want": 3081,
      "Ġtail": 3082,
      "Ġow": 3083,
      "Ġcard": 3084,
      "Ġcars": 3085,
      "Ġloved": 3086,
      "Ġhole": 3087,
      "Ġslowly": 3088,
      "Ġrose": 3089,
      "Ġproject": 3090,
      "Ġmary": 3091,
      "reen": 3092,
      "iced": 3093,
      "Ġcrow": 3094,
      "Ġpir": 3095,
      "Ġsubject": 3096,
      "Ġlu": 3097,
      "Ġham": 3098,
      "Ġrespect": 3099,
      "Ġdrop": 3100,
      "Ġholding": 3101,
      "Ġtit": 3102,
      "Ġjes": 3103,
      "Ġ192": 3104,
      "bre": 3105,
      "Ġwalking": 3106,
      "Ġdanc": 3107,
      "Ġattempt": 3108,
      "wood": 3109,
      "Ġox": 3110,
      "Ġliked": 3111,
      "\")": 3112,
      "Ġpause": 3113,
      "board": 3114,
      "Ġlock": 3115,
      "Ġbabies": 3116,
      "Ġpuzz": 3117,
      "Ġdropped": 3118,
      "Ġinformation": 3119,
      "Ġfri": 3120,
      "astic": 3121,
      "Ġsituation": 3122,
      "Ġpriv": 3123,
      "Ã³": 3124,
      "Ġba": 3125,
      "Ġconne": 3126,
      "Ġannoun": 3127,
      "aper": 3128,
      "Ġremark": 3129,
      "Ġquestions": 3130,
      "oon": 3131,
      "Ġweren": 3132,
      "Ġshowed": 3133,
      "ancy": 3134,
      "por": 3135,
      "yep": 3136,
      "anny": 3137,
      "Ġcontinued": 3138,
      "Ġspring": 3139,
      "rit": 3140,
      "Ġfeed": 3141,
      "Ġlaughing": 3142,
      "ply": 3143,
      "ubl": 3144,
      "Ġsen": 3145,
      "Ġeff": 3146,
      "Ġinvest": 3147,
      "Ġsquare": 3148,
      "Ġwonderful": 3149,
      "tt": 3150,
      "wanna": 3151,
      "Ġsar": 3152,
      "Ġscar": 3153,
      "ored": 3154,
      "yer": 3155,
      "iles": 3156,
      "ference": 3157,
      "Ġespecially": 3158,
      "Ġvideo": 3159,
      "ids": 3160,
      "ume": 3161,
      "Ġbattle": 3162,
      "uts": 3163,
      "Ġrul": 3164,
      "Ġ21": 3165,
      "Ġwelcome": 3166,
      "Ġdelight": 3167,
      "Ġmach": 3168,
      "sey": 3169,
      "Ġsimil": 3170,
      "haha": 3171,
      "Ġdemo": 3172,
      "Ġinteresting": 3173,
      "viously": 3174,
      "Ġrese": 3175,
      "ument": 3176,
      "Ġ(\"": 3177,
      "Ġshop": 3178,
      "Ġtechn": 3179,
      "Ġlose": 3180,
      "vies": 3181,
      "has": 3182,
      "Ġeve": 3183,
      "elve": 3184,
      "uckles": 3185,
      "Ġcharge": 3186,
      "Ġcentury": 3187,
      "Ġvir": 3188,
      "hood": 3189,
      "Ġooh": 3190,
      "Ġorange": 3191,
      "Ġrole": 3192,
      "Ġfuture": 3193,
      "cries": 3194,
      "ida": 3195,
      "Ġearn": 3196,
      "Ġcharlie": 3197,
      "eve": 3198,
      "kat": 3199,
      "pret": 3200,
      "Ġsan": 3201,
      "Ġjoseph": 3202,
      "Ġsurpris": 3203,
      "clock": 3204,
      "Ġfaith": 3205,
      "Ġproblems": 3206,
      "ength": 3207,
      "Ġtou": 3208,
      "Ġwow": 3209,
      "aker": 3210,
      "Ġblocks": 3211,
      "sta": 3212,
      "gged": 3213,
      "Ġregard": 3214,
      "Ġhate": 3215,
      "Ġvers": 3216,
      "Ġstudy": 3217,
      "hh": 3218,
      "edi": 3219,
      "Ġfilm": 3220,
      "Ġjung": 3221,
      "Ġserious": 3222,
      "light": 3223,
      "pardon": 3224,
      "under": 3225,
      "Ġcomput": 3226,
      "Ġfingers": 3227,
      "Ġcream": 3228,
      "Ġactor": 3229,
      "Ġcheese": 3230,
      "Ġdestro": 3231,
      "uhoh": 3232,
      "za": 3233,
      "Ġrid": 3234,
      "kn": 3235,
      "ades": 3236,
      "ils": 3237,
      "three": 3238,
      "aps": 3239,
      "Ġstarts": 3240,
      "ighs": 3241,
      "10": 3242,
      "Ġbord": 3243,
      "Ġbottle": 3244,
      "Ġextra": 3245,
      "Ġrich": 3246,
      "Ġaff": 3247,
      "Ġreading": 3248,
      "Ġdollars": 3249,
      "gon": 3250,
      "Ġflat": 3251,
      "steven": 3252,
      ".--": 3253,
      "Ġcru": 3254,
      "Ġloud": 3255,
      "Ġell": 3256,
      "Ġpolicy": 3257,
      "ning": 3258,
      "Ġmhm": 3259,
      "Ġanx": 3260,
      "Ġunion": 3261,
      "Ġentire": 3262,
      "Ġwindows": 3263,
      "Ġwide": 3264,
      "Ġmi": 3265,
      "omes": 3266,
      "Ġhost": 3267,
      "Ġbuck": 3268,
      "Ġmir": 3269,
      "ica": 3270,
      "cious": 3271,
      "Ġpaid": 3272,
      "gi": 3273,
      "Ġdue": 3274,
      "Ġ24": 3275,
      "set": 3276,
      "Ġhero": 3277,
      "Ġmovies": 3278,
      "Ġcomb": 3279,
      "Ġsinging": 3280,
      "sa": 3281,
      "inite": 3282,
      "Ġflowers": 3283,
      "Ġteeth": 3284,
      "ault": 3285,
      "ublic": 3286,
      "Ġlying": 3287,
      "stop": 3288,
      "Ġshows": 3289,
      "Ġgives": 3290,
      "Ġwestern": 3291,
      "Ġdig": 3292,
      "Ġrab": 3293,
      "isted": 3294,
      "Ġguard": 3295,
      "Ġteddy": 3296,
      "yond": 3297,
      "Ġradio": 3298,
      "Ġlake": 3299,
      "Ġolder": 3300,
      "watch": 3301,
      "lymp": 3302,
      "Ġsepar": 3303,
      "cell": 3304,
      "Ġminister": 3305,
      "Ġdirection": 3306,
      "Ġwal": 3307,
      "Ġsta": 3308,
      "Ġwalked": 3309,
      "Ġterrible": 3310,
      "anning": 3311,
      "face": 3312,
      "riage": 3313,
      "...?": 3314,
      "Ġshare": 3315,
      "Ġacad": 3316,
      "Ġgovernor": 3317,
      "Ġwag": 3318,
      "Ġplays": 3319,
      "Ġpromise": 3320,
      "Ġspecies": 3321,
      "Ġsle": 3322,
      "Ġfred": 3323,
      "Ġhide": 3324,
      "ca": 3325,
      "cture": 3326,
      "Ġalbum": 3327,
      "18": 3328,
      "mu": 3329,
      "Ġneeded": 3330,
      "Ġcommunity": 3331,
      "Ġmix": 3332,
      "Ġadm": 3333,
      "Ġrepublic": 3334,
      "Ġsimilar": 3335,
      "Ġdemocr": 3336,
      "Ġpopular": 3337,
      "Ġoccas": 3338,
      "olution": 3339,
      "rene": 3340,
      "Ġcrack": 3341,
      "old": 3342,
      "Ġamaz": 3343,
      "Ġobs": 3344,
      "Ġaye": 3345,
      "Ġsna": 3346,
      "Ġ2010": 3347,
      "Ġ&": 3348,
      "Ġolymp": 3349,
      "Ġbeyond": 3350,
      "ption": 3351,
      "Ġcenter": 3352,
      "Ġinfl": 3353,
      "urday": 3354,
      "Ġconvers": 3355,
      "mum": 3356,
      "Ġ23": 3357,
      "Ġofficer": 3358,
      "Ġcircle": 3359,
      "Ġnic": 3360,
      "Ġarr": 3361,
      "Ġbackground": 3362,
      "Ġpicked": 3363,
      "illa": 3364,
      "Ġsmile": 3365,
      "Ġkey": 3366,
      "laughing": 3367,
      "Ġterm": 3368,
      "round": 3369,
      "Ġphy": 3370,
      "anton": 3371,
      "Ġwinter": 3372,
      "Ġyouth": 3373,
      "ison": 3374,
      "Ġhandle": 3375,
      "Ġindia": 3376,
      "Ġsunday": 3377,
      "pered": 3378,
      "Ġturning": 3379,
      "Ġcreated": 3380,
      "Ġchicken": 3381,
      "itive": 3382,
      "Ġgoin": 3383,
      "aining": 3384,
      "Ġtwelve": 3385,
      "Ġprep": 3386,
      "eh": 3387,
      "Ġrepe": 3388,
      "antly": 3389,
      "Ġgrass": 3390,
      "Ġsettle": 3391,
      "Ġeggs": 3392,
      "big": 3393,
      "dom": 3394,
      "uce": 3395,
      "Ġmike": 3396,
      "Ġgas": 3397,
      "Ġlion": 3398,
      "Ġlength": 3399,
      "Ġviol": 3400,
      "Ġcy": 3401,
      "Ġmexic": 3402,
      "Ġbal": 3403,
      "omer": 3404,
      "soci": 3405,
      "pty": 3406,
      "Ġbi": 3407,
      "Ġcrit": 3408,
      "ville": 3409,
      "zen": 3410,
      "isy": 3411,
      "Ġrap": 3412,
      "Ġgrandma": 3413,
      ".âĢĻ": 3414,
      "Ġbelow": 3415,
      "----------------": 3416,
      "Ġspell": 3417,
      "Ġearli": 3418,
      "iers": 3419,
      "Ġdate": 3420,
      "itary": 3421,
      "Ġpeggy": 3422,
      "Ġaccom": 3423,
      "Ġwed": 3424,
      "Ġmoon": 3425,
      "bell": 3426,
      "back": 3427,
      "rt": 3428,
      "shi": 3429,
      "turn": 3430,
      "Ġsocial": 3431,
      "Ġqueen": 3432,
      "Ġpil": 3433,
      "Ġparts": 3434,
      "Ġdrawing": 3435,
      "Ġsurprise": 3436,
      "Ġears": 3437,
      "Ġram": 3438,
      "Ġstars": 3439,
      "ko": 3440,
      "kiss": 3441,
      "Ġque": 3442,
      "Ġtalked": 3443,
      "Ġspeaking": 3444,
      "Ġladies": 3445,
      "Ġdiscuss": 3446,
      "Ġlower": 3447,
      "Ġtherefore": 3448,
      "ession": 3449,
      "Ġparticular": 3450,
      "Ġdin": 3451,
      "Ġbigger": 3452,
      "Ġamount": 3453,
      "Ġjoy": 3454,
      "Ġze": 3455,
      "Ġenjoy": 3456,
      "Ġbis": 3457,
      "Ġcreek": 3458,
      "Ġdun": 3459,
      "itions": 3460,
      "Ġrichard": 3461,
      "Ġharry": 3462,
      "Ġpicks": 3463,
      "fri": 3464,
      "Ġfool": 3465,
      "Ġscr": 3466,
      "Ġjapanese": 3467,
      "Ġav": 3468,
      "Ġpocket": 3469,
      "Ġassoci": 3470,
      "tho": 3471,
      "Ġpersonal": 3472,
      "Ġbasket": 3473,
      "Ġworse": 3474,
      "boy": 3475,
      "Ġasking": 3476,
      "point": 3477,
      "Ġabsolutely": 3478,
      "cul": 3479,
      "wr": 3480,
      "Ġstage": 3481,
      "roat": 3482,
      "Ġspent": 3483,
      "Ġgerva": 3484,
      "Ġtowel": 3485,
      "Ġinterrupt": 3486,
      "Ġtexas": 3487,
      "rr": 3488,
      "erve": 3489,
      "Ġpounds": 3490,
      "ination": 3491,
      "Ġfem": 3492,
      "ala": 3493,
      "roll": 3494,
      "Ġalive": 3495,
      "17": 3496,
      "Ġdrew": 3497,
      "Ġfac": 3498,
      "Ġrow": 3499,
      "Ġclosed": 3500,
      "Ġ2011": 3501,
      "Ġimmedi": 3502,
      "bes": 3503,
      "Ġpun": 3504,
      "Ġspeed": 3505,
      "Ġdirected": 3506,
      "Ġfol": 3507,
      "Ġunless": 3508,
      "Ġphot": 3509,
      "nded": 3510,
      "Ġmanner": 3511,
      "cky": 3512,
      "Ġmanage": 3513,
      "Ġ2012": 3514,
      "uel": 3515,
      "Ġtower": 3516,
      "Ġgate": 3517,
      "Ġeaster": 3518,
      "Ġdifference": 3519,
      "brother": 3520,
      "Ġcaused": 3521,
      "Ġgervaise": 3522,
      "Ġnav": 3523,
      "het": 3524,
      "Ġaction": 3525,
      "Ġamy": 3526,
      "Ġpeace": 3527,
      "Ġgrad": 3528,
      "aughty": 3529,
      "Ġpossib": 3530,
      "Ġjesus": 3531,
      "pers": 3532,
      "ech": 3533,
      "rus": 3534,
      "vious": 3535,
      "Ġwol": 3536,
      "Ġnar": 3537,
      "Ġhm": 3538,
      "Ġfamous": 3539,
      "Ġtrad": 3540,
      "Ġrespons": 3541,
      "Ġaccording": 3542,
      "ires": 3543,
      "Ġstat": 3544,
      "dered": 3545,
      "Ġcell": 3546,
      "Ġwashing": 3547,
      "amund": 3548,
      "Ġnote": 3549,
      "Ġmoder": 3550,
      "Ġmagnet": 3551,
      "bb": 3552,
      "Ġdirector": 3553,
      "Ġoppos": 3554,
      "Ġcust": 3555,
      "Ġthreat": 3556,
      "isf": 3557,
      "Ġblank": 3558,
      "Ġeleanor": 3559,
      "Ġnatural": 3560,
      "Ġciv": 3561,
      "ashed": 3562,
      "lden": 3563,
      "Ġsla": 3564,
      "Ġtend": 3565,
      "Ġmission": 3566,
      "Ġdirty": 3567,
      "yle": 3568,
      "Ġstren": 3569,
      "Ġsteven": 3570,
      "cra": 3571,
      "ency": 3572,
      "str": 3573,
      "ctions": 3574,
      "Ġclever": 3575,
      "Ġrosamund": 3576,
      "ably": 3577,
      "conom": 3578,
      "ja": 3579,
      "pose": 3580,
      "Ġjones": 3581,
      "elly": 3582,
      "Ġspl": 3583,
      "Ġrace": 3584,
      "Ġdecis": 3585,
      "Ġsaturday": 3586,
      "od": 3587,
      "Ġcult": 3588,
      "Ġraised": 3589,
      "Ġpleasure": 3590,
      "Ġ2016": 3591,
      "Ġstarting": 3592,
      "upid": 3593,
      "Ġbrief": 3594,
      "Ġdeter": 3595,
      "Ġarrest": 3596,
      "ansas": 3597,
      "Ġrefer": 3598,
      "Ġfresh": 3599,
      "Ġfinal": 3600,
      "Ġoriginal": 3601,
      "four": 3602,
      "Ġscared": 3603,
      "Ġcommitt": 3604,
      "Ġhelped": 3605,
      "pa": 3606,
      "ago": 3607,
      "Ġadvent": 3608,
      "Ġtotal": 3609,
      "wise": 3610,
      "Ġjul": 3611,
      "Ġjwww": 3612,
      "ushing": 3613,
      "Ġcoat": 3614,
      "Ġjoined": 3615,
      "Ġswit": 3616,
      "ius": 3617,
      "Ġcoo": 3618,
      "Ġstories": 3619,
      "Ġcoach": 3620,
      "worth": 3621,
      "bar": 3622,
      "field": 3623,
      "Ġemp": 3624,
      "ruction": 3625,
      "Ġeh": 3626,
      "ads": 3627,
      "Ġasleep": 3628,
      "Ġintrod": 3629,
      "Ġchristian": 3630,
      "Ġbound": 3631,
      "Ġprocess": 3632,
      "Ġbarn": 3633,
      "ergy": 3634,
      "Ġgro": 3635,
      "Ġmeat": 3636,
      "Ġcovered": 3637,
      "Ġninet": 3638,
      "._": 3639,
      "inct": 3640,
      "Ġeconom": 3641,
      "Ġlikely": 3642,
      "Ġmarie": 3643,
      "Ġspoon": 3644,
      "Ġmicro": 3645,
      "Ġ100": 3646,
      "Ġcalling": 3647,
      "Ġgreater": 3648,
      "Ġmissing": 3649,
      "Ġnumbers": 3650,
      "Ġ..": 3651,
      "Ġindians": 3652,
      "Ġweather": 3653,
      "mr": 3654,
      "Ġagree": 3655,
      "Ġcharles": 3656,
      "ography": 3657,
      "five": 3658,
      "Ġfamil": 3659,
      "Ġmarket": 3660,
      "Ġsens": 3661,
      "Ġchat": 3662,
      "Ġweap": 3663,
      "Ġstreng": 3664,
      "line": 3665,
      "iday": 3666,
      "Ġmatt": 3667,
      "Ġelephan": 3668,
      "Ġrelations": 3669,
      "Ġund": 3670,
      "ird": 3671,
      "oughs": 3672,
      "Ġdriving": 3673,
      "Ġinclude": 3674,
      "Ġwake": 3675,
      "Ġlines": 3676,
      "iso": 3677,
      "Ġpray": 3678,
      "Ġgrew": 3679,
      "Ġtax": 3680,
      "Ġknights": 3681,
      "Ġrat": 3682,
      "Ġupstairs": 3683,
      "Ġthinks": 3684,
      "Ġelection": 3685,
      "Ġrough": 3686,
      "Ġcrowd": 3687,
      "war": 3688,
      "Ġvarious": 3689,
      "Ġwit": 3690,
      "Ġnurs": 3691,
      "Ġsoci": 3692,
      "Ġspan": 3693,
      "Ġcoast": 3694,
      "Ġident": 3695,
      "Ġcentral": 3696,
      "cour": 3697,
      "sm": 3698,
      "Ġyo": 3699,
      "amb": 3700,
      "Ġsouthern": 3701,
      "Ġfright": 3702,
      "edy": 3703,
      "Ġstupid": 3704,
      "father": 3705,
      "Ġanywhere": 3706,
      "Ġhardly": 3707,
      "ï¿½ï¿½ï¿½ï¿½": 3708,
      "vocal": 3709,
      "Ġcous": 3710,
      "Ġspr": 3711,
      "Ġ22": 3712,
      "these": 3713,
      "Ġbirds": 3714,
      "Ġroyal": 3715,
      "Ġgermany": 3716,
      "Ġphys": 3717,
      "Ġhenry": 3718,
      "oring": 3719,
      "rid": 3720,
      "Ġscream": 3721,
      "Ġsatisf": 3722,
      "Ġtravel": 3723,
      "Ġrail": 3724,
      "Ġresult": 3725,
      "fraser": 3726,
      "Ġhiding": 3727,
      "Ġsuff": 3728,
      "rect": 3729,
      "Ġsleeping": 3730,
      "Ġcabin": 3731,
      "Ġpenn": 3732,
      "Ġnap": 3733,
      "ites": 3734,
      "Ġstream": 3735,
      "Ġnorthern": 3736,
      "ashion": 3737,
      "Ġmel": 3738,
      "Ġrobert": 3739,
      "Ġfox": 3740,
      "Ġchairman": 3741,
      "Ġsimply": 3742,
      "Ġdevelopment": 3743,
      "Ġcivil": 3744,
      "Ġfer": 3745,
      "Ġpor": 3746,
      "Ġwheel": 3747,
      "bu": 3748,
      "mama": 3749,
      "Ġsize": 3750,
      "nds": 3751,
      "Ġhea": 3752,
      "Ġsevent": 3753,
      "Ġsett": 3754,
      "Ġmamma": 3755,
      "sil": 3756,
      "Ġirene": 3757,
      "erved": 3758,
      "Ġsearch": 3759,
      "pick": 3760,
      "Ġaud": 3761,
      "Ġways": 3762,
      "Ġactress": 3763,
      "ivid": 3764,
      "ghed": 3765,
      "initely": 3766,
      "Ġtuck": 3767,
      "Ġcro": 3768,
      "Ġhelen": 3769,
      "Ġholiday": 3770,
      "Ġeducation": 3771,
      "iment": 3772,
      "Ġtries": 3773,
      "Ġpencil": 3774,
      "Ġarrived": 3775,
      "Ġbay": 3776,
      "Ġgab": 3777,
      "Ġplant": 3778,
      "Ġnon": 3779,
      "Ġapple": 3780,
      "Ġawards": 3781,
      "Ġlin": 3782,
      "Ġforty": 3783,
      "Ġdoc": 3784,
      "berry": 3785,
      "Ġhonest": 3786,
      "chuckles": 3787,
      "Ġnotice": 3788,
      "Ġ2008": 3789,
      "Ġacademy": 3790,
      "cast": 3791,
      "sorry": 3792,
      "Ġdru": 3793,
      "iron": 3794,
      "Ġsimple": 3795,
      "Ġdolly": 3796,
      "antic": 3797,
      "Ġ27": 3798,
      "Ġenv": 3799,
      "Ġterms": 3800,
      "Ġpurple": 3801,
      "Ġsandw": 3802,
      "Ġspirit": 3803,
      "Ġcalm": 3804,
      "Ġfighting": 3805,
      "Ġthrew": 3806,
      "Ġended": 3807,
      "Ġcomputer": 3808,
      "ables": 3809,
      "ests": 3810,
      "Ġ26": 3811,
      "Ġtwice": 3812,
      "Ġneedta": 3813,
      "Ġserved": 3814,
      "Ġpolitical": 3815,
      "Ġsteps": 3816,
      "Ġlucky": 3817,
      "Ġcommittee": 3818,
      "Ġemplo": 3819,
      "Ġninety": 3820,
      "Ġflying": 3821,
      "Ġsharp": 3822,
      "Ġmachine": 3823,
      "ga": 3824,
      "Ġprice": 3825,
      "Ġmilitary": 3826,
      "Ġnature": 3827,
      "ially": 3828,
      "Ġital": 3829,
      "Ġformed": 3830,
      "Ġspread": 3831,
      "Ġloves": 3832,
      "Ġprofessor": 3833,
      "book": 3834,
      "Ġwound": 3835,
      "reme": 3836,
      "lli": 3837,
      "Ġstorm": 3838,
      "Ġdeli": 3839,
      "Ġloire": 3840,
      "Ġjoin": 3841,
      "Ġlargest": 3842,
      "Ġlaid": 3843,
      "Ġearlier": 3844,
      "itude": 3845,
      "asons": 3846,
      "aded": 3847,
      "Ġforth": 3848,
      "Ġ28": 3849,
      "ggie": 3850,
      "Ġcastle": 3851,
      "hal": 3852,
      "Ġthroat": 3853,
      "Ġrush": 3854,
      "Ġplane": 3855,
      "Ġcongress": 3856,
      "new": 3857,
      "Ġentered": 3858,
      "whoops": 3859,
      "Ġcompletely": 3860,
      "Ġbon": 3861,
      "aching": 3862,
      "Ġsele": 3863,
      "bob": 3864,
      "Ġhappening": 3865,
      "iar": 3866,
      "Ġboo": 3867,
      "Ġdressed": 3868,
      "ularly": 3869,
      "Ġgoodness": 3870,
      "50": 3871,
      "Ġconside": 3872,
      "Ġmostly": 3873,
      "Ġconsidered": 3874,
      "Ġnaughty": 3875,
      "Ġonto": 3876,
      "Ġplaced": 3877,
      "Ġshape": 3878,
      "Ġhotel": 3879,
      "Ġmountain": 3880,
      "Ġangry": 3881,
      "Ġsurprised": 3882,
      "hin": 3883,
      "sighs": 3884,
      "Ġbunny": 3885,
      "ustration": 3886,
      "cient": 3887,
      "Ġtemper": 3888,
      "ny": 3889,
      "Ġtone": 3890,
      "Ġlap": 3891,
      "ems": 3892,
      "Ġmissed": 3893,
      "Ġjew": 3894,
      "ini": 3895,
      "Ġbradford": 3896,
      "ife": 3897,
      "Ġfif": 3898,
      "Ġalbert": 3899,
      "Ġrights": 3900,
      "Ġcheer": 3901,
      "Ġ2017": 3902,
      "Ġswing": 3903,
      "Ġmedic": 3904,
      "Ġexplain": 3905,
      "Ġhonor": 3906,
      "craft": 3907,
      "mat": 3908,
      "ising": 3909,
      "Ġplate": 3910,
      "Ġpra": 3911,
      "ached": 3912,
      "burg": 3913,
      "sure": 3914,
      "Ġant": 3915,
      "rain": 3916,
      "itor": 3917,
      "Ġclown": 3918,
      "Ġay": 3919,
      "Ġthus": 3920,
      "Ġscient": 3921,
      "anced": 3922,
      "Ġhistor": 3923,
      "Ġepiso": 3924,
      "Ġinvolved": 3925,
      "Ġmodern": 3926,
      "every": 3927,
      "icious": 3928,
      "Ġreact": 3929,
      "nel": 3930,
      "Ġtight": 3931,
      "asure": 3932,
      "Ġbeach": 3933,
      "make": 3934,
      "Ġcuri": 3935,
      "keep": 3936,
      "Ġboss": 3937,
      "Ġduty": 3938,
      "su": 3939,
      "Ġii": 3940,
      "Ġemer": 3941,
      "Ġsheep": 3942,
      "Ġmax": 3943,
      "Ġfalling": 3944,
      "Ġwrest": 3945,
      "Ġhay": 3946,
      "vering": 3947,
      "Ġpapa": 3948,
      "Ġsusp": 3949,
      "Ġdangerous": 3950,
      "Ġble": 3951,
      "Ġneither": 3952,
      "Ġsupper": 3953,
      "Ġforest": 3954,
      "Ġoccur": 3955,
      "Ġwoods": 3956,
      "cho": 3957,
      "Ġlights": 3958,
      "Ġquarter": 3959,
      "kin": 3960,
      "Ġtar": 3961,
      "Ġfeder": 3962,
      "Ġareas": 3963,
      "Ġ29": 3964,
      "Ġpatient": 3965,
      "Ġstrugg": 3966,
      "Ġlaughed": 3967,
      "could": 3968,
      "sen": 3969,
      "Ġnea": 3970,
      "Ġdere": 3971,
      "Ġnur": 3972,
      "Ġpleased": 3973,
      "Ġindust": 3974,
      "Ġskin": 3975,
      "Ġnineteen": 3976,
      "Ġtal": 3977,
      "orough": 3978,
      "Ġbrothers": 3979,
      "Ġescape": 3980,
      "dis": 3981,
      "Ġaged": 3982,
      "Ġhigher": 3983,
      "those": 3984,
      "Ġcart": 3985,
      "another": 3986,
      "Ġsteve": 3987,
      "Ġopport": 3988,
      "Ġdetect": 3989,
      "Ġmater": 3990,
      "Ġpill": 3991,
      "cts": 3992,
      "Ġsail": 3993,
      "Ġscene": 3994,
      "ensive": 3995,
      "Ġmotion": 3996,
      "Ġconversation": 3997,
      "dat": 3998,
      "Ġ()": 3999,
      "ival": 4000,
      "Ġfallen": 4001,
      "Ġ50": 4002,
      "epend": 4003,
      "Ġmonster": 4004,
      "Ġrelig": 4005,
      "Ġlouis": 4006,
      "Ġcrew": 4007,
      "Ġenergy": 4008,
      "Ġsmart": 4009,
      "Ġmotor": 4010,
      "Ġtowns": 4011,
      "199": 4012,
      "11": 4013,
      "oming": 4014,
      "outs": 4015,
      "Ġbless": 4016,
      "ension": 4017,
      "Ġfellows": 4018,
      "Ġcentre": 4019,
      "Ġleader": 4020,
      "Ġide": 4021,
      "ators": 4022,
      "Ġmyster": 4023,
      "zerland": 4024,
      "Ġhouses": 4025,
      "Ġiron": 4026,
      "Ġbite": 4027,
      "Ġ186": 4028,
      "Ġbesides": 4029,
      "Ġimmediately": 4030,
      "Ġ)": 4031,
      "Ġtong": 4032,
      "Ġdick": 4033,
      "ora": 4034,
      "hop": 4035,
      "Ġeasily": 4036,
      "Ġmistake": 4037,
      "Ġtiger": 4038,
      "Ġannounced": 4039,
      "Ġinflu": 4040,
      "Ġheaven": 4041,
      "oma": 4042,
      "iance": 4043,
      "izes": 4044,
      "Ġkingdom": 4045,
      "Ġpuzzle": 4046,
      "pr": 4047,
      "othy": 4048,
      "Ġdeb": 4049,
      "Ġarg": 4050,
      "Ġclock": 4051,
      "Ġenemy": 4052,
      "Ġsinger": 4053,
      "Ġdamn": 4054,
      "Ġresearch": 4055,
      "Ġswitzerland": 4056,
      "Ġrand": 4057,
      "Ġopportun": 4058,
      "Ġinf": 4059,
      "hered": 4060,
      "Ġmoves": 4061,
      "Ġsuit": 4062,
      "aret": 4063,
      "uhuh": 4064,
      "Ġ2013": 4065,
      "Ġ2006": 4066,
      "ipp": 4067,
      "ening": 4068,
      "Ġadmin": 4069,
      "ota": 4070,
      "Ġexcited": 4071,
      "'?": 4072,
      "yell": 4073,
      "heart": 4074,
      "ples": 4075,
      "Ġ2007": 4076,
      "Ġempty": 4077,
      "Ġjungle": 4078,
      "john": 4079,
      "Ġcad": 4080,
      "Ġrate": 4081,
      "atherine": 4082,
      "Ġdesp": 4083,
      "Ġaddress": 4084,
      "Ġlearned": 4085,
      "Ġchic": 4086,
      "Ġdesk": 4087,
      "Ġbeside": 4088,
      "Ġfilled": 4089,
      "Ġsoul": 4090,
      "ita": 4091,
      "Ġexe": 4092,
      "Ġeleven": 4093,
      "Ġsant": 4094,
      "Ġdeclared": 4095,
      "Ġnecessary": 4096,
      "ckey": 4097,
      "ker": 4098,
      "Ġcass": 4099,
      "Ġsurface": 4100,
      "Ġpractice": 4101,
      "Ġalf": 4102,
      "Ġregular": 4103,
      "ped": 4104,
      "somet": 4105,
      "Ã¼": 4106,
      "Ġsid": 4107,
      "Ġgrab": 4108,
      "Ġpublished": 4109,
      "Ġestab": 4110,
      "30": 4111,
      "Ġate": 4112,
      "usion": 4113,
      "Ġshirt": 4114,
      "Ġproduced": 4115,
      "atives": 4116,
      "Ġinj": 4117,
      "tering": 4118,
      "ella": 4119,
      "Ġplain": 4120,
      "Ġtrip": 4121,
      "Ġwalks": 4122,
      "dra": 4123,
      "Ġdeg": 4124,
      "ively": 4125,
      "Ġcolors": 4126,
      "Ġkeeping": 4127,
      "Ġassist": 4128,
      "Ġfifteen": 4129,
      "Ġmentioned": 4130,
      "Ġstrength": 4131,
      "Ġtiny": 4132,
      "oups": 4133,
      "illustration": 4134,
      "Ġchoice": 4135,
      "Ġchampionship": 4136,
      "Ġmadam": 4137,
      "Ġboun": 4138,
      "ults": 4139,
      "Ġawful": 4140,
      "Ġroman": 4141,
      "Ġlips": 4142,
      "Ġ2014": 4143,
      "Ġindivid": 4144,
      "Ġindepend": 4145,
      "Ġ2009": 4146,
      "Ġdogs": 4147,
      "Ġpulled": 4148,
      "Ġmurder": 4149,
      "ointed": 4150,
      "fall": 4151,
      "Ġroof": 4152,
      "Ġsugar": 4153,
      "Ġmessage": 4154,
      "Ġdefinitely": 4155,
      "Ġitalian": 4156,
      ".,": 4157,
      "Ġtony": 4158,
      "Ġpony": 4159,
      "Ġ--": 4160,
      "Ġoffer": 4161,
      "Ġproud": 4162,
      "Ġappre": 4163,
      "Ġevidence": 4164,
      "Ġagreed": 4165,
      "Ġancient": 4166,
      "Ġdouble": 4167,
      "Ġgrave": 4168,
      "Ġprofessional": 4169,
      "Ġdancing": 4170,
      "mes": 4171,
      "Ġoffe": 4172,
      "Ġhadn": 4173,
      "ours": 4174,
      "urity": 4175,
      "Ġchris": 4176,
      "Ġsongs": 4177,
      "Ġeager": 4178,
      "Ġstock": 4179,
      "Ġdivision": 4180,
      "Ġapparent": 4181,
      "Ġedge": 4182,
      "Ġexpected": 4183,
      "Ġpleasant": 4184,
      "Ġdorothy": 4185,
      "Ġnurse": 4186,
      "ky": 4187,
      "Ġsaint": 4188,
      "hire": 4189,
      "Ġnick": 4190,
      "Ġinqu": 4191,
      "este": 4192,
      "Ġcontinues": 4193,
      "Ġoccasion": 4194,
      "ez": 4195,
      "gro": 4196,
      "noise": 4197,
      "Ġchem": 4198,
      "ails": 4199,
      "Ġstands": 4200,
      "Ġrule": 4201,
      "Ġacqu": 4202,
      "Ġremo": 4203,
      "Ġimpro": 4204,
      "Ġobviously": 4205,
      "pro": 4206,
      "imit": 4207,
      "Ġsaved": 4208,
      "Ġpercent": 4209,
      "Ġwatched": 4210,
      "Ġsarah": 4211,
      "ups": 4212,
      "Ġcities": 4213,
      "Ġna": 4214,
      "ridge": 4215,
      "Ġlim": 4216,
      "Ġliber": 4217,
      "erson": 4218,
      "Ġshoe": 4219,
      "Ġgift": 4220,
      "Ġvictor": 4221,
      "Ġimagine": 4222,
      "12": 4223,
      "Ġfund": 4224,
      "Ġfashion": 4225,
      "bered": 4226,
      "ify": 4227,
      "Ġprince": 4228,
      "Ġsmoke": 4229,
      "Ġoccup": 4230,
      "Ġelephant": 4231,
      "Ġgroups": 4232,
      "Ġnormal": 4233,
      "Ġprivate": 4234,
      "Ġdinos": 4235,
      "Ġtap": 4236,
      "Ġloss": 4237,
      "Ġexperience": 4238,
      "Ġoil": 4239,
      "rican": 4240,
      "Ġplans": 4241,
      "Ġmeaning": 4242,
      "colm": 4243,
      "Ġswimming": 4244,
      "fa": 4245,
      "show": 4246,
      "ira": 4247,
      "open": 4248,
      "Ġusual": 4249,
      "Ġgrown": 4250,
      "Ġaustralia": 4251,
      "mine": 4252,
      "oc": 4253,
      "try": 4254,
      "Ġmud": 4255,
      "Ġcele": 4256,
      "Ġthou": 4257,
      "Ġheads": 4258,
      "Ġpays": 4259,
      "Ġservices": 4260,
      "Ġpurpose": 4261,
      "ders": 4262,
      "Ġbutton": 4263,
      "Ġagent": 4264,
      "Ġcarol": 4265,
      "Ġshoulder": 4266,
      "buted": 4267,
      "Ġremem": 4268,
      "Ġsociety": 4269,
      "Ġbother": 4270,
      "Ġmut": 4271,
      "Ġgang": 4272,
      "aling": 4273,
      "Ġnoticed": 4274,
      "Ġdonald": 4275,
      "Ġfigures": 4276,
      "Ġpromised": 4277,
      "Ġhuge": 4278,
      "rie": 4279,
      "actually": 4280,
      "Ġcountries": 4281,
      "Ġlawyer": 4282,
      "Ġbobby": 4283,
      "Ġwil": 4284,
      "anda": 4285,
      "Ġplenty": 4286,
      "Ġbrave": 4287,
      "happy": 4288,
      "Ġfeat": 4289,
      "Ġinvestig": 4290,
      "Ġspanish": 4291,
      "ij": 4292,
      "Ġourselves": 4293,
      "Ġcraw": 4294,
      "van": 4295,
      "Ġwha": 4296,
      "Ġsac": 4297,
      "Ġhal": 4298,
      "Ġgentleman": 4299,
      "Ġadminist": 4300,
      "oe": 4301,
      "Ġdare": 4302,
      "Ġlee": 4303,
      "Ġhockey": 4304,
      "Ġbegin": 4305,
      "mission": 4306,
      "cus": 4307,
      "colate": 4308,
      "Ġnorthwest": 4309,
      "Ġofficers": 4310,
      "Ġmalcolm": 4311,
      "200": 4312,
      "water": 4313,
      "Ġpi": 4314,
      "Ġpurs": 4315,
      "Ġclearly": 4316,
      "Ġwearing": 4317,
      "Ġissue": 4318,
      "Ġstaff": 4319,
      "Ġcelebr": 4320,
      "nding": 4321,
      "Ġbeha": 4322,
      "Ġthick": 4323,
      "Ġsoldiers": 4324,
      "Ġjour": 4325,
      "Ġhunting": 4326,
      "Ġscarce": 4327,
      "ond": 4328,
      "Ġwis": 4329,
      "Ġkore": 4330,
      "Ġexist": 4331,
      "Ġflor": 4332,
      "Ġtears": 4333,
      "Ġremain": 4334,
      "Ġfalls": 4335,
      "Ġgenerally": 4336,
      "Ġwhist": 4337,
      "Ġstruck": 4338,
      "Ġwolf": 4339,
      "15": 4340,
      "ique": 4341,
      "Ġliter": 4342,
      "igs": 4343,
      "Ġblind": 4344,
      "Ġavail": 4345,
      "mn": 4346,
      "uct": 4347,
      "Ġuk": 4348,
      "Ġattract": 4349,
      "Ġmovement": 4350,
      "bet": 4351,
      "rated": 4352,
      "Ġbedroom": 4353,
      "Ġmagaz": 4354,
      "aign": 4355,
      "ban": 4356,
      "cue": 4357,
      "Ġpool": 4358,
      "blue": 4359,
      "Ġschol": 4360,
      "going": 4361,
      "Ġguns": 4362,
      "mie": 4363,
      "Ġmob": 4364,
      "Ġimposs": 4365,
      "Ġlistening": 4366,
      "Ġconstit": 4367,
      "michael": 4368,
      "Ġrabbit": 4369,
      "icated": 4370,
      "Ġforces": 4371,
      "Ġprint": 4372,
      "Ġdriver": 4373,
      "Ġpotato": 4374,
      "Ġperfectly": 4375,
      "tles": 4376,
      "really": 4377,
      "Ġder": 4378,
      "vey": 4379,
      "Ġweak": 4380,
      "aren": 4381,
      "Ġsmith": 4382,
      "celeste": 4383,
      "wing": 4384,
      "Ġtells": 4385,
      "Ġ2015": 4386,
      "Ġdada": 4387,
      "Ġremarked": 4388,
      "Ġcousin": 4389,
      "],": 4390,
      "lling": 4391,
      "Ġlid": 4392,
      "Ġheat": 4393,
      "Ġrange": 4394,
      "Ġcarl": 4395,
      "plane": 4396,
      "Ġnative": 4397,
      "Ġbloody": 4398,
      "Ġpalace": 4399,
      "Ġeastern": 4400,
      "coughs": 4401,
      "dr": 4402,
      "kar": 4403,
      "little": 4404,
      "Ġafterwards": 4405,
      "Ġprize": 4406,
      "hum": 4407,
      "Ġarrow": 4408,
      "Ġformula": 4409,
      "nic": 4410,
      "Ġcards": 4411,
      "Ġpin": 4412,
      "uten": 4413,
      "Ġproceed": 4414,
      "Ġgrace": 4415,
      "Ġshore": 4416,
      "Ġcircum": 4417,
      "Ġmodel": 4418,
      "Ġenviron": 4419,
      "jj": 4420,
      "ola": 4421,
      "Ġwhoa": 4422,
      "Ġsour": 4423,
      "Ġeld": 4424,
      "iding": 4425,
      "Ġenter": 4426,
      "Ġaddition": 4427,
      "Ġsecretary": 4428,
      "Ġtaste": 4429,
      "jam": 4430,
      "Ġq": 4431,
      "vere": 4432,
      "Ġevident": 4433,
      "aning": 4434,
      "ledge": 4435,
      "nn": 4436,
      "Ġmult": 4437,
      "Ġgaz": 4438,
      "aries": 4439,
      "chie": 4440,
      "Ġjum": 4441,
      "cked": 4442,
      "Ġcarefully": 4443,
      "Ġrelie": 4444,
      "Ġjudge": 4445,
      "ere": 4446,
      "Ġpound": 4447,
      "Ġlit": 4448,
      "ences": 4449,
      "Ġsaf": 4450,
      "Ġflag": 4451,
      "Ġshad": 4452,
      "ression": 4453,
      "Ġremained": 4454,
      "Ġdemand": 4455,
      "die": 4456,
      "Ġpsy": 4457,
      "Ġstret": 4458,
      "Ġvote": 4459,
      "Ġscrew": 4460,
      "Ġyounger": 4461,
      "Ġspoken": 4462,
      "Ġfriday": 4463,
      "lll": 4464,
      "Ġdownstairs": 4465,
      "Ġcontract": 4466,
      "Ġballs": 4467,
      "ification": 4468,
      "Ġmartin": 4469,
      "Ġdiscovered": 4470,
      "hips": 4471,
      "Ġpath": 4472,
      "Ġweight": 4473,
      "Ġrisk": 4474,
      "Ġcampaign": 4475,
      "Ġversion": 4476,
      "lor": 4477,
      "Ġalden": 4478,
      "Ġdread": 4479,
      "Ġwaste": 4480,
      "Ġsports": 4481,
      "inese": 4482,
      "Ġsnake": 4483,
      "lled": 4484,
      "Ġflight": 4485,
      "Ġcontact": 4486,
      "Ġseconds": 4487,
      "Ġfirm": 4488,
      "Ġteach": 4489,
      "pos": 4490,
      "Åį": 4491,
      "Ġmouse": 4492,
      "ero": 4493,
      "Ġquality": 4494,
      "Ġmarg": 4495,
      "Ġsits": 4496,
      "Ġships": 4497,
      "Ġbelieved": 4498,
      "Ġcontinue": 4499,
      "Ġfixed": 4500,
      "Ġlucy": 4501,
      "mc": 4502,
      "Ġbrain": 4503,
      "iction": 4504,
      "Ġspeech": 4505,
      "Ġentertain": 4506,
      "Ġtongue": 4507,
      "Ġimpossible": 4508,
      "Ġmail": 4509,
      "Ġfis": 4510,
      "Ġreck": 4511,
      "Ġpaint": 4512,
      "Ġbert": 4513,
      "umn": 4514,
      "Ġsake": 4515,
      "Ġmarry": 4516,
      "Ġcalls": 4517,
      "Ġsecurity": 4518,
      "chair": 4519,
      "Ġeighty": 4520,
      "should": 4521,
      "Ġcrime": 4522,
      "Ġopposite": 4523,
      "Ġenvironment": 4524,
      "aled": 4525,
      "Ġstan": 4526,
      "Ġworried": 4527,
      "Ġflower": 4528,
      "Ġchina": 4529,
      "Ġvirgin": 4530,
      "Ġpant": 4531,
      "ena": 4532,
      "Ġvot": 4533,
      "eman": 4534,
      "Ġchoose": 4535,
      "Ġopportunity": 4536,
      "!'": 4537,
      "oom": 4538,
      "Ġfaces": 4539,
      "Ġnomin": 4540,
      "âĢĺ": 4541,
      "Ġscience": 4542,
      "Ġprime": 4543,
      "Ġopening": 4544,
      "Ġ187": 4545,
      "Ġgolden": 4546,
      "Ġprinci": 4547,
      "Ġeuropean": 4548,
      "hee": 4549,
      "Ġsides": 4550,
      "otte": 4551,
      "Ġplat": 4552,
      "Ġdepend": 4553,
      "Ġphili": 4554,
      "Ġutter": 4555,
      "kins": 4556,
      "Ġsi": 4557,
      "cellent": 4558,
      "Ġmedicine": 4559,
      "lan": 4560,
      "Ġshown": 4561,
      "Ġhelping": 4562,
      "Ġfounded": 4563,
      "Ġstraw": 4564,
      "cing": 4565,
      "Ġhorn": 4566,
      "Ġray": 4567,
      "iel": 4568,
      "Ġruns": 4569,
      "Ġdecision": 4570,
      "Ġjourney": 4571,
      "ov": 4572,
      "poss": 4573,
      "eds": 4574,
      "Ġstairs": 4575,
      "aboo": 4576,
      "Ġharris": 4577,
      "Ġmont": 4578,
      "Ġschools": 4579,
      "Ġtrem": 4580,
      "Ġcorrect": 4581,
      "bi": 4582,
      "Ġtaught": 4583,
      "verse": 4584,
      "eaks": 4585,
      "Ġknowing": 4586,
      "Ġbrush": 4587,
      "Ġscott": 4588,
      "Ġdragon": 4589,
      "Ġbathroom": 4590,
      "Ġclimb": 4591,
      "Ġtext": 4592,
      "Ġfault": 4593,
      "isn": 4594,
      "Ġrout": 4595,
      "ushes": 4596,
      "Ġmanager": 4597,
      "Ġplayers": 4598,
      "bel": 4599,
      "fly": 4600,
      "iot": 4601,
      "only": 4602,
      "sty": 4603,
      "Ġcopy": 4604,
      "Ġcases": 4605,
      "Ġanxious": 4606,
      "lliant": 4607,
      "fish": 4608,
      "looking": 4609,
      "_.": 4610,
      "nice": 4611,
      "Ġcomment": 4612,
      "Ġharm": 4613,
      "gging": 4614,
      "Ġparis": 4615,
      "Ġpossibly": 4616,
      "ses": 4617,
      "Ġtoast": 4618,
      "anne": 4619,
      "Ġvac": 4620,
      "Ġgrant": 4621,
      "Ġchoo": 4622,
      "anned": 4623,
      "Ġartist": 4624,
      "Ġgrowing": 4625,
      "Ġfemale": 4626,
      "Ġoce": 4627,
      "Ġsuc": 4628,
      "soft": 4629,
      "Ġzoo": 4630,
      "ram": 4631,
      "lend": 4632,
      "Ġupper": 4633,
      "Ġofficial": 4634,
      "Ġstructure": 4635,
      "Ġprepared": 4636,
      "uly": 4637,
      "Ġtu": 4638,
      "lla": 4639,
      "Ġnut": 4640,
      "fection": 4641,
      "Ġtrade": 4642,
      "Ġsurround": 4643,
      "Ġincluded": 4644,
      "Ġwalls": 4645,
      "Ġparticularly": 4646,
      "Ġcloser": 4647,
      "Ġtask": 4648,
      "Ġstyle": 4649,
      "Ġknife": 4650,
      "Ġotherwise": 4651,
      "Ġpoet": 4652,
      "pering": 4653,
      "Ġsurv": 4654,
      "Ġproperly": 4655,
      "Ġbudget": 4656,
      "Ġtitle": 4657,
      "Ġeffort": 4658,
      "bal": 4659,
      "Ġast": 4660,
      "ext": 4661,
      "angle": 4662,
      "Ġmagic": 4663,
      "Ġpapers": 4664,
      "Ġchocolate": 4665,
      "Ġbaseball": 4666,
      "Ġvictim": 4667,
      "mus": 4668,
      "non": 4669,
      "Ġcanton": 4670,
      "aring": 4671,
      "Ġcancer": 4672,
      "aked": 4673,
      "Ġwitness": 4674,
      "Ãº": 4675,
      "Ġnewsp": 4676,
      "Ġfourth": 4677,
      "Ġtraining": 4678,
      "Ġrecords": 4679,
      "bly": 4680,
      "making": 4681,
      "Ġbringing": 4682,
      "Ġevents": 4683,
      "Ġtucker": 4684,
      "Ġpants": 4685,
      "Ġremind": 4686,
      "Ġfinding": 4687,
      "Ġ2005": 4688,
      "Ġmagn": 4689,
      "Ġfavour": 4690,
      "Ġsandwich": 4691,
      "16": 4692,
      "Ġavo": 4693,
      "Ġshan": 4694,
      "icate": 4695,
      "Ġstro": 4696,
      "Ġchinese": 4697,
      "izing": 4698,
      "Ġkinda": 4699,
      "Ġaircraft": 4700,
      "Ġcarr": 4701,
      "Ġterrit": 4702,
      "Ġlocated": 4703,
      "nat": 4704,
      "oured": 4705,
      "Ġcanada": 4706,
      "Ġvall": 4707,
      "Ġgerald": 4708,
      "Ġtrail": 4709,
      "Ġfairly": 4710,
      "iggles": 4711,
      "Ġmate": 4712,
      "arm": 4713,
      "ented": 4714,
      "Ġprevious": 4715,
      "cise": 4716,
      "Ġacting": 4717,
      "Ġcondition": 4718,
      "pet": 4719,
      "ria": 4720,
      "Ġshake": 4721,
      "Ġchanges": 4722,
      "sss": 4723,
      "Ġobjects": 4724,
      "Ġcomfortable": 4725,
      "Ġrapid": 4726,
      "Ġkat": 4727,
      "Ġtract": 4728,
      "donald": 4729,
      "Ġappearance": 4730,
      "Ġrules": 4731,
      "Ġpit": 4732,
      "Ġjun": 4733,
      "Ġmonday": 4734,
      "Ġprepar": 4735,
      "Ġgeorg": 4736,
      "Ġconcerned": 4737,
      "silver": 4738,
      "host": 4739,
      "Ġsomewhat": 4740,
      "Ġworst": 4741,
      "Ġclaim": 4742,
      "ucky": 4743,
      "Ġtrick": 4744,
      "Ġmanaged": 4745,
      "Ġteams": 4746,
      "chester": 4747,
      "Ġsuspect": 4748,
      "pretend": 4749,
      "Ġpak": 4750,
      "ication": 4751,
      "Ġuses": 4752,
      "agu": 4753,
      "thew": 4754,
      "Ġbenef": 4755,
      "Ġsoup": 4756,
      "ona": 4757,
      "Ġves": 4758,
      "Ġwilling": 4759,
      "Ġknees": 4760,
      "Ġstatement": 4761,
      "Ġeasier": 4762,
      "after": 4763,
      "Ġsucceed": 4764,
      ",âĢĻ": 4765,
      "fle": 4766,
      "jack": 4767,
      "nie": 4768,
      "ashing": 4769,
      "Ġdoors": 4770,
      "Ġbrand": 4771,
      "Ġstayed": 4772,
      "Ġsmaller": 4773,
      "scream": 4774,
      "Ġjennie": 4775,
      "Ġslaves": 4776,
      "Ġfancy": 4777,
      "enne": 4778,
      "isa": 4779,
      "Ġdoggie": 4780,
      "Ġleading": 4781,
      "Ġrussian": 4782,
      "Ġsettled": 4783,
      "Ġcircumst": 4784,
      "Ġtie": 4785,
      "Ġau": 4786,
      "real": 4787,
      "Ġpair": 4788,
      "Ġhook": 4789,
      "Ġamb": 4790,
      "Ġappl": 4791,
      "Ġopin": 4792,
      "Ġreaches": 4793,
      "Ġbowl": 4794,
      "Ġsite": 4795,
      "rick": 4796,
      "Ġchannel": 4797,
      "Ġwagon": 4798,
      "bits": 4799,
      "cu": 4800,
      "Ġpred": 4801,
      "Ġanne": 4802,
      "Ġprefer": 4803,
      "Ġfeels": 4804,
      "Ġbegins": 4805,
      "Ġrelease": 4806,
      "Ġlatter": 4807,
      "care": 4808,
      "Ġmas": 4809,
      "ano": 4810,
      "Ġscot": 4811,
      "Ġprevent": 4812,
      "Ġsafety": 4813,
      "aches": 4814,
      "Ġdozen": 4815,
      "nah": 4816,
      "Ġlaura": 4817,
      "Ġcooper": 4818,
      "Ġflorida": 4819,
      "thi": 4820,
      "oned": 4821,
      "--\"": 4822,
      "Ġmedical": 4823,
      "omed": 4824,
      "think": 4825,
      "Ġdise": 4826,
      "berg": 4827,
      "Ġbran": 4828,
      "Ġstaying": 4829,
      "Ġretired": 4830,
      "Ġmountains": 4831,
      "Ġetc": 4832,
      "Ġappreci": 4833,
      "dies": 4834,
      "mined": 4835,
      "Ġwick": 4836,
      "Ġjam": 4837,
      "allas": 4838,
      "Ġsav": 4839,
      "lands": 4840,
      "Ġsixty": 4841,
      "Ġproduc": 4842,
      "Ġslightly": 4843,
      "Ġpirate": 4844,
      "pri": 4845,
      "onse": 4846,
      "ado": 4847,
      "Ġgreatest": 4848,
      "Ġshower": 4849,
      "Ġtelephone": 4850,
      "Ġrocks": 4851,
      "Ġcharlotte": 4852,
      "Ġamazing": 4853,
      "Ġscarcely": 4854,
      "sw": 4855,
      "ndered": 4856,
      "Ġbarry": 4857,
      "Ġjean": 4858,
      "ekaboo": 4859,
      "Ġprincess": 4860,
      "lah": 4861,
      "Ġtenn": 4862,
      "eral": 4863,
      "Ġfold": 4864,
      "Ġwriter": 4865,
      "$=": 4866,
      "Ã¨": 4867,
      "Ġaver": 4868,
      "sequ": 4869,
      "Ġry": 4870,
      "Ġprogress": 4871,
      "liament": 4872,
      "Ġmexico": 4873,
      "bow": 4874,
      "Ġmeal": 4875,
      "Ġtroops": 4876,
      "Ġunc": 4877,
      "Ġbits": 4878,
      "Ġdeveloped": 4879,
      "Ġrepeated": 4880,
      "Ġcred": 4881,
      "ucle": 4882,
      "Ġapparently": 4883,
      "Ġti": 4884,
      "Ġobl": 4885,
      "Ġforced": 4886,
      "Ġsult": 4887,
      "Ġordered": 4888,
      "Ġgentlemen": 4889,
      "Ġmars": 4890,
      "Ġknowledge": 4891,
      "hah": 4892,
      "Ġfenn": 4893,
      "atory": 4894,
      "Ġhaw": 4895,
      "Ġdoin": 4896,
      "Ġfruit": 4897,
      "Ġplants": 4898,
      "ĠâĢľâĢĺ": 4899,
      "Ġdrama": 4900,
      "Ġdrinking": 4901,
      "Ġextreme": 4902,
      "Ġfal": 4903,
      "Ġfest": 4904,
      "stood": 4905,
      "etch": 4906,
      "Ġgoal": 4907,
      "Ġasian": 4908,
      "Ġorders": 4909,
      "Ġshr": 4910,
      "istan": 4911,
      "Ġsilent": 4912,
      "Ġpainting": 4913,
      "Ġcarrying": 4914,
      "Ġavailable": 4915,
      "jud": 4916,
      "hand": 4917,
      "Ġhomes": 4918,
      "adder": 4919,
      "Ġparliament": 4920,
      "Ġsigned": 4921,
      "Ġtid": 4922,
      "Ġshell": 4923,
      "Ġbutt": 4924,
      "Ġknee": 4925,
      "Ġdecide": 4926,
      "Ġfederal": 4927,
      "Ġmort": 4928,
      "Ġcher": 4929,
      "Ġdim": 4930,
      "ulous": 4931,
      "Ġeverywhere": 4932,
      "dada": 4933,
      "Ġevil": 4934,
      "fortun": 4935,
      "Ġlieuten": 4936,
      "Ġwid": 4937,
      "Ġthee": 4938,
      "Ġcit": 4939,
      "Ġfishing": 4940,
      "Ġclient": 4941,
      "Ġstops": 4942,
      "Ġgodd": 4943,
      "Ġexcit": 4944,
      "Ġsuccessful": 4945,
      "Ġmemory": 4946,
      "Ġepisode": 4947,
      "Ġ{": 4948,
      "Ġcute": 4949,
      "arily": 4950,
      "Ġpulls": 4951,
      "Ġresponse": 4952,
      "Ġdemocratic": 4953,
      "Ġexecut": 4954,
      "Ġvessel": 4955,
      "eat": 4956,
      "hu": 4957,
      "Ġdallas": 4958,
      "Ġark": 4959,
      "Ġkeeps": 4960,
      "Ġelected": 4961,
      "Ġhanging": 4962,
      "Ġchicago": 4963,
      "igsaw": 4964,
      "squ": 4965,
      "hest": 4966,
      "Ġexer": 4967,
      "Ġattend": 4968,
      "Ġtribe": 4969,
      "Ġrealize": 4970,
      "Ġrelated": 4971,
      "Ġrelationship": 4972,
      "ials": 4973,
      "Ġscreen": 4974,
      "nothing": 4975,
      "Ġforgotten": 4976,
      "Ġess": 4977,
      "Ġbare": 4978,
      "Ġpoo": 4979,
      "Ġghost": 4980,
      "Ġneat": 4981,
      "Ġrod": 4982,
      "Ġafford": 4983,
      "Ġdolls": 4984,
      "Ġdata": 4985,
      "Ġdetermined": 4986,
      "14": 4987,
      "ental": 4988,
      "Ġqual": 4989,
      "awa": 4990,
      "Ġsposta": 4991,
      "Ġtransport": 4992,
      "Ġbilly": 4993,
      "Ġlabour": 4994,
      "Ġknocked": 4995,
      "Ġmagazine": 4996,
      "Ġbent": 4997,
      "att": 4998,
      "Ġriding": 4999,
      "Ġ2000": 5000,
      "ishment": 5001,
      "Ġslide": 5002,
      "Ġ2004": 5003,
      "Ġaware": 5004,
      "Ġbeauty": 5005,
      "Ġthy": 5006,
      "enth": 5007,
      "Ġshel": 5008,
      "Ġfranc": 5009,
      "door": 5010,
      "Ġopens": 5011,
      "Ġfeelings": 5012,
      "Ġpresence": 5013,
      "iety": 5014,
      "Ġislands": 5015,
      "Ġcrayons": 5016,
      "Ġarrange": 5017,
      "Ġoffered": 5018,
      "13": 5019,
      "Ġfought": 5020,
      "itation": 5021,
      "Ġren": 5022,
      "Ġcanad": 5023,
      "Ġupset": 5024,
      "Ġordin": 5025,
      "Ġcla": 5026,
      "Ġfond": 5027,
      "Ġtrave": 5028,
      "Ġfairy": 5029,
      "Ġneighbor": 5030,
      "Ġlieutenant": 5031,
      "Ġpow": 5032,
      "asing": 5033,
      "owed": 5034,
      "Ġjess": 5035,
      "Ġ[.": 5036,
      "Ġconference": 5037,
      "place": 5038,
      "Ġrefle": 5039,
      "Ġpresently": 5040,
      "rica": 5041,
      "Ġsuggested": 5042,
      "known": 5043,
      "Ġocean": 5044,
      "Ġsultan": 5045,
      "aa": 5046,
      "pan": 5047,
      "sl": 5048,
      "Ġpardon": 5049,
      "Ġgor": 5050,
      "Ġly": 5051,
      "Ġtrunk": 5052,
      "Ġcheek": 5053,
      "tained": 5054,
      "Ġmatters": 5055,
      "Ġ2003": 5056,
      "Ġburst": 5057,
      "Ġrevolution": 5058,
      "Ġwashington": 5059,
      "Ġblanket": 5060,
      "Ġtourn": 5061,
      "hic": 5062,
      "high": 5063,
      "Ġfurn": 5064,
      "ila": 5065,
      "Ġpartner": 5066,
      "Ġmuse": 5067,
      "Ġseriously": 5068,
      "Ġcrash": 5069,
      "whoa": 5070,
      "Ġsang": 5071,
      "Ġpale": 5072,
      "Ġasse": 5073,
      "Ġrings": 5074,
      "Ġthrown": 5075,
      "Ġstranger": 5076,
      "Ġ1990": 5077,
      "gal": 5078,
      "Ġbike": 5079,
      "Ġmap": 5080,
      "asy": 5081,
      "istic": 5082,
      "Ġbub": 5083,
      "Ġrespo": 5084,
      "Ġinstit": 5085,
      "Ġwedding": 5086,
      "Ġnarrow": 5087,
      "gab": 5088,
      "know": 5089,
      "Ġsection": 5090,
      "isters": 5091,
      "Ġsoftly": 5092,
      "Ġdinosaur": 5093,
      "Ġfile": 5094,
      "Ġtoes": 5095,
      "Ġnovel": 5096,
      "Ġcourage": 5097,
      "ilda": 5098,
      "Ġzeal": 5099,
      "kk": 5100,
      "Ġsau": 5101,
      "Ġnucle": 5102,
      "unts": 5103,
      "uments": 5104,
      "grand": 5105,
      "Ġfarmer": 5106,
      "Ġsteam": 5107,
      "Ġthrowing": 5108,
      "Ġrequire": 5109,
      "Ġelectric": 5110,
      "Ġassociation": 5111,
      "sed": 5112,
      "Ġhaha": 5113,
      "Ġsomehow": 5114,
      "Ġarab": 5115,
      "action": 5116,
      "Ġsword": 5117,
      "Ġhorri": 5118,
      "Ġfully": 5119,
      "Ġrecognized": 5120,
      "Ġmirror": 5121,
      "ai": 5122,
      "Ġruth": 5123,
      "Ġroger": 5124,
      "Ġthoughts": 5125,
      "Ġserve": 5126,
      "Ġchest": 5127,
      "Ġshowing": 5128,
      "Ġkinds": 5129,
      "Ġlarger": 5130,
      "Ġ1980": 5131,
      "Ġolympics": 5132,
      "ĠÂ": 5133,
      "Ġdying": 5134,
      "Ġmale": 5135,
      "fficient": 5136,
      "Ġmargaret": 5137,
      "Ã¤": 5138,
      "Ġtum": 5139,
      "Ġward": 5140,
      "Ġnursery": 5141,
      "lahoma": 5142,
      "giggles": 5143,
      "sho": 5144,
      "llen": 5145,
      "chief": 5146,
      "Ġkim": 5147,
      "rold": 5148,
      "Ġmere": 5149,
      "Ġknight": 5150,
      "Ġdeck": 5151,
      "Ġven": 5152,
      "Ġspain": 5153,
      "ateg": 5154,
      "Ġmarilla": 5155,
      "Ġshoulders": 5156,
      "Ġbush": 5157,
      "Ġpassing": 5158,
      "Ġconstruction": 5159,
      "Ġdirectly": 5160,
      "Ġdunno": 5161,
      "Ġscholars": 5162,
      "Ġexcitement": 5163,
      "pha": 5164,
      "Ġfant": 5165,
      "Ġsophi": 5166,
      "izza": 5167,
      "Ġgiant": 5168,
      "Ġsubst": 5169,
      "Ġinspect": 5170,
      "Ġmajest": 5171,
      "Ġvalue": 5172,
      "Ã¶": 5173,
      "oms": 5174,
      "Ġ[$=": 5175,
      "Ġwaited": 5176,
      "Ġcompanion": 5177,
      "Ġnation": 5178,
      "Ġhast": 5179,
      "Ġhunt": 5180,
      "Ġplanning": 5181,
      "Ġmarriage": 5182,
      "Ġburied": 5183,
      "Ġcontr": 5184,
      "Ġcontri": 5185,
      "Ġslave": 5186,
      "Ġsquee": 5187,
      "while": 5188,
      "Ġtotally": 5189,
      "Ġremembered": 5190,
      "cuse": 5191,
      "ware": 5192,
      "Ġhmm": 5193,
      "Ġjos": 5194,
      "raph": 5195,
      "Ġpolly": 5196,
      "Ġbatter": 5197,
      "Ġoklahoma": 5198,
      "from": 5199,
      "Ġfrightened": 5200,
      "je": 5201,
      "Ġtrop": 5202,
      "Ġodd": 5203,
      "ern": 5204,
      "lle": 5205,
      "Ġweird": 5206,
      "Ġsplend": 5207,
      "Ġartic": 5208,
      "minal": 5209,
      "Ġbern": 5210,
      "Ġquietly": 5211,
      "Ġtarget": 5212,
      "pal": 5213,
      "Ġhee": 5214,
      "Ġpros": 5215,
      "Ġholy": 5216,
      "Ġcompos": 5217,
      "Ġrecently": 5218,
      "Ġauthority": 5219,
      "Ġnormally": 5220,
      "Ġindividual": 5221,
      "boo": 5222,
      "inary": 5223,
      "Ġpour": 5224,
      "lea": 5225,
      "vert": 5226,
      "ching": 5227,
      "Ġrang": 5228,
      "Ġsmiling": 5229,
      "Ġminor": 5230,
      "Ġcommander": 5231,
      "Ġeighteen": 5232,
      "Ġstudents": 5233,
      "Ġhills": 5234,
      "Ġmobile": 5235,
      "law": 5236,
      "zil": 5237,
      "Ġwan": 5238,
      "Ġbac": 5239,
      "ingu": 5240,
      "Ġpic": 5241,
      "ilities": 5242,
      "Ġ40": 5243,
      "Ġexplained": 5244,
      "Ġescap": 5245,
      "Ġestabl": 5246,
      "dro": 5247,
      "Ġinno": 5248,
      "ases": 5249,
      "Ġhamm": 5250,
      "Ġ(;": 5251,
      "inc": 5252,
      "Ġsport": 5253,
      "Ġprove": 5254,
      "Ġinstant": 5255,
      "Ġbene": 5256,
      "Ġfrogs": 5257,
      "Ġstudied": 5258,
      "bra": 5259,
      "Ġoo": 5260,
      "Ġcatherine": 5261,
      "Ġunfortun": 5262,
      "Ġserge": 5263,
      "Ġairplane": 5264,
      "Ġpowerful": 5265,
      "Ġcurrently": 5266,
      "Ġperformance": 5267,
      "Ġangeles": 5268,
      "Ġpushed": 5269,
      "Ġshopping": 5270,
      "Ġweeke": 5271,
      "Ġsentence": 5272,
      "Ġdreams": 5273,
      "whispers": 5274,
      "Ġtradition": 5275,
      "Ġvirginia": 5276,
      "Ġaverage": 5277,
      "rate": 5278,
      "tie": 5279,
      "year": 5280,
      "Ġbrilliant": 5281,
      "Ġbecoming": 5282,
      "Ġmainly": 5283,
      "Ġadvant": 5284,
      "Ġpropos": 5285,
      "Ġmicrophone": 5286,
      "',": 5287,
      "Ġgal": 5288,
      "Ġstir": 5289,
      "irst": 5290,
      "Ġincludes": 5291,
      "Ġqueer": 5292,
      "tin": 5293,
      "rees": 5294,
      "Ġles": 5295,
      "Ġjail": 5296,
      "Ġjigsaw": 5297,
      "Ġsocks": 5298,
      "Ġneg": 5299,
      "abeth": 5300,
      "Ġunderstood": 5301,
      "Ġforever": 5302,
      "Ġpressure": 5303,
      "Ġempire": 5304,
      "Ġgeorgia": 5305,
      "aunt": 5306,
      "Ġaim": 5307,
      "step": 5308,
      "umber": 5309,
      "Ġafrica": 5310,
      "Ġmetal": 5311,
      "apping": 5312,
      "Ġcooking": 5313,
      "Ġproperty": 5314,
      "Ġbradley": 5315,
      "Ġcircumstances": 5316,
      "mund": 5317,
      "Ġtool": 5318,
      "Ġhug": 5319,
      "Ġforgive": 5320,
      "Ġexcellent": 5321,
      "Ġclar": 5322,
      "Ġafrican": 5323,
      "Ġsurely": 5324,
      "Ġprim": 5325,
      "Ġbarty": 5326,
      "Ġfortune": 5327,
      "Ġkar": 5328,
      "asty": 5329,
      "Ġroles": 5330,
      "Ġreply": 5331,
      "Ġjobs": 5332,
      "Ġturtle": 5333,
      "Ġstrike": 5334,
      "Ġplastic": 5335,
      "venue": 5336,
      "Ġ190": 5337,
      "inois": 5338,
      "Ġrecognize": 5339,
      "possum": 5340,
      "Ġopinion": 5341,
      "Ġsink": 5342,
      "Ġitaly": 5343,
      "Ġhind": 5344,
      "Ġsmo": 5345,
      "Ġresults": 5346,
      "ibility": 5347,
      "Ġconfir": 5348,
      "Ġ1960": 5349,
      "Ġbecky": 5350,
      "Ġstom": 5351,
      "urance": 5352,
      "Ġconv": 5353,
      "Ġ31": 5354,
      "Ġbarb": 5355,
      "Ġbrazil": 5356,
      "yellow": 5357,
      "nor": 5358,
      "Ġgay": 5359,
      "Ġforms": 5360,
      "Ġlibr": 5361,
      "Ġaside": 5362,
      "urt": 5363,
      "Ġpromot": 5364,
      "Ġbrian": 5365,
      "Ġwondering": 5366,
      "steve": 5367,
      "Ġgat": 5368,
      "Ġreasons": 5369,
      "Ġsel": 5370,
      "Ġshook": 5371,
      "Ġgoodbye": 5372,
      "Ġprefect": 5373,
      "Ġdrunk": 5374,
      "Ġrelax": 5375,
      "azy": 5376,
      "Ġbomb": 5377,
      "ĠĠĠĠĠĠĠĠĠĠĠĠĠĠĠĠĠĠĠĠĠĠĠĠ": 5378,
      "Ġtractor": 5379,
      "cream": 5380,
      "lock": 5381,
      "heast": 5382,
      "Ġwine": 5383,
      "rey": 5384,
      "Ġdoo": 5385,
      "imate": 5386,
      "Ġcoal": 5387,
      "iano": 5388,
      "Ġsche": 5389,
      "Ġcarriage": 5390,
      "Ġsticks": 5391,
      "Ġexpression": 5392,
      "Ġwhispered": 5393,
      "bout": 5394,
      "hor": 5395,
      "Ġbark": 5396,
      "Ġdust": 5397,
      "Ġhut": 5398,
      "ential": 5399,
      "Ġbiggest": 5400,
      "Ġballoon": 5401,
      "Ġvoices": 5402,
      "Ġnetwork": 5403,
      "Ġcruel": 5404,
      "Ġseparate": 5405,
      "green": 5406,
      "six": 5407,
      "Ġtip": 5408,
      "rian": 5409,
      "hers": 5410,
      "Ġmayor": 5411,
      "Ġmayenne": 5412,
      "Ġprem": 5413,
      "Ġdesper": 5414,
      "Ġ188": 5415,
      "Ġillinois": 5416,
      "Ġactivity": 5417,
      "Ġestablished": 5418,
      "?'": 5419,
      "cat": 5420,
      "Ġsore": 5421,
      "Ġlanguages": 5422,
      "Ġfreed": 5423,
      "Ġfrequ": 5424,
      "Ġrussia": 5425,
      "Ġincrease": 5426,
      "Ġbump": 5427,
      "Ġ[?": 5428,
      "Ġplus": 5429,
      "ulty": 5430,
      "Ġwarri": 5431,
      "Ġ2002": 5432,
      "Ġreceive": 5433,
      "playing": 5434,
      "Ġrequest": 5435,
      "Ġarkansas": 5436,
      "ship": 5437,
      "uf": 5438,
      "Ġwars": 5439,
      "Ġinn": 5440,
      "Ġsees": 5441,
      "acks": 5442,
      "Ġcommiss": 5443,
      "Ġboats": 5444,
      "Ġjimmy": 5445,
      "Ġgradu": 5446,
      "Ġfuss": 5447,
      "Ġthin": 5448,
      "americ": 5449,
      "Ġdiam": 5450,
      "eping": 5451,
      "Ġscri": 5452,
      "Ġcrown": 5453,
      "Ġbitch": 5454,
      "Ġforeign": 5455,
      "Ġgently": 5456,
      "Ġadvice": 5457,
      "Ġfailed": 5458,
      "Ġtournament": 5459,
      "tilda": 5460,
      "Ġemot": 5461,
      "Ġedward": 5462,
      "Ġinterview": 5463,
      "Ġdutch": 5464,
      "Ġselected": 5465,
      "Ġvalley": 5466,
      "ners": 5467,
      "push": 5468,
      "uous": 5469,
      "Ġwitch": 5470,
      "Ġoak": 5471,
      "Ġbones": 5472,
      "Ġharold": 5473,
      "Ġreve": 5474,
      "Ġanti": 5475,
      "aging": 5476,
      "Ġgram": 5477,
      "Ġscore": 5478,
      "Ġactive": 5479,
      "never": 5480,
      "Ġsquir": 5481,
      "Ġdisappeared": 5482,
      "hew": 5483,
      "Ġyards": 5484,
      "Ġvic": 5485,
      "Ġlog": 5486,
      "Ġsmoot": 5487,
      "Ġexciting": 5488,
      "Ġhonour": 5489,
      "gypt": 5490,
      "Ġshouted": 5491,
      "Ġadventure": 5492,
      "Ġnuclear": 5493,
      "inter": 5494,
      "Ġinit": 5495,
      "ulations": 5496,
      "Ġjeff": 5497,
      "Ġcraft": 5498,
      "Ġmuseum": 5499,
      "tis": 5500,
      "Ġtour": 5501,
      "Ġsin": 5502,
      "Ġbible": 5503,
      "Ġeli": 5504,
      "Ġko": 5505,
      "isse": 5506,
      "Ġath": 5507,
      "Ġgrandfather": 5508,
      "Ġ1970": 5509,
      "Ġveget": 5510,
      "Ġentirely": 5511,
      "Ġfolks": 5512,
      "Ġremoved": 5513,
      "Ġbeneath": 5514,
      "mi": 5515,
      "Ġcash": 5516,
      "Ġala": 5517,
      "ellig": 5518,
      "ulated": 5519,
      "Ġmatches": 5520,
      "Ġengaged": 5521,
      "Ġ2001": 5522,
      "Ġskill": 5523,
      "Ġwheels": 5524,
      "Ġpositive": 5525,
      "Ġperformed": 5526,
      "Ġadmir": 5527,
      "Ġfrancis": 5528,
      "fin": 5529,
      "gate": 5530,
      "Ġwished": 5531,
      "inger": 5532,
      "Ġegypt": 5533,
      "ĠĠĠ": 5534,
      "Ġchuck": 5535,
      "Ġterror": 5536,
      "Ġhurried": 5537,
      "Ġentr": 5538,
      "Ġdamage": 5539,
      "Ġhighest": 5540,
      "rat": 5541,
      "Ġbid": 5542,
      "Ġfu": 5543,
      "itar": 5544,
      "Ġsweetheart": 5545,
      "Ġdescribed": 5546,
      "lie": 5547,
      "mw": 5548,
      "Ġbol": 5549,
      "Ġpac": 5550,
      "Ġpump": 5551,
      "Ġinha": 5552,
      "inky": 5553,
      "Ġvent": 5554,
      "Ġarth": 5555,
      "Ġadop": 5556,
      "Ġshift": 5557,
      "Ġsanta": 5558,
      "Ġnewspaper": 5559,
      ",]": 5560,
      "mark": 5561,
      "athan": 5562,
      "Ġbeast": 5563,
      "ulf": 5564,
      "Ġspill": 5565,
      "Ġhelps": 5566,
      "Ġtalks": 5567,
      "Ġjoke": 5568,
      "Ġthroughout": 5569,
      "Ġeaten": 5570,
      "Ġdesire": 5571,
      "Ġsymp": 5572,
      "Ġweapons": 5573,
      "adam": 5574,
      "Ġfriendly": 5575,
      "Ġmetho": 5576,
      "Ġsignific": 5577,
      "Ġdrops": 5578,
      "Ġsoldier": 5579,
      "hun": 5580,
      "sque": 5581,
      "Ġbin": 5582,
      "Ġlone": 5583,
      "Ġkang": 5584,
      "Ġstones": 5585,
      "throw": 5586,
      "ousers": 5587,
      "Ġchin": 5588,
      "Ġeliz": 5589,
      "Ġwipe": 5590,
      "iii": 5591,
      "Ġdetective": 5592,
      "24": 5593,
      "Ġfart": 5594,
      "ooke": 5595,
      "road": 5596,
      "Ġlil": 5597,
      "Ġsole": 5598,
      "Ġjustice": 5599,
      "Ġarchi": 5600,
      "were": 5601,
      "Ġparticip": 5602,
      "Ġswitch": 5603,
      "Ġinstr": 5604,
      "Ġprotest": 5605,
      "Ġbritain": 5606,
      "Ġcharacters": 5607,
      "remember": 5608,
      "ole": 5609,
      "Ġfaster": 5610,
      "Ġkm": 5611,
      "Ġthrows": 5612,
      "Ġcommer": 5613,
      "Ġmatthew": 5614,
      "Ġdistur": 5615,
      "Ġpatty": 5616,
      "Ġpaying": 5617,
      "Ġprovided": 5618,
      "Ġtransfer": 5619,
      "Ġcloth": 5620,
      "Ġissues": 5621,
      "Ġautom": 5622,
      "Ġfamiliar": 5623,
      "\"?": 5624,
      "walk": 5625,
      "Ã±": 5626,
      "Ġtan": 5627,
      "Ġiv": 5628,
      "Ġpizza": 5629,
      "Ġgy": 5630,
      "Ġrum": 5631,
      "Ġquit": 5632,
      "Ġwave": 5633,
      "aws": 5634,
      "Ġtyp": 5635,
      "Ġmerc": 5636,
      "Ġresponsible": 5637,
      "Ġemergen": 5638,
      "Ġideas": 5639,
      "Ġmister": 5640,
      "Ġkenn": 5641,
      "Ġatl": 5642,
      "Ġtrump": 5643,
      "Ġflu": 5644,
      "Ġsmiled": 5645,
      "Ġmulti": 5646,
      "Ġbranch": 5647,
      "Ġzealand": 5648,
      "bon": 5649,
      "long": 5650,
      "pull": 5651,
      "rant": 5652,
      "ties": 5653,
      "Ġtheory": 5654,
      "Ġdom": 5655,
      "Ġfan": 5656,
      "Ġpad": 5657,
      "Ġned": 5658,
      "Ġhabit": 5659,
      "stick": 5660,
      "ette": 5661,
      "Ġsaving": 5662,
      "Ġcomedy": 5663,
      "âĢĿ.": 5664,
      "Ġfocus": 5665,
      "Ġends": 5666,
      "puts": 5667,
      "Ġcookie": 5668,
      "Ġburning": 5669,
      "Ġrachel": 5670,
      "Ġinfluence": 5671,
      "Ġmajesty": 5672,
      "di": 5673,
      "fers": 5674,
      "sung": 5675,
      "Ġrank": 5676,
      "Ġguil": 5677,
      "Ġdrawn": 5678,
      "Ġincident": 5679,
      "Ġlearning": 5680,
      "Ġsalt": 5681,
      "Ġtouched": 5682,
      "Ġchemical": 5683,
      "Ġreckon": 5684,
      "cont": 5685,
      "ran": 5686,
      "Ġgather": 5687,
      "rif": 5688,
      "ache": 5689,
      "Ġedmund": 5690,
      "Ġmusical": 5691,
      "Ġprovide": 5692,
      "Ġborder": 5693,
      "Ġdisease": 5694,
      "Ġcitiz": 5695,
      "Ġtha": 5696,
      "Ġcud": 5697,
      "Ġpy": 5698,
      "eddin": 5699,
      "Ġlies": 5700,
      "Ġshame": 5701,
      "Ġglance": 5702,
      "Ġspecific": 5703,
      "Ġproduction": 5704,
      "asped": 5705,
      "Ġterritory": 5706,
      "met": 5707,
      "talk": 5708,
      "Ġdot": 5709,
      "Ġyum": 5710,
      "Ġfaint": 5711,
      "Ġlam": 5712,
      "Ġinvent": 5713,
      "Ġhesit": 5714,
      "rill": 5715,
      "ications": 5716,
      "rond": 5717,
      "Ġash": 5718,
      "eme": 5719,
      "Ġstandard": 5720,
      "Ġinstru": 5721,
      "Ġreplaced": 5722,
      "Ġshooting": 5723,
      "Ġdestroy": 5724,
      "Ġnearer": 5725,
      "bid": 5726,
      "ilet": 5727,
      "pot": 5728,
      "rom": 5729,
      "Ġloose": 5730,
      "Ġnan": 5731,
      "Ġboots": 5732,
      "Ġclick": 5733,
      "Ġmedal": 5734,
      "Ġillust": 5735,
      "Ġcircus": 5736,
      "Ġoccurred": 5737,
      "Ġdegree": 5738,
      "Ġalaeddin": 5739,
      "rd": 5740,
      "Ġmile": 5741,
      "Ġtooth": 5742,
      "Ġgreek": 5743,
      "rol": 5744,
      "Ġrise": 5745,
      "Ġbodies": 5746,
      "Ġwentworth": 5747,
      "Ġkeys": 5748,
      "Ġconcern": 5749,
      "Ġdefend": 5750,
      "Ġcurious": 5751,
      "Ġalfgar": 5752,
      "Ġweekend": 5753,
      "sar": 5754,
      "Ġreview": 5755,
      "Ġsale": 5756,
      "toy": 5757,
      "Ġtypes": 5758,
      "Ġenjoyed": 5759,
      "Ġfailure": 5760,
      "Ġshadow": 5761,
      "Ġoblig": 5762,
      "Ġordinary": 5763,
      "bc": 5764,
      "hus": 5765,
      "pol": 5766,
      "Ġwinn": 5767,
      "Ġyard": 5768,
      "Ġrare": 5769,
      "Ġfoll": 5770,
      "Ġbreaking": 5771,
      "Ġlara": 5772,
      "Ġconserv": 5773,
      "Ġjacket": 5774,
      "Ġincred": 5775,
      "Ġpirates": 5776,
      "Ġdestroyed": 5777,
      "Ġelder": 5778,
      "Ġguilty": 5779,
      "90": 5780,
      "cord": 5781,
      "Ġcave": 5782,
      "Ġyep": 5783,
      "Ġfier": 5784,
      "Ġpages": 5785,
      "Ġalto": 5786,
      "Ġencour": 5787,
      "Ġresour": 5788,
      "Ġdistributed": 5789,
      "Ġpossess": 5790,
      "Ġdelay": 5791,
      "Ġbishop": 5792,
      "Ġweapon": 5793,
      "Ġsplendid": 5794,
      "Ġgathered": 5795,
      "Ġtummy": 5796,
      "Ġga": 5797,
      "itage": 5798,
      "Ġkansas": 5799,
      "Ġrhy": 5800,
      "Ġrifle": 5801,
      "Ġboston": 5802,
      "Ġunit": 5803,
      "perhaps": 5804,
      "Ġholly": 5805,
      "Ġhearing": 5806,
      "Ġdelicious": 5807,
      "Ġorganization": 5808,
      "Ġgarage": 5809,
      "hhh": 5810,
      "Ġramsey": 5811,
      "Ġhorrible": 5812,
      "morrow": 5813,
      "zes": 5814,
      "Ġwore": 5815,
      "keys": 5816,
      "dear": 5817,
      "mond": 5818,
      "Ġboxes": 5819,
      "Ġcorpor": 5820,
      "Ġjumped": 5821,
      "iffs": 5822,
      "ointment": 5823,
      "Ġgabri": 5824,
      "Ġlibrary": 5825,
      "list": 5826,
      "Ġtied": 5827,
      "oted": 5828,
      "Ġmig": 5829,
      "Ġgil": 5830,
      "ading": 5831,
      "aming": 5832,
      "ctors": 5833,
      "Ġeric": 5834,
      "Ġpattern": 5835,
      "Ġcutting": 5836,
      "Ġdarkness": 5837,
      "Ġrecei": 5838,
      "Ġfields": 5839,
      "Ġtickle": 5840,
      "Ġellie": 5841,
      "Ġculture": 5842,
      "picks": 5843,
      "san": 5844,
      "Ġign": 5845,
      "Ġcel": 5846,
      "Ġpier": 5847,
      "Ġnerv": 5848,
      "Ġitems": 5849,
      "Ġproced": 5850,
      "Ġstepped": 5851,
      "poor": 5852,
      "Ġturk": 5853,
      "Ġpoliceman": 5854,
      "Ġcompetition": 5855,
      "Ġfacing": 5856,
      "Ġsergeant": 5857,
      "eight": 5858,
      "first": 5859,
      "gt": 5860,
      "uction": 5861,
      "Ġfired": 5862,
      "Ġfanning": 5863,
      "Ġnas": 5864,
      "owing": 5865,
      "icing": 5866,
      "Ġjourn": 5867,
      "inda": 5868,
      "Ġconcent": 5869,
      "Ġpron": 5870,
      "Ġchanging": 5871,
      "standing": 5872,
      "Ġinvited": 5873,
      "Ġ1994": 5874,
      "Ġaccepted": 5875,
      "Ġdocument": 5876,
      "dav": 5877,
      "onia": 5878,
      "Ġladder": 5879,
      "ari": 5880,
      "ppers": 5881,
      "Ġconce": 5882,
      "Ġgrate": 5883,
      "Ġcomplet": 5884,
      "Ġowner": 5885,
      "rish": 5886,
      "shouts": 5887,
      "Ġchosen": 5888,
      "Ġvictory": 5889,
      "Ġterrif": 5890,
      "Ġearnest": 5891,
      "points": 5892,
      "Ġarrested": 5893,
      "Ġdrugs": 5894,
      "Ġindependent": 5895,
      "Ġstomach": 5896,
      "Ġcommission": 5897,
      "Ġelizabeth": 5898,
      "Ġtough": 5899,
      "Ġgir": 5900,
      "Ġkelly": 5901,
      "lyn": 5902,
      "Ġliqu": 5903,
      "usted": 5904,
      "cking": 5905,
      "Ġrice": 5906,
      "Ġwhenever": 5907,
      "Ġtruly": 5908,
      "Ġuseful": 5909,
      "Ġ1995": 5910,
      "Ġmerri": 5911,
      "Ġdavis": 5912,
      "Ġapproach": 5913,
      "Ġreported": 5914,
      "Ġmichi": 5915,
      "Ġrepublican": 5916,
      "Ġfamilies": 5917,
      "Ġmaterial": 5918,
      "Ġcanadian": 5919,
      "cry": 5920,
      "iation": 5921,
      "rs": 5922,
      "yard": 5923,
      "Ġwoof": 5924,
      "Ġdum": 5925,
      "Ġlack": 5926,
      "Ġnations": 5927,
      "omb": 5928,
      "Ġfran": 5929,
      "opher": 5930,
      "Ġsuffe": 5931,
      "Ġcongr": 5932,
      "Ġdesert": 5933,
      "Ġhighly": 5934,
      "Ġ1996": 5935,
      "Ġ1997": 5936,
      "Ġmedia": 5937,
      "Ġcookies": 5938,
      "Ġrobin": 5939,
      "Ġequip": 5940,
      "Ġcandy": 5941,
      "Ġlifted": 5942,
      "rondisse": 5943,
      "ear": 5944,
      "pir": 5945,
      "win": 5946,
      "Ġ~": 5947,
      "alous": 5948,
      "iece": 5949,
      "apt": 5950,
      "Ġcode": 5951,
      "bey": 5952,
      "Ġ1999": 5953,
      "Ġclosely": 5954,
      "Ġdrove": 5955,
      "Ġraise": 5956,
      "Ġprogramme": 5957,
      "Ġobserved": 5958,
      "--------------------------------": 5959,
      "erable": 5960,
      "Ġcot": 5961,
      "alled": 5962,
      "about": 5963,
      "Ġswed": 5964,
      "Ġkidding": 5965,
      "Ġrecording": 5966,
      "Ġrolling": 5967,
      "Ġgalley": 5968,
      "Ġpakistan": 5969,
      "pur": 5970,
      "Ġbum": 5971,
      "Ġtoss": 5972,
      "Ġpile": 5973,
      "ata": 5974,
      "Ġrot": 5975,
      "imme": 5976,
      "ushi": 5977,
      "Ġplot": 5978,
      "hang": 5979,
      "Ġcock": 5980,
      "Ġtribes": 5981,
      "Ġcats": 5982,
      "Ġindustry": 5983,
      "Ġevidently": 5984,
      "Ġki": 5985,
      "Ġrushed": 5986,
      "ability": 5987,
      "Ġlege": 5988,
      "Ġtrousers": 5989,
      "Ġacid": 5990,
      "Ġminnes": 5991,
      "goes": 5992,
      "Ġaccess": 5993,
      "Ġwinds": 5994,
      "help": 5995,
      "Ġemergency": 5996,
      "Ġminnesota": 5997,
      "aft": 5998,
      "love": 5999,
      "yay": 6000,
      "Ġbaker": 6001,
      "Ġmia": 6002,
      "Ġpud": 6003,
      "Ġlamb": 6004,
      "ales": 6005,
      "Ġ\"'": 6006,
      "Ġkilling": 6007,
      "Ġpulling": 6008,
      "Ġaid": 6009,
      "Ġtheat": 6010,
      "Ġstol": 6011,
      "Ġagnes": 6012,
      "Ġcontest": 6013,
      "Ġoriginally": 6014,
      "aspberry": 6015,
      "Ġcreate": 6016,
      "Ġarrang": 6017,
      "Ġsource": 6018,
      "Ġcongrat": 6019,
      "\"]": 6020,
      "hl": 6021,
      "iest": 6022,
      "Ġjon": 6023,
      "Ġbranc": 6024,
      "igned": 6025,
      "Ġstring": 6026,
      "Ġrestaur": 6027,
      "Ġhearts": 6028,
      "Ġtraffic": 6029,
      "Ġconfeder": 6030,
      "Ġfortun": 6031,
      "Ġaffairs": 6032,
      "Ġsplit": 6033,
      "gb": 6034,
      "lara": 6035,
      "oy": 6036,
      "reg": 6037,
      "Ġbul": 6038,
      "Ġdiss": 6039,
      "Ġtoilet": 6040,
      "Ġhidden": 6041,
      "Ġseek": 6042,
      "Ġcompar": 6043,
      "Ġpeas": 6044,
      "dog": 6045,
      "Ġsigns": 6046,
      "Ġsignal": 6047,
      "chards": 6048,
      "Ġdesigned": 6049,
      "Ġolympic": 6050,
      "Ġfestival": 6051,
      "22": 6052,
      "dan": 6053,
      "viet": 6054,
      "Ġgained": 6055,
      "emies": 6056,
      "Ġpoison": 6057,
      "Ġowned": 6058,
      "Ġrealized": 6059,
      "Ġpicking": 6060,
      "Ġchairs": 6061,
      "Ġsweetie": 6062,
      "Ġcandid": 6063,
      "Ġcritic": 6064,
      "Ġcasson": 6065,
      "Ġfeatures": 6066,
      "bury": 6067,
      "pat": 6068,
      "wan": 6069,
      "Ġug": 6070,
      "Ġconsequ": 6071,
      "Ġclou": 6072,
      "Ġjoint": 6073,
      "Ġbadly": 6074,
      "Ġstudio": 6075,
      "Ġaustralian": 6076,
      "kisses": 6077,
      "Ġmanagement": 6078,
      "Ġintroduced": 6079,
      "Ġadvantage": 6080,
      "Ġjournal": 6081,
      "Ġbone": 6082,
      "Ġbast": 6083,
      "Ġpup": 6084,
      "Ġmeas": 6085,
      ".\"]": 6086,
      "Ġski": 6087,
      "Ġequal": 6088,
      "Ġdivor": 6089,
      "Ġtechnology": 6090,
      "corn": 6091,
      "lers": 6092,
      "Ġfate": 6093,
      "ett": 6094,
      "quar": 6095,
      "Ġcloud": 6096,
      "Ġcovers": 6097,
      "hmm": 6098,
      "unnel": 6099,
      "Ġwarren": 6100,
      "Ġgrandmother": 6101,
      "Ġ1992": 6102,
      "Ġtransl": 6103,
      "Ġexperien": 6104,
      "Ġcompanies": 6105,
      "rot": 6106,
      "wom": 6107,
      "Ġpushing": 6108,
      "enced": 6109,
      "eta": 6110,
      "icop": 6111,
      "Ġjason": 6112,
      "Ġsevere": 6113,
      "aug": 6114,
      "Ġgran": 6115,
      "Ġglo": 6116,
      "Ġprior": 6117,
      "ception": 6118,
      "Ġlaws": 6119,
      "Ġbanks": 6120,
      "Ġcredit": 6121,
      "Ġsmooth": 6122,
      "40": 6123,
      "ias": 6124,
      "too": 6125,
      "Ġwise": 6126,
      "Ġsara": 6127,
      "enger": 6128,
      "Ġrear": 6129,
      "Ġdrown": 6130,
      "Ġtrial": 6131,
      "ogy": 6132,
      "Ġjohnson": 6133,
      "Ġdaily": 6134,
      "Ġfifth": 6135,
      "Ġwinning": 6136,
      "Ġdea": 6137,
      "Ġguest": 6138,
      "Ġresist": 6139,
      "Ġbrid": 6140,
      "Ġapolog": 6141,
      "Ġ1998": 6142,
      "Ġleaders": 6143,
      "Ġstreets": 6144,
      "Ġangel": 6145,
      "Ġsettlement": 6146,
      "Ġavoid": 6147,
      "zo": 6148,
      "Ġaston": 6149,
      "Ġeag": 6150,
      "isha": 6151,
      "Ġarmed": 6152,
      "Ġharder": 6153,
      "Ġfinan": 6154,
      "Ġdraft": 6155,
      "Ġbuildings": 6156,
      "engers": 6157,
      "Ġdifficulty": 6158,
      "Ġmexican": 6159,
      "Ġinterrupts": 6160,
      "Ġwounded": 6161,
      "Ġappreciate": 6162,
      "Ġmichigan": 6163,
      "eks": 6164,
      "lim": 6165,
      "Ġale": 6166,
      "omm": 6167,
      "Ġnotes": 6168,
      "Ġspare": 6169,
      "Ġboot": 6170,
      "Ġbrace": 6171,
      "Ġgray": 6172,
      "Ġchain": 6173,
      "Ġworkers": 6174,
      "Ġours": 6175,
      "Ġwaves": 6176,
      "Ġlistened": 6177,
      "Ġtommy": 6178,
      "Ġapartment": 6179,
      "Ġcaptured": 6180,
      "Ġsprang": 6181,
      "screams": 6182,
      "Ġwra": 6183,
      "Ġwire": 6184,
      "Ġcough": 6185,
      "Ġpure": 6186,
      "umed": 6187,
      "Ġhurts": 6188,
      "Ġimit": 6189,
      "Ġrolls": 6190,
      "Ġmajority": 6191,
      "Ġjerry": 6192,
      "Ġukrain": 6193,
      "Ġarthur": 6194,
      "Ġequipment": 6195,
      "ture": 6196,
      "Ġpity": 6197,
      "Ġpip": 6198,
      "sters": 6199,
      "seven": 6200,
      "Ġrichards": 6201,
      "Ġbrook": 6202,
      "Ġbricks": 6203,
      "Ġrevol": 6204,
      "american": 6205,
      "Ġlonely": 6206,
      "Ġsuffered": 6207,
      "ev": 6208,
      "Ġbunch": 6209,
      "Ġmall": 6210,
      "Ġcord": 6211,
      "Ġcub": 6212,
      "Ġfence": 6213,
      "Ġpaus": 6214,
      "Ġsoviet": 6215,
      "Ġemper": 6216,
      "ological": 6217,
      "Ġsending": 6218,
      "Ġbutterfly": 6219,
      "Ġoxford": 6220,
      "Ġdanny": 6221,
      "Ġfed": 6222,
      "Ġnuts": 6223,
      "star": 6224,
      "Ġsequ": 6225,
      "Ġconqu": 6226,
      "Ġeats": 6227,
      "Ġnights": 6228,
      "Ġtrains": 6229,
      "Ġjealous": 6230,
      "Ġlocked": 6231,
      "Ġaffair": 6232,
      "kt": 6233,
      "Ġbeer": 6234,
      "Ġkings": 6235,
      "Ġstern": 6236,
      "Ġintended": 6237,
      "wey": 6238,
      "Ġkindly": 6239,
      "Ġswift": 6240,
      "Ġfourteen": 6241,
      "Ġlads": 6242,
      "Ġproposed": 6243,
      "Ġhoping": 6244,
      "Ġwilliams": 6245,
      "Ġracing": 6246,
      "nope": 6247,
      "had": 6248,
      "Ġmmm": 6249,
      "rial": 6250,
      "Ġplanned": 6251,
      "Ġunus": 6252,
      "excuse": 6253,
      "Ġactual": 6254,
      "Ġpuppy": 6255,
      "Ġhandsome": 6256,
      "byebye": 6257,
      "ĠĠĠĠĠĠĠĠĠĠĠĠĠĠĠĠĠĠĠĠĠĠĠĠĠĠĠĠĠĠĠĠ": 6258,
      "Ġadvanced": 6259,
      "Ġslept": 6260,
      "Ġ0": 6261,
      "Ġtent": 6262,
      "Ġlane": 6263,
      "ays": 6264,
      "roy": 6265,
      "Ġsax": 6266,
      "Ġbold": 6267,
      "Ġsixteen": 6268,
      "Ġcrossed": 6269,
      "Ġholes": 6270,
      "holic": 6271,
      "Ġfleet": 6272,
      "Ġjumbo": 6273,
      "oons": 6274,
      "Ġborrow": 6275,
      "Ġbears": 6276,
      "Ġprecious": 6277,
      "Ġhousehold": 6278,
      "cca": 6279,
      "----\"": 6280,
      "Ġï¿½ï¿½ï¿½ï¿½ï¿½": 6281,
      "Ġbecomes": 6282,
      "Ġthirteen": 6283,
      "Ġrecorded": 6284,
      "Ġpresidential": 6285,
      "Ġstudies": 6286,
      "Ġoperation": 6287,
      "Ġefforts": 6288,
      "Ġmixed": 6289,
      "Ġbalance": 6290,
      "Ġlimited": 6291,
      "Ġhammer": 6292,
      "Ġsympat": 6293,
      "david": 6294,
      "bour": 6295,
      "Ġmoo": 6296,
      "Ġpope": 6297,
      "Ġspeaks": 6298,
      "Ġclap": 6299,
      "Ġbrings": 6300,
      "Ġenemies": 6301,
      "cod": 6302,
      "Ġgreatly": 6303,
      "Ġcromer": 6304,
      "Ġamericans": 6305,
      "Ġsteel": 6306,
      "Ġadvance": 6307,
      "Ġproduce": 6308,
      "Ġnavy": 6309,
      "Ġkorea": 6310,
      "Ġproducer": 6311,
      "bang": 6312,
      "gues": 6313,
      "ni": 6314,
      "Ġing": 6315,
      "hamm": 6316,
      "Ġhasta": 6317,
      "Ġmechan": 6318,
      "Ġdewey": 6319,
      "Ġabe": 6320,
      "Ġrising": 6321,
      "reeks": 6322,
      "people": 6323,
      "Ġsmiles": 6324,
      "Ġdishes": 6325,
      "Ġappointed": 6326,
      "Ġcolour": 6327,
      "Ġrooms": 6328,
      "Ġbriefly": 6329,
      "Ġadventures": 6330,
      "Ġdrug": 6331,
      "Ġscientists": 6332,
      "Ġaltogether": 6333,
      "21": 6334,
      "lar": 6335,
      "||": 6336,
      "Ġsisters": 6337,
      "Ġdwell": 6338,
      "Ġdump": 6339,
      "Ġdomin": 6340,
      "Ġpatch": 6341,
      "Ġpiano": 6342,
      "Ġken": 6343,
      "Ġford": 6344,
      "Ġdebut": 6345,
      "Ġdemon": 6346,
      "Ġvig": 6347,
      "Ġclay": 6348,
      "kshire": 6349,
      "Ġsteal": 6350,
      "Ġrecorder": 6351,
      "Ġstudent": 6352,
      "Ġkissed": 6353,
      "Ġlabor": 6354,
      "Ġflew": 6355,
      "Ġseventy": 6356,
      "Ġrapidly": 6357,
      "fire": 6358,
      "ugg": 6359,
      "Ġachi": 6360,
      "Ġwings": 6361,
      "Ġpension": 6362,
      "sely": 6363,
      "acing": 6364,
      "...\"": 6365,
      "Ġlegal": 6366,
      "Ġbasically": 6367,
      "Ġtreated": 6368,
      "Ġlosing": 6369,
      "Ġinspector": 6370,
      "Ġbranches": 6371,
      "duck": 6372,
      "Ġxx": 6373,
      "Ġpowers": 6374,
      "Ġlick": 6375,
      "Ġthorough": 6376,
      "Ġdoggy": 6377,
      "Ġcannon": 6378,
      "Ġspider": 6379,
      "again": 6380,
      "Ġflash": 6381,
      "addressed": 6382,
      "lied": 6383,
      "Ġbitter": 6384,
      "Ġdeser": 6385,
      "Ġdecor": 6386,
      "Ġurs": 6387,
      "Ġscratch": 6388,
      "Ġmystery": 6389,
      "Ġnervous": 6390,
      "**": 6391,
      "si": 6392,
      "ua": 6393,
      "Ġtank": 6394,
      "eding": 6395,
      "rael": 6396,
      "Ġrope": 6397,
      "lfriend": 6398,
      "iffe": 6399,
      "Ġleaf": 6400,
      "Ġcontent": 6401,
      "Ġrescue": 6402,
      "Ġwondered": 6403,
      "Ġ60": 6404,
      "Ġportug": 6405,
      "Ġprisoner": 6406,
      "Ġpilot": 6407,
      "Ġnominated": 6408,
      "60": 6409,
      "dri": 6410,
      "ox": 6411,
      "Å«": 6412,
      "Ġlink": 6413,
      "Ġni": 6414,
      "Ġmarks": 6415,
      "Ġpersons": 6416,
      "Ġtomato": 6417,
      "Ġawake": 6418,
      "Ġmcdonald": 6419,
      "Ġcompanions": 6420,
      "Ġpillow": 6421,
      "Ġbehavi": 6422,
      "Ġinnocent": 6423,
      "great": 6424,
      "jwww": 6425,
      "oise": 6426,
      "Ġdiale": 6427,
      "Ġblame": 6428,
      "Ġbetray": 6429,
      "Ġsooner": 6430,
      "Ġexpensive": 6431,
      "Ġfrost": 6432,
      "Ġthousands": 6433,
      "Ġclimbing": 6434,
      "Ġburned": 6435,
      "whispered": 6436,
      "Ġporter": 6437,
      "hur": 6438,
      "ping": 6439,
      "paul": 6440,
      "Ġlt": 6441,
      "stone": 6442,
      "Ġwashed": 6443,
      "Ġjr": 6444,
      "eable": 6445,
      "Ġsofa": 6446,
      "Ġral": 6447,
      "Ġcomr": 6448,
      "boat": 6449,
      "Ġgrey": 6450,
      "didn": 6451,
      "Ġreports": 6452,
      "Ġeventually": 6453,
      "Ġlatin": 6454,
      "Ġdivided": 6455,
      "Ġstruggle": 6456,
      "careful": 6457,
      "even": 6458,
      "gers": 6459,
      "Ġsorrow": 6460,
      "nda": 6461,
      "Ġpitch": 6462,
      "asc": 6463,
      "uma": 6464,
      "Ġupside": 6465,
      "Ġspect": 6466,
      "Ġleans": 6467,
      "issipp": 6468,
      "Ġsomethin": 6469,
      "Ġconfidence": 6470,
      "Ġchecked": 6471,
      "stein": 6472,
      "Ġvillages": 6473,
      "Ġcreature": 6474,
      "Ġfolk": 6475,
      "Ġrelief": 6476,
      "sur": 6477,
      "Ġdish": 6478,
      "cend": 6479,
      "Ġmolly": 6480,
      "april": 6481,
      "Ġuncom": 6482,
      "Ġchase": 6483,
      "Ġadmit": 6484,
      "rences": 6485,
      "Ġmississipp": 6486,
      "Ġbreast": 6487,
      "Ġattacked": 6488,
      "Ġringing": 6489,
      "Ġclimate": 6490,
      "Ġadams": 6491,
      "Ġslipped": 6492,
      "Ġconnect": 6493,
      "Ġcustom": 6494,
      "Ġreligion": 6495,
      "bag": 6496,
      "bage": 6497,
      "hot": 6498,
      "sch": 6499,
      "Ġari": 6500,
      "ador": 6501,
      "Ġspin": 6502,
      "Ġdisp": 6503,
      "neath": 6504,
      "Ġoldest": 6505,
      "ocks": 6506,
      "Ġpointed": 6507,
      "Ġgrandpa": 6508,
      "Ġ1986": 6509,
      "Ġtreasure": 6510,
      "atively": 6511,
      "Ġdawn": 6512,
      "Ġseats": 6513,
      "Ġprotection": 6514,
      "Ġvolume": 6515,
      "Ġdaniel": 6516,
      "Ġcollection": 6517,
      "Ġsatisfied": 6518,
      "fad": 6519,
      "mad": 6520,
      "Ġaha": 6521,
      "rier": 6522,
      "Ġrejo": 6523,
      "Ġsoap": 6524,
      "Ġleon": 6525,
      "Ġmeanwhile": 6526,
      "Ġsetting": 6527,
      "Ġmoments": 6528,
      "mbol": 6529,
      "vocalizes": 6530,
      "Ġfreedom": 6531,
      "case": 6532,
      "low": 6533,
      "Ġmau": 6534,
      "Ġcig": 6535,
      "Ġkil": 6536,
      "Ġvice": 6537,
      "Ġloving": 6538,
      "intend": 6539,
      "Ġglor": 6540,
      "gery": 6541,
      "Ġgeography": 6542,
      "Ġconstant": 6543,
      "whispering": 6544,
      "Ġrepresentatives": 6545,
      "1999": 6546,
      "draw": 6547,
      "iraffe": 6548,
      "Ġexercise": 6549,
      "Ġmississippi": 6550,
      "count": 6551,
      "mag": 6552,
      "Ġyor": 6553,
      "Ġgain": 6554,
      "leave": 6555,
      "Ġjake": 6556,
      "Ġrust": 6557,
      "Ġaltern": 6558,
      "Ġscare": 6559,
      "black": 6560,
      "Ġbelt": 6561,
      "Ġprovin": 6562,
      "aska": 6563,
      "Ġcounter": 6564,
      "Ġheavily": 6565,
      "Ġmammy": 6566,
      "Ġproduct": 6567,
      "Ġeffects": 6568,
      "Ġhorsie": 6569,
      "Ġincreased": 6570,
      "Ġpsych": 6571,
      "Ġcherry": 6572,
      "Ġscholarship": 6573,
      "Ġescaped": 6574,
      "ios": 6575,
      "mitted": 6576,
      "pop": 6577,
      "top": 6578,
      "Ġowe": 6579,
      "Ġfame": 6580,
      "urally": 6581,
      "Ġalan": 6582,
      "olph": 6583,
      "Ġproved": 6584,
      "Ġunlike": 6585,
      "moans": 6586,
      "Ġrecent": 6587,
      "Ġpassion": 6588,
      "eaking": 6589,
      "Ġcents": 6590,
      "Ġmickey": 6591,
      "198": 6592,
      "Ġlucas": 6593,
      "Ġsenate": 6594,
      "Ġdelighted": 6595,
      "Ġtender": 6596,
      "Ġneighborhood": 6597,
      "Ġfarther": 6598,
      "Ġclouds": 6599,
      "Ġralph": 6600,
      "lots": 6601,
      "mun": 6602,
      "Ġped": 6603,
      "Ġpooh": 6604,
      "entine": 6605,
      "Ġmole": 6606,
      "Ġalpha": 6607,
      "Ġidiot": 6608,
      "Ġdeput": 6609,
      "Ġsorts": 6610,
      "Ġextent": 6611,
      "Ġmarked": 6612,
      "hetti": 6613,
      "Ġreligious": 6614,
      "Ġprefecture": 6615,
      "part": 6616,
      "yal": 6617,
      "Ġduh": 6618,
      "Ġpushes": 6619,
      "Ġner": 6620,
      "Ġbelly": 6621,
      "olved": 6622,
      "Ġvain": 6623,
      "Ġwillie": 6624,
      "Ġamend": 6625,
      "Ġchums": 6626,
      "Ġremains": 6627,
      "Ġbund": 6628,
      "Ġcheap": 6629,
      "Ġswall": 6630,
      "ileen": 6631,
      "Ġ1993": 6632,
      "shar": 6633,
      "Ġamongst": 6634,
      "Ġromantic": 6635,
      "Ġjenny": 6636,
      "Ġinquired": 6637,
      "Ġpowder": 6638,
      "western": 6639,
      "Ġtiss": 6640,
      "Ġdude": 6641,
      "iture": 6642,
      "icide": 6643,
      "Ġrag": 6644,
      "Ġguide": 6645,
      "Ġengines": 6646,
      "Ġlanding": 6647,
      "Ġpresented": 6648,
      "Ġlessons": 6649,
      "Ġphilos": 6650,
      "Ġrequired": 6651,
      "syl": 6652,
      "Ġbroadcast": 6653,
      "Ġaccompl": 6654,
      "25": 6655,
      "rels": 6656,
      "Ġdave": 6657,
      "Ġpadd": 6658,
      "Ġandy": 6659,
      "Ġstad": 6660,
      "Ġstove": 6661,
      "Ġrus": 6662,
      "Ġalarm": 6663,
      "eless": 6664,
      "Ġworn": 6665,
      "istry": 6666,
      "Ġkeen": 6667,
      "looks": 6668,
      "Ġrecomm": 6669,
      "Ġpatrick": 6670,
      "Ġsymbol": 6671,
      "Ġblowing": 6672,
      "rrr": 6673,
      "sometimes": 6674,
      "mam": 6675,
      "ouri": 6676,
      "Ġig": 6677,
      "Ġcage": 6678,
      "Ġisrael": 6679,
      "Ġstanton": 6680,
      "Ġspite": 6681,
      "Ġarts": 6682,
      "Ġchamber": 6683,
      "Ġadvis": 6684,
      "Ġhelicop": 6685,
      "move": 6686,
      "Ġsleepy": 6687,
      "Ġpurcha": 6688,
      "Ġiran": 6689,
      "writer": 6690,
      "something": 6691,
      "Ġimprove": 6692,
      "Ġexecutive": 6693,
      "Ġfinancial": 6694,
      "gun": 6695,
      "name": 6696,
      "Ġsally": 6697,
      "Ġiii": 6698,
      "Ġcaut": 6699,
      "Ġlamp": 6700,
      "Ġisa": 6701,
      "Ġsheet": 6702,
      "Ġrah": 6703,
      "Ġrug": 6704,
      "una": 6705,
      "Ġintellig": 6706,
      "Ġchips": 6707,
      "brush": 6708,
      "Ġ1991": 6709,
      "Ġ90": 6710,
      "Ġrepresented": 6711,
      "Ġbelongs": 6712,
      "glory": 6713,
      "Ġtracks": 6714,
      "Ġregarded": 6715,
      "Ġresponsibility": 6716,
      "Ġugly": 6717,
      "Ġtub": 6718,
      "hamed": 6719,
      "Ġcups": 6720,
      "Ġlic": 6721,
      "Ġmeasure": 6722,
      "becca": 6723,
      "Ġshakes": 6724,
      "Ġproof": 6725,
      "rub": 6726,
      "blows": 6727,
      "onsense": 6728,
      "Ġpride": 6729,
      "Ġsteady": 6730,
      "Ġfoods": 6731,
      "Ġ1988": 6732,
      "nesday": 6733,
      "burgh": 6734,
      "Ġbanana": 6735,
      "Ġentrance": 6736,
      "Ġyorkshire": 6737,
      "both": 6738,
      "find": 6739,
      "Ġwinner": 6740,
      "refers": 6741,
      "Ġshed": 6742,
      "Ġguid": 6743,
      "Ġdisplay": 6744,
      "Ġunderneath": 6745,
      "Ġpolish": 6746,
      "Ġdistinct": 6747,
      "ancing": 6748,
      "Ġcatholic": 6749,
      "Ġrefused": 6750,
      "Ġlately": 6751,
      "Ġjumping": 6752,
      "Ġsenior": 6753,
      "Ġstolen": 6754,
      "ule": 6755,
      "uries": 6756,
      "Ġcouch": 6757,
      "Ġnit": 6758,
      "andy": 6759,
      "Ġunf": 6760,
      "Ġflood": 6761,
      "inton": 6762,
      "ected": 6763,
      "Ġwarning": 6764,
      "ibi": 6765,
      "Ġjackson": 6766,
      "Ġexplan": 6767,
      "Ġduke": 6768,
      "Ġphysical": 6769,
      "Ġcontribut": 6770,
      "Ġfollows": 6771,
      "Ġmood": 6772,
      "Ġdyn": 6773,
      "Ġnest": 6774,
      "Ġconclud": 6775,
      "Ġletting": 6776,
      "Ġpartly": 6777,
      "Ġcheeks": 6778,
      "Ġpassengers": 6779,
      "Ġspending": 6780,
      "Ġentertainment": 6781,
      "cur": 6782,
      "Ġincome": 6783,
      "Ġky": 6784,
      "Ġasia": 6785,
      "Ġrider": 6786,
      "Ġconsult": 6787,
      "Ġadministration": 6788,
      "Ġtam": 6789,
      "Ġaer": 6790,
      "Ġjeth": 6791,
      "elled": 6792,
      "Ġsched": 6793,
      "Ġholl": 6794,
      "Ġinstance": 6795,
      "coln": 6796,
      "Ġ1987": 6797,
      "Ġsystems": 6798,
      "Ġticket": 6799,
      "Ġmcglory": 6800,
      "Ġglasses": 6801,
      "Ġreferred": 6802,
      "Ġroute": 6803,
      "Ġathlet": 6804,
      "Ġlilian": 6805,
      "Ġlegend": 6806,
      "hta": 6807,
      "Ġsaus": 6808,
      "Ġopt": 6809,
      "Ġrome": 6810,
      "Ġsufficient": 6811,
      "Ġexha": 6812,
      "Ġparties": 6813,
      "Ġpreviously": 6814,
      "Ġcathed": 6815,
      "Ġsquad": 6816,
      "Ġspeaker": 6817,
      "Ġsales": 6818,
      "Ġspirits": 6819,
      "Ġchampionships": 6820,
      "Ġfifa": 6821,
      "Ġsuspic": 6822,
      "Ġresources": 6823,
      "Ġemperor": 6824,
      "Ġachieve": 6825,
      "du": 6826,
      "wo": 6827,
      "Ġsession": 6828,
      "aned": 6829,
      "Ġgotten": 6830,
      "ĠĠĠĠĠ": 6831,
      "Ġlets": 6832,
      "Ġpermission": 6833,
      "leton": 6834,
      "Ġeddie": 6835,
      "Ġ185": 6836,
      "Ġembar": 6837,
      "Ġexchan": 6838,
      "teddy": 6839,
      "Ġstronger": 6840,
      "Ġbuddy": 6841,
      "Ġconnection": 6842,
      "Ġeagerly": 6843,
      "Ġpicnic": 6844,
      "Ġgrateful": 6845,
      "rondissement": 6846,
      "Ġpaused": 6847,
      "ji": 6848,
      "Ġpho": 6849,
      "Ġgon": 6850,
      "also": 6851,
      "icy": 6852,
      "Ġjac": 6853,
      "Ġanna": 6854,
      "Ġalice": 6855,
      "fected": 6856,
      "Ġscen": 6857,
      "Ġguitar": 6858,
      "lets": 6859,
      "ivity": 6860,
      "Ġdrag": 6861,
      "Ġpupp": 6862,
      "Ġcalcul": 6863,
      "Ġ1989": 6864,
      "Ġservants": 6865,
      "coming": 6866,
      "Ġcauses": 6867,
      "Ġsuffer": 6868,
      "Ġdespite": 6869,
      "Ġassistant": 6870,
      "Ġsucceeded": 6871,
      "Ġgirlfriend": 6872,
      "__": 6873,
      "cies": 6874,
      "phy": 6875,
      "rass": 6876,
      "wyn": 6877,
      "Ġanno": 6878,
      "cker": 6879,
      "Ġaband": 6880,
      "Ġvast": 6881,
      "hess": 6882,
      "Ġchew": 6883,
      "Ġregret": 6884,
      "Ġpersu": 6885,
      "Ġgreet": 6886,
      "ursday": 6887,
      "thanks": 6888,
      "Ġlanded": 6889,
      "Ġimper": 6890,
      "Ġ1972": 6891,
      "Ġdefense": 6892,
      "Ġlincoln": 6893,
      "Ġsophie": 6894,
      "wha": 6895,
      "Ġfel": 6896,
      "Ġgle": 6897,
      "Ġrefe": 6898,
      "Ġjar": 6899,
      "osity": 6900,
      "Ġfinds": 6901,
      "197": 6902,
      "Ġwaters": 6903,
      "Ġconditions": 6904,
      "Ġbullet": 6905,
      "Ġpiggy": 6906,
      "Ġhannah": 6907,
      "Ġscheme": 6908,
      "Ġinhabit": 6909,
      "Ġunusual": 6910,
      "\").": 6911,
      "bird": 6912,
      "lam": 6913,
      "Ġdart": 6914,
      "Ġtok": 6915,
      "itz": 6916,
      "rose": 6917,
      "Ġanaly": 6918,
      "using": 6919,
      "Ġunknown": 6920,
      "angers": 6921,
      "Ġcounties": 6922,
      "Ġelev": 6923,
      "Ġmurm": 6924,
      "Ġappropri": 6925,
      "Ġsolid": 6926,
      "Ġhoped": 6927,
      "Ġslip": 6928,
      "Ġjersey": 6929,
      "Ġridic": 6930,
      "Ġscreaming": 6931,
      "Ġtemperature": 6932,
      "Ġfalse": 6933,
      "bus": 6934,
      "girl": 6935,
      "ju": 6936,
      "lmer": 6937,
      "yl": 6938,
      "Ġmask": 6939,
      "Ġcu": 6940,
      "Ġdull": 6941,
      "Ġgord": 6942,
      "ilton": 6943,
      "Ġrivers": 6944,
      "ulate": 6945,
      "Ġuseta": 6946,
      "Ġuns": 6947,
      "Ġdisney": 6948,
      "Ġexped": 6949,
      "Ġ1985": 6950,
      "Ġexplos": 6951,
      "Ġstarring": 6952,
      "Ġ1950": 6953,
      "Ġdisappointed": 6954,
      "Ġcarolina": 6955,
      "Ġpotatoes": 6956,
      "Ġcompleted": 6957,
      "bor": 6958,
      "phew": 6959,
      "tick": 6960,
      "Ġaileen": 6961,
      "hio": 6962,
      "Ġded": 6963,
      "Ġkir": 6964,
      "acle": 6965,
      "hore": 6966,
      "hole": 6967,
      "Ġross": 6968,
      "Ġaffection": 6969,
      "issa": 6970,
      "mme": 6971,
      "grunts": 6972,
      "Ġdriven": 6973,
      "Ġcleaning": 6974,
      "Ġchampion": 6975,
      "Ġcycl": 6976,
      "Ġsuffering": 6977,
      "Ġphilipp": 6978,
      "'...": 6979,
      "23": 6980,
      "rative": 6981,
      "via": 6982,
      "Ġsings": 6983,
      "Ġlola": 6984,
      "ito": 6985,
      "Ġitem": 6986,
      "iring": 6987,
      "Ġnoisy": 6988,
      "umes": 6989,
      "Ġloft": 6990,
      "Ġbug": 6991,
      "Ġcontain": 6992,
      "mod": 6993,
      "Ġcolumn": 6994,
      "Ġshock": 6995,
      "Ġmaid": 6996,
      "Ġphr": 6997,
      "mbur": 6998,
      "Ġshortly": 6999,
      "Ġdollar": 7000,
      "Ġstole": 7001,
      "Ġestim": 7002,
      "Ġopera": 7003,
      "Ġselling": 7004,
      "Ġpilchard": 7005,
      "Ġwealth": 7006,
      "Ġdoctors": 7007,
      "Ġframe": 7008,
      "Ġsup": 7009,
      "Ġspark": 7010,
      "Ġunable": 7011,
      "Ġhanded": 7012,
      "Ġshaking": 7013,
      "gger": 7014,
      "Ġmighty": 7015,
      "bring": 7016,
      "Ġchose": 7017,
      "Ġstuffed": 7018,
      "Ġlawrence": 7019,
      "Ġmunicipal": 7020,
      "Ġhayden": 7021,
      "Ġplatform": 7022,
      "Ġbuttons": 7023,
      "Ġarranged": 7024,
      "Ġstadium": 7025,
      "bot": 7026,
      "bri": 7027,
      "Ġwing": 7028,
      "Ġsik": 7029,
      "ingle": 7030,
      "stra": 7031,
      "Ġbee": 7032,
      "Ġult": 7033,
      "Ġdeer": 7034,
      "Ġability": 7035,
      "Ġquant": 7036,
      "teacher": 7037,
      "Ġdeserve": 7038,
      "clears": 7039,
      "Ġ189": 7040,
      "Ġbatala": 7041,
      "Ġdistricts": 7042,
      "Ġpengu": 7043,
      "Ġcongressional": 7044,
      "Ġcadet": 7045,
      "Ġwhistle": 7046,
      "Ġextremely": 7047,
      "dale": 7048,
      "joseph": 7049,
      "Ġsoo": 7050,
      "Ġohio": 7051,
      "Ġstool": 7052,
      "Ġmanuf": 7053,
      "emic": 7054,
      "Ġapples": 7055,
      "ailed": 7056,
      "Ġ1979": 7057,
      "Ġillness": 7058,
      "Ġcampbell": 7059,
      "Ġappears": 7060,
      "Ġprograms": 7061,
      "Ġaylmer": 7062,
      "Ġdreadful": 7063,
      "ares": 7064,
      "rets": 7065,
      "Ġtoe": 7066,
      "Ġrent": 7067,
      "Ġgosh": 7068,
      "Ġashamed": 7069,
      "Ġsock": 7070,
      "ardo": 7071,
      "orted": 7072,
      "istics": 7073,
      "Ġpole": 7074,
      "Ġmissouri": 7075,
      "Ġretire": 7076,
      "Ġ184": 7077,
      "ronic": 7078,
      "break": 7079,
      "Ġbiography": 7080,
      "Ġenvironmental": 7081,
      "Ġscotland": 7082,
      "Ġmanufact": 7083,
      "kia": 7084,
      "yum": 7085,
      "Äģ": 7086,
      "Ġtale": 7087,
      "Ġwip": 7088,
      "hicle": 7089,
      "Ġfetch": 7090,
      "Ġhoo": 7091,
      "ams": 7092,
      "cken": 7093,
      "aka": 7094,
      "Ġaffect": 7095,
      "into": 7096,
      "Ġjoey": 7097,
      "icted": 7098,
      "Ġdrum": 7099,
      "Ġmerry": 7100,
      "Ġprompt": 7101,
      "Ġmummie": 7102,
      "Ġhousing": 7103,
      "Ġlux": 7104,
      "giving": 7105,
      "Ġsacrif": 7106,
      "ores": 7107,
      "Ġtin": 7108,
      "Ġtunnel": 7109,
      "Ġyummy": 7110,
      "omi": 7111,
      "lemme": 7112,
      "rog": 7113,
      "Ġcarter": 7114,
      "Ġboyfriend": 7115,
      "Ġnicely": 7116,
      "Ġreality": 7117,
      "Ġ183": 7118,
      "lessly": 7119,
      "Ġfactory": 7120,
      "Ġconfl": 7121,
      "Ġ1982": 7122,
      "Ġgrav": 7123,
      "Ġwednesday": 7124,
      "vania": 7125,
      "Ġpacific": 7126,
      "Ġobliged": 7127,
      "Ġfierce": 7128,
      "Ġcathedral": 7129,
      "Ġembarrass": 7130,
      "26": 7131,
      "yy": 7132,
      "Ġaz": 7133,
      "esh": 7134,
      "Ġincl": 7135,
      "Ġka": 7136,
      "Ġforbid": 7137,
      "ima": 7138,
      "Ġnoble": 7139,
      "aki": 7140,
      "Ġhappiness": 7141,
      "Ġwrit": 7142,
      "Ġwhoo": 7143,
      "Ġkissing": 7144,
      "Ġdetails": 7145,
      "Ġbasis": 7146,
      "Ġarrival": 7147,
      "Ġrubber": 7148,
      "sname": 7149,
      "jjj": 7150,
      "Ġturkish": 7151,
      "cles": 7152,
      "pit": 7153,
      "Ġcows": 7154,
      "asa": 7155,
      "Ġstack": 7156,
      "isl": 7157,
      "geon": 7158,
      "hens": 7159,
      "berries": 7160,
      "Ġbron": 7161,
      "Ġguests": 7162,
      "Ġteen": 7163,
      "achus": 7164,
      "Ġuniverse": 7165,
      "Ġrolled": 7166,
      "Ġraining": 7167,
      "Ġvari": 7168,
      "Ġshark": 7169,
      "Ġcloses": 7170,
      "Ġdescription": 7171,
      "Ġdeliver": 7172,
      "Ġliberal": 7173,
      "Ġoccupied": 7174,
      "Ġscript": 7175,
      "sylvania": 7176,
      "zed": 7177,
      "Ġawww": 7178,
      "Ġcau": 7179,
      "Ġcott": 7180,
      "Ġnapp": 7181,
      "Ġheight": 7182,
      "sell": 7183,
      "Ġhits": 7184,
      "oph": 7185,
      "quick": 7186,
      "Ġshy": 7187,
      "Ġloyal": 7188,
      "ruct": 7189,
      "mann": 7190,
      "Ġcontains": 7191,
      "Ġcommitted": 7192,
      "Ġpointing": 7193,
      "ograph": 7194,
      "Ġbrick": 7195,
      "uesday": 7196,
      "Ġplanet": 7197,
      "doesn": 7198,
      "Ġtorn": 7199,
      "Ġwilson": 7200,
      "Ġbertha": 7201,
      "song": 7202,
      "Ġavenue": 7203,
      "Ġwre": 7204,
      "Ġfork": 7205,
      "choo": 7206,
      "Ġlimit": 7207,
      "Ġnoted": 7208,
      "unting": 7209,
      "Ġmosely": 7210,
      "Ġconcl": 7211,
      "Ġjolly": 7212,
      "Ġbuff": 7213,
      "Ġfunction": 7214,
      "Ġducks": 7215,
      "Ġwooden": 7216,
      "Ġbreathing": 7217,
      "Ġmemor": 7218,
      "Ġsauce": 7219,
      "Ġtropical": 7220,
      "Ġmethod": 7221,
      "fit": 7222,
      "gone": 7223,
      "gonna": 7224,
      "last": 7225,
      "onge": 7226,
      "still": 7227,
      "Ġreward": 7228,
      "Ġhipp": 7229,
      "Ġhers": 7230,
      "gee": 7231,
      "aghetti": 7232,
      "Ġadult": 7233,
      "Ġdistant": 7234,
      "Ġsupply": 7235,
      "Ġsets": 7236,
      "Ġlaun": 7237,
      "Ġhundreds": 7238,
      "gnant": 7239,
      "Ġturkey": 7240,
      "Ġattacks": 7241,
      "whines": 7242,
      "Ġpigs": 7243,
      "Ġviolence": 7244,
      "Ġeconomic": 7245,
      "Ġrailway": 7246,
      "Ġpennsylvania": 7247,
      "Ġdiamond": 7248,
      "Ġrestaurant": 7249,
      "hs": 7250,
      "mia": 7251,
      "woof": 7252,
      "Ġsne": 7253,
      "Ġod": 7254,
      "Ġfits": 7255,
      "orange": 7256,
      "ellie": 7257,
      "aste": 7258,
      "Ġdiag": 7259,
      "Ġgrat": 7260,
      "Ġpregnant": 7261,
      "Ġmustn": 7262,
      "Ġchart": 7263,
      "Ġpossession": 7264,
      "Ġdraws": 7265,
      "Ġcountryside": 7266,
      "Ġroads": 7267,
      "Ġlesson": 7268,
      "Ġdefence": 7269,
      "cray": 7270,
      "Ġauthorities": 7271,
      "Ġshouting": 7272,
      "Ġpunishment": 7273,
      "Ġpipe": 7274,
      "Ġphilip": 7275,
      "Ġjethro": 7276,
      "bir": 7277,
      "Ġsung": 7278,
      "Ġos": 7279,
      "onies": 7280,
      "Ġpist": 7281,
      "orter": 7282,
      "Ġecho": 7283,
      "ros": 7284,
      "Ġanger": 7285,
      "Ġlif": 7286,
      "Ġras": 7287,
      "Ġvaud": 7288,
      "Ġload": 7289,
      "Ġcrab": 7290,
      "Ġsecure": 7291,
      "Ġfuneral": 7292,
      "Ġteachers": 7293,
      "music": 7294,
      "Ġdesperate": 7295,
      "]...": 7296,
      "cons": 7297,
      "kind": 7298,
      "wis": 7299,
      "Ġwoo": 7300,
      "Ġlisa": 7301,
      "Ġnonsense": 7302,
      "etts": 7303,
      "uses": 7304,
      "Ġages": 7305,
      "Ġamuse": 7306,
      "Ġpear": 7307,
      "Ġpeekaboo": 7308,
      "Ġacted": 7309,
      "Ġcompared": 7310,
      "Ġremi": 7311,
      "Ġminds": 7312,
      "Ġpresents": 7313,
      "Ġofficially": 7314,
      "Ġpostman": 7315,
      "Ġbasic": 7316,
      "Ġpenny": 7317,
      "Ġwicked": 7318,
      "Ġunfortunately": 7319,
      "Ġprimary": 7320,
      "Ġincredible": 7321,
      "Ġtheatre": 7322,
      "cap": 7323,
      "Ġtack": 7324,
      "Ġtag": 7325,
      "Ġsigh": 7326,
      "Ġgoals": 7327,
      "Ġseized": 7328,
      "Ġcomed": 7329,
      "Ġbore": 7330,
      "Ġclip": 7331,
      "Ġchallen": 7332,
      "Ġbuzz": 7333,
      "inned": 7334,
      "clever": 7335,
      "Ġzero": 7336,
      "Ġlocation": 7337,
      "Ġwrestling": 7338,
      "Ġjunior": 7339,
      "Ġarchite": 7340,
      "Ġinhabitants": 7341,
      "breat": 7342,
      "kno": 7343,
      "lst": 7344,
      "nam": 7345,
      "paper": 7346,
      "erous": 7347,
      "Ġlas": 7348,
      "stan": 7349,
      "aye": 7350,
      "Ġseated": 7351,
      "iger": 7352,
      "Ġune": 7353,
      "Ġscale": 7354,
      "Ġguards": 7355,
      "Ġattended": 7356,
      "Ġbeds": 7357,
      "Ġlightning": 7358,
      "Ġwoke": 7359,
      "Ġï¿½ï¿½ï¿½": 7360,
      "Ġrefers": 7361,
      "Ġcurtain": 7362,
      "Ġvisited": 7363,
      "Ġcoloring": 7364,
      "Ġarrive": 7365,
      "Ġwhisper": 7366,
      "glas": 7367,
      "Ġthreatened": 7368,
      "bud": 7369,
      "home": 7370,
      "ipe": 7371,
      "nut": 7372,
      "tha": 7373,
      "zing": 7374,
      "Ġthunder": 7375,
      "Ġconvin": 7376,
      "Ġfeather": 7377,
      "Ġbelief": 7378,
      "Ã¡n": 7379,
      "Ġstanley": 7380,
      "crying": 7381,
      "Ġridiculous": 7382,
      "Ġou": 7383,
      "inem": 7384,
      "Ġsons": 7385,
      "Ġpressed": 7386,
      "Ġseasons": 7387,
      "inde": 7388,
      "Ġspots": 7389,
      "Ġexceed": 7390,
      "Ġanyhow": 7391,
      "Ġrode": 7392,
      "venge": 7393,
      "Ġunexp": 7394,
      "Ġscat": 7395,
      "Ġcompound": 7396,
      "Ġcomplex": 7397,
      "Ġcharges": 7398,
      "Ġsites": 7399,
      "Ġemb": 7400,
      "Ġsounded": 7401,
      "Ġconscious": 7402,
      "Ġhorror": 7403,
      "Ġconfess": 7404,
      "Ġmercy": 7405,
      "Ġstephen": 7406,
      "Ġcondu": 7407,
      "Ġconduct": 7408,
      "Ġhydro": 7409,
      "Ġlemon": 7410,
      "Ġhamilton": 7411,
      "Ġsnakes": 7412,
      "Ġeconomy": 7413,
      "Ġwishes": 7414,
      "Ġshelter": 7415,
      "squeals": 7416,
      "mind": 7417,
      "Ġsed": 7418,
      "adel": 7419,
      "Ġstamp": 7420,
      "Ġnephew": 7421,
      "abel": 7422,
      "Ġerr": 7423,
      "Ġflung": 7424,
      "close": 7425,
      "Ġenthus": 7426,
      "Ġreliance": 7427,
      "azz": 7428,
      "shh": 7429,
      "Ġcrap": 7430,
      "Ġtyler": 7431,
      "Ġmiserable": 7432,
      "Ġmysterious": 7433,
      "Ġinvestigation": 7434,
      "Ġbenefit": 7435,
      "Ġbubbles": 7436,
      "ras": 7437,
      "takes": 7438,
      "uchi": 7439,
      "inal": 7440,
      "Ġcakes": 7441,
      "Ġfab": 7442,
      "Ġthursday": 7443,
      "Ġdonkey": 7444,
      "ops": 7445,
      "Ġdies": 7446,
      "ague": 7447,
      "Ġtear": 7448,
      "Ġchildhood": 7449,
      "Ġremove": 7450,
      "Ġimportance": 7451,
      "Ġ1969": 7452,
      "Ġburton": 7453,
      "Ġapproaching": 7454,
      "idae": 7455,
      "Ġprepare": 7456,
      "Ġnearest": 7457,
      "Ġdebate": 7458,
      "Ġpronoun": 7459,
      "Ġbastard": 7460,
      "fo": 7461,
      "wick": 7462,
      "Ġcav": 7463,
      "Ġpuss": 7464,
      "Ġweb": 7465,
      "Ġrho": 7466,
      "acker": 7467,
      "Ġnowhere": 7468,
      "Ġintake": 7469,
      "Ġunif": 7470,
      "deb": 7471,
      "Ġremaining": 7472,
      "Ġkevin": 7473,
      "Ġcolored": 7474,
      "Ġattached": 7475,
      "Ġbushes": 7476,
      "Ġcuts": 7477,
      "Ġnaturally": 7478,
      "Ġmurdered": 7479,
      "Ġdressing": 7480,
      "Ġprisoners": 7481,
      "Ġinterrupted": 7482,
      "Ġmissionary": 7483,
      "Ġblew": 7484,
      "Ġstroke": 7485,
      "bill": 7486,
      "lings": 7487,
      "pill": 7488,
      "vid": 7489,
      "Ġol": 7490,
      "hib": 7491,
      "Ġcries": 7492,
      "Ġfake": 7493,
      "Ġbeans": 7494,
      "eau": 7495,
      "Ġrude": 7496,
      "pless": 7497,
      "Ġdisag": 7498,
      "Ġ35": 7499,
      "Ġnatives": 7500,
      "Ġextended": 7501,
      "cycle": 7502,
      "Ġvehicle": 7503,
      "Ġtempt": 7504,
      "Ġsusan": 7505,
      "Ġholidays": 7506,
      "Ġvictoria": 7507,
      "Ġfisher": 7508,
      "softly": 7509,
      "Ġprospect": 7510,
      "Ġcitizens": 7511,
      "achusetts": 7512,
      "eg": 7513,
      "run": 7514,
      "Ġire": 7515,
      "Ġdumb": 7516,
      "oray": 7517,
      "itan": 7518,
      "arian": 7519,
      "ali": 7520,
      "Ġreform": 7521,
      "Ġleather": 7522,
      "Ġbackwards": 7523,
      "Ġteaching": 7524,
      "Ġpassage": 7525,
      "Ġconsist": 7526,
      "Ġbuilder": 7527,
      "Ġ1981": 7528,
      "Ġpoorly": 7529,
      "Ġservant": 7530,
      "Ġ1976": 7531,
      "Ġapproached": 7532,
      "Ġauntie": 7533,
      "Ġvisitors": 7534,
      "Ġconsiderable": 7535,
      "away": 7536,
      "bin": 7537,
      "cest": 7538,
      "wide": 7539,
      "Ġmast": 7540,
      "Ġcind": 7541,
      "acity": 7542,
      "Ġbos": 7543,
      "Ġconver": 7544,
      "Ġintense": 7545,
      "Ġscored": 7546,
      "Ġinternet": 7547,
      "Ġicecream": 7548,
      "Ġsupported": 7549,
      "Ġrepresentative": 7550,
      "works": 7551,
      "Ġconnected": 7552,
      "Ġgradually": 7553,
      "codile": 7554,
      "Ġtissue": 7555,
      "jump": 7556,
      "Ġcateg": 7557,
      "ington": 7558,
      "lls": 7559,
      "acious": 7560,
      "ilight": 7561,
      "rah": 7562,
      "Ġshh": 7563,
      "Ġblows": 7564,
      "âĻ«": 7565,
      "Ġbegun": 7566,
      "Ġconsum": 7567,
      "shine": 7568,
      "post": 7569,
      "Ġactivities": 7570,
      "Ġcapture": 7571,
      "Ġmagnetic": 7572,
      "Ġassemb": 7573,
      "Ġrahul": 7574,
      "Ġappropriate": 7575,
      "ĠâĻ«": 7576,
      "riff": 7577,
      "Ġjin": 7578,
      "Ġgods": 7579,
      "Ġshri": 7580,
      "Ġfee": 7581,
      "Ġfever": 7582,
      "Ġpean": 7583,
      "need": 7584,
      "Ġglanced": 7585,
      "Ġ36": 7586,
      "Ġgenus": 7587,
      "Ġ1984": 7588,
      "Ġtroubles": 7589,
      "Ġexpecting": 7590,
      "uki": 7591,
      "Ġtreatment": 7592,
      "Ġloudly": 7593,
      "vocalization": 7594,
      "Ġhistorical": 7595,
      "Ġwhale": 7596,
      "Ġtools": 7597,
      "Ġbarbara": 7598,
      "Ġunexpected": 7599,
      "27": 7600,
      "Ġhom": 7601,
      "Ġron": 7602,
      "akin": 7603,
      "apa": 7604,
      "Ġagency": 7605,
      "Ġunits": 7606,
      "iana": 7607,
      "Ġcarpet": 7608,
      "Ġbuying": 7609,
      "Ġawa": 7610,
      "Ġtempor": 7611,
      "Ġlevels": 7612,
      "Ġcompeted": 7613,
      "Ġnecessarily": 7614,
      "Ġdelightful": 7615,
      "Ġearned": 7616,
      "Ġbasketball": 7617,
      "Ġinjured": 7618,
      "lady": 7619,
      "Ã¢": 7620,
      "Ġsom": 7621,
      "Ġoli": 7622,
      "Ġthumb": 7623,
      "inkle": 7624,
      "Ġwhilst": 7625,
      "Ġdisg": 7626,
      "Ġresident": 7627,
      "Ġpolite": 7628,
      "Ġregional": 7629,
      "Ġ2023": 7630,
      "Ġreturns": 7631,
      "Ġbearing": 7632,
      "Ġstarred": 7633,
      "somebody": 7634,
      "ĠĠĠĠĠĠĠ": 7635,
      "Ġdisappear": 7636,
      "Ġviolent": 7637,
      "hetic": 7638,
      "Ġcongratulations": 7639,
      "Ġprovinces": 7640,
      "Ġassembly": 7641,
      "dou": 7642,
      "pre": 7643,
      "rac": 7644,
      "tv": 7645,
      "wers": 7646,
      "Ġot": 7647,
      "Ġbust": 7648,
      "Ġmental": 7649,
      "Ġcreeks": 7650,
      "Ġdough": 7651,
      "Ġnancy": 7652,
      "andra": 7653,
      "Ġnokia": 7654,
      "ques": 7655,
      "Ġboom": 7656,
      "Ġmanip": 7657,
      "Ġpecul": 7658,
      "Ġunhappy": 7659,
      "Ġmonkeys": 7660,
      "Ġswept": 7661,
      "Ġimpression": 7662,
      "umpy": 7663,
      "Ġanimated": 7664,
      "Ġkidna": 7665,
      "Ġartists": 7666,
      "Ġcosts": 7667,
      "Ġdiscovery": 7668,
      "Ġvirt": 7669,
      "listen": 7670,
      "til": 7671,
      "anas": 7672,
      "aro": 7673,
      "Ġere": 7674,
      "Ġseas": 7675,
      "Ġshining": 7676,
      "Ġscary": 7677,
      "Ġimpress": 7678,
      "Ġthief": 7679,
      "Ġreturning": 7680,
      "Ġ80": 7681,
      "Ġmidnight": 7682,
      "ĠâĢĺ_": 7683,
      "Ġmassachusetts": 7684,
      "Ġwales": 7685,
      "Ġadmitted": 7686,
      "Ġemploy": 7687,
      "Ġgoddess": 7688,
      "Ġfantastic": 7689,
      "Ġigno": 7690,
      "pil": 7691,
      "wind": 7692,
      "Ã¦": 7693,
      "Ġtas": 7694,
      "heim": 7695,
      "erg": 7696,
      "Ġdal": 7697,
      "Ġgates": 7698,
      "Ġinsp": 7699,
      "oos": 7700,
      "Ġwanting": 7701,
      "Ġpond": 7702,
      "god": 7703,
      "Ġumbre": 7704,
      "Ġnearby": 7705,
      "Ġcryst": 7706,
      "Ġstopping": 7707,
      "Ġreaching": 7708,
      "Ġneighbour": 7709,
      "Ã³n": 7710,
      "Ġsolemn": 7711,
      "Ġireland": 7712,
      "eys": 7713,
      "mil": 7714,
      "pict": 7715,
      "Ġax": 7716,
      "Ġsab": 7717,
      "hall": 7718,
      "Ġpeak": 7719,
      "Ġlan": 7720,
      "Ġbend": 7721,
      "alog": 7722,
      "Ġdod": 7723,
      "Ġanton": 7724,
      "imately": 7725,
      "Ġdey": 7726,
      "apo": 7727,
      "Ġpartners": 7728,
      "Ġwrites": 7729,
      "mmm": 7730,
      "Ġattitude": 7731,
      "Ġwarn": 7732,
      "inson": 7733,
      "Ġconfident": 7734,
      "Ġfriendship": 7735,
      "Ġdouglas": 7736,
      "Ġ1964": 7737,
      "Ġorganis": 7738,
      "sniffs": 7739,
      "Ġcabinet": 7740,
      "Ġargument": 7741,
      "Ġvotes": 7742,
      "Ġadopted": 7743,
      "Ġmcdonalds": 7744,
      "sharp": 7745,
      "aah": 7746,
      "cution": 7747,
      "master": 7748,
      "nine": 7749,
      "next": 7750,
      "Ġpul": 7751,
      "Ġwhoever": 7752,
      "Ġintend": 7753,
      "Ġmissus": 7754,
      "Ġshops": 7755,
      "Ġvoy": 7756,
      "Ġbags": 7757,
      "Ġexperiment": 7758,
      "Ġbelonged": 7759,
      "Ġdiscussion": 7760,
      "Ġaudience": 7761,
      "Ġprincipal": 7762,
      "Ġsignificant": 7763,
      "Ġdeputy": 7764,
      "Ġhelicopter": 7765,
      "500": 7766,
      "ees": 7767,
      "found": 7768,
      "jac": 7769,
      "uals": 7770,
      "Ġwes": 7771,
      "Ġbour": 7772,
      "Ġnord": 7773,
      "stay": 7774,
      "Ġstations": 7775,
      "Ġ\"\"": 7776,
      "unte": 7777,
      "Ġalt": 7778,
      "thomas": 7779,
      "oli": 7780,
      "Ġcheers": 7781,
      "Ġuseless": 7782,
      "Ġpolitics": 7783,
      "Ġsunshine": 7784,
      "Ġtouching": 7785,
      "Ġphoto": 7786,
      "keeper": 7787,
      "Ġdegrees": 7788,
      "Ġfrancisco": 7789,
      "Ġliquid": 7790,
      "Ġcotton": 7791,
      "ae": 7792,
      "jan": 7793,
      "sound": 7794,
      "ugh": 7795,
      "Ġtuesday": 7796,
      "refer": 7797,
      "Ġirish": 7798,
      "Ġdug": 7799,
      "Ġgarth": 7800,
      "Ġinse": 7801,
      "Ġanth": 7802,
      "Ġancest": 7803,
      "elle": 7804,
      "Ġabo": 7805,
      "Ġspy": 7806,
      "Ġwhit": 7807,
      "Ġblaz": 7808,
      "Ġwherever": 7809,
      "life": 7810,
      "Ġeditor": 7811,
      "Ġtriangle": 7812,
      "Ġelement": 7813,
      "Ġ1968": 7814,
      "Ġcrossing": 7815,
      "Ġcreatures": 7816,
      "Ġgrowth": 7817,
      "Ġpolicies": 7818,
      "Ġ1930": 7819,
      "Ġpackage": 7820,
      "Ġqueens": 7821,
      "mrs": 7822,
      "Ġsatisfaction": 7823,
      "Ġtraditional": 7824,
      "Ġsmoking": 7825,
      "Ġwarriors": 7826,
      "Ġeliot": 7827,
      "Ġcommercial": 7828,
      "Ġeagle": 7829,
      "nge": 7830,
      "uable": 7831,
      "once": 7832,
      "Ġandrew": 7833,
      "alo": 7834,
      "Ġrebecca": 7835,
      "irt": 7836,
      "igator": 7837,
      "Ġgranny": 7838,
      "pton": 7839,
      "ahhah": 7840,
      "Ġhelpless": 7841,
      "gets": 7842,
      "Ġpoland": 7843,
      "Ġimpat": 7844,
      "Ġaccused": 7845,
      "Ġfacts": 7846,
      "Ġdistribut": 7847,
      "Ġportion": 7848,
      "build": 7849,
      "Ġkorean": 7850,
      "Ġpitched": 7851,
      "Ġatlantic": 7852,
      "belt": 7853,
      "mate": 7854,
      "swe": 7855,
      "whee": 7856,
      "inity": 7857,
      "Ġlor": 7858,
      "Ġstout": 7859,
      "Ġstiff": 7860,
      "aman": 7861,
      "Ġliver": 7862,
      "Ġfrag": 7863,
      "Ġlover": 7864,
      "Ġscrap": 7865,
      "Ġimpact": 7866,
      "Ġhumans": 7867,
      "Ġpainted": 7868,
      "Ġ1975": 7869,
      "Ġobserv": 7870,
      "Ġmultiple": 7871,
      "Ġgabriella": 7872,
      "Ġuncomfort": 7873,
      "Ġamendment": 7874,
      "28": 7875,
      "bridge": 7876,
      "cs": 7877,
      "gent": 7878,
      "inated": 7879,
      "Ġsis": 7880,
      "Ġsadd": 7881,
      "Ġfare": 7882,
      "Ġgest": 7883,
      "Ġlwww": 7884,
      "Ġreference": 7885,
      "Ġnod": 7886,
      "Ġtrace": 7887,
      "Ġhoward": 7888,
      "Ġpeep": 7889,
      "Ġcomposed": 7890,
      "Ġapply": 7891,
      "Ġdrank": 7892,
      "Ġcharged": 7893,
      "Ġdistingu": 7894,
      "Ġpops": 7895,
      "Ġmerged": 7896,
      "Ġgrape": 7897,
      "Ġclimbed": 7898,
      "Ġhealthy": 7899,
      "Ġstatus": 7900,
      "Ġseventeen": 7901,
      "Ġtidy": 7902,
      "Ġcottage": 7903,
      "gment": 7904,
      "mel": 7905,
      "mont": 7906,
      "Ġarose": 7907,
      "Ġsought": 7908,
      "Ġdining": 7909,
      "Ġpiss": 7910,
      "Ġlung": 7911,
      "essee": 7912,
      "Ġhend": 7913,
      "Ġreign": 7914,
      "Ġstor": 7915,
      "kee": 7916,
      "Ġjagu": 7917,
      "Ġruff": 7918,
      "uled": 7919,
      "Ġfeast": 7920,
      "peekaboo": 7921,
      "before": 7922,
      "Ġmaria": 7923,
      "Ġheaded": 7924,
      "whose": 7925,
      "Ġdepression": 7926,
      "Ġassured": 7927,
      "Ġconfused": 7928,
      "Ġleads": 7929,
      "Ġstrict": 7930,
      "pretty": 7931,
      "jamin": 7932,
      "Ġtennessee": 7933,
      "Ġfurniture": 7934,
      "Ġmerely": 7935,
      "iries": 7936,
      "Ġonline": 7937,
      "imum": 7938,
      "ili": 7939,
      "Ġalger": 7940,
      "Ġgettin": 7941,
      "theless": 7942,
      "Ġquack": 7943,
      "anche": 7944,
      "Ġswear": 7945,
      "Ġ1977": 7946,
      "Ġdaisy": 7947,
      "Ġinsurance": 7948,
      "Ġtemple": 7949,
      "Ġaustria": 7950,
      "Ġclosing": 7951,
      "Ġdescribe": 7952,
      "Ġsexual": 7953,
      "Ġjewish": 7954,
      "Ġoccasionally": 7955,
      "gabr": 7956,
      "Ġconfirmed": 7957,
      "Ġexpedition": 7958,
      "Ġphrase": 7959,
      "referring": 7960,
      "ost": 7961,
      "Ġlaughter": 7962,
      "urb": 7963,
      "Ġrud": 7964,
      "aine": 7965,
      "Ġribb": 7966,
      "ighed": 7967,
      "Ġlewis": 7968,
      "Ġaffected": 7969,
      "bear": 7970,
      "Ġactions": 7971,
      "Ġkiller": 7972,
      "Ġpersonally": 7973,
      "Ġdrift": 7974,
      "196": 7975,
      "Ġexplore": 7976,
      "Ġimpl": 7977,
      "Ġ1974": 7978,
      "Ġcamer": 7979,
      "Ġvolunte": 7980,
      "Ġpacked": 7981,
      "Ġkicked": 7982,
      "Ġfeeding": 7983,
      "Ġdepends": 7984,
      "Ġtennis": 7985,
      "Ġarticle": 7986,
      "45": 7987,
      "ok": 7988,
      "pres": 7989,
      "hemat": 7990,
      "Ġaft": 7991,
      "Ġbor": 7992,
      "onation": 7993,
      "Ġpars": 7994,
      "Ġatm": 7995,
      "Ġbru": 7996,
      "Ġbrun": 7997,
      "Ġshapes": 7998,
      "Ġkeith": 7999,
      "Ġpriest": 8000,
      "Ġ33": 8001,
      "Ġthankful": 8002,
      "Ġsurgery": 8003,
      "Ġbenjamin": 8004,
      "Ġconfusion": 8005,
      "Ġlegisl": 8006,
      "Ġcommonly": 8007,
      "views": 8008,
      "Ġcomplain": 8009,
      "Ġextraord": 8010,
      "Ġrepeat": 8011,
      "Ġphotograph": 8012,
      "Ġpossibility": 8013,
      "Ġintroduce": 8014,
      "Ġbonnet": 8015,
      "Ġarrows": 8016,
      "Ġproceeded": 8017,
      "Ġinstrument": 8018,
      "Ġumbrella": 8019,
      ",...": 8020,
      "mouth": 8021,
      "Ġairl": 8022,
      "Ġpace": 8023,
      "ani": 8024,
      "hati": 8025,
      "Ġkas": 8026,
      "Ġplates": 8027,
      "Ġroast": 8028,
      "Ġintention": 8029,
      "Ġrecall": 8030,
      "Ġobtained": 8031,
      "Ġjohnny": 8032,
      "Ġsticking": 8033,
      "Ã©e": 8034,
      "Ġ70": 8035,
      "Ġsumm": 8036,
      "Ġstores": 8037,
      "Ġclasses": 8038,
      "hard": 8039,
      "Ġhonestly": 8040,
      "Ġmuttered": 8041,
      "Ġukraine": 8042,
      "Ġconcluded": 8043,
      "Ġuncomfortable": 8044,
      "cook": 8045,
      "hn": 8046,
      "uing": 8047,
      "Ġfc": 8048,
      "Ġbeard": 8049,
      "ami": 8050,
      "Ġjelly": 8051,
      "Ġsheriff": 8052,
      "ivered": 8053,
      "Ġblast": 8054,
      "ints": 8055,
      "Ġresolution": 8056,
      "Ġkindness": 8057,
      "Ġalongside": 8058,
      "scri": 8059,
      "Ġoperations": 8060,
      "Ġorganized": 8061,
      "Ġproducts": 8062,
      "Ġseparated": 8063,
      "Ġstares": 8064,
      "Ġconstitution": 8065,
      "nnn": 8066,
      "Ġutterance": 8067,
      "Ġclaire": 8068,
      "Ġgordon": 8069,
      "ngeun": 8070,
      "Ġwins": 8071,
      "Ġms": 8072,
      "Ġmcc": 8073,
      "Ġcris": 8074,
      "Ġmeg": 8075,
      "Ġrage": 8076,
      "Ġconvent": 8077,
      "osh": 8078,
      "Ġpoem": 8079,
      "Ġcounting": 8080,
      "Ġattorn": 8081,
      "Ġaddressed": 8082,
      "Ġ1973": 8083,
      "ologist": 8084,
      "Ġexamples": 8085,
      "Ġpotty": 8086,
      "Ġmistaken": 8087,
      "Ġannounce": 8088,
      "Ġcheerful": 8089,
      "Ġdemanded": 8090,
      "Ġmigration": 8091,
      "29": 8092,
      "eenth": 8093,
      "mal": 8094,
      "Ġsou": 8095,
      "Ġbun": 8096,
      "Ġandre": 8097,
      "lement": 8098,
      "Ġstable": 8099,
      "Ġroo": 8100,
      "quest": 8101,
      "Ġ(,": 8102,
      "asses": 8103,
      "cla": 8104,
      "Ġobvious": 8105,
      "Ġreduced": 8106,
      "ricult": 8107,
      "Ġvision": 8108,
      "Ġexplo": 8109,
      "Ġabsence": 8110,
      "Ġlabel": 8111,
      "Ġcereal": 8112,
      "Ġtickets": 8113,
      "Ġdirt": 8114,
      "everybody": 8115,
      "Ġsurrounded": 8116,
      "Ġpoetry": 8117,
      "thir": 8118,
      "contin": 8119,
      "Ġlaunched": 8120,
      "eves": 8121,
      "Ġtables": 8122,
      "Ġwacker": 8123,
      "Ġske": 8124,
      "Ġgoat": 8125,
      "ophy": 8126,
      "Ġagricult": 8127,
      "Ġcovid": 8128,
      "beep": 8129,
      "ffin": 8130,
      "Ġnevertheless": 8131,
      "Ġmathemat": 8132,
      "today": 8133,
      "Ġcriminal": 8134,
      "Ġestate": 8135,
      "Ġgarbage": 8136,
      "Ġnaval": 8137,
      "Ġscientific": 8138,
      "probably": 8139,
      "Ġexplanation": 8140,
      "ns": 8141,
      "won": 8142,
      "inini": 8143,
      "Ġwret": 8144,
      "Ġsank": 8145,
      "record": 8146,
      "Ġbree": 8147,
      "Ġborough": 8148,
      "hile": 8149,
      "Ġpas": 8150,
      "Ġwebs": 8151,
      "Ġstated": 8152,
      "imp": 8153,
      "uncle": 8154,
      "Ġcomments": 8155,
      "Ġenqu": 8156,
      "Ġpoly": 8157,
      "Ġhollow": 8158,
      "Ġdisci": 8159,
      "Ġunderground": 8160,
      "Ġharv": 8161,
      "Ġharvey": 8162,
      "Ġlasted": 8163,
      "Ġlisted": 8164,
      "ibly": 8165,
      "Ġtrained": 8166,
      "twenty": 8167,
      "Ġexception": 8168,
      "Ġluke": 8169,
      "Ġepisodes": 8170,
      "Ġvegetables": 8171,
      "gbark": 8172,
      "Ġwrapped": 8173,
      "picture": 8174,
      "fol": 8175,
      "Ġ:": 8176,
      "Ġfasc": 8177,
      "Ġlav": 8178,
      "orpor": 8179,
      "eness": 8180,
      "arks": 8181,
      "Ġbeep": 8182,
      "Ġkate": 8183,
      "Ġstared": 8184,
      "Ġali": 8185,
      "Ġconc": 8186,
      "Ġfeature": 8187,
      "places": 8188,
      "Ġchum": 8189,
      "Ġmothers": 8190,
      "Ġglob": 8191,
      "aughters": 8192,
      "Ġobst": 8193,
      "brinini": 8194,
      "Ġhurting": 8195,
      "Ġlands": 8196,
      "Ġgraham": 8197,
      "Ġbillion": 8198,
      "Ġbreathe": 8199,
      "Ġruined": 8200,
      "Ġcerem": 8201,
      "Ġhyun": 8202,
      "Ġtesting": 8203,
      "Ġengineering": 8204,
      "dded": 8205,
      "Ġfoolish": 8206,
      "Ġslavery": 8207,
      "Ġceremony": 8208,
      "aurs": 8209,
      "bby": 8210,
      "call": 8211,
      "ku": 8212,
      "made": 8213,
      "Â°": 8214,
      "Ġeth": 8215,
      "Ġtide": 8216,
      "Ġbars": 8217,
      "Ġdent": 8218,
      "itable": 8219,
      "atched": 8220,
      "amation": 8221,
      "Ġjay": 8222,
      "Ġhired": 8223,
      "ckets": 8224,
      "Ġloads": 8225,
      "them": 8226,
      "Ġhond": 8227,
      "enses": 8228,
      "Ġcolin": 8229,
      "Ġendea": 8230,
      "Ġcapable": 8231,
      "Ġengage": 8232,
      "Ġsixth": 8233,
      "Ġcollea": 8234,
      "Ġmidst": 8235,
      "Ġ1957": 8236,
      "Ġmistress": 8237,
      "whisper": 8238,
      "Ġsettlements": 8239,
      "Ġassociated": 8240,
      "warren": 8241,
      "Ġbattery": 8242,
      "Ġapologize": 8243,
      "Ġtokyo": 8244,
      "bat": 8245,
      "oved": 8246,
      "rad": 8247,
      "vas": 8248,
      "Ġsher": 8249,
      "Ġsack": 8250,
      "Ġding": 8251,
      "Ġdaw": 8252,
      "oni": 8253,
      "Ġgulf": 8254,
      "Ġanch": 8255,
      "Ġdele": 8256,
      "---": 8257,
      "Ġguar": 8258,
      "Ġthrust": 8259,
      "moves": 8260,
      "Ġnumerous": 8261,
      "Ġhighway": 8262,
      "Ġemily": 8263,
      "Ġdecent": 8264,
      "white": 8265,
      "force": 8266,
      "Ġburden": 8267,
      "Ġsoftware": 8268,
      "Ġdevice": 8269,
      "Ġsafely": 8270,
      "Ġbanging": 8271,
      "phia": 8272,
      "Ġaccompan": 8273,
      "Ġcuddle": 8274,
      "quarters": 8275,
      "hammad": 8276,
      "?]": 8277,
      "gimme": 8278,
      "tri": 8279,
      "Ġcater": 8280,
      "Ġyer": 8281,
      "Ġgb": 8282,
      "Ġgam": 8283,
      "anim": 8284,
      "arrondissement": 8285,
      "sex": 8286,
      "chris": 8287,
      "Ġlimb": 8288,
      "Ġasks": 8289,
      "Ġwhir": 8290,
      "Ġmarion": 8291,
      "Ġshagbark": 8292,
      "Ġcontents": 8293,
      "Ġgreg": 8294,
      "Ġunderstanding": 8295,
      "apple": 8296,
      "Ġcurly": 8297,
      "Ġextend": 8298,
      "zzy": 8299,
      "Ġclothing": 8300,
      "Ġkisses": 8301,
      "Ġvariety": 8302,
      "Ġkicking": 8303,
      "Ġmemories": 8304,
      "Ġattempts": 8305,
      "Ġcaroline": 8306,
      "Ġexistence": 8307,
      "Ġresponded": 8308,
      "Ġjonathan": 8309,
      "Ġcomrades": 8310,
      "Ġpeculiar": 8311,
      "Ġtun": 8312,
      "hem": 8313,
      "haw": 8314,
      "Ġcf": 8315,
      "Ġcj": 8316,
      "Ġcinem": 8317,
      "Ġgiraffe": 8318,
      "Ġnhl": 8319,
      "atl": 8320,
      "utation": 8321,
      "iches": 8322,
      "Ġkong": 8323,
      "Ġseal": 8324,
      "Ġspaghetti": 8325,
      "Ġtheme": 8326,
      "Ġconcept": 8327,
      "apers": 8328,
      "Ġtwilight": 8329,
      "Ġmaintain": 8330,
      "Ġ1966": 8331,
      "Ġchecking": 8332,
      "Ġopposed": 8333,
      "hart": 8334,
      "Ġcowboy": 8335,
      "Ġdeeply": 8336,
      "Ġanxiety": 8337,
      "Ġfreder": 8338,
      "Ġhistoric": 8339,
      "Ġmerriman": 8340,
      "Ġrecommend": 8341,
      "Ġhenderson": 8342,
      "hr": 8343,
      "might": 8344,
      "Ġtune": 8345,
      "Ġtib": 8346,
      "asion": 8347,
      "asant": 8348,
      "Ġbeating": 8349,
      "sea": 8350,
      "Ġkay": 8351,
      "Ġkaren": 8352,
      "âĢľ": 8353,
      "antique": 8354,
      "Ġcomin": 8355,
      "Ġbrooke": 8356,
      "endous": 8357,
      "itei": 8358,
      "Ġadvert": 8359,
      "manrat": 8360,
      "Ġcommit": 8361,
      "Ġhorat": 8362,
      "Ġsimon": 8363,
      "Ġexpressed": 8364,
      "Ġgraeme": 8365,
      "Ġfigured": 8366,
      "Ġ1940": 8367,
      "Ġquarters": 8368,
      "Ġbells": 8369,
      "Ġhunter": 8370,
      "Ġdefeat": 8371,
      "Ġfaithful": 8372,
      "newmanrat": 8373,
      "Ġsailor": 8374,
      "Ġcadets": 8375,
      "Ġadditional": 8376,
      "Ġsavage": 8377,
      "Ġuncons": 8378,
      "interviews": 8379,
      "Ġdivorced": 8380,
      "Ġursula": 8381,
      "Ġsikander": 8382,
      "adelphia": 8383,
      "newmanratner": 8384,
      "48": 8385,
      "99": 8386,
      ";\"": 8387,
      "ben": 8388,
      "bad": 8389,
      "pink": 8390,
      "pig": 8391,
      "wart": 8392,
      "yup": 8393,
      "Ġtay": 8394,
      "escue": 8395,
      "Ġbegged": 8396,
      "amn": 8397,
      "Ġshelf": 8398,
      "iments": 8399,
      "ainted": 8400,
      "Ġmosc": 8401,
      "Ġprovision": 8402,
      "Ġleaning": 8403,
      "Ġblake": 8404,
      "Ġenorm": 8405,
      "Ġprey": 8406,
      "Ġcleared": 8407,
      "Ġobtain": 8408,
      "Ġ1971": 8409,
      "Ġ1978": 8410,
      "Ġvaluable": 8411,
      "Ġwalt": 8412,
      "Ġduncan": 8413,
      "course": 8414,
      "Ġnapkin": 8415,
      "Ġestablish": 8416,
      "belie": 8417,
      "Ġjessica": 8418,
      "Ġgorge": 8419,
      "Ġsqueeze": 8420,
      "Ġnegative": 8421,
      "Ġdialect": 8422,
      "school": 8423,
      "Ġexchange": 8424,
      "pool": 8425,
      "Ġ/": 8426,
      "Ġtel": 8427,
      "Ġct": 8428,
      "Ġpha": 8429,
      "itors": 8430,
      "Ġhambur": 8431,
      "Ġsuicide": 8432,
      "Ġtray": 8433,
      "Ġoverall": 8434,
      "Ġpoll": 8435,
      "Ġshared": 8436,
      "Ġmuslim": 8437,
      "Ġinstantly": 8438,
      "Ġhoriz": 8439,
      "Ġassume": 8440,
      "Ġdrinks": 8441,
      "Ġdeaths": 8442,
      "Ġjapazy": 8443,
      "Ġstaring": 8444,
      "Ġsneak": 8445,
      "Ġinsisted": 8446,
      "Ġcatching": 8447,
      "Ġactivist": 8448,
      "Ġliterature": 8449,
      "Ġcheeky": 8450,
      "Ġisaac": 8451,
      "Ġatmosp": 8452,
      "Ġextraordinary": 8453,
      "Ġfrederick": 8454,
      "ais": 8455,
      "crow": 8456,
      "eld": 8457,
      "ips": 8458,
      "silly": 8459,
      "taking": 8460,
      "Ġtut": 8461,
      "Ġdaughters": 8462,
      "enna": 8463,
      "Ġalco": 8464,
      "Ġsponge": 8465,
      "respo": 8466,
      "Ġbored": 8467,
      "Ġchildsname": 8468,
      "Ġresign": 8469,
      "Ġindign": 8470,
      "Ġdragged": 8471,
      "Ġretreat": 8472,
      "Ġinstinct": 8473,
      "Ġcatches": 8474,
      "annine": 8475,
      "Ġanswers": 8476,
      "Ġ1983": 8477,
      "speaking": 8478,
      "Ġannual": 8479,
      "holds": 8480,
      "Ġenjoying": 8481,
      "urious": 8482,
      "Ġcoward": 8483,
      "Ġgardens": 8484,
      "Ġgrim": 8485,
      "Ġpretending": 8486,
      "Ġagreement": 8487,
      "Ġprayer": 8488,
      "iji": 8489,
      "Ġcrawl": 8490,
      "better": 8491,
      "Ġstretched": 8492,
      "Ġharrison": 8493,
      "Ġassem": 8494,
      "Ġdomest": 8495,
      "Ġpistol": 8496,
      "Ġpussy": 8497,
      "uge": 8498,
      "Ġswell": 8499,
      "Ġbbc": 8500,
      "Ġdow": 8501,
      "Ġdess": 8502,
      "Ġfires": 8503,
      "Ġtops": 8504,
      "Ġpoop": 8505,
      "Ġnails": 8506,
      "umin": 8507,
      "Ġlongest": 8508,
      "Ġcolumb": 8509,
      "Ġ180": 8510,
      "Ġbench": 8511,
      "anner": 8512,
      "Ġexpand": 8513,
      "Ġarmitage": 8514,
      "Ġfortescue": 8515,
      "Ġ1956": 8516,
      "Ġcommunist": 8517,
      "Ġcricket": 8518,
      "Ġbyebye": 8519,
      "Ġsolution": 8520,
      "ropol": 8521,
      "Ġdiscover": 8522,
      "Ġbucks": 8523,
      "Ġscram": 8524,
      "Ġblessed": 8525,
      "Ġgrabs": 8526,
      "Ġkatie": 8527,
      "Ġruthven": 8528,
      "Ġillustrated": 8529,
      "Ġthoroughly": 8530,
      "Ġsupreme": 8531,
      "Ġconvinced": 8532,
      "Ġattorney": 8533,
      "cuit": 8534,
      "raspberry": 8535,
      "tu": 8536,
      "Â¶": 8537,
      "Ġoven": 8538,
      "Ġbure": 8539,
      "Ġmand": 8540,
      "Ġfeared": 8541,
      "Ġheap": 8542,
      "etime": 8543,
      "Ġmeitei": 8544,
      "Ġdevering": 8545,
      "agger": 8546,
      "Ġtramp": 8547,
      "Ġwaist": 8548,
      "Ġconsid": 8549,
      "Ġchristopher": 8550,
      "Ġvisible": 8551,
      "zech": 8552,
      "Ġstrongly": 8553,
      "Ġphiladelphia": 8554,
      "Ġceased": 8555,
      "Ġawarded": 8556,
      "Ġhank": 8557,
      "Ġcrocodile": 8558,
      "cuits": 8559,
      "Ġinstructions": 8560,
      "woman": 8561,
      "Ġbracelet": 8562,
      "Ġconflict": 8563,
      "Ġuniform": 8564,
      "Ġmoscow": 8565,
      "spe": 8566,
      "Ġtang": 8567,
      "Ġcant": 8568,
      "Ġfaced": 8569,
      "Ġlily": 8570,
      "Ġsobrinini": 8571,
      "Ġrushing": 8572,
      "Ġnodded": 8573,
      "Ġcoch": 8574,
      "manchester": 8575,
      "Ġmonarch": 8576,
      "Ġimpressed": 8577,
      "Ġentering": 8578,
      "children": 8579,
      "Ġtrap": 8580,
      "Ġinsist": 8581,
      "Ġ1958": 8582,
      "Ġfranklin": 8583,
      "Ġbucket": 8584,
      "Ġreferring": 8585,
      "Ġinstitute": 8586,
      "Ġgloves": 8587,
      "Ġbehavior": 8588,
      "Ġimpatient": 8589,
      "gain": 8590,
      "gne": 8591,
      "hors": 8592,
      "tim": 8593,
      "tÃ©": 8594,
      "ux": 8595,
      "Ġcushi": 8596,
      "onom": 8597,
      "Ġislam": 8598,
      "almost": 8599,
      "Ġthri": 8600,
      "Ġcanoe": 8601,
      "Ġhadta": 8602,
      "Ġrolan": 8603,
      "Ġdisaster": 8604,
      "izations": 8605,
      "babbling": 8606,
      "Ġshir": 8607,
      "Ġregions": 8608,
      "Ġannie": 8609,
      "Ġterribly": 8610,
      "Ġdora": 8611,
      "chers": 8612,
      "Ġowl": 8613,
      "Ġprojects": 8614,
      "Ġtouches": 8615,
      "Ġborden": 8616,
      "Ġellen": 8617,
      "Ġreaction": 8618,
      "Ġvictims": 8619,
      "Ġchallenge": 8620,
      "47": 8621,
      "bac": 8622,
      "Ġnail": 8623,
      "Ġreception": 8624,
      "Ġjet": 8625,
      "Ġrh": 8626,
      "aba": 8627,
      "eline": 8628,
      "Ġclaimed": 8629,
      "bee": 8630,
      "Ġserving": 8631,
      "Ġstays": 8632,
      "Ġparrot": 8633,
      "Ġintegr": 8634,
      "Ġnatal": 8635,
      "Ġconstantly": 8636,
      "Ġrosa": 8637,
      "Ġbullets": 8638,
      "Ġgrief": 8639,
      "Ġincreasing": 8640,
      "Ġrandolph": 8641,
      "Ġprinted": 8642,
      "Ġbarely": 8643,
      "Ġmercury": 8644,
      "Ġforbidden": 8645,
      "Ġdisgust": 8646,
      "iro": 8647,
      "jab": 8648,
      "Ġgum": 8649,
      "Ġlind": 8650,
      "ori": 8651,
      "Ġkin": 8652,
      "Ġhid": 8653,
      "Ġsob": 8654,
      "Ġyourselves": 8655,
      "Ġgoods": 8656,
      "Ġflesh": 8657,
      "wns": 8658,
      "Ġcontext": 8659,
      "Ġfoundation": 8660,
      "Ġglory": 8661,
      "Ġowners": 8662,
      "grow": 8663,
      "Ġsurre": 8664,
      "enny": 8665,
      "Ġsque": 8666,
      "Ġchop": 8667,
      "Ġdrawer": 8668,
      "Ġdealing": 8669,
      "Ġ1967": 8670,
      "Ġvalentine": 8671,
      "Ġrainbow": 8672,
      "Ġoperating": 8673,
      "Ġdevil": 8674,
      "Ġdirections": 8675,
      "Ġregarding": 8676,
      "write": 8677,
      "Ġgabr": 8678,
      "Ġsandwiches": 8679,
      "Ġemploye": 8680,
      "Ġtales": 8681,
      "Ġignor": 8682,
      "lies": 8683,
      "wah": 8684,
      "Ã§": 8685,
      "inea": 8686,
      "hie": 8687,
      "Ġdared": 8688,
      "Ġpoured": 8689,
      "rical": 8690,
      "Ġstam": 8691,
      "Ġmelo": 8692,
      "Ġliz": 8693,
      "hooray": 8694,
      "unks": 8695,
      "Ġalaska": 8696,
      "Ġbond": 8697,
      "Ġroar": 8698,
      "Ġpee": 8699,
      "Ġperman": 8700,
      "Ġterminal": 8701,
      "Ġentry": 8702,
      "Ġparish": 8703,
      "astern": 8704,
      "Ġ500": 8705,
      "Ġthirsty": 8706,
      "Ġgenerous": 8707,
      "Ġsticky": 8708,
      "Ġstickers": 8709,
      "Ġmerchan": 8710,
      "Ġimmig": 8711,
      "Ġverb": 8712,
      "Ġsamuel": 8713,
      "Ġworthy": 8714,
      "Ġdefeated": 8715,
      "Ġsoutheast": 8716,
      "Ġnortheast": 8717,
      "Ġsnap": 8718,
      "Ġcritical": 8719,
      "Ġdecisions": 8720,
      "Ġrandom": 8721,
      "drink": 8722,
      "Ġfrequently": 8723,
      "Ġalphabet": 8724,
      "Ġpenguin": 8725,
      "_;": 8726,
      "bble": 8727,
      "mart": 8728,
      "mates": 8729,
      "whe": 8730,
      "yummy": 8731,
      "Ġboring": 8732,
      "Ġcors": 8733,
      "Ġczech": 8734,
      "Ġpand": 8735,
      "Ġpanc": 8736,
      "Ġinner": 8737,
      "Ġkit": 8738,
      "Ġrevenge": 8739,
      "Ġdol": 8740,
      "abs": 8741,
      "Ġalab": 8742,
      "Ġris": 8743,
      "ths": 8744,
      "Ġarch": 8745,
      "Ġblues": 8746,
      "canora": 8747,
      "Ġheadquarters": 8748,
      "Ġstead": 8749,
      "visions": 8750,
      "Ġinterests": 8751,
      "Ġmusician": 8752,
      "Ġdoubs": 8753,
      "Ġ1952": 8754,
      "ÃŃa": 8755,
      "Ġcovering": 8756,
      "Ġduties": 8757,
      "Ġhopes": 8758,
      "Ġconsideration": 8759,
      "Ġnichol": 8760,
      "imitating": 8761,
      "Ġstretch": 8762,
      "Ġpipina": 8763,
      "Ġglorious": 8764,
      "80": 8765,
      "dor": 8766,
      "lk": 8767,
      "mill": 8768,
      "tape": 8769,
      "Ġsno": 8770,
      "Ġcert": 8771,
      "mote": 8772,
      "Ġgary": 8773,
      "lda": 8774,
      "Ġker": 8775,
      "Ġkent": 8776,
      "Ġhong": 8777,
      "âĢķ": 8778,
      "ustomed": 8779,
      "Ġcanal": 8780,
      "ĠâĢĶ": 8781,
      "boys": 8782,
      "Ġchances": 8783,
      "Ġsitu": 8784,
      "Ġtribut": 8785,
      "Ġemma": 8786,
      "Ġrefri": 8787,
      "Ġcorre": 8788,
      "Ġsnack": 8789,
      "Ġrecovered": 8790,
      "Ġ1943": 8791,
      "Ġcloset": 8792,
      "Ġmassive": 8793,
      "Ġautumn": 8794,
      "Ġindependence": 8795,
      "Ġpursuit": 8796,
      "Ġgazed": 8797,
      "Ġguarant": 8798,
      "35": 8799,
      "number": 8800,
      "vant": 8801,
      "Ġvel": 8802,
      "Ġbib": 8803,
      "ision": 8804,
      "Ġplains": 8805,
      "thou": 8806,
      "Ġorphan": 8807,
      "derer": 8808,
      "Ġdispos": 8809,
      "Ġacts": 8810,
      "molly": 8811,
      "Ġbeloved": 8812,
      "Ġcolon": 8813,
      "Ġpersian": 8814,
      "rison": 8815,
      "Ġ1962": 8816,
      "monkey": 8817,
      "cript": 8818,
      "Ġsupporting": 8819,
      "Ġneighbors": 8820,
      "Ġborders": 8821,
      "Ġderek": 8822,
      "Ġwidow": 8823,
      "Ġvessels": 8824,
      "Ġtransferred": 8825,
      "Ġsweden": 8826,
      "Ġvoyage": 8827,
      "Ġrefriger": 8828,
      ":--": 8829,
      "bish": 8830,
      "cake": 8831,
      "eating": 8832,
      "papa": 8833,
      "rul": 8834,
      "tur": 8835,
      "esome": 8836,
      "armed": 8837,
      "station": 8838,
      "Ġsean": 8839,
      "Ġashore": 8840,
      "cended": 8841,
      "Ġraw": 8842,
      "Ġgrasp": 8843,
      "Ġmarbles": 8844,
      "Ġappointment": 8845,
      "awww": 8846,
      "Ġpolar": 8847,
      "meal": 8848,
      "Ġ32": 8849,
      "Ġcapacity": 8850,
      "Ġbride": 8851,
      "Ġpersonality": 8852,
      "Ġgeneration": 8853,
      "Ġtreas": 8854,
      "Ġfilms": 8855,
      "Ġpotential": 8856,
      "Ġpractically": 8857,
      "Ġeducated": 8858,
      "Ġdespair": 8859,
      "ezes": 8860,
      "Ġacquaint": 8861,
      "Ġmagnific": 8862,
      "Ġcarrots": 8863,
      "Ġryan": 8864,
      "steps": 8865,
      "parent": 8866,
      "Ġtires": 8867,
      "Ġmath": 8868,
      "Ġlun": 8869,
      "Ġheels": 8870,
      "Ġket": 8871,
      "Ġaspect": 8872,
      "tery": 8873,
      "Ġcann": 8874,
      "Ġclara": 8875,
      "oused": 8876,
      "Ġflow": 8877,
      "Ġdaylight": 8878,
      "izz": 8879,
      "Ġedith": 8880,
      "Ġstrateg": 8881,
      "Ġtripp": 8882,
      "Ġlarry": 8883,
      "putting": 8884,
      "Ġdelicate": 8885,
      "Ġdelivered": 8886,
      "Ġ1961": 8887,
      "mination": 8888,
      "Ġburnt": 8889,
      "Ġreasonable": 8890,
      "Ġlaying": 8891,
      "carl": 8892,
      "Ġsuperior": 8893,
      "Ġcontrolled": 8894,
      "Ġnether": 8895,
      "Ġpreparing": 8896,
      "funny": 8897,
      "pass": 8898,
      "piece": 8899,
      "rab": 8900,
      "town": 8901,
      "Ġbass": 8902,
      "Ġpine": 8903,
      "Ġgap": 8904,
      "Ġnah": 8905,
      "Ġnasty": 8906,
      "adal": 8907,
      "ishes": 8908,
      "iry": 8909,
      "Ġsod": 8910,
      "Ġsoil": 8911,
      "anta": 8912,
      "ulu": 8913,
      "wee": 8914,
      "Ġchip": 8915,
      "Ġmarvel": 8916,
      "Ġdismiss": 8917,
      "Ġcharming": 8918,
      "Ġballoons": 8919,
      "Ġcape": 8920,
      "Ġelements": 8921,
      "Ġdoorway": 8922,
      "alex": 8923,
      "Ġsweep": 8924,
      "shot": 8925,
      "Ġvisitor": 8926,
      "Ġangle": 8927,
      "Ġsuggestion": 8928,
      "Ġprotected": 8929,
      "Ġidentified": 8930,
      "Ġpraise": 8931,
      "Ġprague": 8932,
      "Ġindustrial": 8933,
      "Ġliterally": 8934,
      "Ġtremendous": 8935,
      "Ġsurvive": 8936,
      "Ġsaxony": 8937,
      "Ġsympathy": 8938,
      "Ġconclusion": 8939,
      "!âĢĻ": 8940,
      ".)": 8941,
      "bie": 8942,
      "bted": 8943,
      "cool": 8944,
      "pany": 8945,
      "tic": 8946,
      "Ġmwww": 8947,
      "Ġyield": 8948,
      "Ġhood": 8949,
      "iser": 8950,
      "Ġtwe": 8951,
      "Ġclinton": 8952,
      "ifying": 8953,
      "Ġjoking": 8954,
      "Ġcharity": 8955,
      "Ġedition": 8956,
      "Ġedric": 8957,
      "Ġrecon": 8958,
      "Ġhorrid": 8959,
      "Ġhated": 8960,
      "Ġmillions": 8961,
      "flower": 8962,
      "Ġberlin": 8963,
      "Ġ1942": 8964,
      "whoo": 8965,
      "Ġviews": 8966,
      "Ġurban": 8967,
      "Ġrubbish": 8968,
      "remi": 8969,
      "Ġbiscuits": 8970,
      "Ġjournalist": 8971,
      "Ġguidance": 8972,
      "crayon": 8973,
      "certain": 8974,
      "ded": 8975,
      "sam": 8976,
      "Ġbicy": 8977,
      "Ġdale": 8978,
      "Ġny": 8979,
      "Ġreci": 8980,
      "acement": 8981,
      "christ": 8982,
      "umps": 8983,
      "Ġsuck": 8984,
      "Ġvene": 8985,
      "Ġprose": 8986,
      "Ġpockets": 8987,
      "Ġsciss": 8988,
      "cience": 8989,
      "ggs": 8990,
      "Ġtryin": 8991,
      "Ġsecrets": 8992,
      "Ġending": 8993,
      "Ġaccur": 8994,
      "Ġregist": 8995,
      "Ġstealing": 8996,
      "Ġsingles": 8997,
      "tony": 8998,
      "Ġinvite": 8999,
      "Ġmurderer": 9000,
      "Ġdestruction": 9001,
      "Ġshouts": 9002,
      "Ġtechnical": 9003,
      "Ġcracker": 9004,
      "Ġideal": 9005,
      "Ġfirmly": 9006,
      "grandma": 9007,
      "Ġkennedy": 9008,
      "Ġintelligence": 9009,
      "Ġdiscipl": 9010,
      "pher": 9011,
      "Ġsor": 9012,
      "Ġginger": 9013,
      "orous": 9014,
      "aya": 9015,
      "Ġrein": 9016,
      "adad": 9017,
      "Ġabbey": 9018,
      "Ġviet": 9019,
      "Ġconven": 9020,
      "Ġmans": 9021,
      "Ġera": 9022,
      "Ġtwins": 9023,
      "dey": 9024,
      "Ġeloise": 9025,
      "Ġreduce": 9026,
      "Ġlaunch": 9027,
      "Ġ45": 9028,
      "Ġchristians": 9029,
      "Ġsalary": 9030,
      "Ġprofession": 9031,
      "Ġsharply": 9032,
      "Ġceiling": 9033,
      "Ġequally": 9034,
      "Ġmischief": 9035,
      "Ġalbums": 9036,
      "Ġimagined": 9037,
      "Ġstudying": 9038,
      "Ġdemocracy": 9039,
      "shit": 9040,
      "Ġfunds": 9041,
      "Ġgranted": 9042,
      "Ġfavourite": 9043,
      "Ġcontrast": 9044,
      "Ġendeav": 9045,
      "Ġcaterpill": 9046,
      "tar": 9047,
      "wild": 9048,
      "Ġstress": 9049,
      "opard": 9050,
      "Ġplung": 9051,
      "ryn": 9052,
      "ffer": 9053,
      "Ġmaya": 9054,
      "ava": 9055,
      "Ġtalkin": 9056,
      "Ġbaba": 9057,
      "upon": 9058,
      "Ġcattle": 9059,
      "Ġpatience": 9060,
      "unted": 9061,
      "Ġsweat": 9062,
      "Ġdropping": 9063,
      "Ġofficials": 9064,
      "Ġcorrespo": 9065,
      "Ġhitting": 9066,
      "Ġ1945": 9067,
      "Ġexpert": 9068,
      "Ġcops": 9069,
      "Ġmeantime": 9070,
      "Ġuttered": 9071,
      "truck": 9072,
      "iences": 9073,
      "Ġcustomer": 9074,
      "Ġtalent": 9075,
      "Ġliberty": 9076,
      "Ġwhistling": 9077,
      "Ġhesitated": 9078,
      "Ġcomedian": 9079,
      "atlantique": 9080,
      "Ġdomestic": 9081,
      "fuck": 9082,
      "gian": 9083,
      "loud": 9084,
      "nal": 9085,
      "Ġbax": 9086,
      "ati": 9087,
      "adu": 9088,
      "Ġsty": 9089,
      "Ġmend": 9090,
      "Ġ[_": 9091,
      "Ġsof": 9092,
      "Ġdebt": 9093,
      "abor": 9094,
      "usie": 9095,
      "Ġworm": 9096,
      "emen": 9097,
      "Ġfled": 9098,
      "ifford": 9099,
      "Ġmuhammad": 9100,
      "ensity": 9101,
      "Ġdram": 9102,
      "Ġvoc": 9103,
      "Ġregister": 9104,
      "Ġrelation": 9105,
      "Ġdepos": 9106,
      "Ġbreaks": 9107,
      "Ġpainful": 9108,
      "Ġreplace": 9109,
      "someone": 9110,
      "Ġrobber": 9111,
      "Ġpeters": 9112,
      "Ġcandle": 9113,
      "Ġcombat": 9114,
      "Ġrabbits": 9115,
      "Ġwagons": 9116,
      "Ġrandall": 9117,
      "Ġarrangements": 9118,
      "Ġhastily": 9119,
      "Ġprocedure": 9120,
      "Ġnascanora": 9121,
      "Ġterrific": 9122,
      "Ġresistance": 9123,
      "Ġjaguar": 9124,
      "Ġaccompanied": 9125,
      "Ġalabama": 9126,
      "100": 9127,
      "press": 9128,
      "rants": 9129,
      "tan": 9130,
      "zi": 9131,
      "zburg": 9132,
      "Ġtat": 9133,
      "Ġwigg": 9134,
      "Ġian": 9135,
      "otic": 9136,
      "Ġmack": 9137,
      "Ġmourn": 9138,
      "Ġfi": 9139,
      "Ġfid": 9140,
      "Ġfuel": 9141,
      "Ġbeef": 9142,
      "abe": 9143,
      "Ġsue": 9144,
      "Ġmanchester": 9145,
      "ordan": 9146,
      "def": 9147,
      "Ġwarrant": 9148,
      "ccer": 9149,
      "Ġpassenger": 9150,
      "tley": 9151,
      "Ġgrandad": 9152,
      "Ġmetropol": 9153,
      "shut": 9154,
      "flies": 9155,
      "Ġpurse": 9156,
      "Ġ1959": 9157,
      "Ġfreud": 9158,
      "Ġpinkie": 9159,
      "purple": 9160,
      "Ġpudding": 9161,
      "mamma": 9162,
      "Ġdynasty": 9163,
      "Ġaboard": 9164,
      "buh": 9165,
      "eva": 9166,
      "lace": 9167,
      "pack": 9168,
      "Ġore": 9169,
      "Ġcrest": 9170,
      "Ġdried": 9171,
      "Ġloop": 9172,
      "Ġkhan": 9173,
      "verness": 9174,
      "Ġlip": 9175,
      "Ġfract": 9176,
      "inder": 9177,
      "Ġroot": 9178,
      "Ġunple": 9179,
      "Ġnewman": 9180,
      "Ġcontained": 9181,
      "Ġstartled": 9182,
      "Ġpasses": 9183,
      "Ġmuscles": 9184,
      "Ġparam": 9185,
      "Ġsyl": 9186,
      "Ġsubt": 9187,
      "Ġforehead": 9188,
      "Ġtroubled": 9189,
      "Ġfiles": 9190,
      "Ġinformed": 9191,
      "Ġmoral": 9192,
      "Ġsmells": 9193,
      "Ġcombined": 9194,
      "Ġwalter": 9195,
      "Ġbiscuit": 9196,
      "such": 9197,
      "Ġinjury": 9198,
      "Ġimproved": 9199,
      "Ġmasters": 9200,
      "Ġgoddamn": 9201,
      "Ġwarrior": 9202,
      "Ġinnit": 9203,
      "Ġkilomet": 9204,
      "Ġabandoned": 9205,
      "question": 9206,
      "Ġanchor": 9207,
      "pent": 9208,
      "inburgh": 9209,
      "Ġwool": 9210,
      "Ġoption": 9211,
      "Ġdak": 9212,
      "Ġdign": 9213,
      "Ġdating": 9214,
      "Ġpunch": 9215,
      "Ġgut": 9216,
      "Ġinch": 9217,
      "Ġreject": 9218,
      "Ġknot": 9219,
      "hoho": 9220,
      "quet": 9221,
      "uls": 9222,
      "agon": 9223,
      "âĢĿ!": 9224,
[...]
