{
  "version": "1.0",
  "truncation": null,
  "padding": null,
  "added_tokens": [
    {
      "id": 0,
      "content": "PAD",
      "single_word": false,
      "lstrip": false,
      "rstrip": false,
      "normalized": false,
      "special": true
    },
    {
      "id": 1,
      "content": "UNK",
      "single_word": false,
      "lstrip": false,
      "rstrip": false,
      "normalized": false,
      "special": true
    },
    {
      "id": 2,
      "content": "UTT_BOUNDARY",
      "single_word": false,
      "lstrip": false,
      "rstrip": false,
      "normalized": false,
      "special": true
    }
  ],
  "normalizer": {
    "type": "Sequence",
    "normalizers": [
      {
        "type": "Strip",
        "strip_left": true,
        "strip_right": true
      },
      {
        "type": "NFC"
      },
      {
        "type": "Lowercase"
      }
    ]
  },
  "pre_tokenizer": {
    "type": "ByteLevel",
    "add_prefix_space": false,
    "trim_offsets": true,
    "use_regex": true
  },
  "post_processor": {
    "type": "ByteLevel",
    "add_prefix_space": true,
    "trim_offsets": true,
    "use_regex": true
  },
  "decoder": {
    "type": "ByteLevel",
    "add_prefix_space": true,
    "trim_offsets": true,
    "use_regex": true
  },
  "model": {
    "type": "BPE",
    "dropout": null,
    "unk_token": "UNK",
    "continuing_subword_prefix": null,
    "end_of_word_suffix": null,
    "fuse_unk": false,
    "byte_fallback": false,
    "ignore_merges": false,
    "vocab": {
      "PAD": 0,
      "UNK": 1,
      "UTT_BOUNDARY": 2,
      "!": 3,
      "\"": 4,
      "#": 5,
      "$": 6,
      "%": 7,
      "&": 8,
      "'": 9,
      "(": 10,
      ")": 11,
      "*": 12,
      "+": 13,
      ",": 14,
      "-": 15,
      ".": 16,
      "/": 17,
      "0": 18,
      "1": 19,
      "2": 20,
      "3": 21,
      "4": 22,
      "5": 23,
      "6": 24,
      "7": 25,
      "8": 26,
      "9": 27,
      ":": 28,
      ";": 29,
      "=": 30,
      "?": 31,
      "@": 32,
      "[": 33,
      "\\": 34,
      "]": 35,
      "^": 36,
      "_": 37,
      "`": 38,
      "a": 39,
      "b": 40,
      "c": 41,
      "d": 42,
      "e": 43,
      "f": 44,
      "g": 45,
      "h": 46,
      "i": 47,
      "j": 48,
      "k": 49,
      "l": 50,
      "m": 51,
      "n": 52,
      "o": 53,
      "p": 54,
      "q": 55,
      "r": 56,
      "s": 57,
      "t": 58,
      "u": 59,
      "v": 60,
      "w": 61,
      "x": 62,
      "y": 63,
      "z": 64,
      "{": 65,
      "|": 66,
      "}": 67,
      "~": 68,
      "¡": 69,
      "¢": 70,
      "£": 71,
      "¤": 72,
      "¥": 73,
      "¦": 74,
      "§": 75,
      "¨": 76,
      "©": 77,
      "ª": 78,
      "«": 79,
      "¬": 80,
      "®": 81,
      "¯": 82,
      "°": 83,
      "±": 84,
      "²": 85,
      "³": 86,
      "´": 87,
      "µ": 88,
      "¶": 89,
      "·": 90,
      "¸": 91,
      "¹": 92,
      "º": 93,
      "»": 94,
      "¼": 95,
      "½": 96,
      "¾": 97,
      "¿": 98,
      "Â": 99,
      "Ã": 100,
      "Ä": 101,
      "Å": 102,
      "Æ": 103,
      "Ç": 104,
      "È": 105,
      "É": 106,
      "Ê": 107,
      "Ë": 108,
      "Ì": 109,
      "Ø": 110,
      "Ù": 111,
      "Û": 112,
      "à": 113,
      "á": 114,
      "â": 115,
      "ã": 116,
      "ï": 117,
      "ô": 118,
      "ĉ": 119,
      "Ġ": 120,
      "ġ": 121,
      "Ģ": 122,
      "ģ": 123,
      "Ĥ": 124,
      "ĥ": 125,
      "Ħ": 126,
      "ħ": 127,
      "Ĩ": 128,
      "ĩ": 129,
      "Ī": 130,
      "ī": 131,
      "Ĭ": 132,
      "ĭ": 133,
      "Į": 134,
      "į": 135,
      "İ": 136,
      "ı": 137,
      "Ĳ": 138,
      "ĳ": 139,
      "Ĵ": 140,
      "ĵ": 141,
      "Ķ": 142,
      "ķ": 143,
      "ĸ": 144,
      "Ĺ": 145,
      "ĺ": 146,
      "Ļ": 147,
      "ļ": 148,
      "Ľ": 149,
      "ľ": 150,
      "Ŀ": 151,
      "ŀ": 152,
      "Ł": 153,
      "ł": 154,
      "Ń": 155,
      "Ġt": 156,
      "he": 157,
      "Ġa": 158,
      "in": 159,
      "Ġ*": 160,
      "Ġw": 161,
      "Ġs": 162,
      "Ġthe": 163,
      "ou": 164,
      "re": 165,
      "Ġi": 166,
      "ot": 167,
      "ha": 168,
      "hi": 169,
      "on": 170,
      "Ġb": 171,
      "Ġm": 172,
      "Ġc": 173,
      "er": 174,
      "nd": 175,
      "Ġd": 176,
      "Ġf": 177,
      "Ġy": 178,
      "Ġo": 179,
      "mot": 180,
      "ing": 181,
      "Ġto": 182,
      "ll": 183,
      "Ġyou": 184,
      "Ġp": 185,
      "an": 186,
      "Ġg": 187,
      "Ġl": 188,
      "ed": 189,
      "es": 190,
      "or": 191,
      "en": 192,
      "chi": 193,
      "hat": 194,
      "Ġn": 195,
      "ar": 196,
      "it": 197,
      "at": 198,
      "Ġand": 199,
      "Ġin": 200,
      "Ġhe": 201,
      "Ġof": 202,
      "as": 203,
      "om": 204,
      "Ġit": 205,
      "ow": 206,
      "Ġha": 207,
      "'s": 208,
      "le": 209,
      "st": 210,
      "ay": 211,
      "ve": 212,
      "Ġon": 213,
      "et": 214,
      "Ġthat": 215,
      "ri": 216,
      "gh": 217,
      "Ġe": 218,
      "Ġbe": 219,
      "se": 220,
      "Ġu": 221,
      "his": 222,
      "ld": 223,
      "Ġis": 224,
      "oo": 225,
      "Ġwe": 226,
      "id": 227,
      "al": 228,
      "ic": 229,
      "Ġwas": 230,
      "ut": 231,
      "Ġ=": 232,
      "ad": 233,
      "Ġk": 234,
      "..": 235,
      "ac": 236,
      "Ġre": 237,
      "Ġst": 238,
      "Ġh": 239,
      "ver": 240,
      "'t": 241,
      "is": 242,
      "Ġfor": 243,
      "ke": 244,
      "ro": 245,
      "Ġdo": 246,
      "am": 247,
      "Ġth": 248,
      "ght": 249,
      "ch": 250,
      "ly": 251,
      "Ġj": 252,
      "ir": 253,
      "Ġ\"": 254,
      "ent": 255,
      "ion": 256,
      "Ġme": 257,
      "out": 258,
      "Ġan": 259,
      "ith": 260,
      "Ġli": 261,
      "Ġ[": 262,
      "Ġse": 263,
      "Ġwith": 264,
      "Ġgo": 265,
      "her": 266,
      "ea": 267,
      "and": 268,
      "all": 269,
      "ome": 270,
      "âĢ": 271,
      "Ġas": 272,
      "Ġat": 273,
      "ur": 274,
      "Ġnot": 275,
      "Ġthis": 276,
      "Ġ-": 277,
      "Ġshe": 278,
      "ce": 279,
      "ter": 280,
      "Ġhave": 281,
      "ould": 282,
      "Ġhi": 283,
      "Ġwhat": 284,
      "Ġkn": 285,
      "ill": 286,
      "Ġr": 287,
      "Ġare": 288,
      "Ġhis": 289,
      "ook": 290,
      "xx": 291,
      "Ġso": 292,
      "un": 293,
      "im": 294,
      "ho": 295,
      "ant": 296,
      "ct": 297,
      "Ġthey": 298,
      "Ġher": 299,
      "ust": 300,
      "Ġyour": 301,
      "Ġne": 302,
      "...": 303,
      "um": 304,
      "Ġdon": 305,
      "Ġthere": 306,
      "Ġone": 307,
      "au": 308,
      "Ġno": 309,
      "Ġmy": 310,
      "here": 311,
      "il": 312,
      "Ġcan": 313,
      "Ġfr": 314,
      "Ġknow": 315,
      "ain": 316,
      "Ġup": 317,
      "Ġbut": 318,
      "Ġde": 319,
      "Ġall": 320,
      "ck": 321,
      "Ġmo": 322,
      "ie": 323,
      "Ġ1": 324,
      "Ġhad": 325,
      "eah": 326,
      "ab": 327,
      "pp": 328,
      "oh": 329,
      "ĠĠ": 330,
      "us": 331,
      "ell": 332,
      "ge": 333,
      "you": 334,
      "Ġlike": 335,
      "Ġal": 336,
      "Ġhim": 337,
      "other": 338,
      "Ġsa": 339,
      "ood": 340,
      "art": 341,
      "ack": 342,
      "Ġpl": 343,
      "Ġri": 344,
      "Ġout": 345,
      "Ġab": 346,
      "op": 347,
      "ake": 348,
      "ry": 349,
      "Ġfrom": 350,
      "th": 351,
      "Ġget": 352,
      "our": 353,
      "ol": 354,
      "Ġsu": 355,
      "what": 356,
      "Ġv": 357,
      "ra": 358,
      "ess": 359,
      "no": 360,
      "ink": 361,
      "red": 362,
      "fat": 363,
      "han": 364,
      "Ġdid": 365,
      "'re": 366,
      "one": 367,
      "hen": 368,
      "na": 369,
      "Ġby": 370,
      "ight": 371,
      "Ġsee": 372,
      "very": 373,
      "ers": 374,
      "qu": 375,
      "Ġ2": 376,
      "'m": 377,
      "ul": 378,
      "ig": 379,
      "Ġor": 380,
      "est": 381,
      "ation": 382,
      "Ġwere": 383,
      "ame": 384,
      "ind": 385,
      "Ġsp": 386,
      "Ġsh": 387,
      "Ġbo": 388,
      "ound": 389,
      "Ġcom": 390,
      "Ġhere": 391,
      "itt": 392,
      "el": 393,
      "Ġsome": 394,
      "Ġlook": 395,
      "inv": 396,
      "yeah": 397,
      "Ġwhi": 398,
      "ong": 399,
      "ard": 400,
      "res": 401,
      "Ġjust": 402,
      "].": 403,
      "Ġwor": 404,
      "Ġthem": 405,
      "ak": 406,
      "Ġif": 407,
      "own": 408,
      "Ġ(": 409,
      "ĠâĢ": 410,
      "ast": 411,
      "Ġcon": 412,
      "Ġwant": 413,
      "ap": 414,
      "nt": 415,
      "fe": 416,
      "Ġabout": 417,
      "Ġman": 418,
      "Ġwho": 419,
      "Ġthink": 420,
      "xxx": 421,
      "Ġgot": 422,
      "ally": 423,
      "Ġdi": 424,
      "Ġwhen": 425,
      "xp": 426,
      "ive": 427,
      "Ġsaid": 428,
      "--": 429,
      "Ġthen": 430,
      "'ll": 431,
      "Ġwould": 432,
      "ate": 433,
      "Ġnow": 434,
      "Ġro": 435,
      "kay": 436,
      "that": 437,
      "os": 438,
      "ber": 439,
      "em": 440,
      "Ġany": 441,
      "Ġar": 442,
      "Ġwill": 443,
      "ag": 444,
      "the": 445,
      "ep": 446,
      ".\"": 447,
      "are": 448,
      "Ġright": 449,
      "Ġtim": 450,
      "ven": 451,
      "Ġcl": 452,
      "ough": 453,
      "we": 454,
      "Ġam": 455,
      "Ġgood": 456,
      "Ġlo": 457,
      "Ġchi": 458,
      "ittle": 459,
      "Ġ20": 460,
      "Ġpro": 461,
      "Ġus": 462,
      "uh": 463,
      "ort": 464,
      "ice": 465,
      "Ġle": 466,
      "hy": 467,
      "hing": 468,
      "ore": 469,
      "Ġag": 470,
      "Ġlittle": 471,
      "Ġtw": 472,
      "Ġtr": 473,
      "ine": 474,
      "Ġint": 475,
      "Ġfe": 476,
      "Ġsay": 477,
      "ies": 478,
      "Ġ19": 479,
      "Ġbr": 480,
      "Ġhow": 481,
      "Ġback": 482,
      "Ġdown": 483,
      "ous": 484,
      "ick": 485,
      "ft": 486,
      "ĠâĢľ": 487,
      "âĢĻ": 488,
      "Ġaf": 489,
      "Ġcome": 490,
      "Ġover": 491,
      "Ġput": 492,
      "Ġun": 493,
      "way": 494,
      "Ġtime": 495,
      "Ġcould": 496,
      "ist": 497,
      "Ġgoing": 498,
      "Ġoff": 499,
      "dy": 500,
      "Ġgr": 501,
      "ace": 502,
      "my": 503,
      "ause": 504,
      "so": 505,
      "Ġmore": 506,
      "Ġbeen": 507,
      "Ġtoo": 508,
      "Ġhas": 509,
      "âĢĿ": 510,
      "Ġbl": 511,
      "lf": 512,
      "ĠĠĠĠ": 513,
      "Ġwell": 514,
      "Ġplay": 515,
      "Ġpe": 516,
      ",\"": 517,
      "yes": 518,
      "Ġco": 519,
      "Ġcha": 520,
      "ide": 521,
      "ity": 522,
      "Ġvery": 523,
      "end": 524,
      "Ġxxx": 525,
      "Ġqu": 526,
      "Ġtheir": 527,
      "Ġwhich": 528,
      "Ġthan": 529,
      "ree": 530,
      "Ġother": 531,
      "Ġen": 532,
      "Ġ'": 533,
      "Ġlet": 534,
      "exp": 535,
      "Ġtwo": 536,
      "cause": 537,
      "Ġex": 538,
      "ings": 539,
      "ose": 540,
      "par": 541,
      "reat": 542,
      "alk": 543,
      "'ve": 544,
      "do": 545,
      "Ġwhere": 546,
      "ars": 547,
      "ian": 548,
      "urn": 549,
      "iss": 550,
      "onna": 551,
      "ure": 552,
      "orn": 553,
      "uck": 554,
      "Ġfl": 555,
      "ish": 556,
      "hed": 557,
      "ase": 558,
      "be": 559,
      "Ġgonna": 560,
      "ud": 561,
      "ond": 562,
      "Ġsc": 563,
      "ps": 564,
      "ought": 565,
      "Ġpo": 566,
      "omet": 567,
      "if": 568,
      "ment": 569,
      "age": 570,
      "ia": 571,
      "Ġagain": 572,
      "Ġte": 573,
      "Ġmake": 574,
      "Ġafter": 575,
      "Ġinto": 576,
      "ma": 577,
      "Ġmar": 578,
      "ass": 579,
      "okay": 580,
      "Ġtake": 581,
      "ite": 582,
      "Ġfir": 583,
      "Ġoh": 584,
      "Ġway": 585,
      "ue": 586,
      "les": 587,
      "ect": 588,
      "Ġcar": 589,
      "Ġsomet": 590,
      "Ġtell": 591,
      "ade": 592,
      "pt": 593,
      "Ġyeah": 594,
      "Ġgu": 595,
      "ater": 596,
      "ved": 597,
      "ople": 598,
      "ount": 599,
      "Ġdoes": 600,
      "ble": 601,
      "ves": 602,
      "Ġhand": 603,
      "Ġfirst": 604,
      "ah": 605,
      "Ġcall": 606,
      "ving": 607,
      "Ġpeople": 608,
      "bo": 609,
      "self": 610,
      "there": 611,
      "where": 612,
      "augh": 613,
      "Ġday": 614,
      "Ġmay": 615,
      "ren": 616,
      "ary": 617,
      "Ġmu": 618,
      "ang": 619,
      "ff": 620,
      "Ġpart": 621,
      "Ġsha": 622,
      "Ġwork": 623,
      "Ġnew": 624,
      "Ġevery": 625,
      "Ġad": 626,
      "Ġboy": 627,
      "Ġbet": 628,
      "Ġmr": 629,
      "Ġneed": 630,
      "wn": 631,
      "mp": 632,
      "Ġpre": 633,
      "right": 634,
      "ull": 635,
      "act": 636,
      "ress": 637,
      "li": 638,
      "ord": 639,
      "Ġsec": 640,
      "te": 641,
      "Ġour": 642,
      "ady": 643,
      "nder": 644,
      "Ġmean": 645,
      "hm": 646,
      "Ġshould": 647,
      "Ġye": 648,
      "ather": 649,
      "de": 650,
      "Ġfo": 651,
      "fore": 652,
      "but": 653,
      "Ġonly": 654,
      "Ġpr": 655,
      "Ġho": 656,
      "ci": 657,
      "Ġthr": 658,
      "ach": 659,
      "Ġthese": 660,
      "Ġac": 661,
      "anna": 662,
      "Ġwhy": 663,
      "Ġch": 664,
      "irl": 665,
      "cl": 666,
      "Ġsm": 667,
      "int": 668,
      "day": 669,
      "well": 670,
      "Ġdidn": 671,
      "able": 672,
      "Ġmuch": 673,
      "ty": 674,
      "Ġchild": 675,
      "ool": 676,
      "Ġreally": 677,
      "Ġdis": 678,
      "ance": 679,
      "ouse": 680,
      "Ġmade": 681,
      "Ġhapp": 682,
      "Ġcomp": 683,
      "Ġsomething": 684,
      "Ġyes": 685,
      "av": 686,
      "thing": 687,
      "per": 688,
      "?\"": 689,
      "Ġgirl": 690,
      "Ġokay": 691,
      "Ġlong": 692,
      "pe": 693,
      "add": 694,
      "ise": 695,
      "can": 696,
      "Ġhar": 697,
      "Ġhel": 698,
      "Ġbefore": 699,
      "Ġwr": 700,
      "Ġbig": 701,
      "hes": 702,
      "Ġtalk": 703,
      "get": 704,
      "ated": 705,
      "ory": 706,
      ".]": 707,
      "ru": 708,
      "ting": 709,
      "Ġunder": 710,
      "Ġper": 711,
      "Ġwanna": 712,
      "Ġjo": 713,
      "iz": 714,
      "Ġaway": 715,
      "Ġbecause": 716,
      "man": 717,
      "Ġrem": 718,
      "Ġbu": 719,
      "let": 720,
      "Ġbab": 721,
      "ward": 722,
      "ne": 723,
      "Ġnever": 724,
      "Ġgreat": 725,
      "Ġeven": 726,
      "ire": 727,
      "Ġmom": 728,
      "Ġold": 729,
      "laugh": 730,
      "Ġple": 731,
      "gg": 732,
      "Ġturn": 733,
      "Ġact": 734,
      "Ġhome": 735,
      "look": 736,
      "atch": 737,
      "Ġwent": 738,
      "bl": 739,
      "Ġlea": 740,
      "Ġ%": 741,
      "Ġ201": 742,
      "Ġalso": 743,
      "¿½": 744,
      "ï¿½": 745,
      "ence": 746,
      "Ġexp": 747,
      "ks": 748,
      "riend": 749,
      "Ġbook": 750,
      "Ġke": 751,
      "Ġdoing": 752,
      "00": 753,
      "Ġcount": 754,
      "Ġcame": 755,
      "ful": 756,
      "Ġmin": 757,
      "Ġhouse": 758,
      "Ġhead": 759,
      "Ġthought": 760,
      "Ġlove": 761,
      "Ġthose": 762,
      "ions": 763,
      "Ġapp": 764,
      "ens": 765,
      "Ġcr": 766,
      "Ġask": 767,
      "Ġwa": 768,
      "bro": 769,
      "Ġser": 770,
      "Ġthree": 771,
      "Ġmiss": 772,
      "come": 773,
      "Ġgive": 774,
      "ried": 775,
      "Ġche": 776,
      "Ġcont": 777,
      "Ġmust": 778,
      "sis": 779,
      "Ġhelp": 780,
      "ffe": 781,
      "mo": 782,
      "Ġmany": 783,
      "Ġfind": 784,
      "Ġmother": 785,
      "Ġthing": 786,
      "Ġuh": 787,
      "ors": 788,
      "ons": 789,
      "ans": 790,
      "'d": 791,
      "Ġanother": 792,
      "Ġshow": 793,
      "Ġthings": 794,
      "Ġcomm": 795,
      "ww": 796,
      "ys": 797,
      "Ġeat": 798,
      "up": 799,
      "Ġstill": 800,
      "Ġtry": 801,
      "gma": 802,
      "Ġname": 803,
      "Ġrep": 804,
      "ss": 805,
      "now": 806,
      "ath": 807,
      "mm": 808,
      "ily": 809,
      "ling": 810,
      "land": 811,
      "aking": 812,
      "Ġsch": 813,
      "Ġlast": 814,
      "âĻ": 815,
      "aw": 816,
      "Ġdad": 817,
      "Ġstart": 818,
      "Ġbel": 819,
      "ix": 820,
      "Ġthrough": 821,
      "Ġel": 822,
      "Ġsl": 823,
      "co": 824,
      "laughs": 825,
      "not": 826,
      "Ġdone": 827,
      "akes": 828,
      "Ġmost": 829,
      "Ġchan": 830,
      "Ġfound": 831,
      "ummy": 832,
      "Ġbaby": 833,
      "ened": 834,
      "Ġnight": 835,
      "Ġwon": 836,
      "âĻª": 837,
      "air": 838,
      "Ġgl": 839,
      "Ġmon": 840,
      "ict": 841,
      "Ġbit": 842,
      "Ġkind": 843,
      "ious": 844,
      "Ġits": 845,
      "Ġres": 846,
      "Ġop": 847,
      "Ġcare": 848,
      "Ġdr": 849,
      "ark": 850,
      ".âĢĿ": 851,
      "als": 852,
      "ates": 853,
      "ign": 854,
      "Ġfriend": 855,
      "Ġind": 856,
      "Ġcol": 857,
      "Ġmight": 858,
      "ock": 859,
      "ĠĠĠĠĠĠĠĠ": 860,
      "ple": 861,
      "tain": 862,
      "Ġbot": 863,
      "ng": 864,
      "huh": 865,
      "Ġchar": 866,
      "how": 867,
      "Ġsw": 868,
      "ms": 869,
      "Ġlooks": 870,
      "Ġdes": 871,
      "Ġlife": 872,
      "bab": 873,
      "Ġsuch": 874,
      "unn": 875,
      "ail": 876,
      "ited": 877,
      "Ġcalled": 878,
      "xt": 879,
      "she": 880,
      "Ġwhile": 881,
      "Ġaround": 882,
      "Ġsure": 883,
      "Ġfeel": 884,
      "by": 885,
      "eric": 886,
      "ĠâĻª": 887,
      "oney": 888,
      "Ġbetter": 889,
      "Ġatt": 890,
      "mch": 891,
      "Ġkeep": 892,
      "Ġown": 893,
      "this": 894,
      "ds": 895,
      "Ġed": 896,
      "Ġlot": 897,
      "Ġpres": 898,
      "side": 899,
      "Ġwater": 900,
      "Ġschool": 901,
      "Ġplease": 902,
      "Ġplace": 903,
      "Ġmat": 904,
      "Ġfather": 905,
      "Ġsho": 906,
      "go": 907,
      "Ġbre": 908,
      "nan": 909,
      "med": 910,
      "Ġnor": 911,
      "Ġstr": 912,
      "Ġvo": 913,
      "Ġcour": 914,
      "Ġ3": 915,
      "Ġwar": 916,
      "Ġfin": 917,
      "Ġball": 918,
      "ince": 919,
      "Ġend": 920,
      "Ġsit": 921,
      "cha": 922,
      "Ġpri": 923,
      "me": 924,
      "Ġtri": 925,
      "ember": 926,
      "for": 927,
      "they": 928,
      "Ġgi": 929,
      "Ġnice": 930,
      "rent": 931,
      "to": 932,
      "ces": 933,
      "Ġpol": 934,
      "Ġanything": 935,
      "Ġbeing": 936,
      "body": 937,
      "orry": 938,
      "Ġimp": 939,
      "Ġdist": 940,
      "ip": 941,
      "Ġroom": 942,
      "dad": 943,
      "Ġisn": 944,
      "uc": 945,
      "Ġyears": 946,
      "rest": 947,
      "der": 948,
      "vers": 949,
      "ank": 950,
      "row": 951,
      "Ġfar": 952,
      "ually": 953,
      "ta": 954,
      "who": 955,
      "Ġmot": 956,
      "ways": 957,
      "ung": 958,
      "don": 959,
      "why": 960,
      "ild": 961,
      "Ġsame": 962,
      "Ġma": 963,
      "ave": 964,
      "Ġcap": 965,
      "inn": 966,
      "Ġtold": 967,
      "mer": 968,
      "Ġele": 969,
      "mhm": 970,
      "ream": 971,
      "!\"": 972,
      "Ġwait": 973,
      "aught": 974,
      "Ġ200": 975,
      "gr": 976,
      "Ġworld": 977,
      "Ġ_": 978,
      "Ġbeg": 979,
      "ute": 980,
      "Ġcle": 981,
      "Ġfam": 982,
      "Ġhold": 983,
      "mber": 984,
      "Ġnext": 985,
      "Ġacc": 986,
      "Ġshi": 987,
      "Ġmen": 988,
      "outh": 989,
      "Ġfour": 990,
      "Ġleft": 991,
      "Ġeng": 992,
      "pl": 993,
      "Ġunt": 994,
      "Ġameric": 995,
      "Ġpret": 996,
      "Ġdoesn": 997,
      "Ġelse": 998,
      "Ġset": 999,
      "ts": 1000,
      "Ġsupp": 1001,
      "gra": 1002,
      "ub": 1003,
      "ations": 1004,
      "Ġface": 1005,
      ",âĢĿ": 1006,
      "Ġbus": 1007,
      "oun": 1008,
      "ical": 1009,
      "oss": 1010,
      "ness": 1011,
      "Ġused": 1012,
      "Ġair": 1013,
      "Ġthank": 1014,
      "Ġum": 1015,
      "Ġread": 1016,
      "Ġ202": 1017,
      "Ġlist": 1018,
      "Ġsaw": 1019,
      "Ġwom": 1020,
      "ction": 1021,
      "Ġhard": 1022,
      "amp": 1023,
      "ition": 1024,
      "Ġalways": 1025,
      "iv": 1026,
      "\".": 1027,
      "Ġhey": 1028,
      "leep": 1029,
      "Ġbro": 1030,
      "cc": 1031,
      "Ġwalk": 1032,
      "ph": 1033,
      "ohn": 1034,
      "----": 1035,
      "Ġtook": 1036,
      "Ġsur": 1037,
      "Ġspe": 1038,
      "ows": 1039,
      "Ġtom": 1040,
      "arly": 1041,
      "Ġpers": 1042,
      "Ġsorry": 1043,
      "Ġinter": 1044,
      "cle": 1045,
      "ger": 1046,
      "pped": 1047,
      "Ġbed": 1048,
      "Ġdra": 1049,
      "ane": 1050,
      "ew": 1051,
      "urt": 1052,
      "Ġnothing": 1053,
      "Ġbox": 1054,
      "Ġuntil": 1055,
      "Ġsing": 1056,
      "Ġmag": 1057,
      "Ġreg": 1058,
      "Ġz": 1059,
      "Ġbest": 1060,
      "ug": 1061,
      "ever": 1062,
      "Ġlight": 1063,
      "Ġyoung": 1064,
      "ident": 1065,
      "Ġever": 1066,
      "Ġgre": 1067,
      "Ġgone": 1068,
      "Ġstay": 1069,
      "Ġstand": 1070,
      "Ġmrs": 1071,
      "Ġenough": 1072,
      "Ġdoor": 1073,
      "tea": 1074,
      "ins": 1075,
      "Ġthough": 1076,
      "Ġ18": 1077,
      "Ġmoney": 1078,
      "br": 1079,
      "Ġste": 1080,
      "led": 1081,
      "Ġuse": 1082,
      "Ġhear": 1083,
      "ris": 1084,
      "Ġreal": 1085,
      "ished": 1086,
      "Ġmus": 1087,
      "Ġdiffe": 1088,
      "Ġer": 1089,
      "Ġstop": 1090,
      "Ġwee": 1091,
      "Ġmil": 1092,
      "Ġgod": 1093,
      "io": 1094,
      "Ġeyes": 1095,
      "Ġpass": 1096,
      "Ġrec": 1097,
      "Ġret": 1098,
      "anc": 1099,
      "Ġopen": 1100,
      "Ġcity": 1101,
      "Ġknown": 1102,
      "ile": 1103,
      "did": 1104,
      "arn": 1105,
      "az": 1106,
      "Ġpoint": 1107,
      "ret": 1108,
      "Ġfall": 1109,
      "Ġgoes": 1110,
      "Ġter": 1111,
      "ump": 1112,
      "fta": 1113,
      "gether": 1114,
      "Ġ.": 1115,
      "Ġtoday": 1116,
      "Ġyet": 1117,
      "ball": 1118,
      "ba": 1119,
      "Ġupon": 1120,
      "vel": 1121,
      "Ġpap": 1122,
      "Ġsir": 1123,
      "Ġent": 1124,
      "Ġsil": 1125,
      "ton": 1126,
      "Ġdaddy": 1127,
      "Ġchildren": 1128,
      "Ġgen": 1129,
      "Ġkill": 1130,
      "Ġcoming": 1131,
      "Ġfell": 1132,
      "Ġfoot": 1133,
      "llo": 1134,
      "Ġob": 1135,
      "Ġbri": 1136,
      "Ġwind": 1137,
      "Ġpu": 1138,
      "Ġbir": 1139,
      "urs": 1140,
      "eak": 1141,
      "Ġside": 1142,
      "Ġhands": 1143,
      "Ġhafta": 1144,
      ").": 1145,
      "Ġred": 1146,
      "Ġnum": 1147,
      "ames": 1148,
      "Ġasked": 1149,
      "llow": 1150,
      "child": 1151,
      "Ġonce": 1152,
      "Ġdear": 1153,
      "Ġsecond": 1154,
      "Ġbelie": 1155,
      "Ġjohn": 1156,
      "Ġfew": 1157,
      "vie": 1158,
      "Ġmorn": 1159,
      "und": 1160,
      "Ġpick": 1161,
      "Ġrel": 1162,
      "Ġev": 1163,
      "cal": 1164,
      "Ġlar": 1165,
      "ower": 1166,
      "Ġhigh": 1167,
      "less": 1168,
      "Ġsound": 1169,
      "ible": 1170,
      "Ġwatch": 1171,
      "ason": 1172,
      "ational": 1173,
      "put": 1174,
      "Ġseen": 1175,
      "ired": 1176,
      "lo": 1177,
      "Ġquite": 1178,
      "Ġboth": 1179,
      "ope": 1180,
      "Ġleave": 1181,
      "ult": 1182,
      "Ġtogether": 1183,
      "ross": 1184,
      "ject": 1185,
      "Ġanim": 1186,
      "Ġhimself": 1187,
      "Ġheart": 1188,
      "uring": 1189,
      "Ġblack": 1190,
      "ased": 1191,
      "aster": 1192,
      "Ġlater": 1193,
      "Ġdar": 1194,
      "Ġsays": 1195,
      "ister": 1196,
      "Ġeach": 1197,
      "Ġmorning": 1198,
      "uff": 1199,
      "Ġid": 1200,
      "fch": 1201,
      "Ġcourse": 1202,
      "Ġinst": 1203,
      "most": 1204,
      "rist": 1205,
      "Ġsleep": 1206,
      "ten": 1207,
      "ied": 1208,
      "ont": 1209,
      "ines": 1210,
      "Ġlooking": 1211,
      "Ġpie": 1212,
      "Ġgrand": 1213,
      "Ġsmall": 1214,
      "ush": 1215,
      "lly": 1216,
      "Ġ4": 1217,
      "Ġcat": 1218,
      "Ġbad": 1219,
      "Ġrest": 1220,
      "une": 1221,
      "Ġwithout": 1222,
      "Ġthi": 1223,
      "Ġben": 1224,
      "Ġamerican": 1225,
      "Ġmind": 1226,
      "Ġï¿½": 1227,
      "Ġsoon": 1228,
      "ents": 1229,
      "ef": 1230,
      "Ġap": 1231,
      "Ġdifferent": 1232,
      "Ġsk": 1233,
      "Ġsince": 1234,
      "Ġla": 1235,
      "Ġstate": 1236,
      "Ġremember": 1237,
      "Ġfive": 1238,
      "Ġrun": 1239,
      "Ġyear": 1240,
      "ama": 1241,
      "Ġnoise": 1242,
      "good": 1243,
      "ange": 1244,
      "Ġtown": 1245,
      "Ġdied": 1246,
      "ters": 1247,
      "Ġperson": 1248,
      "Ġheard": 1249,
      "Ġtable": 1250,
      "Ġgetting": 1251,
      "den": 1252,
      "Ġchair": 1253,
      "ial": 1254,
      "ween": 1255,
      "Ġeverything": 1256,
      "Ġinv": 1257,
      "Ġ5": 1258,
      "Ġ199": 1259,
      "stand": 1260,
      "Ġhor": 1261,
      "Ġshall": 1262,
      "ating": 1263,
      "Ġmaybe": 1264,
      "Ġtop": 1265,
      "enn": 1266,
      "www": 1267,
      "Ġknew": 1268,
      "son": 1269,
      "ĠâĢĵ": 1270,
      "Ġger": 1271,
      "\",": 1272,
      "Ġfamily": 1273,
      "Ġpretty": 1274,
      "Ġfire": 1275,
      "Ġdri": 1276,
      "Ġdep": 1277,
      "Ġbetween": 1278,
      "ctor": 1279,
      "Ġmet": 1280,
      "Ġpat": 1281,
      "Ġfollow": 1282,
      "Ġbar": 1283,
      "ries": 1284,
      "Ġstates": 1285,
      "sha": 1286,
      "Ġcounty": 1287,
      "aut": 1288,
      "Ġdire": 1289,
      "Ġunited": 1290,
      "Ġpar": 1291,
      "Ġpop": 1292,
      "Ġgame": 1293,
      "ures": 1294,
      "sp": 1295,
      "Ġborn": 1296,
      "Ġmaking": 1297,
      "Ġlooked": 1298,
      "Ġhaving": 1299,
      "Ġhappened": 1300,
      "Ġstory": 1301,
      "Ġlive": 1302,
      "),": 1303,
      "ared": 1304,
      "ched": 1305,
      "key": 1306,
      "ches": 1307,
      "Ġcent": 1308,
      "unny": 1309,
      "Ġagainst": 1310,
      "see": 1311,
      "Ġround": 1312,
      "its": 1313,
      "ready": 1314,
      "Ġmove": 1315,
      "Ġexc": 1316,
      "tle": 1317,
      "gs": 1318,
      "Ġready": 1319,
      "ises": 1320,
      "rew": 1321,
      "ale": 1322,
      "Ġspo": 1323,
      "Ġbec": 1324,
      "ye": 1325,
      "Ġboys": 1326,
      "Ġwanted": 1327,
      "Ġflo": 1328,
      "Ġpict": 1329,
      "ets": 1330,
      "Ġswe": 1331,
      "Ġju": 1332,
      "Ġduring": 1333,
      "unt": 1334,
      "Ġans": 1335,
      "col": 1336,
      "Ġhalf": 1337,
      "Ġteam": 1338,
      "Ġwond": 1339,
      "unk": 1340,
      "sh": 1341,
      "Ġhat": 1342,
      "Ġtra": 1343,
      "ged": 1344,
      "vis": 1345,
      "than": 1346,
      "Ġbreak": 1347,
      "Ġtalking": 1348,
      "ann": 1349,
      "Ġgave": 1350,
      "Ġkid": 1351,
      "mb": 1352,
      "Ġsy": 1353,
      "Ġnat": 1354,
      "iet": 1355,
      "Ġph": 1356,
      "Ġson": 1357,
      "Ġsqu": 1358,
      "Ġinte": 1359,
      "rd": 1360,
      "Ġdec": 1361,
      "jo": 1362,
      "sing": 1363,
      "Ġhot": 1364,
      "ier": 1365,
      "Ġfood": 1366,
      "Ġsat": 1367,
      "Ġhour": 1368,
      "Ġcut": 1369,
      "Ġking": 1370,
      "Ġbrother": 1371,
      "ster": 1372,
      "Ġsix": 1373,
      "Ġass": 1374,
      "Ġtrain": 1375,
      "Ġbring": 1376,
      "Ġlaugh": 1377,
      "wards": 1378,
      "Ġcons": 1379,
      "gy": 1380,
      "ash": 1381,
      "clud": 1382,
      "Ġjack": 1383,
      "Ġmeet": 1384,
      "Ġbom": 1385,
      "Ġlady": 1386,
      "ding": 1387,
      "Ġnumber": 1388,
      "Ġwhite": 1389,
      "Ġmoment": 1390,
      "Ġbelieve": 1391,
      "Ġpay": 1392,
      "iness": 1393,
      "Ġalmost": 1394,
      "osed": 1395,
      "Ġdays": 1396,
      "Ġalong": 1397,
      "Ġsub": 1398,
      "Ġnorth": 1399,
      "Ġwi": 1400,
      "any": 1401,
      "ork": 1402,
      "ertain": 1403,
      "mom": 1404,
      "Ġhaven": 1405,
      "sel": 1406,
      "kes": 1407,
      "Ġwoman": 1408,
      "Ġdarling": 1409,
      "Ã©": 1410,
      "ib": 1411,
      "Ġcoll": 1412,
      "aul": 1413,
      "els": 1414,
      "Ġinterest": 1415,
      "igh": 1416,
      "cial": 1417,
      "Ġfull": 1418,
      "Ġparty": 1419,
      "mummy": 1420,
      "Ġ6": 1421,
      "just": 1422,
      "Ġspeak": 1423,
      "hey": 1424,
      "Ġclose": 1425,
      "hip": 1426,
      "Ġge": 1427,
      "app": 1428,
      "cept": 1429,
      "Ġchrist": 1430,
      "Ġtrying": 1431,
      "Ġmatter": 1432,
      "Ġreturn": 1433,
      "ants": 1434,
      "Ġ198": 1435,
      "Ġguess": 1436,
      "ced": 1437,
      "Ġsim": 1438,
      "Ġland": 1439,
      "ered": 1440,
      "ina": 1441,
      "ted": 1442,
      "Ġnear": 1443,
      "Ġmummy": 1444,
      "Ġmusic": 1445,
      "Ġblue": 1446,
      "Ġcho": 1447,
      "Ġpaper": 1448,
      "Ġstick": 1449,
      "Ġwonder": 1450,
      "ï¿½ï¿½": 1451,
      "Ġplaying": 1452,
      "Ġvoice": 1453,
      "orrow": 1454,
      "Ġunderstand": 1455,
      "ither": 1456,
      "ined": 1457,
      "thank": 1458,
      "ouch": 1459,
      "Ġdeath": 1460,
      "Ġbuild": 1461,
      "Ġriver": 1462,
      "Ġwhole": 1463,
      "Ġfriends": 1464,
      "Ġdrink": 1465,
      "Ġdistri": 1466,
      "Ġdraw": 1467,
      "Ġdel": 1468,
      "Ġgener": 1469,
      "cted": 1470,
      "Ġah": 1471,
      "Ġcal": 1472,
      "Ġdro": 1473,
      "Ġconf": 1474,
      "Ġadd": 1475,
      "Ġlisten": 1476,
      "ony": 1477,
      "ring": 1478,
      "Ġalready": 1479,
      "Ġ8": 1480,
      "Ġplayed": 1481,
      "?âĢĿ": 1482,
      "Ġtimes": 1483,
      "kf": 1484,
      "Ġhair": 1485,
      "Ġjap": 1486,
      "vern": 1487,
      "ric": 1488,
      "imes": 1489,
      "19": 1490,
      "Ġpull": 1491,
      "like": 1492,
      "Ġmic": 1493,
      "bably": 1494,
      "Ġfeet": 1495,
      "Ġbeaut": 1496,
      "Ġcomes": 1497,
      "Ġwasn": 1498,
      "Ġfine": 1499,
      "Ġdog": 1500,
      "Ġstarted": 1501,
      "ying": 1502,
      "ual": 1503,
      "ield": 1504,
      "Ġ7": 1505,
      "ese": 1506,
      "Ġsent": 1507,
      "Ġhuh": 1508,
      "Ġmovie": 1509,
      "Ġaw": 1510,
      "Ġbart": 1511,
      "Ġgirls": 1512,
      "uss": 1513,
      "ular": 1514,
      "uth": 1515,
      "Ġmommy": 1516,
      "Ġsign": 1517,
      "Ġmed": 1518,
      "Ġstuff": 1519,
      "Ġfro": 1520,
      "ics": 1521,
      "Ġquest": 1522,
      "Ġfloor": 1523,
      "aken": 1524,
      "Ġvis": 1525,
      "Ġposs": 1526,
      "Ġpoor": 1527,
      "Ġinclud": 1528,
      "Ġfun": 1529,
      "cy": 1530,
      "Ġeas": 1531,
      "sc": 1532,
      "Ġes": 1533,
      "Ġwhe": 1534,
      "Ġword": 1535,
      "Ġjob": 1536,
      "use": 1537,
      "Ġref": 1538,
      "Ġguy": 1539,
      "Ġsong": 1540,
      "Ġlost": 1541,
      "Ġbecame": 1542,
      "elt": 1543,
      "Ġra": 1544,
      "Ġhope": 1545,
      "Ġtre": 1546,
      "Ġbat": 1547,
      "oup": 1548,
      "Ġdou": 1549,
      "Ġhappy": 1550,
      "Ġseemed": 1551,
      "Ġminute": 1552,
      "ones": 1553,
      "Ġdoll": 1554,
      "Ġbrought": 1555,
      "Ġhum": 1556,
      "bles": 1557,
      "Ġcup": 1558,
      "ently": 1559,
      "Ġ197": 1560,
      "Ġcolor": 1561,
      "ken": 1562,
      "eter": 1563,
      "Ġcra": 1564,
      "ense": 1565,
      "Ġwrong": 1566,
      "Ġcry": 1567,
      "Ġbegan": 1568,
      "wer": 1569,
      "ital": 1570,
      "Ġrock": 1571,
      "aces": 1572,
      "bye": 1573,
      "Ġcur": 1574,
      "Ġpain": 1575,
      "ities": 1576,
      "airs": 1577,
      "Ġprobably": 1578,
      "Ġmeans": 1579,
      "Ġtele": 1580,
      "Ġwouldn": 1581,
      "ully": 1582,
      "Ġnational": 1583,
      "Ġage": 1584,
      "Ġlead": 1585,
      "then": 1586,
      "Ġshort": 1587,
      "du": 1588,
      "Ġhist": 1589,
      "Ġcontin": 1590,
      "Ġgovern": 1591,
      "Ġyourself": 1592,
      "ask": 1593,
      "che": 1594,
      "]?": 1595,
      "Ġturned": 1596,
      "Ġgreen": 1597,
      "inner": 1598,
      "Ġmid": 1599,
      "tw": 1600,
      "Ġfight": 1601,
      "Ġboat": 1602,
      "Ġmark": 1603,
      "ee": 1604,
      "Ġmer": 1605,
      "Ġem": 1606,
      "Ġdead": 1607,
      "po": 1608,
      "whi": 1609,
      "Ġquick": 1610,
      "Ġidea": 1611,
      "ots": 1612,
      "bru": 1613,
      "Ġadv": 1614,
      "Ġcountry": 1615,
      "Ġyell": 1616,
      "aser": 1617,
      "Ġmonth": 1618,
      "hind": 1619,
      "Ġprov": 1620,
      "room": 1621,
      "oud": 1622,
      "Ġguys": 1623,
      "Ġuni": 1624,
      "got": 1625,
      "ner": 1626,
      "Ġsaying": 1627,
      "Ġext": 1628,
      "form": 1629,
      "Ġmakes": 1630,
      "Ġ9": 1631,
      "Ġform": 1632,
      "Ġhur": 1633,
      "Ġrecord": 1634,
      "ley": 1635,
      "Ġsto": 1636,
      "gie": 1637,
      "bruary": 1638,
      "Ġmouth": 1639,
      "ages": 1640,
      "Ġpen": 1641,
      "Ġfact": 1642,
      "Ġoffic": 1643,
      "Ġhit": 1644,
      "Ġsometimes": 1645,
      "Ġsort": 1646,
      "Ġfuck": 1647,
      "utes": 1648,
      "ele": 1649,
      "iful": 1650,
      "enty": 1651,
      "ention": 1652,
      "ald": 1653,
      "more": 1654,
      "Ġfav": 1655,
      "itting": 1656,
      "Ġfront": 1657,
      "Ġsouth": 1658,
      "ey": 1659,
      "Ġmad": 1660,
      "Ġlaw": 1661,
      "ured": 1662,
      "Ġmyself": 1663,
      "gin": 1664,
      "cess": 1665,
      "Ġgotta": 1666,
      "Ġresp": 1667,
      "Ġbehind": 1668,
      "Ġstra": 1669,
      "Ġsum": 1670,
      "Ġones": 1671,
      "Ġwords": 1672,
      "Ġjapan": 1673,
      "Ġten": 1674,
      "head": 1675,
      "Ġbear": 1676,
      "com": 1677,
      "Ġdress": 1678,
      "ii": 1679,
      "zz": 1680,
      "because": 1681,
      "Ġty": 1682,
      "Ġactually": 1683,
      "een": 1684,
      "essie": 1685,
      "fect": 1686,
      "Ġdistrict": 1687,
      "Ġgra": 1688,
      "Ġbase": 1689,
      "Ġphi": 1690,
      "Ġart": 1691,
      "Ġhowever": 1692,
      "vision": 1693,
      "Ġline": 1694,
      "ues": 1695,
      "Ġfebruary": 1696,
      "Ġbomba": 1697,
      "Ġoutside": 1698,
      "shall": 1699,
      "gan": 1700,
      "Ġcir": 1701,
      "Ġanimals": 1702,
      "Ġmain": 1703,
      "have": 1704,
      "Ġhon": 1705,
      "ĠâĢĺ": 1706,
      "ral": 1707,
      "ander": 1708,
      "Ġarm": 1709,
      "Ġ196": 1710,
      "ury": 1711,
      "ize": 1712,
      "Ġok": 1713,
      "Ġmess": 1714,
      "Ã¡": 1715,
      "Ġwat": 1716,
      "Ġearly": 1717,
      "olo": 1718,
      "Ġfore": 1719,
      "Ġaren": 1720,
      "ized": 1721,
      "Ġwants": 1722,
      "Ġoften": 1723,
      "Ġpicture": 1724,
      "Ġstar": 1725,
      "Ġrather": 1726,
      "ĠĠĠĠĠĠĠĠĠĠĠĠĠĠĠĠ": 1727,
      "ided": 1728,
      "Ġsomeone": 1729,
      "eth": 1730,
      "Ġtoys": 1731,
      "ze": 1732,
      "Ġtaken": 1733,
      "vo": 1734,
      "dge": 1735,
      "Ġmine": 1736,
      "Ġjan": 1737,
      "Ġfelt": 1738,
      "Ġsweet": 1739,
      "Ġindian": 1740,
      "read": 1741,
      "Ġdav": 1742,
      "Ġstre": 1743,
      "Ġfootball": 1744,
      "ape": 1745,
      "ert": 1746,
      "anger": 1747,
      "fully": 1748,
      "Ġduck": 1749,
      "Ġfunny": 1750,
      "Ġorder": 1751,
      "Ġbusiness": 1752,
      "dden": 1753,
      "Ġsn": 1754,
      "Ġcertain": 1755,
      "Ġarea": 1756,
      "Ġlate": 1757,
      "Ġisland": 1758,
      "lish": 1759,
      "artment": 1760,
      "Ġproble": 1761,
      "ron": 1762,
      "port": 1763,
      "ative": 1764,
      "ime": 1765,
      "Ġwin": 1766,
      "haps": 1767,
      "ford": 1768,
      "Ġinc": 1769,
      "fl": 1770,
      "Ġtrans": 1771,
      "Ġtaking": 1772,
      "Ġda": 1773,
      "Ġclot": 1774,
      "Ġminutes": 1775,
      "Ġwh": 1776,
      "Ġlearn": 1777,
      "Ġcold": 1778,
      "Ġhappen": 1779,
      "Ġtill": 1780,
      "Ġbeautiful": 1781,
      "amed": 1782,
      "Ġcor": 1783,
      "Ġpresident": 1784,
      "Ġcook": 1785,
      "born": 1786,
      "Ġpubl": 1787,
      "Ġocc": 1788,
      "Ġalone": 1789,
      "ient": 1790,
      "Ġprom": 1791,
      "Ġexpl": 1792,
      "gn": 1793,
      "Ġdark": 1794,
      "Ġless": 1795,
      "oops": 1796,
      "Ġpur": 1797,
      "ste": 1798,
      "aughter": 1799,
      "selves": 1800,
      "Ġ10": 1801,
      "Ġbirth": 1802,
      "min": 1803,
      "Ġroad": 1804,
      "Ġserv": 1805,
      "ming": 1806,
      "Ġpower": 1807,
      "Ġcaptain": 1808,
      "Ġable": 1809,
      "Ġpiece": 1810,
      "ised": 1811,
      "ained": 1812,
      "anor": 1813,
      "20": 1814,
      "Ġcamp": 1815,
      "Ġamong": 1816,
      "Ġdeal": 1817,
      "ering": 1818,
      "Ġeight": 1819,
      "Ġothers": 1820,
      "fort": 1821,
      "gas": 1822,
      "alright": 1823,
      "Ġhurt": 1824,
      "Ġbessie": 1825,
      "Ġgun": 1826,
      "Ġhorse": 1827,
      "Ġbooks": 1828,
      "oot": 1829,
      "uary": 1830,
      "ik": 1831,
      "Ġrele": 1832,
      "aus": 1833,
      "Ġwrite": 1834,
      "tern": 1835,
      "Ġbody": 1836,
      "Ġsister": 1837,
      "Ġgiven": 1838,
      "Ġweek": 1839,
      "Ġcase": 1840,
      "Ġstrong": 1841,
      "ains": 1842,
      "Ġsun": 1843,
      "bit": 1844,
      "bed": 1845,
      "Ġeither": 1846,
      "Ġwife": 1847,
      "does": 1848,
      "Ġmill": 1849,
      "mommy": 1850,
      "ern": 1851,
      "Ġtrue": 1852,
      "Ġpolit": 1853,
      "Ġinside": 1854,
      "Ġill": 1855,
      "ril": 1856,
      "Ġtree": 1857,
      "Ġlarge": 1858,
      "Ġlad": 1859,
      "Ġstud": 1860,
      "Ġlang": 1861,
      "Ġleast": 1862,
      "unch": 1863,
      "Ġfair": 1864,
      "Ġtrou": 1865,
      "Ġseries": 1866,
      "Ġpresent": 1867,
      "Ġwood": 1868,
      "Ġherself": 1869,
      "Ġimport": 1870,
      "Ġvill": 1871,
      "ffic": 1872,
      "may": 1873,
      "ooh": 1874,
      "Ġfing": 1875,
      "Ġbill": 1876,
      "Ġunivers": 1877,
      "Ġlay": 1878,
      "iting": 1879,
      "Ġseat": 1880,
      "Ġsever": 1881,
      "Ġ17": 1882,
      "when": 1883,
      "ific": 1884,
      "Ġchange": 1885,
      "Ġdoctor": 1886,
      "Ġprot": 1887,
      "--------": 1888,
      "000": 1889,
      "unic": 1890,
      "Ġwest": 1891,
      "Ġhello": 1892,
      "Ġwear": 1893,
      "arent": 1894,
      "pping": 1895,
      "Ġground": 1896,
      "Ġstep": 1897,
      "bert": 1898,
      "Ġthanks": 1899,
      "Ġdinner": 1900,
      "Ġyellow": 1901,
      "Ġ195": 1902,
      "Ġchap": 1903,
      "Ġglad": 1904,
      "Ġletter": 1905,
      "Ġcheck": 1906,
      "ments": 1907,
      "Ġseveral": 1908,
      "Ġwall": 1909,
      "Ġsilver": 1910,
      "dle": 1911,
      "Ġdef": 1912,
      "ike": 1913,
      "Ġran": 1914,
      "Ġwish": 1915,
      "oof": 1916,
      "Ġcompany": 1917,
      "wa": 1918,
      "ator": 1919,
      "Ġgold": 1920,
      "Ġprof": 1921,
      "Ġblock": 1922,
      "Ġfree": 1923,
      "Ġreac": 1924,
      "Ġim": 1925,
      "ote": 1926,
      "aced": 1927,
      "Ġuncle": 1928,
      "aim": 1929,
      "Ġcouldn": 1930,
      "ove": 1931,
      "Ġsand": 1932,
      "Ġago": 1933,
      "ept": 1934,
      "Ġmur": 1935,
      "Ġann": 1936,
      "Ġjanuary": 1937,
      "eng": 1938,
      "Ġ...": 1939,
      "Ġopp": 1940,
      "Ġbath": 1941,
      "ana": 1942,
      "cr": 1943,
      "ards": 1944,
      "hael": 1945,
      "Ġtried": 1946,
      "Ġfort": 1947,
      "Ġcross": 1948,
      "Ġthrow": 1949,
      "ek": 1950,
      "Ġcam": 1951,
      "unning": 1952,
      "say": 1953,
      "Ġclass": 1954,
      "Ġgets": 1955,
      "Ġfavor": 1956,
      "mon": 1957,
      "uk": 1958,
      "Ġchance": 1959,
      "bs": 1960,
      "gue": 1961,
      "lex": 1962,
      "Ġtouch": 1963,
      "daddy": 1964,
      "cks": 1965,
      "ides": 1966,
      "oop": 1967,
      "Ġkiss": 1968,
      "Ġreco": 1969,
      "Ġfish": 1970,
      "Ġwomen": 1971,
      "Ġfil": 1972,
      "Ġrece": 1973,
      "rence": 1974,
      "Ġhistory": 1975,
      "Ġenglish": 1976,
      "Ġconst": 1977,
      "Ġclean": 1978,
      "Ġattack": 1979,
      "ax": 1980,
      "Ġtoy": 1981,
      "fr": 1982,
      "Ġlived": 1983,
      "Ġphone": 1984,
      "Ġfinished": 1985,
      "Ġsea": 1986,
      "Ġve": 1987,
      "Ġbob": 1988,
      "Ġ15": 1989,
      "Ġdat": 1990,
      "ected": 1991,
      "vember": 1992,
      "car": 1993,
      "hello": 1994,
      "mother": 1995,
      "raid": 1996,
      "singing": 1997,
      "Ġbag": 1998,
      "Ġje": 1999,
      "Ġobject": 2000,
      "Ġroll": 2001,
      "Ġgeor": 2002,
      "two": 2003,
      "Ġcreat": 2004,
      "Ġkilled": 2005,
      "Ġquestion": 2006,
      "ality": 2007,
      "Ġperhaps": 2008,
      "Ġdream": 2009,
      "Ġgroup": 2010,
      "Ġheld": 2011,
      "arch": 2012,
      "Ġsal": 2013,
      "cil": 2014,
      "ara": 2015,
      "eared": 2016,
      "Ġmaj": 2017,
      "Ġcri": 2018,
      "Ġsudden": 2019,
      "Ġsitting": 2020,
      "que": 2021,
      "Ġsend": 2022,
      "hel": 2023,
      "Ġfast": 2024,
      "Ġ194": 2025,
      "Ġquiet": 2026,
      "Ġdepartment": 2027,
      "Ġfield": 2028,
      "va": 2029,
      "Ġpot": 2030,
      "Ġdavid": 2031,
      "Ġgames": 2032,
      "ately": 2033,
      "Ġjane": 2034,
      "Ġpast": 2035,
      "king": 2036,
      "Ġhung": 2037,
      "Ġsurp": 2038,
      "Ġstor": 2039,
      "ists": 2040,
      "Ġ2021": 2041,
      "ional": 2042,
      "Ġbra": 2043,
      "Ġ2020": 2044,
      "Ġmount": 2045,
      "Ġtomorrow": 2046,
      "Ġimportant": 2047,
      "Ġmaster": 2048,
      "Ġknows": 2049,
      "Ġacross": 2050,
      "Ġnovember": 2051,
      "acher": 2052,
      "cri": 2053,
      "Ġhall": 2054,
      "ience": 2055,
      "Ġlangu": 2056,
      "Ġcray": 2057,
      "Ġoct": 2058,
      "vered": 2059,
      "ift": 2060,
      "Ġya": 2061,
      "Ġreason": 2062,
      "Ġport": 2063,
      "Ġafraid": 2064,
      "Ġmaggie": 2065,
      "Ġtem": 2066,
      "Ġbur": 2067,
      "Ġsoft": 2068,
      "Ġbuy": 2069,
      "Ġtakes": 2070,
      "Ġpos": 2071,
      "owed": 2072,
      "Ġgerman": 2073,
      "Ġbirthday": 2074,
      "ya": 2075,
      "Ġmilk": 2076,
      "Ġtea": 2077,
      "Ġyork": 2078,
      "Ġdie": 2079,
      "arth": 2080,
      "Ġappe": 2081,
      "ney": 2082,
      "Ġyours": 2083,
      "men": 2084,
      "your": 2085,
      "rench": 2086,
      "Ġworking": 2087,
      "Ġstreet": 2088,
      "Ġpark": 2089,
      "Ġmember": 2090,
      "Ġseems": 2091,
      "la": 2092,
      "net": 2093,
      "Ġice": 2094,
      "ls": 2095,
      "Ġcorn": 2096,
      "Ġblood": 2097,
      "Ġvocal": 2098,
      "Ġliving": 2099,
      "ician": 2100,
      "Ġpost": 2101,
      "iter": 2102,
      "Ġsus": 2103,
      "ler": 2104,
      "makes": 2105,
      "Ġaunt": 2106,
      "Ġdaughter": 2107,
      "itc": 2108,
      "Ġuniversity": 2109,
      "ti": 2110,
      "Ġx": 2111,
      "Ġsold": 2112,
      "zy": 2113,
      "ued": 2114,
      "Ġton": 2115,
      "ges": 2116,
      "aint": 2117,
      "ounter": 2118,
      "Ġfly": 2119,
      "Ġfrance": 2120,
      "Ġmarch": 2121,
      "Ġthinking": 2122,
      "uhhuh": 2123,
      "ider": 2124,
      "Ġpleas": 2125,
      "Ġbreat": 2126,
      "Ġnose": 2127,
      "Ġgent": 2128,
      "ober": 2129,
      "Ġheav": 2130,
      "Ġband": 2131,
      "ulation": 2132,
      "Ġ16": 2133,
      "ggy": 2134,
      "Ġcast": 2135,
      "lt": 2136,
      "Ġbrit": 2137,
      "ked": 2138,
      "Ġemp": 2139,
      "Ġusually": 2140,
      "Ġfix": 2141,
      "itten": 2142,
      "Ġcharac": 2143,
      "Ġkept": 2144,
      "ressed": 2145,
      "Ġtelevision": 2146,
      "Ġfig": 2147,
      "Ġori": 2148,
      "Ġchamp": 2149,
      "Ġshut": 2150,
      "wered": 2151,
      "ham": 2152,
      "Ġdet": 2153,
      "con": 2154,
      "Ġ12": 2155,
      ".'": 2156,
      "lied": 2157,
      "Ġcried": 2158,
      "Ġapril": 2159,
      "Ġphil": 2160,
      "!âĢĿ": 2161,
      "some": 2162,
      "ilt": 2163,
      "Ġnamed": 2164,
      "though": 2165,
      "band": 2166,
      "Ġstood": 2167,
      "Ġspecial": 2168,
      "iously": 2169,
      "Ġstation": 2170,
      "Ġgrow": 2171,
      "wh": 2172,
      "Ġclim": 2173,
      "itch": 2174,
      "Ġjuly": 2175,
      "har": 2176,
      "Ġplan": 2177,
      "Ġeast": 2178,
      "Ġru": 2179,
      "Ġfraser": 2180,
      "uro": 2181,
      "Ġest": 2182,
      "Ġseven": 2183,
      "play": 2184,
      "undred": 2185,
      "ived": 2186,
      "ats": 2187,
      "Ġanswered": 2188,
      "Ġear": 2189,
      "Ġros": 2190,
      "Ġanswer": 2191,
      "Ġain": 2192,
      "Ġsomebody": 2193,
      "Ġtrouble": 2194,
      "gasps": 2195,
      "Ġlow": 2196,
      "Ġpoints": 2197,
      "Ġrain": 2198,
      "Ġvict": 2199,
      "Ġjump": 2200,
      "Ġrunning": 2201,
      "ery": 2202,
      "âĢĵ": 2203,
      "Ġlie": 2204,
      "Ġconc": 2205,
      "gar": 2206,
      "Ġcannot": 2207,
      "Ġgeneral": 2208,
      "ution": 2209,
      "Ġsounds": 2210,
      "Ġtired": 2211,
      "Ġring": 2212,
      "ino": 2213,
      "Ġhundred": 2214,
      "ptember": 2215,
      "ium": 2216,
      "Ġbecome": 2217,
      "Ġclear": 2218,
      "Ġoctober": 2219,
      "Ġcarry": 2220,
      "Ġchur": 2221,
      "Ġbes": 2222,
      "Ġpolice": 2223,
      "ract": 2224,
      "Ġmarried": 2225,
      "Ġproblem": 2226,
      "Ġdam": 2227,
      "Ġlives": 2228,
      "Ġslow": 2229,
      "tom": 2230,
      "gu": 2231,
      "Ġfit": 2232,
      "Ġexam": 2233,
      "Ġmam": 2234,
      "Ġshar": 2235,
      "hern": 2236,
      "duc": 2237,
      "Ġalex": 2238,
      "Ġce": 2239,
      "Ġleg": 2240,
      "inning": 2241,
      "ural": 2242,
      "Ġsuper": 2243,
      "Ġstri": 2244,
      "Ġeasy": 2245,
      "Ġclothes": 2246,
      "Ġprofess": 2247,
      "osp": 2248,
      "Ġ193": 2249,
      "rop": 2250,
      "Ġpage": 2251,
      "Ġhang": 2252,
      "Ġexact": 2253,
      "which": 2254,
      "Ġdest": 2255,
      "Ġsecret": 2256,
      "Ġedna": 2257,
      "Ġpassed": 2258,
      "Ġaust": 2259,
      "Ġfrank": 2260,
      "box": 2261,
      "Ġgentle": 2262,
      "Ġbull": 2263,
      "Ġhours": 2264,
      "Ġrad": 2265,
      "Ġaug": 2266,
      "Ġseason": 2267,
      "Ġdece": 2268,
      "Ġfre": 2269,
      "Ġnews": 2270,
      "Ġmunic": 2271,
      "Ġval": 2272,
      "Ġeating": 2273,
      "Ġcatch": 2274,
      "ism": 2275,
      "Ġforget": 2276,
      "Ġcou": 2277,
      "Ġluck": 2278,
      "Ġstraight": 2279,
      "Ġted": 2280,
      "Ġarri": 2281,
      "Ġmal": 2282,
      "Ġmiles": 2283,
      "Ġhy": 2284,
      "ther": 2285,
      "Ġimm": 2286,
      "âĢĶ": 2287,
      "friend": 2288,
      "Ġdanger": 2289,
      "gram": 2290,
      "foot": 2291,
      "ÃŃ": 2292,
      "Ġthemselves": 2293,
      "Ġseptember": 2294,
      "Ġvi": 2295,
      "Ġpig": 2296,
      "Ġfeeling": 2297,
      "Ġrob": 2298,
      "Ġfrench": 2299,
      "uri": 2300,
      "atic": 2301,
      "ude": 2302,
      "Ġtwenty": 2303,
      "Ġoffice": 2304,
      "Ġmonths": 2305,
      "Ġ!": 2306,
      "bt": 2307,
      "Ġsucc": 2308,
      "Ġarms": 2309,
      "Ġlovely": 2310,
      "Ġkids": 2311,
      "wow": 2312,
      "Ġreleased": 2313,
      "Ġgar": 2314,
      "ives": 2315,
      "Ġmama": 2316,
      "babbles": 2317,
      "Ġlikes": 2318,
      "Ġalright": 2319,
      "'.": 2320,
      "Ġpal": 2321,
      "stairs": 2322,
      "Ġhus": 2323,
      "Ġclub": 2324,
      "Ġmunicip": 2325,
      "Ġcow": 2326,
      "hold": 2327,
      "Ġabs": 2328,
      "ead": 2329,
      "illy": 2330,
      "itty": 2331,
      "aged": 2332,
      "Ġsummer": 2333,
      "Ġspec": 2334,
      "Ġaugust": 2335,
      "Ġcool": 2336,
      "emy": 2337,
      "phone": 2338,
      "Ġpartic": 2339,
      "Ġworked": 2340,
      "Ġrom": 2341,
      "Ġchapter": 2342,
      "Ġeverybody": 2343,
      "Ġbroken": 2344,
      "Ġwild": 2345,
      ",--": 2346,
      "Ġtick": 2347,
      "Ġnoises": 2348,
      "Ġcharl": 2349,
      "Ġins": 2350,
      "gen": 2351,
      "Ġshot": 2352,
      "Ġbow": 2353,
      "Ġknock": 2354,
      "cket": 2355,
      "Ġperfect": 2356,
      "Ġwaiting": 2357,
      "sings": 2358,
      "will": 2359,
      "Ġoper": 2360,
      "alth": 2361,
      "Ġformer": 2362,
      "ration": 2363,
      "Ġ#": 2364,
      "Ġshoot": 2365,
      "Ġvisit": 2366,
      "era": 2367,
      "Ġbrown": 2368,
      "Ġputs": 2369,
      "ĠĠĠĠĠĠ": 2370,
      "Ġgovernment": 2371,
      "Ġlots": 2372,
      "Ġwindow": 2373,
      "was": 2374,
      "Ġsnow": 2375,
      "Ġmm": 2376,
      "Ġdeep": 2377,
      "Ġstanding": 2378,
      "ato": 2379,
      "Ġpossible": 2380,
      "give": 2381,
      "Ġwhatever": 2382,
      "Ġsuccess": 2383,
      "ices": 2384,
      "Ġorigin": 2385,
      "Ġsuppose": 2386,
      "Ġsight": 2387,
      "Ġabove": 2388,
      "Ġseem": 2389,
      "chard": 2390,
      "Ġeye": 2391,
      "Ġalthough": 2392,
      "Ġblow": 2393,
      "Ġwhom": 2394,
      "Ġcirc": 2395,
      "asp": 2396,
      "Ġexcl": 2397,
      "Ġinstead": 2398,
      "Ġmist": 2399,
      "Ġhoney": 2400,
      "ety": 2401,
      "Ġdev": 2402,
      "Ġ11": 2403,
      "Ġchief": 2404,
      "ondon": 2405,
      "Ġenjo": 2406,
      "Ġalb": 2407,
      "Ġbye": 2408,
      "Ġterri": 2409,
      "Ġtonight": 2410,
      "Ġchurch": 2411,
      "Ġegg": 2412,
      "Ġhol": 2413,
      "Ġfear": 2414,
      "Ġmis": 2415,
      "grap": 2416,
      "Ġreturned": 2417,
      "counter": 2418,
      "fer": 2419,
      "Ġmum": 2420,
      "owers": 2421,
      "Ġut": 2422,
      "]!": 2423,
      "Ġworry": 2424,
      "please": 2425,
      "night": 2426,
      "Ġboard": 2427,
      "Ġthir": 2428,
      "Ġerm": 2429,
      "would": 2430,
      "Ġproper": 2431,
      "nes": 2432,
      "ppy": 2433,
      "Ġship": 2434,
      "Ġcaught": 2435,
      "ager": 2436,
      "Ġvocalises": 2437,
      "Ġreport": 2438,
      "iam": 2439,
      "Ġfa": 2440,
      "Ġgard": 2441,
      "Ġ2018": 2442,
      "sk": 2443,
      "Ġver": 2444,
      "Ġinde": 2445,
      "Ġclos": 2446,
      "maybe": 2447,
      "ene": 2448,
      "Ġintern": 2449,
      "Ġgri": 2450,
      "Ġmoved": 2451,
      "Ġcareer": 2452,
      "omas": 2453,
      "ility": 2454,
      "Ġmc": 2455,
      "ically": 2456,
      "Ġmiddle": 2457,
      "baby": 2458,
      "Ġregion": 2459,
      "nce": 2460,
      "whis": 2461,
      "Ġhill": 2462,
      "ended": 2463,
      "velop": 2464,
      "Ġburn": 2465,
      "Ġtoward": 2466,
      "Ġfellow": 2467,
      "Ġpa": 2468,
      "Ġsick": 2469,
      "stem": 2470,
      "Ġcontro": 2471,
      "Ġfrog": 2472,
      "oose": 2473,
      "Ġhors": 2474,
      "Ġpopulation": 2475,
      "Ġearth": 2476,
      "Ġwithin": 2477,
      "Ġtruck": 2478,
      "Ġdisapp": 2479,
      "Ġforward": 2480,
      "Ġforgot": 2481,
      "Ġfollowing": 2482,
      "fast": 2483,
      "yed": 2484,
      "Ġjune": 2485,
      "Ġcommon": 2486,
      "ceed": 2487,
      "ground": 2488,
      "Ġchildes": 2489,
      "childes": 2490,
      "Ġesc": 2491,
      "Ġhusband": 2492,
      "Ġadam": 2493,
      "Ġlondon": 2494,
      "Ġvar": 2495,
      "Ġsol": 2496,
      "rupt": 2497,
      "vi": 2498,
      "lete": 2499,
      "Ġtrust": 2500,
      "Ġexactly": 2501,
      "Ġturns": 2502,
      "ror": 2503,
      "Ġappro": 2504,
      "Ġrecogn": 2505,
      "Ġcouple": 2506,
      "ston": 2507,
      "Ġhell": 2508,
      "Ġcareful": 2509,
      "Ġfarm": 2510,
      "ances": 2511,
      "Ġcolle": 2512,
      "bur": 2513,
      "ardon": 2514,
      "Ġroy": 2515,
      "Ġmichael": 2516,
      "Ġmajor": 2517,
      "Ġdecember": 2518,
      "aimed": 2519,
      "used": 2520,
      "Ġputting": 2521,
      "Ġprev": 2522,
      "Ġevening": 2523,
      "itchen": 2524,
      "Ġtelling": 2525,
      "Ġvillage": 2526,
      "Ġdut": 2527,
      "unity": 2528,
      "Ġlab": 2529,
      "Ġreplied": 2530,
      "iling": 2531,
      "ffee": 2532,
      "Ġlord": 2533,
      "Ġchick": 2534,
      "Ġjoe": 2535,
      "Ġlanguage": 2536,
      "Ġtest": 2537,
      "empt": 2538,
      "oth": 2539,
      "Ġmeant": 2540,
      "Ġrepres": 2541,
      "Ġang": 2542,
      "Ġsilence": 2543,
      "Ġwhether": 2544,
      "sit": 2545,
      "Ġeveryone": 2546,
      "Ġpaul": 2547,
      "Ġfill": 2548,
      "Ġhuman": 2549,
      "mit": 2550,
      "Ġahead": 2551,
      "Ġlat": 2552,
      "Ġeuro": 2553,
      "Ġride": 2554,
      "reek": 2555,
      "Ġwritten": 2556,
      "note": 2557,
      "Ġtowards": 2558,
      "Ġsystem": 2559,
      "sy": 2560,
      "time": 2561,
      "ich": 2562,
      "Ġkitchen": 2563,
      "Ġhosp": 2564,
      "Ġdisc": 2565,
      "Ġbroke": 2566,
      "Ġ2019": 2567,
      "Ġbrad": 2568,
      "Ġexcuse": 2569,
      "mas": 2570,
      "Ġ14": 2571,
      "Ġbuilding": 2572,
      "ights": 2573,
      "Ġchanged": 2574,
      "Ġcop": 2575,
      "with": 2576,
      "Ġwel": 2577,
      "Ġtow": 2578,
      "Ġsuddenly": 2579,
      "oke": 2580,
      "noon": 2581,
      "igg": 2582,
      "iff": 2583,
      "Ġquickly": 2584,
      "Ġsave": 2585,
      "Ġcre": 2586,
      "Ġnet": 2587,
      "Ġtur": 2588,
      "pes": 2589,
      "Ġmillion": 2590,
      "Ġtreat": 2591,
      "Ġnearly": 2592,
      "Ġsafe": 2593,
      "ula": 2594,
      "Ġanyone": 2595,
      "ray": 2596,
      "Ġjud": 2597,
      "Ġcharacter": 2598,
      "Ġled": 2599,
      "Ġdrive": 2600,
      "Ġbritish": 2601,
      "Ġparent": 2602,
      "Ġluc": 2603,
      "Ġhop": 2604,
      "Ġarmy": 2605,
      "bing": 2606,
      "of": 2607,
      "Ġsad": 2608,
      "Ġgall": 2609,
      "Ġorgan": 2610,
      "estern": 2611,
      "Ġshoes": 2612,
      "Ġfavorite": 2613,
      "Ġmass": 2614,
      "ament": 2615,
      "Ġexcept": 2616,
      "Ġneeds": 2617,
      "ex": 2618,
      "ob": 2619,
      "miss": 2620,
      "Ġhu": 2621,
      "Ġexpress": 2622,
      "Ġcommune": 2623,
      "Ġdevelop": 2624,
      "Ġwrote": 2625,
      "Ġexper": 2626,
      "Ġlou": 2627,
      "Ġcourt": 2628,
      "Ġengland": 2629,
      "Ġequ": 2630,
      "Ġstrange": 2631,
      "Ġpretend": 2632,
      "Ġ13": 2633,
      "eleanor": 2634,
      "Ġpublic": 2635,
      "wor": 2636,
      "oseph": 2637,
      "Ġwhose": 2638,
      "des": 2639,
      "Ġpract": 2640,
      "mar": 2641,
      "Ġbang": 2642,
      "Ġheavy": 2643,
      "Ġpet": 2644,
      "Ġnine": 2645,
      "gest": 2646,
      "Ġcand": 2647,
      "ousand": 2648,
      "Ġjim": 2649,
      "Ġlonger": 2650,
      "Ġdiffic": 2651,
      "cially": 2652,
      "Ġfollowed": 2653,
      "Ġreached": 2654,
      "Ġafternoon": 2655,
      "Ġhen": 2656,
      "Ġcoffee": 2657,
      "tered": 2658,
      "uit": 2659,
      "Ġthird": 2660,
      "Ġpolitician": 2661,
      "tell": 2662,
      "ement": 2663,
      "Ġprodu": 2664,
      "da": 2665,
      "Ġtot": 2666,
      "Ġprogram": 2667,
      "Ġpieces": 2668,
      "ighb": 2669,
      "Ġwhis": 2670,
      "Ġ2022": 2671,
      "Ġappear": 2672,
      "Ġmart": 2673,
      "ushed": 2674,
      "Ġworks": 2675,
      "Ġanyway": 2676,
      "Ġdoubt": 2677,
      "Ġbank": 2678,
      "ada": 2679,
      "Ġvie": 2680,
      "Ġsusp": 2681,
      "Ġfail": 2682,
      "Ġshit": 2683,
      "Ġbas": 2684,
      "Ġfift": 2685,
      "Ġthousand": 2686,
      "Ġairport": 2687,
      "Ġgeorge": 2688,
      "Ġrepresent": 2689,
      "Ġkitty": 2690,
      "amy": 2691,
      "Ġopened": 2692,
      "take": 2693,
      "ott": 2694,
      "Ġcab": 2695,
      "onel": 2696,
      "ians": 2697,
      "Ġindeed": 2698,
      "Ġought": 2699,
      "iny": 2700,
      "Ġbutter": 2701,
      "rt": 2702,
      "Ġbright": 2703,
      "orence": 2704,
      "Ġcover": 2705,
      "Ġdor": 2706,
      "ums": 2707,
      "Ġswim": 2708,
      "Ġmunicipality": 2709,
      "cent": 2710,
      "Ġpress": 2711,
      "Ġbell": 2712,
      "Ġleague": 2713,
      "Ġbelong": 2714,
      "Ġdisco": 2715,
      "Ġleaving": 2716,
      "ining": 2717,
      "Ġshout": 2718,
      "wait": 2719,
      "Ġhospital": 2720,
      "terday": 2721,
      "chan": 2722,
      "Ġcong": 2723,
      "rise": 2724,
      "Ġkick": 2725,
      "Ġbreakfast": 2726,
      "Ġcurrent": 2727,
      "Ġprovince": 2728,
      "Ġwatches": 2729,
      "Ġaward": 2730,
      "Ġplaces": 2731,
      "Ġlaughs": 2732,
      "Ġanimal": 2733,
      "Ġeffe": 2734,
      "iled": 2735,
      "Ġmonkey": 2736,
      "Ġsam": 2737,
      "erv": 2738,
      "Ġconn": 2739,
      "ki": 2740,
      "Ġmatch": 2741,
      "Ġcomfort": 2742,
      "Ġflorence": 2743,
      "Ġprin": 2744,
      "Ġelect": 2745,
      "Ġbird": 2746,
      "Ġta": 2747,
      "Ġholds": 2748,
      "phan": 2749,
      "Ġteacher": 2750,
      "Ġcomplete": 2751,
      "Ġcollege": 2752,
      "oint": 2753,
      "Ġcause": 2754,
      "Ġspot": 2755,
      "Ġchampions": 2756,
      "lic": 2757,
      "Ġletters": 2758,
      "Ġcrayon": 2759,
      "footnote": 2760,
      "din": 2761,
      "Ġtv": 2762,
      "Ġstone": 2763,
      "view": 2764,
      "tr": 2765,
      "Ġhappens": 2766,
      "Ġservice": 2767,
      "Ġbuilt": 2768,
      "Ġdecided": 2769,
      "Ġmor": 2770,
      "ura": 2771,
      "Ġvol": 2772,
      "Ġlegs": 2773,
      "Ġjuice": 2774,
      "Ġcrazy": 2775,
      "Ġview": 2776,
      "Ġital": 2777,
      "val": 2778,
      "Ġspir": 2779,
      "Ġprison": 2780,
      "Ġtall": 2781,
      "ĠâĢĻ": 2782,
      "Ġgiving": 2783,
      "Ġinterested": 2784,
      "rs": 2785,
      "Ġfinish": 2786,
      "Ġcamera": 2787,
      "Ġstuck": 2788,
      "Ġspend": 2789,
      "aused": 2790,
      "Ġusing": 2791,
      "Ġ,": 2792,
      "Ġsupposed": 2793,
      "Ġsupport": 2794,
      "Ġstopped": 2795,
      "Ġlau": 2796,
      "Ġban": 2797,
      "ourn": 2798,
      "olog": 2799,
      "Ġposition": 2800,
      "Ġcrying": 2801,
      "oul": 2802,
      "Ġforce": 2803,
      "Ġworth": 2804,
      "Ġ30": 2805,
      "Ġreceived": 2806,
      "jw": 2807,
      "idence": 2808,
      "ille": 2809,
      "Ġinternational": 2810,
      "Ġeffect": 2811,
      "xic": 2812,
      "Ġtape": 2813,
      "Ġpack": 2814,
      "Ġange": 2815,
      "Ġeurope": 2816,
      "Ġproduc": 2817,
      "Ġdirect": 2818,
      "yn": 2819,
      "Ġdecl": 2820,
      "ka": 2821,
      "Ġdance": 2822,
      "Ġreach": 2823,
      "bling": 2824,
      "Ġet": 2825,
      "Ġpush": 2826,
      "Ġ$": 2827,
      "Ġwand": 2828,
      "Ġpink": 2829,
      "Ġhan": 2830,
      "bled": 2831,
      "Ġwarm": 2832,
      "Ġrequ": 2833,
      "umb": 2834,
      "Ġdefe": 2835,
      "Ġtruth": 2836,
      "Ġplayer": 2837,
      "iforn": 2838,
      "Ġden": 2839,
      "Ġstu": 2840,
      "Ġyesterday": 2841,
      "Ġsout": 2842,
      "acy": 2843,
      "gl": 2844,
      "hoh": 2845,
      "Ġleaves": 2846,
      "Ġwilliam": 2847,
      "Ġengine": 2848,
      "Ġ]": 2849,
      "Ġappeared": 2850,
      "Ġsingle": 2851,
      "af": 2852,
      "Ġdir": 2853,
      "Ġlunch": 2854,
      "Ġaccord": 2855,
      "dd": 2856,
      "Ġthomas": 2857,
      "cel": 2858,
      "Ġvide": 2859,
      "Ġcaliforn": 2860,
      "Ġnone": 2861,
      "Ġincluding": 2862,
      "eder": 2863,
      "Ġcompan": 2864,
      "work": 2865,
      "Ġdescri": 2866,
      "Ġfat": 2867,
      "Ġvan": 2868,
      "....": 2869,
      "Ġneck": 2870,
      "itted": 2871,
      "Ġanymore": 2872,
      "Ġtrees": 2873,
      "Ġdan": 2874,
      "Ġ?": 2875,
      "Ġbeat": 2876,
      "Ġrac": 2877,
      "Ġrub": 2878,
      "mbers": 2879,
      "lin": 2880,
      "Ġfinger": 2881,
      "zer": 2882,
      "Ġcolonel": 2883,
      "over": 2884,
      "Ġdry": 2885,
      "oon": 2886,
      "Ġbridge": 2887,
      "ashi": 2888,
      "_,": 2889,
      "Ġfle": 2890,
      "Ġep": 2891,
      "ishing": 2892,
      "Ġexpect": 2893,
      "ging": 2894,
      "Ġcens": 2895,
      "omin": 2896,
      "Ġdiv": 2897,
      "Ġchristmas": 2898,
      "Ġruss": 2899,
      "Ġcalifornia": 2900,
      "Ġglass": 2901,
      "Ġspoke": 2902,
      "mic": 2903,
      "Ġwatching": 2904,
      "Ġinform": 2905,
      "Ġgarden": 2906,
      "aud": 2907,
      "ounds": 2908,
      "Ġjer": 2909,
      "Ġhungry": 2910,
      "Ġsilly": 2911,
      "Ġnobody": 2912,
      "Ġtrack": 2913,
      "Ġdesign": 2914,
      "ature": 2915,
      "Ġpictures": 2916,
      "Ġbreath": 2917,
      "Ġcost": 2918,
      "Ġtig": 2919,
      "Ġcompet": 2920,
      ",'": 2921,
      "Ġlift": 2922,
      "Ġalexander": 2923,
      "rem": 2924,
      "Ġquar": 2925,
      "Ġexclaimed": 2926,
      "Ġrev": 2927,
      "Ġloc": 2928,
      "aur": 2929,
      "Ġstru": 2930,
      "Ġjames": 2931,
      "orts": 2932,
      "west": 2933,
      "Ġaut": 2934,
      "Ġbud": 2935,
      "Ġsex": 2936,
      "Ġsomewhere": 2937,
      "Ġcommand": 2938,
      "asket": 2939,
      "Ġlos": 2940,
      "Ġneighb": 2941,
      "Ġ25": 2942,
      "vin": 2943,
      "Ġfres": 2944,
      "Ġbusy": 2945,
      "Ġnames": 2946,
      "ified": 2947,
      "rr": 2948,
      "Ġauth": 2949,
      "phi": 2950,
      "Ġaustral": 2951,
      "want": 2952,
      "Ġimag": 2953,
      "down": 2954,
      "ubl": 2955,
      "Ġpir": 2956,
      "Ġmoving": 2957,
      "Ġbroad": 2958,
      "Ġhurry": 2959,
      "Ġfucking": 2960,
      "Ġmac": 2961,
      "Ġlem": 2962,
      "Ġ192": 2963,
      "cer": 2964,
      "sn": 2965,
      "pper": 2966,
      "Ġamerica": 2967,
      "Ġweeks": 2968,
      "Ġprop": 2969,
      "ously": 2970,
      "Ġcensus": 2971,
      "ior": 2972,
      "ien": 2973,
      "Ġadded": 2974,
      "\")": 2975,
      "Ġrose": 2976,
      "Ġwet": 2977,
      "Ġhig": 2978,
      "Ġsli": 2979,
      "cut": 2980,
      "tho": 2981,
      "Ġpause": 2982,
      "Ġslowly": 2983,
      "Ã³": 2984,
      "Ġdistance": 2985,
      "Ġcake": 2986,
      "Ġsense": 2987,
      "Ġlu": 2988,
      "Ġstore": 2989,
      "Ġhun": 2990,
      "yep": 2991,
      "Ġpeter": 2992,
      "Ġbabies": 2993,
      "ingly": 2994,
      "Ġjenn": 2995,
      "Ġself": 2996,
      "Ġtail": 2997,
      "Ġtast": 2998,
      "Ġcas": 2999,
      "Ġloved": 3000,
      "wanna": 3001,
      "Ġcarried": 3002,
      "Ġcoun": 3003,
      "Ġpuzz": 3004,
      "Ġbottom": 3005,
      "bre": 3006,
      "ization": 3007,
      "Ġaccident": 3008,
      "Ġfigure": 3009,
      "Ġbought": 3010,
      "ection": 3011,
      "house": 3012,
      "rat": 3013,
      "Ġtit": 3014,
      "reen": 3015,
      "Ġow": 3016,
      "Ġattention": 3017,
      "rel": 3018,
      "Ġwash": 3019,
      "Ġmembers": 3020,
      "Ġholding": 3021,
      "Ġaccount": 3022,
      "ggest": 3023,
      "Ġbread": 3024,
      "haha": 3025,
      "Ġdanc": 3026,
      "Ġ21": 3027,
      "Ġspace": 3028,
      "Ġ(\"": 3029,
      "Ġmeeting": 3030,
      "off": 3031,
      "Ġallowed": 3032,
      "Ġsuggest": 3033,
      "Ġspring": 3034,
      "Ġsmell": 3035,
      "Ġeduc": 3036,
      "Ġsky": 3037,
      "Ġparents": 3038,
      "pecially": 3039,
      "Ġremark": 3040,
      "vies": 3041,
      "sey": 3042,
      "Ġlaughing": 3043,
      "Ġcertainly": 3044,
      "Ġhorses": 3045,
      "cries": 3046,
      "wood": 3047,
      "ida": 3048,
      "Ġhole": 3049,
      "bers": 3050,
      "Ġca": 3051,
      "Ġcontinued": 3052,
      "Ġeve": 3053,
      "uckles": 3054,
      "kat": 3055,
      "Ġdem": 3056,
      "Ġbeginning": 3057,
      "Ġsar": 3058,
      "Ġliked": 3059,
      "Ġactiv": 3060,
      "Ġcrow": 3061,
      "Ġbattle": 3062,
      "Ġannoun": 3063,
      "Ġcond": 3064,
      "Ġperio": 3065,
      "Ġfurt": 3066,
      "Ġorange": 3067,
      "uation": 3068,
      "Ġcharlie": 3069,
      "Ġbased": 3070,
      "Ġcard": 3071,
      "Ġcorner": 3072,
      "Ġber": 3073,
      "Ġshowed": 3074,
      "Ġfinally": 3075,
      "Ġdelight": 3076,
      "iced": 3077,
      "uts": 3078,
      "Ġcapital": 3079,
      "Ġwow": 3080,
      "Ġsen": 3081,
      "sta": 3082,
      "Ġjung": 3083,
      "Ġfaith": 3084,
      "yer": 3085,
      "olute": 3086,
      "pardon": 3087,
      "za": 3088,
      "Ġlock": 3089,
      "Ġscar": 3090,
      "uhoh": 3091,
      "Ġhealth": 3092,
      "Ġseeing": 3093,
      "Ġwriting": 3094,
      "Ġsan": 3095,
      "hh": 3096,
      "Ġpan": 3097,
      "10": 3098,
      "Ġcars": 3099,
      "arr": 3100,
      "ids": 3101,
      "Ġdropped": 3102,
      "ology": 3103,
      "Ġactor": 3104,
      "Ġattempt": 3105,
      "steven": 3106,
      ".--": 3107,
      "ighs": 3108,
      "Ġba": 3109,
      "Ġhero": 3110,
      "iles": 3111,
      "Ġmem": 3112,
      "board": 3113,
      "Ġbord": 3114,
      "Ġeff": 3115,
      "Ġblocks": 3116,
      "Ġfurther": 3117,
      "kn": 3118,
      "Ġtou": 3119,
      "Ġ24": 3120,
      "Ġexample": 3121,
      "Ġmovies": 3122,
      "Ġtex": 3123,
      "Ġdollars": 3124,
      "Ġtype": 3125,
      "Ġjes": 3126,
      "three": 3127,
      "Ġwonderful": 3128,
      "Ġvideo": 3129,
      "gon": 3130,
      "under": 3131,
      "Ġloud": 3132,
      "stop": 3133,
      "Ġcapt": 3134,
      "hood": 3135,
      "Ġtech": 3136,
      "Ġwelcome": 3137,
      "cher": 3138,
      "ored": 3139,
      "oto": 3140,
      "Ġanx": 3141,
      "gged": 3142,
      "Ġfingers": 3143,
      "Ġjoseph": 3144,
      "Ġcheese": 3145,
      "watch": 3146,
      "has": 3147,
      "lymp": 3148,
      "Ġfilm": 3149,
      "Ġfeed": 3150,
      "Ġmi": 3151,
      "Ġlake": 3152,
      "...?": 3153,
      "Ġdestro": 3154,
      "Ġell": 3155,
      "ublic": 3156,
      "gi": 3157,
      "aps": 3158,
      "Ġauthor": 3159,
      "Ġwestern": 3160,
      "ades": 3161,
      "Ġsell": 3162,
      "cious": 3163,
      "Ġwalking": 3164,
      "Ġdrop": 3165,
      "Ġgovernor": 3166,
      "Ġalbum": 3167,
      "mu": 3168,
      "Ġhasn": 3169,
      "Ġflowers": 3170,
      "Ġmary": 3171,
      "Ġsquare": 3172,
      "18": 3173,
      "Ġacad": 3174,
      "Ġspecies": 3175,
      "Ġrab": 3176,
      "Ġvir": 3177,
      "aker": 3178,
      "aper": 3179,
      "Ġcream": 3180,
      "Ġhide": 3181,
      "astic": 3182,
      "Ġbottle": 3183,
      "Ġsinging": 3184,
      "Ġevent": 3185,
      "pret": 3186,
      "Ġrul": 3187,
      "Ġhate": 3188,
      "ength": 3189,
      "Ġrich": 3190,
      "Ġarr": 3191,
      "Ġplays": 3192,
      "Ġ2010": 3193,
      "anny": 3194,
      "Ġaff": 3195,
      "Ġcenter": 3196,
      "Ġcentury": 3197,
      "Ġpromise": 3198,
      "sa": 3199,
      "anton": 3200,
      "mum": 3201,
      "old": 3202,
      "Ġmention": 3203,
      "Ġfred": 3204,
      "Ġolymp": 3205,
      "Ġearn": 3206,
      "Ġ23": 3207,
      "ca": 3208,
      "Ġmir": 3209,
      "Ġsharp": 3210,
      "Ġvers": 3211,
      "Ġteeth": 3212,
      "laughing": 3213,
      "Ġslight": 3214,
      "illa": 3215,
      "Ġrepublic": 3216,
      "por": 3217,
      "Ġwag": 3218,
      "Ġlying": 3219,
      "rene": 3220,
      "Ġwindows": 3221,
      "eh": 3222,
      "Ġsle": 3223,
      "isted": 3224,
      "ault": 3225,
      "Ġgoin": 3226,
      "Ġtor": 3227,
      "Ġhost": 3228,
      "face": 3229,
      "Ġlose": 3230,
      "Ġshows": 3231,
      "Ġguard": 3232,
      "Ġadm": 3233,
      "Ġindia": 3234,
      "char": 3235,
      "wr": 3236,
      "Ġbuck": 3237,
      "Ġitself": 3238,
      "Ġpopular": 3239,
      "Ġdu": 3240,
      "Ġbey": 3241,
      "Ġmexic": 3242,
      "Ġsmile": 3243,
      "Ġstudy": 3244,
      "edi": 3245,
      "Ġanybody": 3246,
      "ancy": 3247,
      "rer": 3248,
      "Ġnorm": 3249,
      "----------------": 3250,
      "Ġteddy": 3251,
      "tt": 3252,
      "Ġmod": 3253,
      ".âĢĻ": 3254,
      "light": 3255,
      "Ġsna": 3256,
      "Ġrese": 3257,
      "Ġstarts": 3258,
      "Ġsimil": 3259,
      "Ġradio": 3260,
      "Ġwal": 3261,
      "Ġox": 3262,
      "Ġbackground": 3263,
      "Ġcru": 3264,
      "Ġpeggy": 3265,
      "Ġinvest": 3266,
      "big": 3267,
      "ko": 3268,
      "Ġcharge": 3269,
      "Ġwalked": 3270,
      "Ġperiod": 3271,
      "Ġham": 3272,
      "pered": 3273,
      "Ġreading": 3274,
      "Ġdirection": 3275,
      "Ġ&": 3276,
      "ala": 3277,
      "isy": 3278,
      "ounded": 3279,
      "Ġentire": 3280,
      "Ġsurpris": 3281,
      "kiss": 3282,
      "Ġlion": 3283,
      "Ġpriv": 3284,
      "Ġespecially": 3285,
      "ils": 3286,
      "set": 3287,
      "Ġmoon": 3288,
      "Ġshouldn": 3289,
      "Ġcreek": 3290,
      "Ġcircle": 3291,
      "Ġdifficult": 3292,
      "ville": 3293,
      "Ġwide": 3294,
      "cell": 3295,
      "Ġcreated": 3296,
      "fri": 3297,
      "Ġnic": 3298,
      "graphy": 3299,
      "Ġdin": 3300,
      "ume": 3301,
      "Ġminister": 3302,
      "Ġze": 3303,
      "Ġamaz": 3304,
      "Ġgrandma": 3305,
      "Ġram": 3306,
      "Ġsund": 3307,
      "Ġcrack": 3308,
      "Ġears": 3309,
      "teen": 3310,
      "Ġgerva": 3311,
      "turn": 3312,
      "riage": 3313,
      "Ġrap": 3314,
      "Ġserious": 3315,
      "Ġtowel": 3316,
      "Ġtexas": 3317,
      "Ġbeyond": 3318,
      "Ġphy": 3319,
      "Ġque": 3320,
      "Ġflat": 3321,
      "Ġhandle": 3322,
      "Ġpicks": 3323,
      "point": 3324,
      "back": 3325,
      "Ġnort": 3326,
      "ica": 3327,
      "pty": 3328,
      "Ġcomput": 3329,
      "Ġ2011": 3330,
      "Ġjapanese": 3331,
      "bell": 3332,
      "dom": 3333,
      "Ġmix": 3334,
      "Ġfool": 3335,
      "Ġjoy": 3336,
      "Ġwinter": 3337,
      "17": 3338,
      "Ġgrass": 3339,
      "boy": 3340,
      "Ġsurprise": 3341,
      "Ġharry": 3342,
      "Ġobs": 3343,
      "Ġ2012": 3344,
      "Ġsubject": 3345,
      "Ġdrawing": 3346,
      "Ġpil": 3347,
      "Ġstars": 3348,
      "brother": 3349,
      "Ġviol": 3350,
      "Ġgervaise": 3351,
      "zen": 3352,
      "Ġbasket": 3353,
      "itary": 3354,
      "ky": 3355,
      "Ġqueen": 3356,
      "Ġyouth": 3357,
      "roat": 3358,
      "Ġconsider": 3359,
      "Ġinteresting": 3360,
      "bes": 3361,
      "inite": 3362,
      "Ġoccas": 3363,
      "Ġlength": 3364,
      "Ġneeded": 3365,
      "pers": 3366,
      "Ġbis": 3367,
      "Ġmike": 3368,
      "Ġregard": 3369,
      "Ġir": 3370,
      "itor": 3371,
      "Ġhm": 3372,
      "Ġinterrupt": 3373,
      "Ġdrew": 3374,
      "amund": 3375,
      "Ġamy": 3376,
      "Ġmagnet": 3377,
      "Ġeggs": 3378,
      "eve": 3379,
      "Ġtower": 3380,
      "rus": 3381,
      "Ġrole": 3382,
      "Ġolder": 3383,
      "Ġeleanor": 3384,
      "iers": 3385,
      "Ġdirected": 3386,
      "lden": 3387,
      "antly": 3388,
      "Ġmanner": 3389,
      "Ġpocket": 3390,
      "Ġturning": 3391,
      "Ġcontrol": 3392,
      "pa": 3393,
      "shi": 3394,
      "Ġwol": 3395,
      "Ġalive": 3396,
      "Ġcomb": 3397,
      "Ġagre": 3398,
      "ga": 3399,
      "Ġrepe": 3400,
      "Ġrosamund": 3401,
      "aughty": 3402,
      "Ġsimilar": 3403,
      "Ġfri": 3404,
      "roll": 3405,
      "Ġmission": 3406,
      "Ġladies": 3407,
      "Ġchicken": 3408,
      "uel": 3409,
      "ago": 3410,
      "Ġbelow": 3411,
      "ja": 3412,
      "dered": 3413,
      "Ġ2016": 3414,
      "Ġfamous": 3415,
      "Ġnecess": 3416,
      "cky": 3417,
      "Ġremain": 3418,
      "ansas": 3419,
      "Ġfem": 3420,
      "Ġrichard": 3421,
      "Ġaccept": 3422,
      "Ġcy": 3423,
      "Ġcaused": 3424,
      "omer": 3425,
      "Ġeaster": 3426,
      "Ġjones": 3427,
      "Ġterrible": 3428,
      "Ġmach": 3429,
      "Ġgas": 3430,
      "Ġpicked": 3431,
      "Ġlower": 3432,
      "Ġeli": 3433,
      "Ġjwww": 3434,
      "Ġnav": 3435,
      "olved": 3436,
      "Ġofficer": 3437,
      "Ġtechn": 3438,
      "Ġdue": 3439,
      "ashed": 3440,
      "Ġrid": 3441,
      "Ġsla": 3442,
      "Ġterm": 3443,
      "Ġpleasure": 3444,
      "four": 3445,
      "Ġpun": 3446,
      "Ġbigger": 3447,
      "Ġadvent": 3448,
      "Ġinformation": 3449,
      "Ġconvers": 3450,
      "Ġpeace": 3451,
      "Ġparts": 3452,
      "Ġgives": 3453,
      "Ġclever": 3454,
      "Ġabsolute": 3455,
      "Ġsepar": 3456,
      "Ġarrest": 3457,
      "Ġcoach": 3458,
      "Ġdirty": 3459,
      "._": 3460,
      "Ġfut": 3461,
      "ites": 3462,
      "Ġfol": 3463,
      "Ġinfl": 3464,
      "Ġstren": 3465,
      "Ġrace": 3466,
      "Ġ100": 3467,
      "yle": 3468,
      "het": 3469,
      "Ġthirty": 3470,
      "ius": 3471,
      "Ġcult": 3472,
      "Ġscared": 3473,
      "Ġmarie": 3474,
      "clock": 3475,
      "ison": 3476,
      "ented": 3477,
      "Ġindians": 3478,
      "Ġcrit": 3479,
      "Ġspoon": 3480,
      "Ġspeaking": 3481,
      "Ġrespect": 3482,
      "Ġgate": 3483,
      "edy": 3484,
      "Ġwashing": 3485,
      "Ġspell": 3486,
      "Ġ..": 3487,
      "Ġaccording": 3488,
      "Ġquestions": 3489,
      "ech": 3490,
      "oughs": 3491,
      "Ġtalked": 3492,
      "ays": 3493,
      "Ġknights": 3494,
      "ference": 3495,
      "Ġblank": 3496,
      "Ġshare": 3497,
      "Ġswit": 3498,
      "Ġelephan": 3499,
      "Ġstories": 3500,
      "Ġciv": 3501,
      "Ġenjoy": 3502,
      "Ġpaid": 3503,
      "ires": 3504,
      "ergy": 3505,
      "Ġcharles": 3506,
      "Ġpersonal": 3507,
      "ination": 3508,
      "formed": 3509,
      "Ġchristian": 3510,
      "inct": 3511,
      "Ġlevel": 3512,
      "Ġfresh": 3513,
      "Ġbarn": 3514,
      "Ġsteven": 3515,
      "Ġfac": 3516,
      "iso": 3517,
      "Ġgrad": 3518,
      "Ġpray": 3519,
      "Ġsett": 3520,
      "ï¿½ï¿½ï¿½ï¿½": 3521,
      "vocal": 3522,
      "five": 3523,
      "these": 3524,
      "soci": 3525,
      "Ġjoined": 3526,
      "Ġgrew": 3527,
      "erve": 3528,
      "Ġ22": 3529,
      "Ġspent": 3530,
      "Ġclosed": 3531,
      "Ġhelped": 3532,
      "Ġnatural": 3533,
      "isf": 3534,
      "bb": 3535,
      "Ġwake": 3536,
      "Ġcoo": 3537,
      "Ġdemo": 3538,
      "ruction": 3539,
      "Ġimmedi": 3540,
      "Ġcalling": 3541,
      "fraser": 3542,
      "Ġaccom": 3543,
      "Ġasleep": 3544,
      "worth": 3545,
      "Ġgro": 3546,
      "Ġmicro": 3547,
      "ram": 3548,
      "ird": 3549,
      "Ġhiding": 3550,
      "Ġworse": 3551,
      "Ġscream": 3552,
      "Ġjesus": 3553,
      "Ġstreng": 3554,
      "rain": 3555,
      "Ġmissing": 3556,
      "mama": 3557,
      "Ġwed": 3558,
      "itive": 3559,
      "Ġmoder": 3560,
      "Ġmamma": 3561,
      "Ġhenry": 3562,
      "sm": 3563,
      "sil": 3564,
      "war": 3565,
      "Ġirene": 3566,
      "Ġcous": 3567,
      "aded": 3568,
      "Ġjul": 3569,
      "father": 3570,
      "Ġkey": 3571,
      "Ġmatt": 3572,
      "Ġpolic": 3573,
      "bu": 3574,
      "line": 3575,
      "Ġchat": 3576,
      "Ġstream": 3577,
      "Ġthreat": 3578,
      "Ġroyal": 3579,
      "rid": 3580,
      "Ġactress": 3581,
      "upid": 3582,
      "Ġextra": 3583,
      "Ġpor": 3584,
      "Ġspl": 3585,
      "Ġspan": 3586,
      "elly": 3587,
      "amb": 3588,
      "ushing": 3589,
      "Ġnorthern": 3590,
      "Ġiss": 3591,
      "Ġproject": 3592,
      "Ġunion": 3593,
      "Ġbirds": 3594,
      "pick": 3595,
      "Ġgab": 3596,
      "Ġur": 3597,
      "Ġassoci": 3598,
      "chuckles": 3599,
      "Ġweren": 3600,
      "Ġ2008": 3601,
      "Ġsleeping": 3602,
      "Ġacademy": 3603,
      "Ġawards": 3604,
      "Ġmel": 3605,
      "Ġraised": 3606,
      "sorry": 3607,
      "Ġdolly": 3608,
      "Ġ27": 3609,
      "Ġtries": 3610,
      "Ġelection": 3611,
      "pose": 3612,
      "Ġdeter": 3613,
      "olution": 3614,
      "berry": 3615,
      "Ġrepl": 3616,
      "Ġspeed": 3617,
      "ghed": 3618,
      "ning": 3619,
      "ads": 3620,
      "Ġsearch": 3621,
      "Ġcoat": 3622,
      "Ġpencil": 3623,
      "Ġprotect": 3624,
      "ession": 3625,
      "Ġ26": 3626,
      "Ġneedta": 3627,
      "Ġaction": 3628,
      "Ġoriginal": 3629,
      "Ġcrowd": 3630,
      "cul": 3631,
      "Ġnap": 3632,
      "Ġweap": 3633,
      "Ġcommunity": 3634,
      "od": 3635,
      "omes": 3636,
      "Ġwit": 3637,
      "ption": 3638,
      "Ġfamil": 3639,
      "pr": 3640,
      "Ġbal": 3641,
      "Ġloire": 3642,
      "Ġperform": 3643,
      "Ġphys": 3644,
      "str": 3645,
      "Ġsocial": 3646,
      "Ġhelen": 3647,
      "ggie": 3648,
      "erved": 3649,
      "Ġcalm": 3650,
      "whoops": 3651,
      "Ġarrived": 3652,
      "Ġhea": 3653,
      "Ġ28": 3654,
      "Ġcoast": 3655,
      "bob": 3656,
      "Ġhardly": 3657,
      "Ġincre": 3658,
      "Ġpurple": 3659,
      "Ġtuck": 3660,
      "Ġspr": 3661,
      "ashion": 3662,
      "50": 3663,
      "hin": 3664,
      "ency": 3665,
      "Ġinsp": 3666,
      "Ġthrew": 3667,
      "Ġprep": 3668,
      "Ġasking": 3669,
      "Ġinclude": 3670,
      "Ġcivil": 3671,
      "Ġweather": 3672,
      "Ġupstairs": 3673,
      "Ġrelations": 3674,
      "Ġwheel": 3675,
      "sighs": 3676,
      "Ġspirit": 3677,
      "Ġsouthern": 3678,
      "ini": 3679,
      "Ġmeat": 3680,
      "Ġnote": 3681,
      "Ġplant": 3682,
      "Ġentered": 3683,
      "Ġhonor": 3684,
      "Ġoppos": 3685,
      "Ġmountain": 3686,
      "Ġfuture": 3687,
      "Ġbunny": 3688,
      "Ġfright": 3689,
      "Ġrobert": 3690,
      "Ġearli": 3691,
      "Ġcos": 3692,
      "Ġrat": 3693,
      "Ġcovered": 3694,
      "Ġapple": 3695,
      "Ġdirector": 3696,
      "Ġsteps": 3697,
      "Ġlap": 3698,
      "Ġloves": 3699,
      "Ġ2017": 3700,
      "Ġserved": 3701,
      "Ġstarting": 3702,
      "Ġdemocr": 3703,
      "Ġpenn": 3704,
      "Ġthroat": 3705,
      "cient": 3706,
      "Ġlargest": 3707,
      "Ġsatisf": 3708,
      "Ġcastle": 3709,
      "Ġii": 3710,
      "hal": 3711,
      "Ġformed": 3712,
      "Ġfinal": 3713,
      "book": 3714,
      "Ġdig": 3715,
      "Ġstupid": 3716,
      "antic": 3717,
      "ustration": 3718,
      "Ġsituation": 3719,
      "Ġbradford": 3720,
      "Ġdun": 3721,
      "Ġhous": 3722,
      "Ġalbert": 3723,
      "ests": 3724,
      "Ġunless": 3725,
      "Ġangry": 3726,
      "Ġcouncil": 3727,
      "Ġgermany": 3728,
      "Ġtone": 3729,
      "hand": 3730,
      "Ġcell": 3731,
      "Ġdru": 3732,
      "Ġlines": 3733,
      "itions": 3734,
      "iment": 3735,
      "Ġclown": 3736,
      "Ġdamn": 3737,
      "Ġnaughty": 3738,
      "Ġrow": 3739,
      "new": 3740,
      "burg": 3741,
      "Ġund": 3742,
      "Ġallow": 3743,
      "make": 3744,
      "Ġmostly": 3745,
      "Ġswing": 3746,
      "Ġmilitary": 3747,
      "Ġcentral": 3748,
      "Ġcabin": 3749,
      "every": 3750,
      "Ġbay": 3751,
      "Ġplane": 3752,
      "Ġlocal": 3753,
      "pro": 3754,
      "Ġbeach": 3755,
      "Ġthinks": 3756,
      "Ġboo": 3757,
      "Ġcro": 3758,
      "Ġjew": 3759,
      "Ġtemper": 3760,
      "Ġepiso": 3761,
      "Ġthus": 3762,
      "urday": 3763,
      "Ġsoci": 3764,
      "wise": 3765,
      "Ġtend": 3766,
      "Ġsens": 3767,
      "Ġlin": 3768,
      "Ġrough": 3769,
      "ument": 3770,
      "Ġ29": 3771,
      "anning": 3772,
      "Ġforest": 3773,
      "could": 3774,
      "dis": 3775,
      "Ġdate": 3776,
      "Ġrail": 3777,
      "Ġplaced": 3778,
      "Ġpapa": 3779,
      "Ġmedic": 3780,
      "Ġdressed": 3781,
      "icious": 3782,
      "Ġay": 3783,
      "Ġcuri": 3784,
      "Ġpra": 3785,
      "Ġended": 3786,
      "cast": 3787,
      "Ġstage": 3788,
      "Ġforth": 3789,
      "Ġshape": 3790,
      "Ġbrief": 3791,
      "Ġsandw": 3792,
      "Ġconcern": 3793,
      "kin": 3794,
      "Ġav": 3795,
      "another": 3796,
      "Ġrush": 3797,
      "Ġexplain": 3798,
      "Ġwoods": 3799,
      "Ġflying": 3800,
      "Ġlaughed": 3801,
      "those": 3802,
      "Ġwrest": 3803,
      "Ġsele": 3804,
      "Ġsuff": 3805,
      "Ġ()": 3806,
      "Ġgoodness": 3807,
      "Ġfalling": 3808,
      "field": 3809,
      "ife": 3810,
      "Ġ50": 3811,
      "Ġfighting": 3812,
      "dat": 3813,
      "su": 3814,
      "Ġcust": 3815,
      "Ġstat": 3816,
      "Ġaged": 3817,
      "Ġtrad": 3818,
      "Ġscient": 3819,
      "Ġcheer": 3820,
      "Ġlaid": 3821,
      "199": 3822,
      "11": 3823,
      "Ġhay": 3824,
      "keep": 3825,
      "anced": 3826,
      "Ġapart": 3827,
      "Ġplate": 3828,
      "Ġfellows": 3829,
      "zerland": 3830,
      "Ġ186": 3831,
      "Ġlouis": 3832,
      "cra": 3833,
      "Ġ)": 3834,
      "Ġfif": 3835,
      "Ġnature": 3836,
      "Ġsunday": 3837,
      "cour": 3838,
      "vering": 3839,
      "conom": 3840,
      "Ġbesides": 3841,
      "initely": 3842,
      "aching": 3843,
      "Ġmyster": 3844,
      "Ġsail": 3845,
      "iar": 3846,
      "Ġtal": 3847,
      "ora": 3848,
      "oma": 3849,
      "rill": 3850,
      "elve": 3851,
      "Ġfallen": 3852,
      "Ġhotel": 3853,
      "Ġtiger": 3854,
      "Ġswitzerland": 3855,
      "Ġprofessor": 3856,
      "Ġtong": 3857,
      "Ġpill": 3858,
      "Ġsta": 3859,
      "Ġdere": 3860,
      "Ġlikely": 3861,
      "Ġanywhere": 3862,
      "uhuh": 3863,
      "Ġintro": 3864,
      "Ġscene": 3865,
      "Ġ2013": 3866,
      "Ġshop": 3867,
      "Ġ2006": 3868,
      "Ġescape": 3869,
      "Ġpuzzle": 3870,
      "othy": 3871,
      "Ġsheep": 3872,
      "Ġamount": 3873,
      "Ġenemy": 3874,
      "Ġproblems": 3875,
      "Ġlucky": 3876,
      "ota": 3877,
      "Ġtwice": 3878,
      "Ġmonster": 3879,
      "Ġsinger": 3880,
      "Ġrelig": 3881,
      "Ġvictor": 3882,
      "Ġtotal": 3883,
      "Ġannounced": 3884,
      "'?": 3885,
      "Ġ2007": 3886,
      "Ġsupper": 3887,
      "Ġpossib": 3888,
      "Ġstorm": 3889,
      "Ġduty": 3890,
      "Ġjungle": 3891,
      "john": 3892,
      "yell": 3893,
      "Ġbon": 3894,
      "Ġbite": 3895,
      "Ġsurprised": 3896,
      "mat": 3897,
      "sen": 3898,
      "Ġboss": 3899,
      "Ġjoin": 3900,
      "ckey": 3901,
      "Ġneither": 3902,
      "Ġenergy": 3903,
      "Ġchic": 3904,
      "Ġkingdom": 3905,
      "Ġfifty": 3906,
      "Ġsant": 3907,
      "Ġdick": 3908,
      "Ġrand": 3909,
      "hop": 3910,
      "Ġspread": 3911,
      "ipp": 3912,
      "Ġrights": 3913,
      "Ġtowns": 3914,
      "Ġexcited": 3915,
      "Ġaud": 3916,
      "Ġbound": 3917,
      "Ġcart": 3918,
      "Ġalf": 3919,
      "Ġbless": 3920,
      "somet": 3921,
      "Ã¼": 3922,
      "ival": 3923,
      "Ġpaint": 3924,
      "Ġlearned": 3925,
      "Ġstrugg": 3926,
      "30": 3927,
      "nel": 3928,
      "ply": 3929,
      "Ġcad": 3930,
      "Ġyo": 3931,
      "Ġeconom": 3932,
      "ella": 3933,
      "Ġsteve": 3934,
      "Ġleader": 3935,
      "Ġsoul": 3936,
      "Ġinf": 3937,
      "Ġcolors": 3938,
      "Ġdangerous": 3939,
      "ped": 3940,
      "sure": 3941,
      "heart": 3942,
      "rect": 3943,
      "reme": 3944,
      "oring": 3945,
      "illustration": 3946,
      "open": 3947,
      "Ġsmart": 3948,
      "Ġheaven": 3949,
      "iance": 3950,
      "Ġdeclared": 3951,
      "Ġcomputer": 3952,
      "ably": 3953,
      "ems": 3954,
      "Ġwalks": 3955,
      "Ġdriving": 3956,
      "Ġhistor": 3957,
      "Ġchampionship": 3958,
      "Ġmodern": 3959,
      "Ġnea": 3960,
      "Ġ2014": 3961,
      "Ġdesp": 3962,
      "Ġ2009": 3963,
      "ny": 3964,
      "Ġsid": 3965,
      "Ġeh": 3966,
      "atherine": 3967,
      "Ġmissed": 3968,
      "Ġshirt": 3969,
      "ees": 3970,
      "Ġtax": 3971,
      "Ġcass": 3972,
      "Ġlips": 3973,
      "Ġ--": 3974,
      "Ġmadam": 3975,
      "Ġholid": 3976,
      "vent": 3977,
      "Ġcrew": 3978,
      "Ġate": 3979,
      "Ġprocess": 3980,
      "Ġdesk": 3981,
      "Ġnurs": 3982,
      "asure": 3983,
      "ached": 3984,
      "tering": 3985,
      "Ġmoves": 3986,
      "Ġbrothers": 3987,
      "round": 3988,
      "Ġpony": 3989,
      "Ġgrab": 3990,
      "oe": 3991,
      "Ġiron": 3992,
      "Ġeager": 3993,
      "urse": 3994,
      "Ġclock": 3995,
      "Ġways": 3996,
      "action": 3997,
      "Ġsurface": 3998,
      "Ġgrave": 3999,
      "Ġroman": 4000,
      "Ġble": 4001,
      "itude": 4002,
      "outs": 4003,
      "Ġancient": 4004,
      "Ġconside": 4005,
      "Ġcompl": 4006,
      "Ġmarket": 4007,
      "Ġoccur": 4008,
      "Ġconsidered": 4009,
      ".,": 4010,
      "Ġplain": 4011,
      "noise": 4012,
      "este": 4013,
      "Ġproud": 4014,
      "Ġpleased": 4015,
      "Ġphoto": 4016,
      "Ġpublished": 4017,
      "Ġmistake": 4018,
      "Ġtight": 4019,
      "Ġemer": 4020,
      "Ġtherefore": 4021,
      "Ġskin": 4022,
      "Ġdorothy": 4023,
      "dra": 4024,
      "Ġfeder": 4025,
      "ising": 4026,
      "izes": 4027,
      "Ġterr": 4028,
      "Ġsimple": 4029,
      "Ġfilled": 4030,
      "Ġsaint": 4031,
      "Ġboun": 4032,
      "imit": 4033,
      "Ġbeside": 4034,
      "Ġitalian": 4035,
      "Ġinflu": 4036,
      "12": 4037,
      "Ġsuit": 4038,
      "erson": 4039,
      "Ġtrip": 4040,
      "Ġnumbers": 4041,
      "Ġempty": 4042,
      "Ġmachine": 4043,
      "Ġconversation": 4044,
      "orm": 4045,
      "Ġlights": 4046,
      "Ġsongs": 4047,
      "Ġhonest": 4048,
      "gro": 4049,
      "Ġnick": 4050,
      "Ġelephant": 4051,
      "Ġstrength": 4052,
      "ero": 4053,
      "Ġinj": 4054,
      "Ġinqu": 4055,
      "Ġassist": 4056,
      "Ġcontinues": 4057,
      "Ġrespons": 4058,
      "Ġdinos": 4059,
      "show": 4060,
      "Ġtiny": 4061,
      "Ġgir": 4062,
      "ita": 4063,
      "Ġmurder": 4064,
      "iant": 4065,
      "Ġroof": 4066,
      "Ġpleasant": 4067,
      "Ġdancing": 4068,
      "fa": 4069,
      "ij": 4070,
      "rican": 4071,
      "Ġregular": 4072,
      "Ġcompletely": 4073,
      "cho": 4074,
      "Ġnotice": 4075,
      "Ġeasily": 4076,
      "try": 4077,
      "Ġdonald": 4078,
      "Ġprince": 4079,
      "ially": 4080,
      "Ġsize": 4081,
      "Ġant": 4082,
      "Ġagent": 4083,
      "actually": 4084,
      "Ġsimply": 4085,
      "Ġimmediately": 4086,
      "Ġcities": 4087,
      "Ġonto": 4088,
      "Ġthou": 4089,
      "ables": 4090,
      "Ġsugar": 4091,
      "Ġgift": 4092,
      "Ġlawyer": 4093,
      "Ġcongress": 4094,
      "Ġmut": 4095,
      "Ġnon": 4096,
      "hered": 4097,
      "Ġmotor": 4098,
      "Ġsaturday": 4099,
      "Ġsarah": 4100,
      "Ġturt": 4101,
      "Ġna": 4102,
      "Ġident": 4103,
      "Ġbobby": 4104,
      "Ġnar": 4105,
      "colm": 4106,
      "oved": 4107,
      "Ġsac": 4108,
      "asons": 4109,
      "aly": 4110,
      "aling": 4111,
      "bered": 4112,
      "Ġhockey": 4113,
      "Ġnorthwest": 4114,
      "Ġeducation": 4115,
      "200": 4116,
      "van": 4117,
      "Ġmud": 4118,
      "Ġtravel": 4119,
      "Ġbrave": 4120,
      "cip": 4121,
      "Ġpays": 4122,
      "Ġwatched": 4123,
      "Ġaustralia": 4124,
      "ker": 4125,
      "ups": 4126,
      "Ġmater": 4127,
      "Ġcele": 4128,
      "Ġnurse": 4129,
      "epend": 4130,
      "Ġshoulder": 4131,
      "Ġresult": 4132,
      "Ġmax": 4133,
      "Ġvarious": 4134,
      "Ġabsolutely": 4135,
      "ders": 4136,
      "ere": 4137,
      "oom": 4138,
      "Ġsaved": 4139,
      "aret": 4140,
      "Ġremem": 4141,
      "Ġchem": 4142,
      "Ġshoe": 4143,
      "Ġstands": 4144,
      "Ġdifference": 4145,
      "Ġpulled": 4146,
      "Ġrefer": 4147,
      "orough": 4148,
      "buted": 4149,
      "Ġhappening": 4150,
      "15": 4151,
      "happy": 4152,
      "Ġadmin": 4153,
      "Ġcraw": 4154,
      "ointed": 4155,
      "Ġscarce": 4156,
      "Ġuk": 4157,
      "rap": 4158,
      "Ġusual": 4159,
      "Ġpromised": 4160,
      "Ġprofessional": 4161,
      "Ġproduced": 4162,
      "Ġdogs": 4163,
      "Ġswimming": 4164,
      "Ġwolf": 4165,
      "mine": 4166,
      "Ġgang": 4167,
      "ators": 4168,
      "igs": 4169,
      "Ġlee": 4170,
      "blue": 4171,
      "ails": 4172,
      "Ġstruck": 4173,
      "Ġmessage": 4174,
      "mn": 4175,
      "Ġoffe": 4176,
      "Ġdeli": 4177,
      "Ġflor": 4178,
      "Ġchris": 4179,
      "Ġopport": 4180,
      "Ġmalcolm": 4181,
      "michael": 4182,
      "water": 4183,
      "Ġfashion": 4184,
      "Ġhal": 4185,
      "Ġtwelve": 4186,
      "Ġgrown": 4187,
      "Ġresearch": 4188,
      "Ġtar": 4189,
      "ening": 4190,
      "Ġtears": 4191,
      "ensive": 4192,
      "Ġschol": 4193,
      "celeste": 4194,
      "really": 4195,
      "Ġfeat": 4196,
      "Ġsmoke": 4197,
      "Ġ2015": 4198,
      "Ġdada": 4199,
      "Ġfalls": 4200,
      "Ġquarter": 4201,
      "Ġspanish": 4202,
      "Ġcelebr": 4203,
      "],": 4204,
      "ridge": 4205,
      "cend": 4206,
      "Ġbutton": 4207,
      "Ġcountries": 4208,
      "bet": 4209,
      "coughs": 4210,
      "kar": 4211,
      "little": 4212,
      "mie": 4213,
      "Ġdoc": 4214,
      "Ġoffer": 4215,
      "Ġcarl": 4216,
      "Ġnative": 4217,
      "Ġwearing": 4218,
      "Ġhigher": 4219,
      "Ġinvestig": 4220,
      "Ġdetect": 4221,
      "Ġgentleman": 4222,
      "Ġremarked": 4223,
      "rie": 4224,
      "Ġappre": 4225,
      "hum": 4226,
      "jj": 4227,
      "Ġemb": 4228,
      "uten": 4229,
      "anda": 4230,
      "Ġexpected": 4231,
      "Ġedge": 4232,
      "Ġoccasion": 4233,
      "cus": 4234,
      "ique": 4235,
      "nn": 4236,
      "Ġlid": 4237,
      "Ġpractice": 4238,
      "Ġrabbit": 4239,
      "Ġshore": 4240,
      "Ġprize": 4241,
      "Ġmagaz": 4242,
      "Ġpolitical": 4243,
      "Ġpalace": 4244,
      "Ġeastern": 4245,
      "Ġcousin": 4246,
      "mes": 4247,
      "Ġdare": 4248,
      "ision": 4249,
      "usion": 4250,
      "Ġwhoa": 4251,
      "going": 4252,
      "Ġsettle": 4253,
      "Ġguns": 4254,
      "Ġbert": 4255,
      "ola": 4256,
      "Ġearlier": 4257,
      "Ġgaz": 4258,
      "ctions": 4259,
      "Ġmob": 4260,
      "Ġgrace": 4261,
      "Ġjour": 4262,
      "ults": 4263,
      "Ġbegin": 4264,
      "Ġsoldiers": 4265,
      "Ġtony": 4266,
      "Ġkore": 4267,
      "Ġcarol": 4268,
      "jam": 4269,
      "lll": 4270,
      "Ġforces": 4271,
      "Ġnoticed": 4272,
      "Ġremained": 4273,
      "colate": 4274,
      "Ġhuge": 4275,
      "fall": 4276,
      "Ġsav": 4277,
      "Ġwhist": 4278,
      "Ġacqu": 4279,
      "plane": 4280,
      "Ġdefinitely": 4281,
      "ez": 4282,
      "Ġalden": 4283,
      "Ġimposs": 4284,
      "Ġsnake": 4285,
      "Ġoccup": 4286,
      "Ġestab": 4287,
      "aign": 4288,
      "cue": 4289,
      "nic": 4290,
      "hips": 4291,
      "aren": 4292,
      "Ġmeaning": 4293,
      "Ġheads": 4294,
      "Ġindepend": 4295,
      "Ġkeeping": 4296,
      "Ġthick": 4297,
      "Ġpi": 4298,
      "Ġmanage": 4299,
      "Åį": 4300,
      "Ġide": 4301,
      "Ġarrow": 4302,
      "ivid": 4303,
      "Ġevident": 4304,
      "lan": 4305,
      "mc": 4306,
      "Ġpool": 4307,
      "Ġpurs": 4308,
      "Ġdivision": 4309,
      "Ġhouses": 4310,
      "die": 4311,
      "wing": 4312,
      "aning": 4313,
      "urity": 4314,
      "ours": 4315,
      "Ġindust": 4316,
      "Ġchoice": 4317,
      "Ġlucy": 4318,
      "Ġmouse": 4319,
      "Ġweak": 4320,
      "Ġwis": 4321,
      "Ġlit": 4322,
      "Ġheat": 4323,
      "Ġblind": 4324,
      "Ġattract": 4325,
      "Ġtrave": 4326,
      "Ġtaste": 4327,
      "Ġvirgin": 4328,
      "Ġsociety": 4329,
      "Ġadminist": 4330,
      "dr": 4331,
      "Ġpant": 4332,
      "should": 4333,
      "Ġdouble": 4334,
      "Ġtongue": 4335,
      "!'": 4336,
      "âĢĺ": 4337,
      "Ġenv": 4338,
      "Ġflight": 4339,
      "Ġballs": 4340,
      "Ġ187": 4341,
      "Ġrelie": 4342,
      "Ġdiscovered": 4343,
      "lor": 4344,
      "Ġscrew": 4345,
      "craft": 4346,
      "hee": 4347,
      "ano": 4348,
      "Ġconv": 4349,
      "ena": 4350,
      "Ġstret": 4351,
      "Ġarchi": 4352,
      "Ġbrain": 4353,
      "Ġexe": 4354,
      "Ġflower": 4355,
      "Ġmarry": 4356,
      "Ġtext": 4357,
      "poss": 4358,
      "Ġdread": 4359,
      "Ġfis": 4360,
      "Ġoil": 4361,
      "Ġfox": 4362,
      "Ġharris": 4363,
      "Ġmont": 4364,
      "Ġmovement": 4365,
      "Ġjum": 4366,
      "aboo": 4367,
      "Ġtrick": 4368,
      "Ġperfectly": 4369,
      "Ġpin": 4370,
      "Ġloss": 4371,
      "isn": 4372,
      "Ġshad": 4373,
      "chair": 4374,
      "Ġships": 4375,
      "Ġcrime": 4376,
      "Ġutter": 4377,
      "mission": 4378,
      "Ġsi": 4379,
      "only": 4380,
      "Ġpath": 4381,
      "Ġnomin": 4382,
      "Ġscott": 4383,
      "Ġteach": 4384,
      "Ġfounded": 4385,
      "inese": 4386,
      "Ġpurpose": 4387,
      "gress": 4388,
      "kins": 4389,
      "Ġwha": 4390,
      "Ġsour": 4391,
      "Ġliter": 4392,
      "vere": 4393,
      "Ġhorn": 4394,
      "Ġdragon": 4395,
      "Ġphili": 4396,
      "Ġemplo": 4397,
      "_.": 4398,
      "uce": 4399,
      "vey": 4400,
      "alo": 4401,
      "eaks": 4402,
      "Ġdeg": 4403,
      "iel": 4404,
      "eman": 4405,
      "Ġbelieved": 4406,
      "Ġspoken": 4407,
      "Ġcampaign": 4408,
      "bi": 4409,
      "Ġmail": 4410,
      "Ġfaces": 4411,
      "Ġnin": 4412,
      "Ġflag": 4413,
      "Ġsits": 4414,
      "Ġaddress": 4415,
      "Ġimpossible": 4416,
      "fly": 4417,
      "fish": 4418,
      "mr": 4419,
      "Ġplenty": 4420,
      "Ġsports": 4421,
      "ively": 4422,
      "soft": 4423,
      "Ġseconds": 4424,
      "Ġawful": 4425,
      "Ġgolden": 4426,
      "Ġclimb": 4427,
      "oups": 4428,
      "Ġcanton": 4429,
      "Ġproceed": 4430,
      "Ġsmith": 4431,
      "Ġoce": 4432,
      "anne": 4433,
      "Ġprint": 4434,
      "looking": 4435,
      "Ġzoo": 4436,
      "Ġartist": 4437,
      "Ġversion": 4438,
      "Ġplat": 4439,
      "Ġdownstairs": 4440,
      "Ġpoet": 4441,
      "actor": 4442,
      "Ġyounger": 4443,
      "Ġbaseball": 4444,
      "Ġanxious": 4445,
      "Ġprivate": 4446,
      "Ġmedicine": 4447,
      "bly": 4448,
      "cts": 4449,
      "Ġbrush": 4450,
      "Ġplayers": 4451,
      "Ġtells": 4452,
      "Ġfixed": 4453,
      "mus": 4454,
      "rated": 4455,
      "Ãº": 4456,
      "Ġtap": 4457,
      "Ġbern": 4458,
      "lend": 4459,
      "ushes": 4460,
      "Ġcarefully": 4461,
      "Ġimagine": 4462,
      "non": 4463,
      "oming": 4464,
      "Ġentertain": 4465,
      "Ġnecessary": 4466,
      "Ġtucker": 4467,
      "pos": 4468,
      "Ġder": 4469,
      "sty": 4470,
      "Ġchina": 4471,
      "Ġ2005": 4472,
      "whisper": 4473,
      "bel": 4474,
      "making": 4475,
      "Ġooh": 4476,
      "atives": 4477,
      "Ġkinda": 4478,
      "Ġlistening": 4479,
      "Ġrule": 4480,
      "Ġast": 4481,
      "Ġbother": 4482,
      "Ġbeha": 4483,
      "hol": 4484,
      "Ġafterwards": 4485,
      "Ġcalls": 4486,
      "Ġbathroom": 4487,
      "Ġtaught": 4488,
      "Ġupper": 4489,
      "Ġsuc": 4490,
      "Ġapparent": 4491,
      "Ġenter": 4492,
      "Ġstraw": 4493,
      "Ġparticular": 4494,
      "iggles": 4495,
      "Ġjudge": 4496,
      "Ġjourney": 4497,
      "oc": 4498,
      "Ġtoast": 4499,
      "Ġpants": 4500,
      "Ġry": 4501,
      "Ġmagic": 4502,
      "ledge": 4503,
      "Ġdriver": 4504,
      "Ġparis": 4505,
      "Ġgenerally": 4506,
      "Ġcards": 4507,
      "aring": 4508,
      "sss": 4509,
      "Ġdefend": 4510,
      "Ġnut": 4511,
      "iron": 4512,
      "Ġknife": 4513,
      "Ġpotato": 4514,
      "16": 4515,
      "Ġvall": 4516,
      "donald": 4517,
      "Ġbedroom": 4518,
      "Ġwalls": 4519,
      "silver": 4520,
      "Ġsides": 4521,
      "Ġstairs": 4522,
      "Ġcanada": 4523,
      "Ġscience": 4524,
      "Ġshake": 4525,
      "Ġgerald": 4526,
      "Ġlocated": 4527,
      "ov": 4528,
      "Ġstock": 4529,
      "Ġshown": 4530,
      "Ġgroups": 4531,
      "angle": 4532,
      "Ġchoose": 4533,
      "Ġmagn": 4534,
      "Ġofficial": 4535,
      "Ġgeorg": 4536,
      "pretend": 4537,
      "Ġfault": 4538,
      "aked": 4539,
      "Ġprice": 4540,
      "Ġformula": 4541,
      "Ġobjects": 4542,
      "Ġmartin": 4543,
      "bal": 4544,
      "Ġstyle": 4545,
      "Ġagree": 4546,
      "Ġspeech": 4547,
      "Ġcloser": 4548,
      ",âĢĻ": 4549,
      "cing": 4550,
      "nat": 4551,
      "ses": 4552,
      "ua": 4553,
      "hic": 4554,
      "Ġopening": 4555,
      "Ġtrail": 4556,
      "scream": 4557,
      "Ġeuropean": 4558,
      "Ġjennie": 4559,
      "uly": 4560,
      "enne": 4561,
      "Ġwaste": 4562,
      "Ġdoggie": 4563,
      "Ġknowing": 4564,
      "ucky": 4565,
      "Ġvictim": 4566,
      "arm": 4567,
      "umn": 4568,
      "Ġves": 4569,
      "Ġcondu": 4570,
      "Ġharm": 4571,
      "Ġsurv": 4572,
      "Ġexperience": 4573,
      "Ġrussian": 4574,
      "Ġtitle": 4575,
      "cellent": 4576,
      "Ġfemale": 4577,
      "Ġsake": 4578,
      "Ġacting": 4579,
      "Ġhelping": 4580,
      "Ġevents": 4581,
      "Ġofficers": 4582,
      "Ġreaches": 4583,
      "Ġdemand": 4584,
      "jack": 4585,
      "host": 4586,
      "Ġchoo": 4587,
      "Ġprime": 4588,
      "Ġappearance": 4589,
      "Ġslaves": 4590,
      "Ġwil": 4591,
      "ona": 4592,
      "Ġeld": 4593,
      "Ġlim": 4594,
      "iction": 4595,
      "Ġchinese": 4596,
      "gging": 4597,
      "after": 4598,
      "Ġagreed": 4599,
      "Ġsettled": 4600,
      "Ġflorida": 4601,
      "Ġknees": 4602,
      "fection": 4603,
      "--\"": 4604,
      "Ġmarg": 4605,
      "Ġevidence": 4606,
      "Ġtrem": 4607,
      "Ġrapid": 4608,
      "ban": 4609,
      "oured": 4610,
      "Ġruns": 4611,
      "Ġcondition": 4612,
      "care": 4613,
      "real": 4614,
      "Ġjun": 4615,
      "allas": 4616,
      "ularly": 4617,
      "Ġworried": 4618,
      "Ġmountains": 4619,
      "Ġpirate": 4620,
      "Ġfirm": 4621,
      "Ġourselves": 4622,
      "Ġcontact": 4623,
      "Ġchocolate": 4624,
      "chester": 4625,
      "Ġgrowing": 4626,
      "Ġcomfortable": 4627,
      "Ġeffort": 4628,
      "Ġopposite": 4629,
      "Ġsucceed": 4630,
      "aled": 4631,
      "isa": 4632,
      "Ġanne": 4633,
      "cked": 4634,
      "think": 4635,
      "berg": 4636,
      "Ġinvolved": 4637,
      "Ġwagon": 4638,
      "fle": 4639,
      "lah": 4640,
      "eds": 4641,
      "Ġhadn": 4642,
      "Ġsaf": 4643,
      "Ġrisk": 4644,
      "Ġfinding": 4645,
      "Ġbegins": 4646,
      "Ġrecords": 4647,
      "Ġbowl": 4648,
      "Ġprincess": 4649,
      "Ġwitness": 4650,
      "Ġsandwich": 4651,
      "$=": 4652,
      "Ã¨": 4653,
      "Ġtu": 4654,
      "Ġau": 4655,
      "Ġshan": 4656,
      "Ġmate": 4657,
      "omed": 4658,
      "verse": 4659,
      "Ġwriter": 4660,
      "Ġeleven": 4661,
      "Ġscarcely": 4662,
      "Ġpak": 4663,
      "iding": 4664,
      "Ġstan": 4665,
      "ekaboo": 4666,
      "Ġmexico": 4667,
      "pet": 4668,
      "Ġstro": 4669,
      "Ġplans": 4670,
      "Ġcommun": 4671,
      "Ġrocks": 4672,
      "Ġcircum": 4673,
      "iot": 4674,
      "Ġweight": 4675,
      "Ġsult": 4676,
      "nah": 4677,
      "Ġsecurity": 4678,
      "bits": 4679,
      "eral": 4680,
      "ences": 4681,
      "ado": 4682,
      "thew": 4683,
      "Ġincluded": 4684,
      "Ġlatter": 4685,
      "sw": 4686,
      "Ġsoup": 4687,
      "hah": 4688,
      "Ġkat": 4689,
      "Ġdoin": 4690,
      "Ġshell": 4691,
      "Ġrout": 4692,
      "Ġsomewhat": 4693,
      "ĠâĢľâĢĺ": 4694,
      "Ġbarb": 4695,
      "anned": 4696,
      "Ġpsy": 4697,
      "Ġwilling": 4698,
      "ify": 4699,
      "Ġbarry": 4700,
      "Ġcentre": 4701,
      "Ġcollect": 4702,
      "Ġmodel": 4703,
      "Ġhaw": 4704,
      "Ġbend": 4705,
      "Ġasian": 4706,
      "Ġnewsp": 4707,
      "Ġchannel": 4708,
      "Ġdiscuss": 4709,
      "Ġopportunity": 4710,
      "Ġmult": 4711,
      "ories": 4712,
      "itation": 4713,
      "Ġuses": 4714,
      "Ġfourth": 4715,
      "cu": 4716,
      "nice": 4717,
      "ria": 4718,
      "Ġamb": 4719,
      "Ġdrama": 4720,
      "dada": 4721,
      "Ġretired": 4722,
      "Ġbi": 4723,
      "Ġfest": 4724,
      "Ġfenn": 4725,
      "ashing": 4726,
      "Ġrate": 4727,
      "Ġcancer": 4728,
      "izing": 4729,
      "Ġgreatest": 4730,
      "Ġgodd": 4731,
      "Ġlieuten": 4732,
      "Ġ{": 4733,
      "Ġthee": 4734,
      "Ġcute": 4735,
      "lla": 4736,
      "Ġgrant": 4737,
      "Ġprepar": 4738,
      "Ġshower": 4739,
      "Ġteams": 4740,
      "Ġleading": 4741,
      "Ġtenn": 4742,
      "Ġdallas": 4743,
      "Ġtroops": 4744,
      "adder": 4745,
      "Ġrepeated": 4746,
      "eat": 4747,
      "Ġdozen": 4748,
      "Ġordered": 4749,
      "osh": 4750,
      "Ġark": 4751,
      "Ġunc": 4752,
      "Ġsilent": 4753,
      "Ġrules": 4754,
      "Ġchicago": 4755,
      "mined": 4756,
      "Ġti": 4757,
      "Ġavo": 4758,
      "Ġpit": 4759,
      "Ġreck": 4760,
      "Ġexist": 4761,
      "nothing": 4762,
      "Ġlaura": 4763,
      "Ġfederal": 4764,
      "igsaw": 4765,
      "Ġvessel": 4766,
      "oy": 4767,
      "rot": 4768,
      "thi": 4769,
      "Ġq": 4770,
      "Ġwick": 4771,
      "rick": 4772,
      "aches": 4773,
      "Ġorders": 4774,
      "Ġtribe": 4775,
      "Ġevil": 4776,
      "Ġnormal": 4777,
      "14": 4778,
      "Ġfancy": 4779,
      "Ġpred": 4780,
      "ression": 4781,
      "Ġsmaller": 4782,
      "Ġsposta": 4783,
      "Ġdolls": 4784,
      "Ġamazing": 4785,
      "Ġepisode": 4786,
      "dies": 4787,
      "Ġcher": 4788,
      "aries": 4789,
      "Ġshr": 4790,
      "Ġworst": 4791,
      "Ġ2000": 4792,
      "Ġ2004": 4793,
      "Ġpulls": 4794,
      "aa": 4795,
      "oted": 4796,
      "Ġfond": 4797,
      "Ġhook": 4798,
      "Ġliber": 4799,
      "Ġfranc": 4800,
      "Ġbrand": 4801,
      "Ġconstit": 4802,
      "Ġgentlemen": 4803,
      "13": 4804,
      "Ġpoo": 4805,
      "Ġplants": 4806,
      "Ġexcit": 4807,
      "Ġaddition": 4808,
      "Ġrelease": 4809,
      "Ġneighbor": 4810,
      "squ": 4811,
      "Ġtask": 4812,
      "Ġthy": 4813,
      "Ġ[.": 4814,
      "Ġmanaged": 4815,
      "Ġscot": 4816,
      "ucle": 4817,
      "Ġcrayons": 4818,
      "Ġcooper": 4819,
      "Ġsultan": 4820,
      "Ġlieutenant": 4821,
      "Ġopens": 4822,
      "Ġ2003": 4823,
      "Ġcontinue": 4824,
      "Ġfairy": 4825,
      "too": 4826,
      "Ġtourn": 4827,
      "oned": 4828,
      "Ġbare": 4829,
      "Ġdoors": 4830,
      "Ġneat": 4831,
      "istan": 4832,
      "door": 4833,
      "whoa": 4834,
      "Ġpapers": 4835,
      "Ġwashington": 4836,
      "high": 4837,
      "Ġghost": 4838,
      "Ġforced": 4839,
      "Ġknee": 4840,
      "Ġscr": 4841,
      "Ġ1990": 4842,
      "rica": 4843,
      "Ġislands": 4844,
      "Ġocean": 4845,
      "Ġren": 4846,
      "Ġcanad": 4847,
      "Ġtrunk": 4848,
      "Ġscreen": 4849,
      "Ġcrash": 4850,
      "lands": 4851,
      "awa": 4852,
      "Ġindivid": 4853,
      "Ġstaying": 4854,
      "Ġburst": 4855,
      "gab": 4856,
      "Ġmars": 4857,
      "Ġjess": 4858,
      "Ġfruit": 4859,
      "Ġpresently": 4860,
      "Ġbringing": 4861,
      "Ġbilly": 4862,
      "Ġsoftly": 4863,
      "Ġmagazine": 4864,
      "jud": 4865,
      "Ġtie": 4866,
      "Ġjam": 4867,
      "Ġrod": 4868,
      "Ġfeels": 4869,
      "Ġpresence": 4870,
      "ilda": 4871,
      "Ġstops": 4872,
      "Ġtelephone": 4873,
      "Ġmentioned": 4874,
      "Ġdinosaur": 4875,
      "ai": 4876,
      "know": 4877,
      "Ġfal": 4878,
      "Ġfought": 4879,
      "Ġtoes": 4880,
      "Ġpair": 4881,
      "Ġbutt": 4882,
      "Ġarg": 4883,
      "Ġcla": 4884,
      "Ġeasier": 4885,
      "known": 4886,
      "Ġhaha": 4887,
      "Ġnovel": 4888,
      "Ġstranger": 4889,
      "grand": 4890,
      "Ġstayed": 4891,
      "Ġdrinking": 4892,
      "Ġbeauty": 4893,
      "Ġmedical": 4894,
      "ification": 4895,
      "Ġzeal": 4896,
      "Ġblanket": 4897,
      "Ġcred": 4898,
      "Ġpale": 4899,
      "Ġgor": 4900,
      "Ġgoal": 4901,
      "unts": 4902,
      "Ġdise": 4903,
      "Ġarab": 4904,
      "iety": 4905,
      "Ġ1980": 4906,
      "kk": 4907,
      "pan": 4908,
      "ĠÂ": 4909,
      "Ġtid": 4910,
      "Ġsite": 4911,
      "Ã¤": 4912,
      "Ġsang": 4913,
      "ulous": 4914,
      "Ġbub": 4915,
      "Ġproperly": 4916,
      "Ġolympics": 4917,
      "lahoma": 4918,
      "giggles": 4919,
      "otte": 4920,
      "Ġbent": 4921,
      "Ġpow": 4922,
      "stood": 4923,
      "rold": 4924,
      "Ġshel": 4925,
      "Ġknight": 4926,
      "Ġmarilla": 4927,
      "Ġpartner": 4928,
      "Ġcourage": 4929,
      "Ġimpro": 4930,
      "Ġelected": 4931,
      "Ġdetermined": 4932,
      "ials": 4933,
      "Ġprefer": 4934,
      "izza": 4935,
      "Ġsword": 4936,
      "Ġfifteen": 4937,
      "bow": 4938,
      "Ã¶": 4939,
      "Ġwid": 4940,
      "Ġmeal": 4941,
      "Ġ[$=": 4942,
      "Ġknowledge": 4943,
      "Ġmuse": 4944,
      "Ġindic": 4945,
      "Ġfeelings": 4946,
      "Ġcorrect": 4947,
      "bra": 4948,
      "Ġfishing": 4949,
      "Ġrange": 4950,
      "ila": 4951,
      "agu": 4952,
      "Ġslide": 4953,
      "Ġobv": 4954,
      "Ġscholars": 4955,
      "Ġappreci": 4956,
      "cuse": 4957,
      "pha": 4958,
      "hest": 4959,
      "asy": 4960,
      "Ġhast": 4961,
      "Ġhmm": 4962,
      "Ġasse": 4963,
      "Ġruth": 4964,
      "Ġburied": 4965,
      "Ġslave": 4966,
      "Ġopin": 4967,
      "Ġgiant": 4968,
      "Ġoklahoma": 4969,
      "Ġmajest": 4970,
      "Ġdeveloped": 4971,
      "Ġcompanion": 4972,
      "Ġdemocratic": 4973,
      "Ġdim": 4974,
      "Ġobl": 4975,
      "Ġpounds": 4976,
      "Ġdeck": 4977,
      "Ġotherwise": 4978,
      "Ġpolly": 4979,
      "Ġwaited": 4980,
      "from": 4981,
      "Ġsuccessful": 4982,
      "Ġrings": 4983,
      "Ġsophi": 4984,
      "Ġrecognized": 4985,
      "Ġexcitement": 4986,
      "boo": 4987,
      "sl": 4988,
      "Ġtrop": 4989,
      "Ġoo": 4990,
      "ental": 4991,
      "Ġriding": 4992,
      "Ġfold": 4993,
      "Ġcases": 4994,
      "sho": 4995,
      "zil": 4996,
      "chief": 4997,
      "Ġmanager": 4998,
      "Ġkinds": 4999,
      "Ġkeeps": 5000,
      "Ġterms": 5001,
      "Ġ40": 5002,
      "Ġavail": 5003,
      "lling": 5004,
      "lea": 5005,
      "Ġ(;": 5006,
      "Ġroger": 5007,
      "Ġsmiling": 5008,
      "Ġthoughts": 5009,
      "Ġbush": 5010,
      "Ġsigned": 5011,
      "Ġconstruction": 5012,
      "Ġhills": 5013,
      "Ġrelationship": 5014,
      "Ġfrogs": 5015,
      "minal": 5016,
      "Ġhanging": 5017,
      "Ġknocked": 5018,
      "Ġmemory": 5019,
      "Ġtum": 5020,
      "Ġcit": 5021,
      "Ġsplend": 5022,
      "Ġshoulders": 5023,
      "Ġholy": 5024,
      "Ġcheek": 5025,
      "Ġcommander": 5026,
      "Ġattend": 5027,
      "Ġairplane": 5028,
      "Ġsquee": 5029,
      "Ġstudied": 5030,
      "Ġforgotten": 5031,
      "Ġprevious": 5032,
      "Ġangeles": 5033,
      "Ġassociation": 5034,
      "Ġnarrow": 5035,
      "Ġmap": 5036,
      "Ġpic": 5037,
      "Ġkim": 5038,
      "Ġcontract": 5039,
      "whispers": 5040,
      "Ġrevolution": 5041,
      "Ġprepared": 5042,
      "Ġremembered": 5043,
      "Ġvirginia": 5044,
      "Ġwan": 5045,
      "lled": 5046,
      "Ġly": 5047,
      "Ġnucle": 5048,
      "ching": 5049,
      "Ġareas": 5050,
      "ishment": 5051,
      "Ġchest": 5052,
      "Ġinstant": 5053,
      "Ġtraining": 5054,
      "ware": 5055,
      "Ġdying": 5056,
      "irst": 5057,
      "Ġmere": 5058,
      "Ġven": 5059,
      "Ġmarriage": 5060,
      "tained": 5061,
      "while": 5062,
      "Ġdreams": 5063,
      "Ġcopy": 5064,
      "Ġelectric": 5065,
      "Ġmirror": 5066,
      "',": 5067,
      "ev": 5068,
      "sed": 5069,
      "tie": 5070,
      "lle": 5071,
      "Ġhee": 5072,
      "Ġserge": 5073,
      "Ġsteam": 5074,
      "Ġqueer": 5075,
      "Ġpossibly": 5076,
      "Ġgeorgia": 5077,
      "gal": 5078,
      "inc": 5079,
      "Ġclaim": 5080,
      "Ġeverywhere": 5081,
      "Ġgreater": 5082,
      "Ġserve": 5083,
      "Ġchanges": 5084,
      "Ġdepend": 5085,
      "Ġbradley": 5086,
      "Ġsafety": 5087,
      "Ġcatherine": 5088,
      "llen": 5089,
      "Ġhamm": 5090,
      "Ġjigsaw": 5091,
      "Ġthrown": 5092,
      "place": 5093,
      "year": 5094,
      "Ġbarty": 5095,
      "Ġfriday": 5096,
      "dro": 5097,
      "Ġfur": 5098,
      "sely": 5099,
      "Ġafrican": 5100,
      "Ġmotion": 5101,
      "Ġquietly": 5102,
      "Ġoffered": 5103,
      "Ġsomehow": 5104,
      "Ġ190": 5105,
      "Ġafrica": 5106,
      "liament": 5107,
      "aws": 5108,
      "Ġrealize": 5109,
      "inois": 5110,
      "Ġcarrying": 5111,
      "possum": 5112,
      "aunt": 5113,
      "Ġfer": 5114,
      "ingu": 5115,
      "Ġinno": 5116,
      "step": 5117,
      "Ġweird": 5118,
      "Ġkar": 5119,
      "Ġfarmer": 5120,
      "Ġlarger": 5121,
      "Ġhorri": 5122,
      "Ġartic": 5123,
      "Ġ1960": 5124,
      "Ġempire": 5125,
      "Ġturtle": 5126,
      "Ġmobile": 5127,
      "Ġbecky": 5128,
      "Ġremind": 5129,
      "Ġseriously": 5130,
      "Ġ31": 5131,
      "Ġbrazil": 5132,
      "Ġescap": 5133,
      "Ġhunting": 5134,
      "Ġfurn": 5135,
      "oms": 5136,
      "Ġforever": 5137,
      "steve": 5138,
      "yellow": 5139,
      "Ġcircumst": 5140,
      "Ġmort": 5141,
      "Ġstir": 5142,
      "Ġjail": 5143,
      "Ġprefect": 5144,
      "ĠĠĠĠĠĠĠĠĠĠĠĠĠĠĠĠĠĠĠĠĠĠĠĠ": 5145,
      "Ġthrowing": 5146,
      "Ġconnect": 5147,
      "Ġmicrophone": 5148,
      "Ġforty": 5149,
      "cture": 5150,
      "umber": 5151,
      "Ġupset": 5152,
      "Ġshowing": 5153,
      "Ġinstit": 5154,
      "Ġwhispered": 5155,
      "bout": 5156,
      "Ġmond": 5157,
      "sequ": 5158,
      "Ġhug": 5159,
      "Ġforgive": 5160,
      "Ġgoodbye": 5161,
      "isters": 5162,
      "Ġpassing": 5163,
      "Ġpatient": 5164,
      "Ġsecretary": 5165,
      "cat": 5166,
      "cream": 5167,
      "lock": 5168,
      "Ġpushed": 5169,
      "Ġsocks": 5170,
      "Ġshook": 5171,
      "Ġmayenne": 5172,
      "Ġballoon": 5173,
      "Ġmale": 5174,
      "Ġ188": 5175,
      "Ġparliament": 5176,
      "Ġbatter": 5177,
      "Ġillinois": 5178,
      "Ġfortune": 5179,
      "?'": 5180,
      "green": 5181,
      "ache": 5182,
      "abeth": 5183,
      "Ġprove": 5184,
      "Ġsau": 5185,
      "Ġ[?": 5186,
      "Ġspain": 5187,
      "Ġcompos": 5188,
      "Ġ2002": 5189,
      "Ġrelated": 5190,
      "playing": 5191,
      "Ġwedding": 5192,
      "Ġfrightened": 5193,
      "Ġarkansas": 5194,
      "Ġgat": 5195,
      "Ġplastic": 5196,
      "Ġtractor": 5197,
      "Ġwarri": 5198,
      "Ġmetal": 5199,
      "Ġextreme": 5200,
      "Ġrespond": 5201,
      "Ġmargaret": 5202,
      "Ġpour": 5203,
      "Ġgay": 5204,
      "Ġgal": 5205,
      "Ġko": 5206,
      "Ġbecoming": 5207,
      "Ġsticks": 5208,
      "Ġcooking": 5209,
      "Ġstudents": 5210,
      "Ġholiday": 5211,
      "Ġtournament": 5212,
      "tilda": 5213,
      "Ġeric": 5214,
      "Ġhut": 5215,
      "Ġhind": 5216,
      "americ": 5217,
      "Ġbran": 5218,
      "Ġmayor": 5219,
      "Ġcontr": 5220,
      "Ġedward": 5221,
      "Ġvoices": 5222,
      "apping": 5223,
      "Ġpowerful": 5224,
      "Ġdirectly": 5225,
      "Ġetc": 5226,
      "push": 5227,
      "Ġbark": 5228,
      "Ġbio": 5229,
      "Ġgently": 5230,
      "Ġharold": 5231,
      "Ġaside": 5232,
      "never": 5233,
      "Ġbitch": 5234,
      "Ġlanguages": 5235,
      "Ġtradition": 5236,
      "hor": 5237,
      "tin": 5238,
      "Ġbike": 5239,
      "Ġfant": 5240,
      "asty": 5241,
      "Ġtransport": 5242,
      "fortun": 5243,
      "Ġadventure": 5244,
      "Ġtent": 5245,
      "Ġsink": 5246,
      "Ġdrunk": 5247,
      "Ġmatters": 5248,
      "Ġnetwork": 5249,
      "met": 5250,
      "six": 5251,
      "Ġwitch": 5252,
      "aining": 5253,
      "Ġsport": 5254,
      "Ġroles": 5255,
      "azy": 5256,
      "Ġbene": 5257,
      "Ġ1970": 5258,
      "Ġarrange": 5259,
      "Ġadmir": 5260,
      "Ġvalley": 5261,
      "Ġoak": 5262,
      "Ġstom": 5263,
      "Ġath": 5264,
      "Ġala": 5265,
      "Ġschools": 5266,
      "Ġ2001": 5267,
      "Ġbrill": 5268,
      "Ġservices": 5269,
      "Ġfrancis": 5270,
      "fin": 5271,
      "Ġward": 5272,
      "Ġbump": 5273,
      "etch": 5274,
      "isse": 5275,
      "Ġdeb": 5276,
      "gypt": 5277,
      "Ġwondering": 5278,
      "Ġincludes": 5279,
      "Ġhurried": 5280,
      "Ġapparently": 5281,
      "Ġdutch": 5282,
      "Ġshouted": 5283,
      "Ġitaly": 5284,
      "Ġgradu": 5285,
      "mw": 5286,
      "mund": 5287,
      "ship": 5288,
      "Ġtip": 5289,
      "inary": 5290,
      "onse": 5291,
      "Ġinha": 5292,
      "Ġlibr": 5293,
      "inky": 5294,
      "Ġdiam": 5295,
      "Ġtrade": 5296,
      "Ġsmoot": 5297,
      "Ġunderstood": 5298,
      "Ġperformed": 5299,
      "Ġdecision": 5300,
      "Ġselected": 5301,
      "Ġsanta": 5302,
      ",]": 5303,
      "hew": 5304,
      "Ġdust": 5305,
      "Ġnation": 5306,
      "Ġreve": 5307,
      "Ġsore": 5308,
      "acks": 5309,
      "eping": 5310,
      "Ġdesper": 5311,
      "Ġsquir": 5312,
      "Ġrecognize": 5313,
      "Ġsuggested": 5314,
      "mi": 5315,
      "Ġaver": 5316,
      "inter": 5317,
      "Ġdoo": 5318,
      "Ġegypt": 5319,
      "adam": 5320,
      "Ġvac": 5321,
      "Ġprogress": 5322,
      "istic": 5323,
      "Ġjoke": 5324,
      "Ġcommitt": 5325,
      "Ġdecide": 5326,
      "Ġrefle": 5327,
      "Ġjeff": 5328,
      "Ġcharlotte": 5329,
      "lie": 5330,
      "sque": 5331,
      "Ġemot": 5332,
      "Ġsees": 5333,
      "ellig": 5334,
      "iano": 5335,
      "iii": 5336,
      "Ġbeneath": 5337,
      "di": 5338,
      "tles": 5339,
      "rey": 5340,
      "ooke": 5341,
      "Ġkang": 5342,
      "hers": 5343,
      "throw": 5344,
      "Ġvic": 5345,
      "Ġfully": 5346,
      "Ġgeo": 5347,
      "Ġexplained": 5348,
      "remember": 5349,
      "Ġdetective": 5350,
      "24": 5351,
      "Ġaim": 5352,
      "Ġbid": 5353,
      "itar": 5354,
      "asing": 5355,
      "Ġkm": 5356,
      "Ġreact": 5357,
      "Ġlil": 5358,
      "venue": 5359,
      "were": 5360,
      "Ġwarn": 5361,
      "Ġterror": 5362,
      "Ġpatty": 5363,
      "Ġfrequ": 5364,
      "Ġestabl": 5365,
      "\"?": 5366,
      "hun": 5367,
      "nie": 5368,
      "walk": 5369,
      "Ã±": 5370,
      "Ġfu": 5371,
      "Ġpizza": 5372,
      "itory": 5373,
      "Ġsmo": 5374,
      "Ġentr": 5375,
      "Ġgrandfather": 5376,
      "Ġjimmy": 5377,
      "Ġmuseum": 5378,
      "Ġpac": 5379,
      "Ġles": 5380,
      "ases": 5381,
      "Ġrang": 5382,
      "Ġvote": 5383,
      "Ġcrown": 5384,
      "Ġwheels": 5385,
      "Ġboats": 5386,
      "Ġdisappeared": 5387,
      "Ġlone": 5388,
      "Ġned": 5389,
      "rian": 5390,
      "Ġatl": 5391,
      "Ġordin": 5392,
      "Ġspill": 5393,
      "âĢĿ.": 5394,
      "Ġquit": 5395,
      "Ġscore": 5396,
      "Ġchin": 5397,
      "Ġremoved": 5398,
      "Ġcookie": 5399,
      "Ġexpression": 5400,
      "Ġfailed": 5401,
      "Ġrachel": 5402,
      "pull": 5403,
      "Ġbible": 5404,
      "Ġmister": 5405,
      "Ġcomedy": 5406,
      "Ġdesire": 5407,
      "Ġapartment": 5408,
      "Ġdrops": 5409,
      "Ġsweetheart": 5410,
      "Ġsoldier": 5411,
      "Ġrussia": 5412,
      "Ġzealand": 5413,
      "je": 5414,
      "sung": 5415,
      "Ġwished": 5416,
      "Ġexcellent": 5417,
      "Ġbiggest": 5418,
      "puts": 5419,
      "Ġfairly": 5420,
      "Ġcharacters": 5421,
      "Ġfolks": 5422,
      "bon": 5423,
      "law": 5424,
      "eddin": 5425,
      "athan": 5426,
      "Ġstones": 5427,
      "Ġhunt": 5428,
      "Ġvent": 5429,
      "ulations": 5430,
      "Ġtrump": 5431,
      "Ġeaten": 5432,
      "Ġshopping": 5433,
      "Ġexciting": 5434,
      "Ġcloth": 5435,
      "Ġnursery": 5436,
      "Ġmajesty": 5437,
      "bar": 5438,
      "long": 5439,
      "Ġtour": 5440,
      "Ġfart": 5441,
      "Ġyum": 5442,
      "Ġyards": 5443,
      "Ġthin": 5444,
      "ols": 5445,
      "eme": 5446,
      "Ġglance": 5447,
      "Ġengaged": 5448,
      "Ġmusical": 5449,
      "asped": 5450,
      "views": 5451,
      "Ġrequest": 5452,
      "Ġnuclear": 5453,
      "rate": 5454,
      "talk": 5455,
      "rees": 5456,
      "Ġiv": 5457,
      "Ġpump": 5458,
      "Ġgy": 5459,
      "Ġrank": 5460,
      "ulty": 5461,
      "Ġthrows": 5462,
      "Ġcommunic": 5463,
      "Ġsymp": 5464,
      "Ġresponse": 5465,
      "Ġhonour": 5466,
      "Ġfreed": 5467,
      "Ġborder": 5468,
      "Ġcruel": 5469,
      "Ġalaeddin": 5470,
      "Ġbones": 5471,
      "Ġfaint": 5472,
      "Ġbeast": 5473,
      "road": 5474,
      "Ġwentworth": 5475,
      "Ġmatches": 5476,
      "Ġrelax": 5477,
      "Ġperformance": 5478,
      "Ġalfgar": 5479,
      "Ġexecut": 5480,
      "Ġfaster": 5481,
      "stick": 5482,
      "rif": 5483,
      "Ġpromot": 5484,
      "toy": 5485,
      "Ġbomb": 5486,
      "Ġwipe": 5487,
      "Ġcraft": 5488,
      "Ġbloody": 5489,
      "Ġwhisper": 5490,
      "Ġcurrently": 5491,
      "Ġtouched": 5492,
      "Ġslightly": 5493,
      "bc": 5494,
      "sar": 5495,
      "Ġsin": 5496,
      "Ġhabit": 5497,
      "Ġnep": 5498,
      "Ġconference": 5499,
      "Ġqual": 5500,
      "Ġwave": 5501,
      "Ġlara": 5502,
      "Ġmainly": 5503,
      "Ġstaff": 5504,
      "Ġnewspaper": 5505,
      "Ġcommittee": 5506,
      "90": 5507,
      "Ġpy": 5508,
      "gend": 5509,
      "Ġminor": 5510,
      "Ġdistur": 5511,
      "Ġmedal": 5512,
      "Ġpirates": 5513,
      "Ġactivity": 5514,
      "Ġdestroy": 5515,
      "fers": 5516,
      "Ġcave": 5517,
      "Ġfan": 5518,
      "Ġkansas": 5519,
      "Ġgram": 5520,
      "Ġflu": 5521,
      "Ġsmiled": 5522,
      "Ġadvant": 5523,
      "Ġsalt": 5524,
      "hhh": 5525,
      "Ġramsey": 5526,
      "Ġreplaced": 5527,
      "Ġopinion": 5528,
      "Ġestablished": 5529,
      "morrow": 5530,
      "Ġcud": 5531,
      "Ġfier": 5532,
      "Ġrum": 5533,
      "dear": 5534,
      "Ġholly": 5535,
      "perhaps": 5536,
      "Ġreply": 5537,
      "Ġbits": 5538,
      "Ġaircraft": 5539,
      "Ġreceive": 5540,
      "Ġhighest": 5541,
      "Ġgabri": 5542,
      "Ġcurious": 5543,
      "ette": 5544,
      "Ġsole": 5545,
      "ulf": 5546,
      "Ġjustice": 5547,
      "Ġarth": 5548,
      "Ġcontri": 5549,
      "Ġfavour": 5550,
      "Ġdevelopment": 5551,
      "picks": 5552,
      "bid": 5553,
      "list": 5554,
      "ran": 5555,
      "Ġwinn": 5556,
      "Ġlam": 5557,
      "ushi": 5558,
      "Ġcarriage": 5559,
      "Ġfriendly": 5560,
      "Ġdelicious": 5561,
      "poor": 5562,
      "Ġburning": 5563,
      "Ġfamiliar": 5564,
      "Ġchemical": 5565,
      "first": 5566,
      "gt": 5567,
      "san": 5568,
      "Ġfanning": 5569,
      "Ġtooth": 5570,
      "Ġnas": 5571,
      "Ġrecently": 5572,
      "Ġ1994": 5573,
      "Ġsubst": 5574,
      "Ġaware": 5575,
      "Ġprotest": 5576,
      "Ġtickle": 5577,
      "iffs": 5578,
      "Ġmichi": 5579,
      "Ġellie": 5580,
      "Ġeliz": 5581,
      "Ġweapons": 5582,
      "Ġterritory": 5583,
      "Ġenviron": 5584,
      "dav": 5585,
      "onia": 5586,
      "Ġgil": 5587,
      "kend": 5588,
      "Ġrhy": 5589,
      "Ġboston": 5590,
      "Ġresults": 5591,
      "Ġmatthew": 5592,
      "shouts": 5593,
      "Ġearnest": 5594,
      "Ġbishop": 5595,
      "Ġsplendid": 5596,
      "uf": 5597,
      "zes": 5598,
      "Ġbol": 5599,
      "atory": 5600,
      "Ġkenn": 5601,
      "love": 5602,
      "Ġ1995": 5603,
      "Ġmerri": 5604,
      "Ġforeign": 5605,
      "Ġgathered": 5606,
      "cont": 5607,
      "pol": 5608,
      "Ġfired": 5609,
      "Ġpier": 5610,
      "itage": 5611,
      "keys": 5612,
      "lyn": 5613,
      "Ġash": 5614,
      "usted": 5615,
      "Ġneg": 5616,
      "ppers": 5617,
      "Ġclar": 5618,
      "ondisse": 5619,
      "Ġtalks": 5620,
      "Ġdesert": 5621,
      "Ġ1996": 5622,
      "Ġ1997": 5623,
      "Ġdistributed": 5624,
      "Ġmerc": 5625,
      "Ġcookies": 5626,
      "Ġillust": 5627,
      "Ġjumped": 5628,
      "Ġstrike": 5629,
      "Ġcandy": 5630,
      "points": 5631,
      "Ġsergeant": 5632,
      "yard": 5633,
      "Ġ~": 5634,
      "Ġladder": 5635,
      "Ġhesit": 5636,
      "Ġjourn": 5637,
      "Ġanti": 5638,
      "ulated": 5639,
      "bey": 5640,
      "Ġcommer": 5641,
      "Ġ1999": 5642,
      "Ġconfir": 5643,
      "Ġpossess": 5644,
      "Ġcircus": 5645,
      "Ġproperty": 5646,
      "--------------------------------": 5647,
      "Ġnearer": 5648,
      "rant": 5649,
      "yay": 5650,
      "Ġtummy": 5651,
      "Ġbin": 5652,
      "Ġforms": 5653,
      "uments": 5654,
      "iece": 5655,
      "ousers": 5656,
      "Ġunfortun": 5657,
      "Ġexer": 5658,
      "Ġcommiss": 5659,
      "Ġinstr": 5660,
      "Ġshooting": 5661,
      "Ġgalley": 5662,
      "Ġprincip": 5663,
      "Ġobserved": 5664,
      "Ġcanadian": 5665,
      "cry": 5666,
      "ole": 5667,
      "Ġcel": 5668,
      "Ġgreek": 5669,
      "Ġnerv": 5670,
      "ata": 5671,
      "imme": 5672,
      "Ġrifle": 5673,
      "hang": 5674,
      "Ġboots": 5675,
      "Ġbodies": 5676,
      "Ġscri": 5677,
      "Ġadop": 5678,
      "Ġfoll": 5679,
      "Ġchuck": 5680,
      "Ġtribes": 5681,
      "Ġdarkness": 5682,
      "Ġdescribed": 5683,
      "Ġlifted": 5684,
      "Ġdestroyed": 5685,
      "Ġculture": 5686,
      "Ġwine": 5687,
      "omb": 5688,
      "Ġlies": 5689,
      "Ġcode": 5690,
      "Ġkeys": 5691,
      "Ġminnes": 5692,
      "Ġswed": 5693,
      "Ġbreaking": 5694,
      "Ġkidding": 5695,
      "Ġpainting": 5696,
      "Ġarrested": 5697,
      "Ġinfluence": 5698,
      "Ġminnesota": 5699,
      "aft": 5700,
      "ilet": 5701,
      "mark": 5702,
      "Ġfund": 5703,
      "Ġga": 5704,
      "Ġgather": 5705,
      "Ġloose": 5706,
      "aming": 5707,
      "Ġ\"'": 5708,
      "Ġrise": 5709,
      "Ġrice": 5710,
      "opher": 5711,
      "Ġlegend": 5712,
      "Ġedmund": 5713,
      "Ġincident": 5714,
      "Ġfailure": 5715,
      "Ġinspect": 5716,
      "Ġevidently": 5717,
      "pur": 5718,
      "Ġwore": 5719,
      "Ġwars": 5720,
      "reg": 5721,
      "Ġign": 5722,
      "Ġtoss": 5723,
      "alous": 5724,
      "ira": 5725,
      "Ġclick": 5726,
      "Ġstepped": 5727,
      "Ġincred": 5728,
      "Ġpoliceman": 5729,
      "Ġoccurred": 5730,
      "\"]": 5731,
      "hl": 5732,
      "Ġtheory": 5733,
      "had": 5734,
      "Ġdom": 5735,
      "Ġrare": 5736,
      "Ġrushed": 5737,
      "Ġtruly": 5738,
      "dog": 5739,
      "Ġfocus": 5740,
      "Ġdrove": 5741,
      "Ġveget": 5742,
      "Ġvictory": 5743,
      "Ġturk": 5744,
      "Ġweapon": 5745,
      "Ġmonday": 5746,
      "lara": 5747,
      "Ġmia": 5748,
      "asc": 5749,
      "Ġki": 5750,
      "Ġhelps": 5751,
      "goes": 5752,
      "Ġhearts": 5753,
      "duced": 5754,
      "aspberry": 5755,
      "Ġolympic": 5756,
      "Ġrepublican": 5757,
      "chards": 5758,
      "Ġentirely": 5759,
      "Ġtarget": 5760,
      "Ġshadow": 5761,
      "Ġbrilliant": 5762,
      "22": 5763,
      "gb": 5764,
      "Ġtan": 5765,
      "erable": 5766,
      "ari": 5767,
      "vert": 5768,
      "Ġhidden": 5769,
      "aug": 5770,
      "Ġagnes": 5771,
      "Ġactive": 5772,
      "Ġdrawn": 5773,
      "help": 5774,
      "Ġterrif": 5775,
      "Ġfacing": 5776,
      "Ġcasson": 5777,
      "Ġlibrary": 5778,
      "hus": 5779,
      "win": 5780,
      "zo": 5781,
      "Ġess": 5782,
      "Ġbac": 5783,
      "Ġstol": 5784,
      "Ġfran": 5785,
      "apt": 5786,
      "emies": 5787,
      "Ġjacket": 5788,
      "Ġchosen": 5789,
      "Ġreported": 5790,
      "Ġaustralian": 5791,
      "kisses": 5792,
      "Ġelizabeth": 5793,
      "rom": 5794,
      "Ġtheat": 5795,
      "Ġug": 5796,
      "icing": 5797,
      ".\"]": 5798,
      "Ġlog": 5799,
      "Ġsurely": 5800,
      "Ġsweetie": 5801,
      "Ġfestival": 5802,
      "ear": 5803,
      "eight": 5804,
      "wan": 5805,
      "Ġtough": 5806,
      "Ġpile": 5807,
      "Ġhomes": 5808,
      "Ġguil": 5809,
      "hmm": 5810,
      "Ġwarren": 5811,
      "Ġends": 5812,
      "Ġprim": 5813,
      "Ġwinds": 5814,
      "Ġrestaur": 5815,
      "Ġ1992": 5816,
      "Ġconfeder": 5817,
      "Ġlearning": 5818,
      "Ġcompetition": 5819,
      "Ġcitiz": 5820,
      "corn": 5821,
      "ners": 5822,
      "Ġtied": 5823,
      "owing": 5824,
      "eta": 5825,
      "ales": 5826,
      "Ġcloud": 5827,
      "Ġexplo": 5828,
      "Ġcorpor": 5829,
      "Ġemergen": 5830,
      "Ġhorrible": 5831,
      "Ġstomach": 5832,
      "40": 5833,
      "lers": 5834,
      "pat": 5835,
      "Ġmile": 5836,
      "Ġpad": 5837,
      "arily": 5838,
      "Ġinit": 5839,
      "alled": 5840,
      "Ġpron": 5841,
      "Ġstring": 5842,
      "Ġclearly": 5843,
      "Ġweekend": 5844,
      "Ġinvited": 5845,
      "Ġparticularly": 5846,
      "Ġdrugs": 5847,
      "Ġdisease": 5848,
      "Ġcircumstances": 5849,
      "Ġenvironment": 5850,
      "Ġjournal": 5851,
      "ouds": 5852,
      "Ġbaker": 5853,
      "Ġyard": 5854,
      "Ġjason": 5855,
      "Ġray": 5856,
      "Ġcontest": 5857,
      "Ġgrandmother": 5858,
      "Ġ1998": 5859,
      "Ġtotally": 5860,
      "Ġdivor": 5861,
      "iation": 5862,
      "Ġnan": 5863,
      "roy": 5864,
      "about": 5865,
      "Ġowner": 5866,
      "Ġsignal": 5867,
      "Ġdata": 5868,
      "Ġrobin": 5869,
      "Ġinterrupts": 5870,
      "Ġmichigan": 5871,
      "eks": 5872,
      "uous": 5873,
      "Ġcot": 5874,
      "Ġdump": 5875,
      "Ġfate": 5876,
      "Ġeag": 5877,
      "Ġbrace": 5878,
      "ension": 5879,
      "Ġwaves": 5880,
      "Ġhearing": 5881,
      "Ġsentence": 5882,
      "Ġmedia": 5883,
      "Ġstudio": 5884,
      "Ġprevent": 5885,
      "Ġcongrat": 5886,
      "ointment": 5887,
      "Ġmexican": 5888,
      "Ġsprang": 5889,
      "screams": 5890,
      "Ġaverage": 5891,
      "wom": 5892,
      "Ġcash": 5893,
      "Ġfuss": 5894,
      "Ġodd": 5895,
      "Ġgained": 5896,
      "enced": 5897,
      "cking": 5898,
      "Ġgray": 5899,
      "rish": 5900,
      "Ġjohnson": 5901,
      "Ġchairs": 5902,
      "Ġclosely": 5903,
      "Ġimit": 5904,
      "engers": 5905,
      "Ġdamage": 5906,
      "Ġpressure": 5907,
      "Ġjerry": 5908,
      "Ġukrain": 5909,
      "Ġpakistan": 5910,
      "Ġsmooth": 5911,
      "dan": 5912,
      "Ġwoof": 5913,
      "Ġwounded": 5914,
      "Ġsara": 5915,
      "inger": 5916,
      "Ġpages": 5917,
      "isha": 5918,
      "Ġrichards": 5919,
      "quar": 5920,
      "Ġbranc": 5921,
      "Ġdrown": 5922,
      "igned": 5923,
      "Ġinstru": 5924,
      "Ġtransl": 5925,
      "Ġguilty": 5926,
      "kt": 5927,
      "lim": 5928,
      "Ġaston": 5929,
      "Ġmall": 5930,
      "Ġurs": 5931,
      "Ġrag": 5932,
      "Ġsuffe": 5933,
      "Ġpeas": 5934,
      "Ġguest": 5935,
      "Ġthroughout": 5936,
      "Ġcandid": 5937,
      "american": 5938,
      "pot": 5939,
      "viet": 5940,
      "enger": 5941,
      "Ġplot": 5942,
      "inda": 5943,
      "anged": 5944,
      "Ġswitch": 5945,
      "Ġowned": 5946,
      "Ġski": 5947,
      "Ġcaptured": 5948,
      "Ġaffairs": 5949,
      "Ġavailable": 5950,
      "ilities": 5951,
      "wey": 5952,
      "Ġafford": 5953,
      "Ġcock": 5954,
      "Ġcarr": 5955,
      "Ġcats": 5956,
      "Ġbenef": 5957,
      "Ġdepart": 5958,
      "Ġprovided": 5959,
      "Ġdavis": 5960,
      "Ġtransfer": 5961,
      "Ġfeatures": 5962,
      "Ġdiamond": 5963,
      "ias": 5964,
      "nope": 5965,
      "Ġwound": 5966,
      "Ġbast": 5967,
      "Ġstern": 5968,
      "Ġliqu": 5969,
      "Ġconqu": 5970,
      "together": 5971,
      "Ġboxes": 5972,
      "byebye": 5973,
      "Ġhurts": 5974,
      "Ġtyp": 5975,
      "ĠĠĠĠĠĠĠĠĠĠĠĠĠĠĠĠĠĠĠĠĠĠĠĠĠĠĠĠĠĠĠĠ": 5976,
      "auses": 5977,
      "excuse": 5978,
      "Ġbutterfly": 5979,
      "Ġfamilies": 5980,
      "Ġideas": 5981,
      "Ġsource": 5982,
      "Ġoblig": 5983,
      "hu": 5984,
      "Ġ0": 5985,
      "Ġwise": 5986,
      "Ġtoilet": 5987,
      "Ġpond": 5988,
      "ading": 5989,
      "Ġsax": 5990,
      "Ġchain": 5991,
      "Ġglo": 5992,
      "Ġlistened": 5993,
      "Ġrealized": 5994,
      "Ġbrid": 5995,
      "Ġhandsome": 5996,
      "Ġadvice": 5997,
      "Ġrecording": 5998,
      "Ġenjoyed": 5999,
      "Ġangel": 6000,
      "Ġjumbo": 6001,
      "Ġlonely": 6002,
      "iest": 6003,
      "Ġale": 6004,
      "Ġaid": 6005,
      "Ġpip": 6006,
      "Ġnations": 6007,
      "seven": 6008,
      "icop": 6009,
      "Ġbrook": 6010,
      "Ġshame": 6011,
      "Ġswift": 6012,
      "unnel": 6013,
      "----\"": 6014,
      "Ġkilling": 6015,
      "Ġï¿½ï¿½ï¿½ï¿½ï¿½": 6016,
      "Ġtypes": 6017,
      "Ġjealous": 6018,
      "Ġfields": 6019,
      "david": 6020,
      "Ġbone": 6021,
      "Ġcough": 6022,
      "eror": 6023,
      "star": 6024,
      "Ġprecious": 6025,
      "Ġcromer": 6026,
      "Ġresist": 6027,
      "Ġshift": 6028,
      "cca": 6029,
      "Ġinterview": 6030,
      "Ġhighly": 6031,
      "Ġpositive": 6032,
      "Ġburt": 6033,
      "Ġbunch": 6034,
      "Ġmoo": 6035,
      "Ġdiss": 6036,
      "Ġpope": 6037,
      "Ġhasta": 6038,
      "Ġjon": 6039,
      "Ġdewey": 6040,
      "Ġbold": 6041,
      "reeks": 6042,
      "Ġenemies": 6043,
      "Ġpoison": 6044,
      "Ġholes": 6045,
      "Ġproducer": 6046,
      "Ġaffair": 6047,
      "Ġadventures": 6048,
      "Ġseparate": 6049,
      "21": 6050,
      "||": 6051,
      "Ġwra": 6052,
      "Ġwinning": 6053,
      "hamm": 6054,
      "Ġbum": 6055,
      "Ġbul": 6056,
      "Ġlamb": 6057,
      "Ġkings": 6058,
      "Ġsequ": 6059,
      "imate": 6060,
      "Ġdebut": 6061,
      "Ġabe": 6062,
      "Ġarmed": 6063,
      "Ġtrousers": 6064,
      "people": 6065,
      "Ġkindly": 6066,
      "Ġbricks": 6067,
      "ception": 6068,
      "Ġleaders": 6069,
      "Ġfleet": 6070,
      "Ġdea": 6071,
      "Ġpity": 6072,
      "...\"": 6073,
      "umed": 6074,
      "Ġspeaks": 6075,
      "Ġconce": 6076,
      "Ġtommy": 6077,
      "Ġstreets": 6078,
      "Ġparticip": 6079,
      "Ġlabor": 6080,
      "Ġwilliams": 6081,
      "duck": 6082,
      "Ġxx": 6083,
      "Ġmmm": 6084,
      "Ġspider": 6085,
      "again": 6086,
      "Ġclap": 6087,
      "Ġacid": 6088,
      "addressed": 6089,
      "Ġtrains": 6090,
      "Ġadvanced": 6091,
      "Ġfortun": 6092,
      "Ġlocked": 6093,
      "Ġarthur": 6094,
      "**": 6095,
      "bury": 6096,
      "Ġrot": 6097,
      "Ġcannon": 6098,
      "Ġwhenever": 6099,
      "Ġrope": 6100,
      "Ġclay": 6101,
      "Ġsmiles": 6102,
      "cod": 6103,
      "Ġsteal": 6104,
      "Ġskill": 6105,
      "Ġ60": 6106,
      "Ġsigns": 6107,
      "Ġraise": 6108,
      "Ġkissed": 6109,
      "Ġrolling": 6110,
      "Ġtechnology": 6111,
      "Ġdunno": 6112,
      "Ġresponsible": 6113,
      "Ġcommission": 6114,
      "60": 6115,
      "si": 6116,
      "Å«": 6117,
      "Ġpud": 6118,
      "Ġnuts": 6119,
      "Ġsoviet": 6120,
      "holic": 6121,
      "Ġseek": 6122,
      "Ġcovers": 6123,
      "Ġgreatly": 6124,
      "didn": 6125,
      "Ġbrian": 6126,
      "Ġcrossed": 6127,
      "Ġrecei": 6128,
      "Ġvalue": 6129,
      "Ġmcdonald": 6130,
      "Ġorganization": 6131,
      "Ġcompanions": 6132,
      "Ġracing": 6133,
      "Ġflew": 6134,
      "Ġautom": 6135,
      "Ġmystery": 6136,
      "Ġpillow": 6137,
      "Ġcredit": 6138,
      "bang": 6139,
      "fire": 6140,
      "great": 6141,
      "jwww": 6142,
      "lar": 6143,
      "nor": 6144,
      "oise": 6145,
      "ugg": 6146,
      "Ġcord": 6147,
      "Ġpardon": 6148,
      "Ġlick": 6149,
      "Ġsel": 6150,
      "uma": 6151,
      "Ġrising": 6152,
      "Ġintended": 6153,
      "Ġunit": 6154,
      "lfriend": 6155,
      "Ġpattern": 6156,
      "Ġpulling": 6157,
      "Ġpresidential": 6158,
      "Ġrolls": 6159,
      "Ġportug": 6160,
      "Ġclimbing": 6161,
      "whispered": 6162,
      "Ġbanks": 6163,
      "Ġnominated": 6164,
      "Ġhammer": 6165,
      "Ġachi": 6166,
      "Ġjr": 6167,
      "Ġvig": 6168,
      "resp": 6169,
      "Ġgran": 6170,
      "Ġcoal": 6171,
      "order": 6172,
      "Ġcomplet": 6173,
      "graph": 6174,
      "Ġpuppy": 6175,
      "standing": 6176,
      "Ġmetho": 6177,
      "Ġlatin": 6178,
      "Ġprisoner": 6179,
      "Ġporter": 6180,
      "Ġdrug": 6181,
      "Ġscientists": 6182,
      "careful": 6183,
      "Ġemergency": 6184,
      "gers": 6185,
      "ients": 6186,
      "rp": 6187,
      "Ġlt": 6188,
      "Ġdoggy": 6189,
      "Ġsevere": 6190,
      "Ġvot": 6191,
      "rael": 6192,
      "weet": 6193,
      "Ġleans": 6194,
      "issipp": 6195,
      "Ġsomethin": 6196,
      "Ġtrial": 6197,
      "Ġbadly": 6198,
      "Ġgarage": 6199,
      "Ġburned": 6200,
      "Ġsuspect": 6201,
      "Ġslept": 6202,
      "Ġindividual": 6203,
      "bour": 6204,
      "mag": 6205,
      "Ġsorrow": 6206,
      "Ġfence": 6207,
      "Ġpushing": 6208,
      "Ġlack": 6209,
      "Ġford": 6210,
      "Ġsofa": 6211,
      "april": 6212,
      "Ġbetray": 6213,
      "Ġdishes": 6214,
      "Ġmississipp": 6215,
      "Ġnights": 6216,
      "Ġdeser": 6217,
      "Ġsooner": 6218,
      "Ġbuildings": 6219,
      "Ġfrost": 6220,
      "Ġcreature": 6221,
      "Ġadams": 6222,
      "Ġproduction": 6223,
      "Ġefforts": 6224,
      "even": 6225,
      "sch": 6226,
      "Ġbears": 6227,
      "Ġky": 6228,
      "Ġmolly": 6229,
      "Ġunus": 6230,
      "Ġeats": 6231,
      "Ġ1986": 6232,
      "Ġadvance": 6233,
      "Ġstudent": 6234,
      "Ġdesigned": 6235,
      "Ġreckon": 6236,
      "Ġsympat": 6237,
      "Ġnervous": 6238,
      "dri": 6239,
      "fad": 6240,
      "hur": 6241,
      "mad": 6242,
      "ni": 6243,
      "oons": 6244,
      "sur": 6245,
      "Ġinn": 6246,
      "Ġrecorder": 6247,
      "Ġdaily": 6248,
      "Ġjean": 6249,
      "Ġnormally": 6250,
      "Ġcritic": 6251,
      "vocalizes": 6252,
      "Ġbranch": 6253,
      "Ġsuffered": 6254,
      "hot": 6255,
      "og": 6256,
      "paul": 6257,
      "Ġari": 6258,
      "Ġbeer": 6259,
      "Ġrejo": 6260,
      "Ġreasons": 6261,
      "Ġcomr": 6262,
      "Ġleon": 6263,
      "Ġmeanwhile": 6264,
      "Ġoldest": 6265,
      "Ġbitter": 6266,
      "Ġstudies": 6267,
      "Ġequal": 6268,
      "Ġnavy": 6269,
      "1999": 6270,
      "whispering": 6271,
      "Ġelder": 6272,
      "Ġmississippi": 6273,
      "bag": 6274,
      "ties": 6275,
      "leave": 6276,
      "Ġthorough": 6277,
      "Ġjake": 6278,
      "ential": 6279,
      "ctors": 6280,
      "Ġawake": 6281,
      "aska": 6282,
      "Ġprovin": 6283,
      "Ġdawn": 6284,
      "Ġmammy": 6285,
      "Ġoriginally": 6286,
      "Ġhorsie": 6287,
      "Ġdifficulty": 6288,
      "Ġfifth": 6289,
      "Ġdegree": 6290,
      "count": 6291,
      "Ġwire": 6292,
      "Ġcents": 6293,
      "Ġfame": 6294,
      "ador": 6295,
      "olph": 6296,
      "Ġloving": 6297,
      "Ġuncom": 6298,
      "Ġgrate": 6299,
      "black": 6300,
      "moans": 6301,
      "eaking": 6302,
      "198": 6303,
      "Ġmickey": 6304,
      "Ġlaws": 6305,
      "Ġclimate": 6306,
      "Ġlucas": 6307,
      "Ġsenate": 6308,
      "Ġreligion": 6309,
      "Ġkorea": 6310,
      "Ġindependent": 6311,
      "Ġrapidly": 6312,
      "Ġneighborhood": 6313,
      "Ġscholarship": 6314,
      "Ġbranches": 6315,
      "lots": 6316,
      "Ġdanny": 6317,
      "Ġpooh": 6318,
      "Ġni": 6319,
      "Ġspare": 6320,
      "ferent": 6321,
      "Ġflash": 6322,
      "Ġdisp": 6323,
      "Ġmoments": 6324,
      "Ġdescend": 6325,
      "Ġtreasure": 6326,
      "Ġattacked": 6327,
      "Ġcreate": 6328,
      "Ġtreated": 6329,
      "Ġdaniel": 6330,
      "Ġprefecture": 6331,
      "Ġfarther": 6332,
      "Ġadvantage": 6333,
      "top": 6334,
      "Ġwings": 6335,
      "Ġsisters": 6336,
      "Ġcub": 6337,
      "Ġduh": 6338,
      "entine": 6339,
      "Ġupside": 6340,
      "Ġvain": 6341,
      "Ġclouds": 6342,
      "Ġchums": 6343,
      "Ġharder": 6344,
      "Ġstatement": 6345,
      "Ġ1993": 6346,
      "Ġrecorded": 6347,
      "Ġsplit": 6348,
      "Ġconcerned": 6349,
      "Ġinquired": 6350,
      "Ġmaterial": 6351,
      "Ġcherry": 6352,
      "western": 6353,
      "Ġglor": 6354,
      "ibility": 6355,
      "Ġdelay": 6356,
      "Ġsending": 6357,
      "syl": 6358,
      "Ġpilot": 6359,
      "Ġavoid": 6360,
      "25": 6361,
      "Ġing": 6362,
      "Ġtank": 6363,
      "Ġdum": 6364,
      "Ġwashed": 6365,
      "Ġsoap": 6366,
      "Ġchase": 6367,
      "Ġscare": 6368,
      "intend": 6369,
      "gery": 6370,
      "Ġpassion": 6371,
      "Ġseats": 6372,
      "Ġheavily": 6373,
      "Ġequip": 6374,
      "Ġintroduced": 6375,
      "sometimes": 6376,
      "Ġrelief": 6377,
      "mam": 6378,
      "pop": 6379,
      "yal": 6380,
      "Ġmau": 6381,
      "Ġpure": 6382,
      "Ġpushes": 6383,
      "Ġpiano": 6384,
      "att": 6385,
      "Ġstad": 6386,
      "Ġstanton": 6387,
      "eable": 6388,
      "Ġral": 6389,
      "ateg": 6390,
      "looks": 6391,
      "Ġleaf": 6392,
      "Ġappointed": 6393,
      "move": 6394,
      "Ġsteel": 6395,
      "Ġromantic": 6396,
      "Ġbroadcast": 6397,
      "Ġiran": 6398,
      "Ġsatisfied": 6399,
      "something": 6400,
      "Ġstruggle": 6401,
      "draw": 6402,
      "Ġescaped": 6403,
      "bage": 6404,
      "case": 6405,
      "Ġiii": 6406,
      "Ġdude": 6407,
      "Ġitems": 6408,
      "sec": 6409,
      "acing": 6410,
      "Ġsevent": 6411,
      "Ġrah": 6412,
      "Ġsale": 6413,
      "Ġspect": 6414,
      "Ġrescue": 6415,
      "Ġ1991": 6416,
      "Ġsymb": 6417,
      "Ġdecor": 6418,
      "Ġ90": 6419,
      "Ġexperien": 6420,
      "ological": 6421,
      "glory": 6422,
      "Ġslipped": 6423,
      "writer": 6424,
      "hetti": 6425,
      "Ġaccompl": 6426,
      "Ġbehavi": 6427,
      "Ġscratch": 6428,
      "Ġappreciate": 6429,
      "Ġgeography": 6430,
      "fo": 6431,
      "gun": 6432,
      "part": 6433,
      "sters": 6434,
      "Ġbelly": 6435,
      "Ġkelly": 6436,
      "Ġbrings": 6437,
      "blows": 6438,
      "Ġchanging": 6439,
      "Ġaccess": 6440,
      "brush": 6441,
      "Ġidiot": 6442,
      "Ġsleepy": 6443,
      "Ġ1988": 6444,
      "Ġstove": 6445,
      "Ġbanana": 6446,
      "Ġtender": 6447,
      "Ġintrodu": 6448,
      "Ġreligious": 6449,
      "Ġugly": 6450,
      "Ġot": 6451,
      "refers": 6452,
      "Ġdomin": 6453,
      "Ġpitch": 6454,
      "ito": 6455,
      "Ġisa": 6456,
      "Ġplanned": 6457,
      "Ġspite": 6458,
      "becca": 6459,
      "Ġbund": 6460,
      "coming": 6461,
      "Ġtracks": 6462,
      "Ġordinary": 6463,
      "both": 6464,
      "ouri": 6465,
      "Ġpadd": 6466,
      "Ġgain": 6467,
      "eding": 6468,
      "Ġisrael": 6469,
      "icide": 6470,
      "Ġmeas": 6471,
      "Ġalpha": 6472,
      "Ġarts": 6473,
      "Ġshakes": 6474,
      "Ġcontent": 6475,
      "Ġsurround": 6476,
      "Ġtomato": 6477,
      "Ġpicking": 6478,
      "Ġfigures": 6479,
      "Ġringing": 6480,
      "Ġsouthe": 6481,
      "Ġmixed": 6482,
      "Ġpsych": 6483,
      "find": 6484,
      "ios": 6485,
      "name": 6486,
      "Ġtiss": 6487,
      "Ġdish": 6488,
      "Ġlamp": 6489,
      "ett": 6490,
      "rol": 6491,
      "Ġconsequ": 6492,
      "Ġdiale": 6493,
      "Ġproved": 6494,
      "Ġencour": 6495,
      "Ġcheeks": 6496,
      "Ġdistinct": 6497,
      "ileen": 6498,
      "Ġcutting": 6499,
      "Ġinhabit": 6500,
      "Ġner": 6501,
      "stone": 6502,
      "Ġrust": 6503,
      "una": 6504,
      "Ġalarm": 6505,
      "Ġbreast": 6506,
      "Ġapolog": 6507,
      "ibi": 6508,
      "Ġlanding": 6509,
      "stein": 6510,
      "Ġrepresentatives": 6511,
      "rrr": 6512,
      "Ġissue": 6513,
      "Ġmulti": 6514,
      "Ġstolen": 6515,
      "Ġwinner": 6516,
      "Ġcounter": 6517,
      "rial": 6518,
      "Ġjeth": 6519,
      "Ġspin": 6520,
      "Ġintellig": 6521,
      "Ġengines": 6522,
      "Ġamericans": 6523,
      "Ġpassengers": 6524,
      "Ġwondered": 6525,
      "Ġjackson": 6526,
      "Ġpaying": 6527,
      "Ġmcglory": 6528,
      "Ġfolk": 6529,
      "Ġpowder": 6530,
      "Ġinnocent": 6531,
      "Ġlilian": 6532,
      "Ġralph": 6533,
      "hta": 6534,
      "uries": 6535,
      "Ġcouch": 6536,
      "Ġdyn": 6537,
      "Ġmole": 6538,
      "Ġplus": 6539,
      "istry": 6540,
      "Ġpride": 6541,
      "Ġcatholic": 6542,
      "Ġ1987": 6543,
      "Ġlegal": 6544,
      "burgh": 6545,
      "Ġbelongs": 6546,
      "Ġchampionships": 6547,
      "Ġfifa": 6548,
      "Ġathlet": 6549,
      "Ġentrance": 6550,
      "hire": 6551,
      "Ġfed": 6552,
      "Ġpaused": 6553,
      "Ġgon": 6554,
      "Ġnit": 6555,
      "rog": 6556,
      "Ġasia": 6557,
      "Ġrome": 6558,
      "Ġdeput": 6559,
      "Ġvice": 6560,
      "Ġcompar": 6561,
      "Ġworn": 6562,
      "Ġgotten": 6563,
      "cise": 6564,
      "mann": 6565,
      "Ġswall": 6566,
      "Ġ185": 6567,
      "Ġpointed": 6568,
      "lessly": 6569,
      "teddy": 6570,
      "Ġemperor": 6571,
      "Ġspirits": 6572,
      "Ġbuddy": 6573,
      "Ġdelighted": 6574,
      "Ġduke": 6575,
      "Ġeagerly": 6576,
      "Ġindustry": 6577,
      "ondissement": 6578,
      "mond": 6579,
      "hamed": 6580,
      "Ġcage": 6581,
      "Ġowe": 6582,
      "aned": 6583,
      "asa": 6584,
      "also": 6585,
      "eless": 6586,
      "Ġexha": 6587,
      "Ġprem": 6588,
      "Ġpersons": 6589,
      "Ġsquad": 6590,
      "Ġ1989": 6591,
      "Ġrefused": 6592,
      "Ġbritain": 6593,
      "Ġpicnic": 6594,
      "__": 6595,
      "ji": 6596,
      "Ġcups": 6597,
      "Ġjac": 6598,
      "urance": 6599,
      "Ġalice": 6600,
      "Ġaltogether": 6601,
      "Ġguitar": 6602,
      "Ġsteady": 6603,
      "Ġbecomes": 6604,
      "thanks": 6605,
      "Ġ1972": 6606,
      "Ġvillages": 6607,
      "Ġdefense": 6608,
      "Ġsuspic": 6609,
      "Ġrepresented": 6610,
      "Ġsophie": 6611,
      "rels": 6612,
      "Ġcaut": 6613,
      "Ġfel": 6614,
      "icy": 6615,
      "Ġanna": 6616,
      "Ġhelicop": 6617,
      "hess": 6618,
      "Ġremains": 6619,
      "Ġeddie": 6620,
      "Ġdraft": 6621,
      "ancing": 6622,
      "197": 6623,
      "Ġlately": 6624,
      "Ġpurcha": 6625,
      "Ġjumping": 6626,
      "Ġpiggy": 6627,
      "Ġrevol": 6628,
      "Ġaccepted": 6629,
      "Ġbriefly": 6630,
      "Ġgirlfriend": 6631,
      "Ġinspector": 6632,
      "\").": 6633,
      "Ġtat": 6634,
      "Ġtam": 6635,
      "Ġsally": 6636,
      "Ġborrow": 6637,
      "Ġped": 6638,
      "Ġrider": 6639,
      "ĠĠĠĠĠ": 6640,
      "Ġours": 6641,
      "inton": 6642,
      "Ġbelt": 6643,
      "Ġuseful": 6644,
      "Ġpupp": 6645,
      "Ġgrandpa": 6646,
      "Ġfoods": 6647,
      "Ġlessons": 6648,
      "Ġservants": 6649,
      "Ġhoping": 6650,
      "Ġvolume": 6651,
      "Ġlosing": 6652,
      "girl": 6653,
      "lam": 6654,
      "Ġpho": 6655,
      "itz": 6656,
      "Ġandy": 6657,
      "Ġthrill": 6658,
      "Ġrivers": 6659,
      "Ġsuffic": 6660,
      "osity": 6661,
      "Ġuseta": 6662,
      "Ġflood": 6663,
      "Ġgreet": 6664,
      "Ġ1985": 6665,
      "Ġstarring": 6666,
      "Ġ1950": 6667,
      "Ġmurm": 6668,
      "Ġconcent": 6669,
      "Ġblowing": 6670,
      "Ġjersey": 6671,
      "Ġobviously": 6672,
      "Ġequipment": 6673,
      "ju": 6674,
      "lmer": 6675,
      "town": 6676,
      "tick": 6677,
      "Ġtub": 6678,
      "Ġaileen": 6679,
      "rec": 6680,
      "hio": 6681,
      "iring": 6682,
      "Ġshed": 6683,
      "cker": 6684,
      "Ġsche": 6685,
      "rub": 6686,
      "mme": 6687,
      "ocks": 6688,
      "grunts": 6689,
      "Ġlanded": 6690,
      "Ġconfidence": 6691,
      "Ġwaters": 6692,
      "Ġcompanies": 6693,
      "Ġcarolina": 6694,
      "Ġsucceeded": 6695,
      "'...": 6696,
      "23": 6697,
      "bus": 6698,
      "wyn": 6699,
      "Ġdart": 6700,
      "Ġgle": 6701,
      "Ġlola": 6702,
      "Ġrug": 6703,
      "Ġdemon": 6704,
      "Ġboot": 6705,
      "Ġblame": 6706,
      "issa": 6707,
      "leton": 6708,
      "Ġrooms": 6709,
      "Ġelev": 6710,
      "mbur": 6711,
      "Ġchecked": 6712,
      "Ġchampion": 6713,
      "Ġpilchard": 6714,
      "Ġregarded": 6715,
      "Ġscreaming": 6716,
      "Ġphysical": 6717,
      "Ġcustom": 6718,
      "Ġphilipp": 6719,
      "Ġfollows": 6720,
      "rose": 6721,
      "ilton": 6722,
      "Ġaband": 6723,
      "aging": 6724,
      "Ġaffection": 6725,
      "Ġfinds": 6726,
      "Ġmighty": 6727,
      "Ġwarning": 6728,
      "Ġregret": 6729,
      "Ġgrey": 6730,
      "bring": 6731,
      "Ġcathed": 6732,
      "Ġcollection": 6733,
      "Ġmunicipal": 6734,
      "Ġoperation": 6735,
      "Ġhayden": 6736,
      "Ġfreedom": 6737,
      "bor": 6738,
      "via": 6739,
      "Ġbond": 6740,
      "Ġmood": 6741,
      "Ġmask": 6742,
      "urally": 6743,
      "hole": 6744,
      "ĠĠĠ": 6745,
      "Ġlets": 6746,
      "angers": 6747,
      "teacher": 6748,
      "Ġproof": 6749,
      "clears": 6750,
      "Ġ189": 6751,
      "Ġbatala": 6752,
      "Ġstole": 6753,
      "Ġphilos": 6754,
      "Ġopera": 6755,
      "Ġcadet": 6756,
      "Ġstadium": 6757,
      "bot": 6758,
      "joseph": 6759,
      "ping": 6760,
      "Ġsoo": 6761,
      "Ġsik": 6762,
      "Ġdull": 6763,
      "Ġohio": 6764,
      "omi": 6765,
      "Ġunknown": 6766,
      "Ġadmit": 6767,
      "Ġpermission": 6768,
      "Ġexped": 6769,
      "Ġchew": 6770,
      "onsense": 6771,
      "Ġmaid": 6772,
      "Ġ1979": 6773,
      "Ġlawrence": 6774,
      "Ġlads": 6775,
      "Ġbullet": 6776,
      "Ġaylmer": 6777,
      "Ġassistant": 6778,
      "Ġcongressional": 6779,
      "stra": 6780,
      "acle": 6781,
      "Ġsection": 6782,
      "ardo": 6783,
      "Ġross": 6784,
      "Ġwillie": 6785,
      "Ġunf": 6786,
      "boat": 6787,
      "Ġshaking": 6788,
      "Ġbug": 6789,
      "Ġmissouri": 6790,
      "Ġ184": 6791,
      "Ġdollar": 6792,
      "Ġmarked": 6793,
      "Ġstronger": 6794,
      "Ġhoped": 6795,
      "Ġentertainment": 6796,
      "kia": 6797,
      "wha": 6798,
      "yum": 6799,
      "Äģ": 6800,
      "Ġaye": 6801,
      "Ġcig": 6802,
      "ingle": 6803,
      "Ġlane": 6804,
      "Ġnest": 6805,
      "Ġrear": 6806,
      "Ġstool": 6807,
      "hore": 6808,
      "cken": 6809,
      "Ġsup": 6810,
      "Ġcomment": 6811,
      "aka": 6812,
      "Ġunlike": 6813,
      "Ġguide": 6814,
      "into": 6815,
      "Ġexpensive": 6816,
      "Ġtraffic": 6817,
      "Ġexplos": 6818,
      "Ġmummie": 6819,
      "Ġthousands": 6820,
      "Ġeventually": 6821,
      "Ġtemperature": 6822,
      "Ġsacrif": 6823,
      "yo": 6824,
      "Ġaer": 6825,
      "rets": 6826,
      "Ġcu": 6827,
      "Ġyummy": 6828,
      "lemme": 6829,
      "Ġbee": 6830,
      "Ġkil": 6831,
      "elled": 6832,
      "Ġspark": 6833,
      "Ġcarter": 6834,
      "Ġjoey": 6835,
      "lets": 6836,
      "Ġpolish": 6837,
      "Ġ183": 6838,
      "Ġ1982": 6839,
      "Ġstuffed": 6840,
      "Ġmerry": 6841,
      "Ġapproach": 6842,
      "Ġprograms": 6843,
      "Ġhannah": 6844,
      "Ġglasses": 6845,
      "vania": 6846,
      "26": 6847,
      "bird": 6848,
      "dale": 6849,
      "Ġaz": 6850,
      "Ġsings": 6851,
      "Ġpowers": 6852,
      "rier": 6853,
      "ali": 6854,
      "Ġken": 6855,
      "ima": 6856,
      "Ġnoble": 6857,
      "Ġpatrick": 6858,
      "Ġcampbell": 6859,
      "Ġconnection": 6860,
      "sname": 6861,
      "jjj": 6862,
      "Ġadministration": 6863,
      "Ġfierce": 6864,
      "yy": 6865,
      "zed": 6866,
      "Ġtha": 6867,
      "Ġcauses": 6868,
      "Ġtoe": 6869,
      "Ġsock": 6870,
      "Ġnoisy": 6871,
      "aki": 6872,
      "Ġconclud": 6873,
      "emic": 6874,
      "Ġdisney": 6875,
      "doesn": 6876,
      "Ġshark": 6877,
      "sylvania": 6878,
      "hs": 6879,
      "Ġtunnel": 6880,
      "Ġawww": 6881,
      "erous": 6882,
      "Ġwealth": 6883,
      "Ġka": 6884,
      "Ġjar": 6885,
      "Ġmechan": 6886,
      "Ġnotes": 6887,
      "Ġrus": 6888,
      "Ġdeer": 6889,
      "quick": 6890,
      "berries": 6891,
      "achus": 6892,
      "ronic": 6893,
      "Ġbertha": 6894,
      "Ġpacific": 6895,
      "gonna": 6896,
      "low": 6897,
      "Ġtale": 6898,
      "choo": 6899,
      "Ġhits": 6900,
      "Ġmosely": 6901,
      "orted": 6902,
      "Ġchamber": 6903,
      "Ġpartly": 6904,
      "Ġrepro": 6905,
      "Ġpersu": 6906,
      "Ġprovide": 6907,
      "Ġarrival": 6908,
      "Ġsenior": 6909,
      "Ġsuffer": 6910,
      "Ġbiography": 6911,
      "Ġunusual": 6912,
      "gone": 6913,
      "song": 6914,
      "Ġavenue": 6915,
      "Ġdave": 6916,
      "Ġfile": 6917,
      "Ġgord": 6918,
      "esh": 6919,
      "Ġloft": 6920,
      "Ġpole": 6921,
      "Ġteen": 6922,
      "Ġhanded": 6923,
      "Ġchose": 6924,
      "Ġconstant": 6925,
      "whines": 6926,
      "Ġdisappointed": 6927,
      "break": 6928,
      "Ġridic": 6929,
      "Ġpennsylvania": 6930,
      "Ġoccupied": 6931,
      "Ġplatform": 6932,
      "Ġbuttons": 6933,
      "Ġtropical": 6934,
      "mia": 6935,
      "woof": 6936,
      "onge": 6937,
      "orange": 6938,
      "Ġashamed": 6939,
      "ellie": 6940,
      "gee": 6941,
      "Ġloyal": 6942,
      "Ġletting": 6943,
      "Ġmarks": 6944,
      "Ġdriven": 6945,
      "Ġexchan": 6946,
      "Ġwhoo": 6947,
      "cray": 6948,
      "Ġbreathing": 6949,
      "Ġarranged": 6950,
      "Ġjethro": 6951,
      "cies": 6952,
      "last": 6953,
      "Ġsne": 6954,
      "Ġpound": 6955,
      "Ġforbid": 6956,
      "ams": 6957,
      "Ġvaud": 6958,
      "Ġbron": 6959,
      "Ġguests": 6960,
      "ints": 6961,
      "Ġhappiness": 6962,
      "Ġapples": 6963,
      "icted": 6964,
      "Ġstandard": 6965,
      "Ġsixty": 6966,
      "Ġprompt": 6967,
      "Ġpresented": 6968,
      "Ġcloses": 6969,
      "music": 6970,
      "]...": 6971,
      "kind": 6972,
      "Ġwip": 6973,
      "Ġcows": 6974,
      "Ġnapp": 6975,
      "Ġmend": 6976,
      "using": 6977,
      "geon": 6978,
      "oph": 6979,
      "Ġgrat": 6980,
      "Ġpeekaboo": 6981,
      "Ġdisplay": 6982,
      "Ġremi": 6983,
      "Ġcrab": 6984,
      "Ġcontain": 6985,
      "Ġdrum": 6986,
      "Ġducks": 6987,
      "Ġamongst": 6988,
      "Ġticket": 6989,
      "Ġpreviously": 6990,
      "Ġrubber": 6991,
      "arrass": 6992,
      "Ġrestaurant": 6993,
      "tect": 6994,
      "yl": 6995,
      "Ġig": 6996,
      "still": 6997,
      "etts": 6998,
      "Ġanger": 6999,
      "Ġseized": 7000,
      "Ġhipp": 7001,
      "Ġras": 7002,
      "unting": 7003,
      "Ġshy": 7004,
      "Ġamuse": 7005,
      "Ġunable": 7006,
      "Ġcounties": 7007,
      "clever": 7008,
      "Ġpossession": 7009,
      "Ġkissing": 7010,
      "Ġrequired": 7011,
      "Ġslip": 7012,
      "Ġpunishment": 7013,
      "Ġdespite": 7014,
      "Ġdreadful": 7015,
      "Ġroute": 7016,
      "Ġfalse": 7017,
      "Ġinhabitants": 7018,
      "Ġcathedral": 7019,
      "breat": 7020,
      "kno": 7021,
      "Ġwing": 7022,
      "Ġsigh": 7023,
      "Ġcott": 7024,
      "Ġpist": 7025,
      "stan": 7026,
      "aye": 7027,
      "Ġreward": 7028,
      "umes": 7029,
      "aghetti": 7030,
      "Ġadult": 7031,
      "Ġwrit": 7032,
      "Ġkeen": 7033,
      "Ġchart": 7034,
      "Ġï¿½ï¿½ï¿½": 7035,
      "Ġdraws": 7036,
      "Ġcoloring": 7037,
      "Ã¡n": 7038,
      "Ġcleaning": 7039,
      "Ġrolled": 7040,
      "Ġpostman": 7041,
      "Ġpigs": 7042,
      "Ġsolid": 7043,
      "Ġcycl": 7044,
      "Ġcompleted": 7045,
      "cap": 7046,
      "home": 7047,
      "ule": 7048,
      "Ġsung": 7049,
      "Ġfits": 7050,
      "Ġstack": 7051,
      "Ġhoo": 7052,
      "Ġanno": 7053,
      "Ġseated": 7054,
      "aste": 7055,
      "Ġsched": 7056,
      "Ġworkers": 7057,
      "Ġboyfriend": 7058,
      "Ġbuzz": 7059,
      "Ġcolon": 7060,
      "Ġdeserve": 7061,
      "Ġdistant": 7062,
      "coln": 7063,
      "comm": 7064,
      "atively": 7065,
      "Ġauthority": 7066,
      "Ġphilip": 7067,
      "crying": 7068,
      "bir": 7069,
      "bud": 7070,
      "Ġhers": 7071,
      "inde": 7072,
      "venge": 7073,
      "Ġbuff": 7074,
      "Ġdrag": 7075,
      "Ġbrick": 7076,
      "Ġlaun": 7077,
      "Ġfuneral": 7078,
      "Ġshortly": 7079,
      "Ġuniverse": 7080,
      "Ġattacks": 7081,
      "Ġeffects": 7082,
      "Ġsnakes": 7083,
      "Ġsuffering": 7084,
      "Ġembarrass": 7085,
      "Ġwhistle": 7086,
      "squeals": 7087,
      "Ġturkish": 7088,
      "Ġtheatre": 7089,
      "cons": 7090,
      "wis": 7091,
      "Ġtort": 7092,
      "Ġlas": 7093,
      "Ġecho": 7094,
      "adel": 7095,
      "abel": 7096,
      "Ġvast": 7097,
      "Ġfeather": 7098,
      "Ġlightning": 7099,
      "Ġrecent": 7100,
      "Ġconserv": 7101,
      "Ġofficially": 7102,
      "Ġtyler": 7103,
      "Ġraining": 7104,
      "Ġdivided": 7105,
      "Ġlux": 7106,
      "Ġhamilton": 7107,
      "cur": 7108,
      "gate": 7109,
      "mind": 7110,
      "paper": 7111,
      "takes": 7112,
      "inal": 7113,
      "Ġcau": 7114,
      "arian": 7115,
      "Ġult": 7116,
      "enth": 7117,
      "andy": 7118,
      "Ġbore": 7119,
      "Ġcomed": 7120,
      "Ġuns": 7121,
      "Ġflung": 7122,
      "deb": 7123,
      "close": 7124,
      "neath": 7125,
      "Ġshock": 7126,
      "uced": 7127,
      "Ġvisited": 7128,
      "Ġmercy": 7129,
      "Ġ1969": 7130,
      "glas": 7131,
      "idae": 7132,
      "Ġlimited": 7133,
      "Ġbubbles": 7134,
      "Ġburton": 7135,
      "fit": 7136,
      "ipe": 7137,
      "mitted": 7138,
      "nut": 7139,
      "Ġtag": 7140,
      "ati": 7141,
      "sell": 7142,
      "hens": 7143,
      "Ġune": 7144,
      "Ġscen": 7145,
      "rences": 7146,
      "Ġholl": 7147,
      "Ġacted": 7148,
      "Ġcolored": 7149,
      "amples": 7150,
      "Ġpointing": 7151,
      "Ġreliance": 7152,
      "Ġinvol": 7153,
      "Ġmissionary": 7154,
      "Ġlincoln": 7155,
      "Ġmysterious": 7156,
      "Ġdesperate": 7157,
      "ded": 7158,
      "lies": 7159,
      "ok": 7160,
      "pill": 7161,
      "uchi": 7162,
      "vid": 7163,
      "Ġsons": 7164,
      "Ġseasons": 7165,
      "ctive": 7166,
      "Ġalan": 7167,
      "acker": 7168,
      "iger": 7169,
      "Ġrode": 7170,
      "Ġpercent": 7171,
      "Ġcontains": 7172,
      "Ġnorthe": 7173,
      "Ġ35": 7174,
      "Ġsetting": 7175,
      "Ġbushes": 7176,
      "azz": 7177,
      "Ġchairman": 7178,
      "shh": 7179,
      "Ġnatives": 7180,
      "Ġsignific": 7181,
      "nesday": 7182,
      "Ġdescription": 7183,
      "Ġpropos": 7184,
      "giving": 7185,
      "Ġinvestigation": 7186,
      "softly": 7187,
      "Ġjunior": 7188,
      "Ġtin": 7189,
      "Ġfake": 7190,
      "ington": 7191,
      "icate": 7192,
      "Ġkir": 7193,
      "Ġgoals": 7194,
      "eau": 7195,
      "Ġintake": 7196,
      "Ġpear": 7197,
      "Ġscat": 7198,
      "Ġguards": 7199,
      "Ġfinan": 7200,
      "Ġretire": 7201,
      "Ġspeaker": 7202,
      "Ġ1981": 7203,
      "Ġconfess": 7204,
      "Ġ1976": 7205,
      "Ġexplan": 7206,
      "Ġmurdered": 7207,
      "uki": 7208,
      "Ġsusan": 7209,
      "Ġhydro": 7210,
      "Ġspecific": 7211,
      "Ġshouting": 7212,
      "Ġoxford": 7213,
      "achusetts": 7214,
      "cest": 7215,
      "Ġwre": 7216,
      "Ġsaus": 7217,
      "Ġcind": 7218,
      "Ġcries": 7219,
      "Ġded": 7220,
      "Ġlisa": 7221,
      "Ġweb": 7222,
      "Ġgosh": 7223,
      "Ġspots": 7224,
      "Ġshri": 7225,
      "fected": 7226,
      "Ġnicely": 7227,
      "Ġinternet": 7228,
      "Ġhorror": 7229,
      "spect": 7230,
      "Ġbuilder": 7231,
      "cycle": 7232,
      "Ġgrav": 7233,
      "Ġwooden": 7234,
      "Ġicecream": 7235,
      "Ġprisoners": 7236,
      "Ġinterrupted": 7237,
      "Ġwrestling": 7238,
      "Ġarchitect": 7239,
      "Ġshelter": 7240,
      "Ġincredible": 7241,
      "jump": 7242,
      "Ġwoke": 7243,
      "Ġmas": 7244,
      "Ġos": 7245,
      "Ġpressed": 7246,
      "Ġincl": 7247,
      "Ġrent": 7248,
      "Ġstamp": 7249,
      "Ġfork": 7250,
      "Ġthunder": 7251,
      "Ġnoted": 7252,
      "rah": 7253,
      "ulate": 7254,
      "Ġbos": 7255,
      "Ġdies": 7256,
      "Ġclip": 7257,
      "Ġadvis": 7258,
      "Ġjolly": 7259,
      "âĻ«": 7260,
      "Ġcolumn": 7261,
      "inned": 7262,
      "Ġplanet": 7263,
      "Ġlemon": 7264,
      "Ġcapture": 7265,
      "Ġtorn": 7266,
      "Ġmagnetic": 7267,
      "Ġnephew": 7268,
      "Ġrahul": 7269,
      "bin": 7270,
      "bill": 7271,
      "ĠâĻ«": 7272,
      "Ġdumb": 7273,
      "Ġlic": 7274,
      "Ġjin": 7275,
      "ilight": 7276,
      "Ġanyhow": 7277,
      "Ġchips": 7278,
      "Ġunexp": 7279,
      "Ġ36": 7280,
      "ivity": 7281,
      "Ġ1984": 7282,
      "Ġpoorly": 7283,
      "Ġpengu": 7284,
      "Ġdetails": 7285,
      "Ġsystems": 7286,
      "Ġproposed": 7287,
      "vocalization": 7288,
      "Ġgira": 7289,
      "Ġscotland": 7290,
      "codile": 7291,
      "27": 7292,
      "Ġsession": 7293,
      "Ġyep": 7294,
      "Ġlink": 7295,
      "Ġmeasure": 7296,
      "Ġlif": 7297,
      "Ġgods": 7298,
      "Ġframe": 7299,
      "akin": 7300,
      "istics": 7301,
      "iana": 7302,
      "Ġtear": 7303,
      "gets": 7304,
      "need": 7305,
      "Ġglanced": 7306,
      "Ġerr": 7307,
      "Ġgenus": 7308,
      "Ġauntie": 7309,
      "Ġmiserable": 7310,
      "Ġlocation": 7311,
      "Ġloudly": 7312,
      "Ġviolence": 7313,
      "Ġthreatened": 7314,
      "Ġvictoria": 7315,
      "Ġpipe": 7316,
      "Ġfisher": 7317,
      "Ġbastard": 7318,
      "cles": 7319,
      "lady": 7320,
      "ox": 7321,
      "run": 7322,
      "Ã¢": 7323,
      "Ġmast": 7324,
      "Ġfab": 7325,
      "Ġod": 7326,
      "Ġnonsense": 7327,
      "aro": 7328,
      "apa": 7329,
      "Ġpean": 7330,
      "Ġ2023": 7331,
      "Ġreality": 7332,
      "Ġsounded": 7333,
      "shine": 7334,
      "Ġjobs": 7335,
      "Ġservant": 7336,
      "somebody": 7337,
      "ĠĠĠĠĠĠĠ": 7338,
      "Ġcompeted": 7339,
      "Ġbarbara": 7340,
      "Ġobliged": 7341,
      "Ġprovinces": 7342,
      "dou": 7343,
      "eg": 7344,
      "lings": 7345,
      "tv": 7346,
      "Ġou": 7347,
      "inem": 7348,
      "Ġcreeks": 7349,
      "Ġoli": 7350,
      "oray": 7351,
      "Ġnancy": 7352,
      "Ġheight": 7353,
      "Ġhom": 7354,
      "andra": 7355,
      "Ġnokia": 7356,
      "Ġplanning": 7357,
      "inkle": 7358,
      "Ġfever": 7359,
      "gger": 7360,
      "Ġkevin": 7361,
      "Ġpassage": 7362,
      "Ġbelief": 7363,
      "Ġanimated": 7364,
      "Ġconscious": 7365,
      "Ġawa": 7366,
      "gnant": 7367,
      "Ġapproaching": 7368,
      "Ġjenny": 7369,
      "Ġblew": 7370,
      "Ġwhale": 7371,
      "Ġwicked": 7372,
      "listen": 7373,
      "Ġol": 7374,
      "anas": 7375,
      "Ġhond": 7376,
      "ops": 7377,
      "Ġintense": 7378,
      "Ġunif": 7379,
      "Ġblows": 7380,
      "Ġexceed": 7381,
      "Ġscary": 7382,
      "Ġscored": 7383,
      "Ġpregnant": 7384,
      "Ġcharges": 7385,
      "Ġ80": 7386,
      "ĠâĢĺ_": 7387,
      "Ġlesson": 7388,
      "Ġspending": 7389,
      "Ġdelightful": 7390,
      "Ġbasketball": 7391,
      "Ġgoddess": 7392,
      "Ġcongratulations": 7393,
      "Ġgrateful": 7394,
      "pil": 7395,
      "Ã¦": 7396,
      "heim": 7397,
      "Ġdough": 7398,
      "Ġrefe": 7399,
      "Ġconver": 7400,
      "Ġconsp": 7401,
      "Ġchallen": 7402,
      "Ġattended": 7403,
      "Ġenthus": 7404,
      "Ġartists": 7405,
      "Ġstarred": 7406,
      "Ġroads": 7407,
      "Ġtempt": 7408,
      "Ġarrive": 7409,
      "Ġmassachusetts": 7410,
      "Ġdiscovery": 7411,
      "Ã³n": 7412,
      "Ġconduct": 7413,
      "Ġtissue": 7414,
      "Ġridiculous": 7415,
      "mal": 7416,
      "pse": 7417,
      "pict": 7418,
      "tha": 7419,
      "zing": 7420,
      "Ġire": 7421,
      "Ġdal": 7422,
      "riff": 7423,
      "acious": 7424,
      "Ġthumb": 7425,
      "Ġanton": 7426,
      "Ġdonkey": 7427,
      "Ġdey": 7428,
      "Ġsecure": 7429,
      "Ġunderneath": 7430,
      "Ġhousehold": 7431,
      "mmm": 7432,
      "Ġmonkeys": 7433,
      "god": 7434,
      "Ġbegun": 7435,
      "logy": 7436,
      "sharp": 7437,
      "Ġ1964": 7438,
      "Ġeighteen": 7439,
      "Ġtroubles": 7440,
      "Ġproduce": 7441,
      "sniffs": 7442,
      "Ġincreased": 7443,
      "Ġsolemn": 7444,
      "Ġmcdonalds": 7445,
      "aah": 7446,
      "til": 7447,
      "wide": 7448,
      "Ġwoo": 7449,
      "refer": 7450,
      "Ġbust": 7451,
      "orter": 7452,
      "itan": 7453,
      "Ġere": 7454,
      "Ġseas": 7455,
      "apo": 7456,
      "next": 7457,
      "Ġcolour": 7458,
      "Ġswept": 7459,
      "Ġvoy": 7460,
      "Ġpolite": 7461,
      "Ġimper": 7462,
      "ussy": 7463,
      "Ġrefers": 7464,
      "Ġmidnight": 7465,
      "Ġreaching": 7466,
      "Ġturkey": 7467,
      "Ġmemor": 7468,
      "Ġviolent": 7469,
      "500": 7470,
      "away": 7471,
      "eys": 7472,
      "mil": 7473,
      "mrs": 7474,
      "nam": 7475,
      "Ġbour": 7476,
      "Ġcav": 7477,
      "Ġ\"\"": 7478,
      "ability": 7479,
      "thomas": 7480,
      "Ġparties": 7481,
      "ailed": 7482,
      "umpy": 7483,
      "Ġthief": 7484,
      "Ġfriendship": 7485,
      "ropri": 7486,
      "works": 7487,
      "Ġbalance": 7488,
      "Ġdocument": 7489,
      "Ġpotatoes": 7490,
      "Ġassemb": 7491,
      "Ġfrancisco": 7492,
      "Ġunexpected": 7493,
      "mel": 7494,
      "ugh": 7495,
      "wind": 7496,
      "Ġsab": 7497,
      "stay": 7498,
      "isl": 7499,
      "Ġdoctors": 7500,
      "Ġancest": 7501,
      "Ġasp": 7502,
      "Ġaltern": 7503,
      "Ġspy": 7504,
      "Ġmanip": 7505,
      "Ġquant": 7506,
      "Ġchildhood": 7507,
      "Ġmissus": 7508,
      "Ġmustn": 7509,
      "Ġumbre": 7510,
      "inson": 7511,
      "Ġnearby": 7512,
      "Ġ1968": 7513,
      "Ġ1930": 7514,
      "Ġremaining": 7515,
      "Ġeliot": 7516,
      "Ġwarriors": 7517,
      "Ġscript": 7518,
      "jan": 7519,
      "nge": 7520,
      "Ġsed": 7521,
      "Ġsom": 7522,
      "Ġpeak": 7523,
      "Ġrho": 7524,
      "Ġrude": 7525,
      "uses": 7526,
      "Ġabo": 7527,
      "Ġleather": 7528,
      "Ġblaz": 7529,
      "ahhah": 7530,
      "Ġsets": 7531,
      "Ġreturning": 7532,
      "Ġdouglas": 7533,
      "Ġextended": 7534,
      "Ġearned": 7535,
      "Ġqueens": 7536,
      "Ġissues": 7537,
      "Ġprepare": 7538,
      "Ġsatisfaction": 7539,
      "Ġaudience": 7540,
      "Ġatlantic": 7541,
      "Ġeagle": 7542,
      "whee": 7543,
      "once": 7544,
      "icated": 7545,
      "Ġrebecca": 7546,
      "aman": 7547,
      "Ġalt": 7548,
      "Ġshh": 7549,
      "ague": 7550,
      "Ġcarpet": 7551,
      "Ġprior": 7552,
      "Ġimpress": 7553,
      "Ġ1975": 7554,
      "Ġcryst": 7555,
      "Ġsunshine": 7556,
      "Ġcreatures": 7557,
      "Ġportion": 7558,
      "Ġvisitors": 7559,
      "Ġdisappear": 7560,
      "Ġapproached": 7561,
      "Ġbelonged": 7562,
      "Ġselling": 7563,
      "Ġadmitted": 7564,
      "Ġpolicy": 7565,
      "Ġincrease": 7566,
      "Ġrailway": 7567,
      "Ġpitched": 7568,
      "Ġgabriella": 7569,
      "Ġpronoun": 7570,
      "Ġassembly": 7571,
      "rac": 7572,
      "Ġtack": 7573,
      "Ġcakes": 7574,
      "lls": 7575,
      "Ġlwww": 7576,
      "Ġnord": 7577,
      "oli": 7578,
      "Ġshining": 7579,
      "Ġlover": 7580,
      "life": 7581,
      "Ġcomplic": 7582,
      "Ġwrites": 7583,
      "Ġsurr": 7584,
      "ursday": 7585,
      "Ġminds": 7586,
      "Ġkidna": 7587,
      "Ġprotection": 7588,
      "Ġhundreds": 7589,
      "Ġconnected": 7590,
      "Ġconsiderable": 7591,
      "Ġinjured": 7592,
      "28": 7593,
      "nine": 7594,
      "tis": 7595,
      "inity": 7596,
      "Ġopt": 7597,
      "Ġgarth": 7598,
      "essee": 7599,
      "Ġhend": 7600,
      "Ġreign": 7601,
      "Ġstout": 7602,
      "kee": 7603,
      "Ġanth": 7604,
      "igator": 7605,
      "Ġunhappy": 7606,
      "before": 7607,
      "peekaboo": 7608,
      "Ġcheap": 7609,
      "Ġeditor": 7610,
      "whose": 7611,
      "Ġreturns": 7612,
      "Ġcrap": 7613,
      "Ġgrape": 7614,
      "Ġappears": 7615,
      "Ġclimbed": 7616,
      "Ġlabour": 7617,
      "Ġstructure": 7618,
      "Ġconditions": 7619,
      "pretty": 7620,
      "Ġgradually": 7621,
      "Ġpenny": 7622,
      "Ġdeliver": 7623,
      "Ġwishes": 7624,
      "Ġtennessee": 7625,
      "Ġsauce": 7626,
      "Ġexecutive": 7627,
      "Ġsymbol": 7628,
      "referring": 7629,
      "ae": 7630,
      "ost": 7631,
      "Ġlan": 7632,
      "Ġonline": 7633,
      "Ġbeans": 7634,
      "Ġruff": 7635,
      "Ġability": 7636,
      "Ġgettin": 7637,
      "Ġmanuf": 7638,
      "Ġages": 7639,
      "Ġfeast": 7640,
      "Ġhoward": 7641,
      "Ġpeep": 7642,
      "Ġpecul": 7643,
      "Ġquack": 7644,
      "Ġdisg": 7645,
      "anche": 7646,
      "Ġnaturally": 7647,
      "Ġsixteen": 7648,
      "Ġhumans": 7649,
      "Ġ1977": 7650,
      "Ġmerged": 7651,
      "post": 7652,
      "Ġfactory": 7653,
      "Ġdaisy": 7654,
      "Ġcrossing": 7655,
      "Ġtemple": 7656,
      "Ġmajority": 7657,
      "Ġrequire": 7658,
      "Ġstroke": 7659,
      "gabr": 7660,
      "Ġprincipal": 7661,
      "Ġireland": 7662,
      "ips": 7663,
      "pit": 7664,
      "hib": 7665,
      "hicle": 7666,
      "Ġgates": 7667,
      "iture": 7668,
      "ros": 7669,
      "Ġdod": 7670,
      "Ġfrag": 7671,
      "Ġalger": 7672,
      "Ġcommitted": 7673,
      "Ġattached": 7674,
      "196": 7675,
      "Ġ1974": 7676,
      "Ġsorts": 7677,
      "Ġdressing": 7678,
      "Ġreports": 7679,
      "Ġnearest": 7680,
      "Ġkorean": 7681,
      "Ġcontribut": 7682,
      "Ġuncomfort": 7683,
      "Ġmanufact": 7684,
      "45": 7685,
      "Ġaft": 7686,
      "Ġwes": 7687,
      "Ġsis": 7688,
      "Ġdug": 7689,
      "Ġstiff": 7690,
      "irt": 7691,
      "Ġribb": 7692,
      "Ġboom": 7693,
      "Ġconvin": 7694,
      "Ġnowhere": 7695,
      "Ġmaria": 7696,
      "Ġ33": 7697,
      "Ġpoland": 7698,
      "Ġthankful": 7699,
      "Ġzero": 7700,
      "Ġfunction": 7701,
      "Ġwednesday": 7702,
      "Ġholidays": 7703,
      "Ġexpedition": 7704,
      ",...": 7705,
      "sound": 7706,
      "Ġarose": 7707,
      "Ġwo": 7708,
      "Ġbor": 7709,
      "Ġpau": 7710,
      "Ġlaughter": 7711,
      "hati": 7712,
      "Ġkas": 7713,
      "Ġjosh": 7714,
      "Ġnod": 7715,
      "estion": 7716,
      "bear": 7717,
      "Ġcomposed": 7718,
      "Ġdrank": 7719,
      "Ġaccused": 7720,
      "Ġsupply": 7721,
      "Ã©e": 7722,
      "Ġcalcul": 7723,
      "Ġ70": 7724,
      "Ġcamer": 7725,
      "Ġtouching": 7726,
      "Ġtraditional": 7727,
      "Ġexercise": 7728,
      "Ġukraine": 7729,
      "Ġdeputy": 7730,
      "cook": 7731,
      "gues": 7732,
      "mate": 7733,
      "pre": 7734,
      "inated": 7735,
      "Ġsadd": 7736,
      "Ġmig": 7737,
      "Ġfc": 7738,
      "ami": 7739,
      "Ġjelly": 7740,
      "Ġanaly": 7741,
      "elle": 7742,
      "Ġteaching": 7743,
      "Ġcheers": 7744,
      "Ġkindness": 7745,
      "Ġpresents": 7746,
      "Ġbeds": 7747,
      "Ġuseless": 7748,
      "Ġkiller": 7749,
      "Ġswear": 7750,
      "Ġcurtain": 7751,
      "Ġdefence": 7752,
      "Ġcommonly": 7753,
      "Ġtreatment": 7754,
      "Ġhealthy": 7755,
      "build": 7756,
      "Ġstares": 7757,
      "Ġhistorical": 7758,
      "Ġmuttered": 7759,
      "nnn": 7760,
      "Ġutterance": 7761,
      "Ġcottage": 7762,
      "ngeun": 7763,
      "lant": 7764,
      "ores": 7765,
      "won": 7766,
      "onation": 7767,
      "erg": 7768,
      "ani": 7769,
      "Ġstations": 7770,
      "Ġjos": 7771,
      "Ġmeg": 7772,
      "Ġsheriff": 7773,
      "uled": 7774,
      "Ġlewis": 7775,
      "cla": 7776,
      "Ġremove": 7777,
      "Ġattorn": 7778,
      "Ġdistingu": 7779,
      "Ġ1973": 7780,
      "Ġpainted": 7781,
      "Ġtempor": 7782,
      "dded": 7783,
      "Ġseparated": 7784,
      "hetic": 7785,
      "keeper": 7786,
      "jamin": 7787,
      "Ġhelicopter": 7788,
      "Ġconcluded": 7789,
      "29": 7790,
      "jac": 7791,
      "ku": 7792,
      "hall": 7793,
      "Ġms": 7794,
      "Ġmental": 7795,
      "Ġfare": 7796,
      "Ġpiss": 7797,
      "oos": 7798,
      "ques": 7799,
      "Ġ(,": 7800,
      "Ġbrun": 7801,
      "Ġshapes": 7802,
      "Ġpriest": 7803,
      "Ġexplore": 7804,
      "Ġsales": 7805,
      "Ġexperiment": 7806,
      "Ġrepresentative": 7807,
      "ologist": 7808,
      "Ġsexual": 7809,
      "everybody": 7810,
      "Ġjewish": 7811,
      "Ġpoetry": 7812,
      "Ġextremely": 7813,
      "Ġcotton": 7814,
      "Ġumbrella": 7815,
      "grow": 7816,
      "hn": 7817,
      "mont": 7818,
      "Ġax": 7819,
      "Ġwacker": 7820,
      "Ġmcc": 7821,
      "Ġlimit": 7822,
      "Ġgoat": 7823,
      "Ġroo": 7824,
      "unte": 7825,
      "aine": 7826,
      "Ġagency": 7827,
      "Ġtrace": 7828,
      "Ġbru": 7829,
      "Ġgranny": 7830,
      "Ġcovid": 7831,
      "beep": 7832,
      "Ġpoem": 7833,
      "Ġcompound": 7834,
      "Ġtriangle": 7835,
      "Ġpops": 7836,
      "Ġstopping": 7837,
      "Ġimportance": 7838,
      "Ġcereal": 7839,
      "Ġbudget": 7840,
      "probably": 7841,
      "Ġcheerful": 7842,
      "Ġarrows": 7843,
      "Ġproceeded": 7844,
      "Ġtennis": 7845,
      "Ġuncomfortable": 7846,
      "gne": 7847,
      "ras": 7848,
      "wick": 7849,
      "Ġairl": 7850,
      "inini": 7851,
      "Ġsank": 7852,
      "hile": 7853,
      "Ġbree": 7854,
      "Ġdining": 7855,
      "Ġpas": 7856,
      "Ġgest": 7857,
      "Ġwebs": 7858,
      "ighed": 7859,
      "Ġwhoever": 7860,
      "Ġbackwards": 7861,
      "Ġsurgery": 7862,
      "Ġbenjamin": 7863,
      "Ġdrift": 7864,
      "twenty": 7865,
      "Ġbags": 7866,
      "Ġmistaken": 7867,
      "Ġthirteen": 7868,
      "Ġnaval": 7869,
      "Ġbonnet": 7870,
      "Ġstanley": 7871,
      "Ġtidy": 7872,
      "Ġarticle": 7873,
      "contin": 7874,
      "gbark": 7875,
      "Ġcitizens": 7876,
      "Ġmultiple": 7877,
      "Ġfinancial": 7878,
      "picture": 7879,
      "mouth": 7880,
      "Ġ:": 7881,
      "Ġsou": 7882,
      "Ġbeard": 7883,
      "Ġstable": 7884,
      "Ġstared": 7885,
      "Ġron": 7886,
      "uncle": 7887,
      "ili": 7888,
      "Ġconcl": 7889,
      "Ġprospect": 7890,
      "asses": 7891,
      "Ġchum": 7892,
      "Ġcompared": 7893,
      "Ġkeith": 7894,
      "brinini": 7895,
      "Ġstores": 7896,
      "Ġestim": 7897,
      "Ġhyun": 7898,
      "Ġgarbage": 7899,
      "Ġexpecting": 7900,
      "Ġdemanded": 7901,
      "thir": 7902,
      "Ġclaire": 7903,
      "Ġmerely": 7904,
      "Ġfantastic": 7905,
      "Ġadopted": 7906,
      "Ġwrapped": 7907,
      "iries": 7908,
      "Â°": 7909,
      "hard": 7910,
      "Ġdigg": 7911,
      "Ġpup": 7912,
      "them": 7913,
      "Ġtramp": 7914,
      "Ġfee": 7915,
      "ffin": 7916,
      "Ġdisag": 7917,
      "Ġcomplex": 7918,
      "Ġharvey": 7919,
      "today": 7920,
      "Ġ1957": 7921,
      "kyo": 7922,
      "Ġepisodes": 7923,
      "Ġprimary": 7924,
      "Ġsurrounded": 7925,
      "ares": 7926,
      "aurs": 7927,
      "eves": 7928,
      "lst": 7929,
      "Ġtide": 7930,
      "Ġbun": 7931,
      "Ġdot": 7932,
      "Ġtokyo": 7933,
      "Ġpace": 7934,
      "ori": 7935,
      "Ġandre": 7936,
      "Ġbeep": 7937,
      "Ġrage": 7938,
      "Ġali": 7939,
      "---": 7940,
      "moves": 7941,
      "Ġresour": 7942,
      "Ġcharged": 7943,
      "Ġobtained": 7944,
      "scri": 7945,
      "Ġleads": 7946,
      "Ġhurting": 7947,
      "Ġillness": 7948,
      "Ġcriminal": 7949,
      "Ġcerem": 7950,
      "Ġmistress": 7951,
      "Ġclosing": 7952,
      "phia": 7953,
      "Ġaccompan": 7954,
      "warren": 7955,
      "Ġcommercial": 7956,
      "hammad": 7957,
      "Ġmethod": 7958,
      "Ġceremony": 7959,
      "?]": 7960,
      "gment": 7961,
      "gimme": 7962,
      "made": 7963,
      "Ġcateg": 7964,
      "Ġdaw": 7965,
      "Ġyer": 7966,
      "Ġgb": 7967,
      "itable": 7968,
      "Ġrend": 7969,
      "amn": 7970,
      "chris": 7971,
      "Ġhired": 7972,
      "Ġwhit": 7973,
      "Ġwanting": 7974,
      "Ġintend": 7975,
      "aterpill": 7976,
      "Ġshagbark": 7977,
      "Ġunderground": 7978,
      "Ġapplic": 7979,
      "apple": 7980,
      "Ġlands": 7981,
      "Ġconfident": 7982,
      "white": 7983,
      "zzy": 7984,
      "Ġkisses": 7985,
      "Ġbreathe": 7986,
      "Ġdevice": 7987,
      "Ġpackage": 7988,
      "arrondissement": 7989,
      "Ġfeeding": 7990,
      "Ġresponsibility": 7991,
      "Ġcuddle": 7992,
      "lu": 7993,
      "master": 7994,
      "Ġwret": 7995,
      "Ġsought": 7996,
      "Ġirish": 7997,
      "oni": 7998,
      "Ġcj": 7999,
      "Ġtools": 8000,
      "Ġnhl": 8001,
      "Ġatm": 8002,
      "Ġheaded": 8003,
      "Ġmathe": 8004,
      "aughters": 8005,
      "places": 8006,
      "Ġinstance": 8007,
      "Ġalongside": 8008,
      "Ġ1966": 8009,
      "Ġpotty": 8010,
      "Ġdirt": 8011,
      "Ġmerriman": 8012,
      "Ġlaunched": 8013,
      "Ġgiraffe": 8014,
      "Ġhenderson": 8015,
      "call": 8016,
      "pres": 8017,
      "tri": 8018,
      "uable": 8019,
      "Ġtib": 8020,
      "Ġsher": 8021,
      "Ġcf": 8022,
      "Ġfetch": 8023,
      "Ġpars": 8024,
      "Ġpatch": 8025,
      "Ġkay": 8026,
      "Ġjagu": 8027,
      "Ġanch": 8028,
      "âĢľ": 8029,
      "Ġrh": 8030,
      "Ġcomin": 8031,
      "Ġload": 8032,
      "Ġtwilight": 8033,
      "Ġbrooke": 8034,
      "Ġblast": 8035,
      "itei": 8036,
      "pton": 8037,
      "manrat": 8038,
      "Ġmothers": 8039,
      "Ġhorat": 8040,
      "Ġcuts": 8041,
      "Ġmidst": 8042,
      "Ġgraeme": 8043,
      "Ġ1940": 8044,
      "Ġvolunte": 8045,
      "Ġpacked": 8046,
      "Ġneighbour": 8047,
      "Ġfreder": 8048,
      "newmanrat": 8049,
      "Ġcadets": 8050,
      "Ġeconomy": 8051,
      "Ġadministr": 8052,
      "interviews": 8053,
      "Ġsmoking": 8054,
      "Ġursula": 8055,
      "Ġsikander": 8056,
      "adelphia": 8057,
      "newmanratner": 8058,
      "48": 8059,
      "99": 8060,
      ";\"": 8061,
      "bad": 8062,
      "pink": 8063,
      "pig": 8064,
      "yup": 8065,
      "haw": 8066,
      "Ġbars": 8067,
      "Ġborough": 8068,
      "Ġding": 8069,
      "Ġgam": 8070,
      "Ġlung": 8071,
      "escue": 8072,
      "asant": 8073,
      "ussing": 8074,
      "Ġquality": 8075,
      "Ġmarion": 8076,
      "Ġprey": 8077,
      "Ġhollow": 8078,
      "Ġactions": 8079,
      "Ġlasted": 8080,
      "Ġendea": 8081,
      "Ġengage": 8082,
      "Ġconfusion": 8083,
      "Ġ1971": 8084,
      "Ġ1978": 8085,
      "Ġextent": 8086,
      "Ġeighty": 8087,
      "Ġcowboy": 8088,
      "Ġluke": 8089,
      "Ġfaithful": 8090,
      "Ġanxiety": 8091,
      "Ġninet": 8092,
      "Ġ/": 8093,
      "Ġeth": 8094,
      "Ġwins": 8095,
      "Ġct": 8096,
      "eness": 8097,
      "Ġhambur": 8098,
      "Ġbeating": 8099,
      "Ġbegged": 8100,
      "sex": 8101,
      "Ġkate": 8102,
      "Ġseal": 8103,
      "ckets": 8104,
      "ivered": 8105,
      "Ġfourteen": 8106,
      "Ġaddressed": 8107,
      "Ġjapazy": 8108,
      "Ġstaring": 8109,
      "hart": 8110,
      "Ġactivist": 8111,
      "Ġfoolish": 8112,
      "Ġslavery": 8113,
      "Ġnapkin": 8114,
      "Ġduncan": 8115,
      "Ġsailor": 8116,
      "Ġuncons": 8117,
      "Ġresponded": 8118,
      "Ġunfortunately": 8119,
      "Ġinstrument": 8120,
      "school": 8121,
      "Ġcomrades": 8122,
      "Ġisaac": 8123,
      "ben": 8124,
      "bat": 8125,
      "bridge": 8126,
      "hr": 8127,
      "spe": 8128,
      "silly": 8129,
      "tu": 8130,
      "Ġtel": 8131,
      "Ġpul": 8132,
      "Ġpussy": 8133,
      "Ġjay": 8134,
      "iments": 8135,
      "ainted": 8136,
      "Ġmosc": 8137,
      "Ġclient": 8138,
      "Ġblake": 8139,
      "Ġchildsname": 8140,
      "Ġindign": 8141,
      "Ġinstantly": 8142,
      "speaking": 8143,
      "annine": 8144,
      "Ġ1983": 8145,
      "Ġconstru": 8146,
      "Ġvehicle": 8147,
      "Ġaustria": 8148,
      "Ġkicked": 8149,
      "Ġscientific": 8150,
      "iji": 8151,
      "better": 8152,
      "Ġharrison": 8153,
      "quarters": 8154,
      "Ġliquid": 8155,
      "Ġvotes": 8156,
      "Ġgordon": 8157,
      "Ġfrederick": 8158,
      "vas": 8159,
      "Ġtay": 8160,
      "Ġbbc": 8161,
      "Ġfasc": 8162,
      "Ġpoop": 8163,
      "Ġlav": 8164,
      "Ġincome": 8165,
      "Ġkong": 8166,
      "Ġsponge": 8167,
      "Ġspaghetti": 8168,
      "Ġwhir": 8169,
      "Ġleaning": 8170,
      "Ġactual": 8171,
      "Ġcolumb": 8172,
      "Ġimpression": 8173,
      "Ġ180": 8174,
      "Ġretreat": 8175,
      "Ġvision": 8176,
      "Ġarmitage": 8177,
      "Ġclothing": 8178,
      "Ġbillion": 8179,
      "Ġ1956": 8180,
      "Ġfortescue": 8181,
      "Ġsoftware": 8182,
      "Ġruined": 8183,
      "Ġdeeply": 8184,
      "Ġbyebye": 8185,
      "Ġkicking": 8186,
      "Ġhunter": 8187,
      "Ġbucks": 8188,
      "Ġwalt": 8189,
      "Ġwales": 8190,
      "Ġgrabs": 8191,
      "Ġstretched": 8192,
      "Ġjessica": 8193,
      "Ġruthven": 8194,
      "Ġdivorced": 8195,
      "Ġattorney": 8196,
      "crow": 8197,
      "fol": 8198,
      "might": 8199,
      "raspberry": 8200,
      "wers": 8201,
      "Â¶": 8202,
      "Ġske": 8203,
      "Ġdess": 8204,
      "isc": 8205,
      "Ġmeitei": 8206,
      "cement": 8207,
      "Ġsob": 8208,
      "Ġdevering": 8209,
      "Ġlob": 8210,
      "Ġaffect": 8211,
      "Ġbuying": 8212,
      "Ġcontents": 8213,
      "Ġhelpless": 8214,
      "Ġmuslim": 8215,
      "Ġhighway": 8216,
      "Ġcatches": 8217,
      "ibly": 8218,
      "Ġdrinks": 8219,
      "Ġtemp": 8220,
      "Ġfigured": 8221,
      "Ġphiladelphia": 8222,
      "Ġceased": 8223,
      "holds": 8224,
      "Ġbanging": 8225,
      "Ġbasically": 8226,
      "Ġbells": 8227,
      "Ġattempts": 8228,
      "Ġobserv": 8229,
      "Ġprayer": 8230,
      "Ġsavage": 8231,
      "Ġdegrees": 8232,
      "Ġsqueeze": 8233,
      "Ġbracelet": 8234,
      "Ġmathemat": 8235,
      "ais": 8236,
      "hem": 8237,
      "Ġfeared": 8238,
      "utation": 8239,
      "Ġsobrinini": 8240,
      "Ġnodded": 8241,
      "Ġplates": 8242,
      "Ġdiag": 8243,
      "Ġcoch": 8244,
      "Ġscra": 8245,
      "Ġlongest": 8246,
      "Ġjoint": 8247,
      "manchester": 8248,
      "Ġremo": 8249,
      "Ġresign": 8250,
      "Ġnumerous": 8251,
      "Ġhoriz": 8252,
      "Ġ1958": 8253,
      "Ġcoward": 8254,
      "Ġtickets": 8255,
      "Ġpretending": 8256,
      "Ġhank": 8257,
      "Ġeconomic": 8258,
      "Ġoccasionally": 8259,
      "Ġassem": 8260,
      "Ġbattery": 8261,
      "Ġconfirmed": 8262,
      "Ġbehavior": 8263,
      "Ġsupreme": 8264,
      "iro": 8265,
      "rad": 8266,
      "tim": 8267,
      "tÃ©": 8268,
      "Ġswell": 8269,
      "Ġdaughters": 8270,
      "Ġgulf": 8271,
      "almost": 8272,
      "amation": 8273,
      "entions": 8274,
      "Ġhadta": 8275,
      "Ġsuicide": 8276,
      "Ġrolan": 8277,
      "Ġglob": 8278,
      "babbling": 8279,
      "Ġlisted": 8280,
      "Ġdragged": 8281,
      "Ġconsum": 8282,
      "Ġfacts": 8283,
      "Ġsneak": 8284,
      "Ġpolitics": 8285,
      "Ġburden": 8286,
      "urious": 8287,
      "Ġinsisted": 8288,
      "Ġvariety": 8289,
      "Ġsafely": 8290,
      "Ġdora": 8291,
      "Ġdiscover": 8292,
      "Ġawarded": 8293,
      "Ġactivities": 8294,
      "Ġborden": 8295,
      "Ġcrocodile": 8296,
      "course": 8297,
      "Ġcrawl": 8298,
      "Ġkatie": 8299,
      "Ġjonathan": 8300,
      "Ġachieve": 8301,
      "Ġigno": 8302,
      "Ġexplanation": 8303,
      "Ġmoscow": 8304,
      "47": 8305,
      "cs": 8306,
      "Ġtune": 8307,
      "Ġwander": 8308,
      "onom": 8309,
      "Ġdent": 8310,
      "Ġtops": 8311,
      "anim": 8312,
      "Ġinse": 8313,
      "asion": 8314,
      "Ġislam": 8315,
      "Ġstated": 8316,
      "Ġrud": 8317,
      "imately": 8318,
      "Ġtray": 8319,
      "Ġunits": 8320,
      "Ġcounting": 8321,
      "Ġnatal": 8322,
      "Ġsticking": 8323,
      "Ġconfused": 8324,
      "Ġcurly": 8325,
      "Ġannie": 8326,
      "Ġrosa": 8327,
      "Ġfranklin": 8328,
      "Ġquarters": 8329,
      "Ġextraord": 8330,
      "Ġrandolph": 8331,
      "Ġreferred": 8332,
      "Ġgorge": 8333,
      "Ġforbidden": 8334,
      "pri": 8335,
      "Ġtang": 8336,
      "Ġbris": 8337,
      "Ġmhm": 8338,
      "Ġfires": 8339,
      "Ġnails": 8340,
      "Ġheap": 8341,
      "Ġthursday": 8342,
      "Ġjet": 8343,
      "Ġasks": 8344,
      "Ġsheet": 8345,
      "umin": 8346,
      "Ġcann": 8347,
      "aba": 8348,
      "Ġwhilst": 8349,
      "Ġthrust": 8350,
      "Ġdisaster": 8351,
      "Ġharv": 8352,
      "Ġobtain": 8353,
      "children": 8354,
      "Ġparrot": 8355,
      "Ġtrap": 8356,
      "Ġtrained": 8357,
      "Ġconsult": 8358,
      "Ġsubur": 8359,
      "Ġ1967": 8360,
      "Ġbullets": 8361,
      "Ġcatching": 8362,
      "Ġteachers": 8363,
      "Ġsupported": 8364,
      "Ġdefeat": 8365,
      "Ġdescribe": 8366,
      "Ġtouches": 8367,
      "Ġgabr": 8368,
      "Ġliterature": 8369,
      "Ġillustrated": 8370,
      "Ġpeculiar": 8371,
      "wah": 8372,
      "Ã§": 8373,
      "Ġcris": 8374,
      "Ġcinem": 8375,
      "omm": 8376,
      "acity": 8377,
      "Ġlily": 8378,
      "Ġshelf": 8379,
      "unks": 8380,
      "hooray": 8381,
      "Ġalaska": 8382,
      "ths": 8383,
      "Ġroar": 8384,
      "Ġscram": 8385,
      "Ġpartners": 8386,
      "enses": 8387,
      "Ġgreg": 8388,
      "Ġentering": 8389,
      "astern": 8390,
      "Ġinstinct": 8391,
      "Ġpersonally": 8392,
      "Ġ500": 8393,
      "Ġchristopher": 8394,
      "Ġvisible": 8395,
      "Ġemily": 8396,
      "Ġvalentine": 8397,
      "Ġoperations": 8398,
      "Ġgardens": 8399,
      "Ġproduct": 8400,
      "Ġellen": 8401,
      "Ġblessed": 8402,
      "drink": 8403,
      "belie": 8404,
      "Ġexistence": 8405,
      "Ġinstitute": 8406,
      "woman": 8407,
      "Ġsoutheast": 8408,
      "ropriate": 8409,
      "_;": 8410,
      "eld": 8411,
      "hors": 8412,
      "yummy": 8413,
      "Ġcushi": 8414,
      "Ġdup": 8415,
      "Ġpand": 8416,
      "sea": 8417,
      "iches": 8418,
      "Ġrevenge": 8419,
      "Ġdol": 8420,
      "Ġalab": 8421,
      "Ġbored": 8422,
      "Ġtheme": 8423,
      "agger": 8424,
      "bee": 8425,
      "Ġpoly": 8426,
      "canora": 8427,
      "Ġterminal": 8428,
      "Ġbench": 8429,
      "Ġmusician": 8430,
      "Ġdoubs": 8431,
      "zech": 8432,
      "Ġ1952": 8433,
      "ÃŃa": 8434,
      "Ġgrim": 8435,
      "Ġsamuel": 8436,
      "Ġmemories": 8437,
      "Ġphotograph": 8438,
      "imitating": 8439,
      "Ġbarely": 8440,
      "Ġimprove": 8441,
      "Ġvegetables": 8442,
      "Ġpipina": 8443,
      "80": 8444,
      "gent": 8445,
      "tape": 8446,
      "inea": 8447,
      "Ġdared": 8448,
      "Ġoven": 8449,
      "Ġpanc": 8450,
      "Ġreception": 8451,
      "âĢķ": 8452,
      "ophy": 8453,
      "ĠâĢĶ": 8454,
      "Ġflesh": 8455,
      "Ġscale": 8456,
      "wns": 8457,
      "dere": 8458,
      "Ġglory": 8459,
      "Ġmonarch": 8460,
      "Ġsque": 8461,
      "Ġassured": 8462,
      "Ġconsist": 8463,
      "Ġsumm": 8464,
      "Ġ1943": 8465,
      "Ġimmig": 8466,
      "Ġabsence": 8467,
      "Ġcloset": 8468,
      "Ġowl": 8469,
      "Ġtales": 8470,
      "Ġgazed": 8471,
      "Ġcaroline": 8472,
      "Ġvictims": 8473,
      "Ġfurniture": 8474,
      "Ġthoroughly": 8475,
      "35": 8476,
      "gain": 8477,
      "jab": 8478,
      "mart": 8479,
      "mates": 8480,
      "number": 8481,
      "uge": 8482,
      "Ġlind": 8483,
      "lda": 8484,
      "Ġstam": 8485,
      "ustomed": 8486,
      "Ġsaving": 8487,
      "Ġplains": 8488,
      "thou": 8489,
      "theless": 8490,
      "Ġintention": 8491,
      "Ġwaist": 8492,
      "molly": 8493,
      "Ġbeloved": 8494,
      "Ġglim": 8495,
      "Ġcolin": 8496,
      "Ġpersian": 8497,
      "Ġstickers": 8498,
      "Ġ1962": 8499,
      "monkey": 8500,
      "Ġestate": 8501,
      "ropol": 8502,
      "Ġneighbors": 8503,
      "Ġsnap": 8504,
      "Ġcabinet": 8505,
      "cuits": 8506,
      "Ġconstitution": 8507,
      "Ġsweden": 8508,
      "Ġnortheast": 8509,
      "Ġvoyage": 8510,
      "Ġatmosp": 8511,
      ":--": 8512,
      "awww": 8513,
      "eating": 8514,
      "papa": 8515,
      "Ġbib": 8516,
      "Ġcors": 8517,
      "esome": 8518,
      "atlant": 8519,
      "station": 8520,
      "iders": 8521,
      "Ġkent": 8522,
      "Ġlimb": 8523,
      "Ġsean": 8524,
      "Ġcanoe": 8525,
      "Ġserving": 8526,
      "Ġfoundation": 8527,
      "rison": 8528,
      "Ġparish": 8529,
      "Ġrefri": 8530,
      "Ġmerchan": 8531,
      "uesday": 8532,
      "Ġsnack": 8533,
      "Ġstephen": 8534,
      "Ġrainbow": 8535,
      "Ġenjoying": 8536,
      "Ġdefeated": 8537,
      "Ġrandom": 8538,
      "ezes": 8539,
      "Ġryan": 8540,
      "Ġignor": 8541,
      "Ġgloves": 8542,
      "cake": 8543,
      "found": 8544,
      "uct": 8545,
      "Ġtires": 8546,
      "hara": 8547,
      "Ġpoured": 8548,
      "Ġgary": 8549,
      "Ġnail": 8550,
      "Ġhid": 8551,
      "Ġcanal": 8552,
      "Ġalco": 8553,
      "Ġorphan": 8554,
      "apers": 8555,
      "Ġclara": 8556,
      "Ġgrasp": 8557,
      "Ġblues": 8558,
      "meal": 8559,
      "Ġtripp": 8560,
      "Ġsurre": 8561,
      "Ġobst": 8562,
      "Ġbride": 8563,
      "Ġlarry": 8564,
      "Ġ1961": 8565,
      "Ġclasses": 8566,
      "Ġrecovered": 8567,
      "carl": 8568,
      "Ġlegisl": 8569,
      "Ġhopes": 8570,
      "Ġvessels": 8571,
      "Ġcheeky": 8572,
      "steps": 8573,
      "Ġdialect": 8574,
      "Ġapologize": 8575,
      "Ġscheme": 8576,
      "Ġrefriger": 8577,
      "bac": 8578,
      "funny": 8579,
      "uals": 8580,
      "Ġmand": 8581,
      "Ġcant": 8582,
      "Ġpine": 8583,
      "orpor": 8584,
      "armed": 8585,
      "Ġheels": 8586,
      "Ġec": 8587,
      "adal": 8588,
      "Ġmelo": 8589,
      "ulu": 8590,
      "Ġroast": 8591,
      "Ġarch": 8592,
      "wee": 8593,
      "Ġaffected": 8594,
      "Ġexamples": 8595,
      "boys": 8596,
      "Ġ32": 8597,
      "Ġcape": 8598,
      "Ġregions": 8599,
      "Ġdrawer": 8600,
      "Ġcricket": 8601,
      "Ġgrief": 8602,
      "Ġlabel": 8603,
      "Ġorganized": 8604,
      "Ġdirections": 8605,
      "Ġborders": 8606,
      "Ġvirt": 8607,
      "Ġnichol": 8608,
      "Ġdespair": 8609,
      "Ġacquaint": 8610,
      "Ġpursuit": 8611,
      "Ġsaxony": 8612,
      "Ġglorious": 8613,
      "Ġchallenge": 8614,
      "!âĢĻ": 8615,
      ".)": 8616,
      "mill": 8617,
      "parent": 8618,
      "piece": 8619,
      "rab": 8620,
      "hie": 8621,
      "Ġbure": 8622,
      "Ġmwww": 8623,
      "Ġczech": 8624,
      "Ġdwell": 8625,
      "Ġgum": 8626,
      "rical": 8627,
      "Ġkaren": 8628,
      "Ġhong": 8629,
      "anta": 8630,
      "Ġpros": 8631,
      "Ġmarbles": 8632,
      "Ġheadquarters": 8633,
      "Ġcharming": 8634,
      "Ġedition": 8635,
      "Ġedric": 8636,
      "Ġstays": 8637,
      "Ġstead": 8638,
      "Ġentry": 8639,
      "putting": 8640,
      "alex": 8641,
      "Ġsixth": 8642,
      "Ġdeaths": 8643,
      "whoo": 8644,
      "Ġthirsty": 8645,
      "Ġbasic": 8646,
      "Ġworthy": 8647,
      "remi": 8648,
      "Ġprague": 8649,
      "Ġstatus": 8650,
      "Ġstretch": 8651,
      "Ġalphabet": 8652,
      "Ġexchange": 8653,
      "crayon": 8654,
      "Ġuniform": 8655,
      "cool": 8656,
      "Ġvel": 8657,
      "mote": 8658,
      "Ġnah": 8659,
      "Ġkin": 8660,
      "christ": 8661,
      "Ġrushing": 8662,
      "arts": 8663,
      "Ġclaimed": 8664,
      "Ġwherever": 8665,
      "izz": 8666,
      "Ġtryin": 8667,
      "Ġballoons": 8668,
      "Ġtribut": 8669,
      "Ġsingles": 8670,
      "Ġdoorway": 8671,
      "tony": 8672,
      "Ġhated": 8673,
      "Ġsticky": 8674,
      "Ġconfl": 8675,
      "Ġ1942": 8676,
      "cript": 8677,
      "Ġvaluable": 8678,
      "write": 8679,
      "Ġcracker": 8680,
      "Ġpraise": 8681,
      "Ġprinted": 8682,
      "grandma": 8683,
      "Ġwidow": 8684,
      "certain": 8685,
      "lk": 8686,
      "rul": 8687,
      "ux": 8688,
      "whe": 8689,
      "onies": 8690,
      "Ġcaterpill": 8691,
      "Ġlun": 8692,
      "aya": 8693,
      "adad": 8694,
      "Ġclinton": 8695,
      "Ġtwins": 8696,
      "Ġdaylight": 8697,
      "dey": 8698,
      "cipl": 8699,
      "Ġperfor": 8700,
      "ggs": 8701,
      "Ġeloise": 8702,
      "Ġedith": 8703,
      "Ġcleared": 8704,
      "Ġ45": 8705,
      "Ġhorrid": 8706,
      "Ġgraham": 8707,
      "flower": 8708,
      "Ġinsist": 8709,
      "Ġalbums": 8710,
      "Ġnether": 8711,
      "Ġproducts": 8712,
      "Ġbisc": 8713,
      "shit": 8714,
      "Ġhonestly": 8715,
      "Ġjournalist": 8716,
      "Ġextraordinary": 8717,
      "taking": 8718,
      "wild": 8719,
      "Ġyield": 8720,
      "Ġlor": 8721,
      "Ġny": 8722,
      "Ġliver": 8723,
      "Ġashore": 8724,
      "Ġvene": 8725,
      "Ġlend": 8726,
      "oused": 8727,
      "Ġpee": 8728,
      "Ġmaya": 8729,
      "Ġsecrets": 8730,
      "ava": 8731,
      "Ġtalkin": 8732,
      "Ġbaba": 8733,
      "Ġnevertheless": 8734,
      "mod": 8735,
      "upon": 8736,
      "Ġstealing": 8737,
      "shot": 8738,
      "Ġchop": 8739,
      "Ġdelicate": 8740,
      "Ġgenerous": 8741,
      "Ġtreas": 8742,
      "Ġextend": 8743,
      "Ġ1945": 8744,
      "Ġdevil": 8745,
      "Ġuttered": 8746,
      "Ġshouts": 8747,
      "truck": 8748,
      "Ġrepeat": 8749,
      "Ġmagnific": 8750,
      "Ġcommunist": 8751,
      "Ġgoddamn": 8752,
      "Ġdisgust": 8753,
      "atlantique": 8754,
      "fuck": 8755,
      "loud": 8756,
      "tar": 8757,
      "Ġbou": 8758,
      "Ġbry": 8759,
      "Ġbax": 8760,
      "Ġfern": 8761,
      "Ġnarr": 8762,
      "ishes": 8763,
      "Ġliz": 8764,
      "Ġ[_": 8765,
      "Ġsoil": 8766,
      "usie": 8767,
      "eline": 8768,
      "Ġfeature": 8769,
      "Ġfled": 8770,
      "Ġsciss": 8771,
      "Ġmarvel": 8772,
      "Ġmuhammad": 8773,
      "Ġimpressed": 8774,
      "Ġpersonality": 8775,
      "someone": 8776,
      "Ġrobber": 8777,
      "Ġduties": 8778,
      "Ġcops": 8779,
      "Ġcandle": 8780,
      "Ġberlin": 8781,
      "Ġsharply": 8782,
      "Ġsandwiches": 8783,
      "Ġtalent": 8784,
      "Ġwhistling": 8785,
      "Ġindependence": 8786,
      "Ġhastily": 8787,
      "Ġfrequently": 8788,
      "Ġnascanora": 8789,
      "Ġdomest": 8790,
      "Ġintelligence": 8791,
      "Ġaccompanied": 8792,
      "Ġalabama": 8793,
      "100": 8794,
      "lace": 8795,
      "press": 8796,
      "wo": 8797,
      "zburg": 8798,
      "Ġtas": 8799,
      "Ġsor": 8800,
      "Ġmack": 8801,
      "Ġdale": 8802,
      "Ġandrew": 8803,
      "adu": 8804,
      "Ġhood": 8805,
      "Ġsof": 8806,
      "abe": 8807,
      "Ġworm": 8808,
      "ordan": 8809,
      "Ġdispos": 8810,
      "Ġexpressed": 8811,
      "Ġchances": 8812,
      "Ġshir": 8813,
      "Ġgrandad": 8814,
      "unted": 8815,
      "shut": 8816,
      "anner": 8817,
      "Ġchristians": 8818,
      "Ġ1959": 8819,
      "Ġconstantly": 8820,
      "Ġpinkie": 8821,
      "Ġimagined": 8822,
      "iences": 8823,
      "Ġpossibility": 8824,
      "Ġrandall": 8825,
      "Ġmercury": 8826,
      "purple": 8827,
      "Ġsympathy": 8828,
      "mamma": 8829,
      "Ġdynasty": 8830,
      "buh": 8831,
      "eva": 8832,
      "pany": 8833,
      "tan": 8834,
      "Ġwigg": 8835,
      "Ġsno": 8836,
      "Ġmourn": 8837,
      "Ġcrest": 8838,
      "Ġore": 8839,
      "Ġkhan": 8840,
      "Ġreaction": 8841,
      "verness": 8842,
      "Ġplung": 8843,
      "question": 8844,
      "hman": 8845,
      "Ġacts": 8846,
      "Ġstartled": 8847,
      "Ġpolar": 8848,
      "Ġimpact": 8849,
      "Ġintegr": 8850,
      "Ġdecent": 8851,
      "Ġhitting": 8852,
      "Ġbearing": 8853,
      "Ġceiling": 8854,
      "Ġwagons": 8855,
      "Ġstudying": 8856,
      "Ġwalter": 8857,
      "Ġhesitated": 8858,
      "Ġcomedian": 8859,
      "Ġaboard": 8860,
      "phy": 8861,
      "zi": 8862,
      "Ġtun": 8863,
      "Ġinner": 8864,
      "Ġsty": 8865,
      "iser": 8866,
      "rod": 8867,
      "tery": 8868,
      "hoho": 8869,
      "opard": 8870,
      "âĢĿ!": 8871,
      "Ġenc": 8872,
      "Ġpockets": 8873,
      "Ġnewman": 8874,
      "Ġcapable": 8875,
      "ccer": 8876,
      "Ġera": 8877,
      "Ġpatience": 8878,
      "Ġsweep": 8879,
      "Ġchecking": 8880,
      "Ġstrict": 8881,
      "Ġinsurance": 8882,
      "Ġvisitor": 8883,
      "Ġmischief": 8884,
      "Ġsolution": 8885,
      "Ġautumn": 8886,
      "Ġbroadway": 8887,
      "Ġrabbits": 8888,
      "Ġbucket": 8889,
      "Ġcultural": 8890,
      "Ġdigital": 8891,
      "such": 8892,
      "Ġderek": 8893,
      "jamas": 8894,
      "ĠÂ¶": 8895,
      "Ġwarrior": 8896,
      "Ġimitates": 8897,
      "respond": 8898,
      "Ġintroduce": 8899,
      "Ġendeav": 8900,
      "Ġcochran": 8901,
      "\";": 8902,
      "bie": 8903,
      "cow": 8904,
      "pack": 8905,
      "sam": 8906,
      "sne": 8907,
      "uing": 8908,
      "Ġmaced": 8909,
      "Ġdak": 8910,
      "chicken": 8911,
      "Ġraw": 8912,
      "Ġaloud": 8913,
      "Ġsuck": 8914,
      "Ġviz": 8915,
      "quet": 8916,
      "aga": 8917,
      "Ġpoll": 8918,
      "ifford": 8919,
      "def": 8920,
      "ensity": 8921,
      "Ġresident": 8922,
      "Ġcolony": 8923,
      "babble": 8924,
      "Ġpasses": 8925,
      "Ġpassenger": 8926,
      "Ġdepression": 8927,
      "Ġsweat": 8928,
      "Ġsyl": 8929,
      "Ġawesome": 8930,
      "flies": 8931,
      "Ġ1955": 8932,
      "Ġ1947": 8933,
      "itcase": 8934,
      "Ġtesting": 8935,
      "Ġpeters": 8936,
      "Ġbiscuits": 8937,
      "Ġpreparing": 8938,
      "Ġliberty": 8939,
      "Ġterrific": 8940,
      "Ġanchor": 8941,
      "dor": 8942,
      "gian": 8943,
      "Äĩ": 8944,
      "Ġsack": 8945,
      "him": 8946,
      "Ġbicy": 8947,
      "Ġfaced": 8948,
      "Ġyang": 8949,
      "Ġloop": 8950,
      "orous": 8951,
      "arks": 8952,
      "umm": 8953,
      "umps": 8954,
      "aints": 8955,
      "Ġchile": 8956,
      "Ġagric": 8957,
      "Ġguadal": 8958,
      "clap": 8959,
      "Ġharwood": 8960,
      "izations": 8961,
      "tley": 8962,
      "Ġdistribut": 8963,
      "Ġdropping": 8964,
      "Ġsouthwest": 8965,
      "reading": 8966,
      "Ġstrongly": 8967,
      "Ġfilms": 8968,
      "Ġsuperior": 8969,
      "Ġdestruction": 8970,
      "Ġvanished": 8971,
      "._]": 8972,
      "Ġestablish": 8973,
      "Ġsurvive": 8974,
      "Ġabandoned": 8975,
      "Ġconvinced": 8976,
      "Ġnatalie": 8977,
      "Ġnetherlands": 8978,
      "Ġvenez": 8979,
      "Ġagricult": 8980,
      ")}": 8981,
      "37": 8982,
      "cup": 8983,
      "ned": 8984,
      "zona": 8985,
      "inburgh": 8986,
      "Ġdating": 8987,
      "Ġyay": 8988,
      "Ġgit": 8989,
      "oral": 8990,
      "itors": 8991,
      "Ġhye": 8992,
      "Ġsod": 8993,
      "Ġris": 8994,
      "ryn": 8995,
      "Ġworship": 8996,
      "Ġclo": 8997,
      "Ġunple": 8998,
      "Ġenorm": 8999,
      "Ġshared": 9000,
      "Ġdismiss": 9001,
      "canal": 9002,
      "Ġelement": 9003,
      "brown": 9004,
      "Ġdarius": 9005,
      "Ġmovements": 9006,
      "Ġphr": 9007,
      "Ġdelivered": 9008,
      "Ġawhile": 9009,
      "Ġofficials": 9010,
      "Ġpurse": 9011,
      "mination": 9012,
      "Ġlaying": 9013,
      "Ġpractically": 9014,
      "Ġaccordingly": 9015,
      "Ġcuriosity": 9016,
      "Ġwrestler": 9017,
      "Ġreferring": 9018,
      "Ġpooja": 9019,
      "kkk": 9020,
      "Ġmallory": 9021,
      "Ġtransferred": 9022,
      "Ġmurmured": 9023,
      "rants": 9024,
      "tree": 9025,
      "Ġak": 9026,
      "Ġboring": 9027,
      "Ġbapt": 9028,
      "chie": 9029,
      "Ġrein": 9030,
      "chin": 9031,
      "Ġfract": 9032,
      "Ġperman": 9033,
      "Ġswung": 9034,
      "Ġending": 9035,
      "Ġaccustomed": 9036,
      "Ġrecall": 9037,
      "Ġenters": 9038,
      "Ġsilk": 9039,
      "Ġskull": 9040,
      "enny": 9041,
      "Ġgrapes": 9042,
      "Ġforehead": 9043,
      "Ġtroubled": 9044,
      "Ġburnt": 9045,
      "Ġxv": 9046,
      "Ġaustrian": 9047,
      "Ġlouder": 9048,
      "Ġbangl": 9049,
      "Ġdanes": 9050,
      "Ġporch": 9051,
      "Ġhistoric": 9052,
      "Ġfirmly": 9053,
      "Ġwinnie": 9054,
      "Ġkennedy": 9055,
      "Ġresistance": 9056,
      "Ġsufficient": 9057,
      "Ġmunicipalities": 9058,
      "milk": 9059,
      "Ġtaylor": 9060,
      "hoo": 9061,
      "pow": 9062,
      "sounds": 9063,
      "tub": 9064,
      "hero": 9065,
      "Ġ**": 9066,
      "Ġwrist": 9067,
      "Ġcort": 9068,
      "Ġdign": 9069,
      "Ġtool": 9070,
      "aroo": 9071,
      "Ġ\"_": 9072,
      "uls": 9073,
      "inder": 9074,
      "Ġconven": 9075,
      "Ġdiaper": 9076,
      "Ġpepper": 9077,
      "cience": 9078,
      "broken": 9079,
      "Ġdrusie": 9080,
      "Ġ34": 9081,
      "Ġsurf": 9082,
      "Ġregister": 9083,
      "Ġgenius": 9084,
      "Ġlaunch": 9085,
      "Ġrocket": 9086,
      "comtÃ©": 9087,
      "Ġprotected": 9088,
      "Ġthanksgiving": 9089,
      "franche": 9090,
      "Ġbands": 9091,
      "Ġformerly": 9092,
      "Ġdisappointment": 9093,
      "Ġnettie": 9094,
      "ttt": 9095,
      "Ġninety": 9096,
      "Ġgranted": 9097,
      "ĠÂ£": 9098,
      "Ġcontrast": 9099,
      "Ġvacation": 9100,
      "Ġearnestly": 9101,
      "Ġcelia": 9102,
      "Ġinstructions": 9103,
      "Ġarizona": 9104,
      "Ġanthony": 9105,
      "Ġguadalcanal": 9106,
      "hon": 9107,
      "ivers": 9108,
      "pent": 9109,
      "inent": 9110,
      "otic": 9111,
      "Ġbc": 9112,
      "Ġmah": 9113,
      "Ġdub": 9114,
      "Ġpunch": 9115,
      "Ġgina": 9116,
      "Ġnom": 9117,
      "Ġker": 9118,
      "Ġket": 9119,
      "isions": 9120,
      "Ġsev": 9121,
      "Ġshep": 9122,
      "oline": 9123,
      "Ġvin": 9124,
      "Ġloren": 9125,
      "Ġtrash": 9126,
      "ender": 9127,
      "Ġscoop": 9128,
      "Ġfiring": 9129,
      "ffer": 9130,
      "Ġshops": 9131,
      "gogne": 9132,
      "Ġwarrant": 9133,
      "Ġsitu": 9134,
      "Ġprizes": 9135,
      "toys": 9136,
      "Ġregional": 9137,
      "Ġrecomm": 9138,
      "Ġhats": 9139,
      "Ġrefuse": 9140,
      "Ġdoub": 9141,
      "Ġhurrican": 9142,
      "Ġbusinessman": 9143,
      "Ġsunset": 9144,
      "Ġ1954": 9145,
      "Ġmounted": 9146,
      "Ġsmells": 9147,
      "Ġremarkable": 9148,
      "adesh": 9149,
      "pointing": 9150,
      "Ġmicrosoft": 9151,
      "Ġinfant": 9152,
      "Ġarchie": 9153,
      "Ġwilson": 9154,
      "Ġdisturbed": 9155,
      "Ġautomob": 9156,
      "Ġbourgogne": 9157,
      "Ġbiscuit": 9158,
      "Ġvenezuel": 9159,
      "hums": 9160,
      "uits": 9161,
      "Ġtables": 9162,
      "Ġapt": 9163,
      "Ġmadd": 9164,
      "Ġfug": 9165,
      "Ġnasty": 9166,
      "ico": 9167,
      "lying": 9168,
      "Ġjas": 9169,
      "Ġjordan": 9170,
      "urd": 9171,
      "umph": 9172,
      "Ġridge": 9173,
      "quack": 9174,
      "ela": 9175,
      "Ġcarbon": 9176,
      "class": 9177,
      "Ġvoc": 9178,
      "Ġdistract": 9179,
      "Ġmuscles": 9180,
      "Ġmetropol": 9181,
      "Ġanswers": 9182,
      "Ġawfully": 9183,
      "ika": 9184,
      "Ġ1951": 9185,
      "Ġdevoted": 9186,
      "Ġregarding": 9187,
      "Ġcrowded": 9188,
      "strong": 9189,
      "Ġrailroad": 9190,
      "Ġinjury": 9191,
      "Ġliterally": 9192,
      "Ġstrawberry": 9193,
      "Ġscattered": 9194,
      "Ġctx": 9195,
      "Ġconflict": 9196,
      ".=": 9197,
      "39": 9198,
      "66": 9199,
      "cam": 9200,
      "spl": 9201,
      "uese": 9202,
      "word": 9203,
      "Ġfanny": 9204,
      "orus": 9205,
      "enna": 9206,
      "aria": 9207,
      "itter": 9208,
      "vet": 9209,
      "rich": 9210,
      "Ġbeam": 9211,
      "Ġbehave": 9212,
      "Ġkam": 9213,
      "Ġrebell": 9214,
      "Ġnotable": 9215,
      "celer": 9216,
      "hoe": 9217,
      "Ġabund": 9218,
      "eling": 9219,
      "Ġgoods": 9220,
      "Ġcoco": 9221,
      "onder": 9222,
      "iffe": 9223,
      "mail": 9224,
      "Ġbabe": 9225,
      "Ġimpat": 9226,
      "Ġrecon": 9227,
      "Ġhighchair": 9228,
      "visions": 9229,
      "Ġsyd": 9230,
      "Ġsubt": 9231,
      "anything": 9232,
      "Ġunderstanding": 9233,
      "Ġ1946": 9234,
      "Ġconcert": 9235,
      "Ġmamie": 9236,
      "Ġ1939": 9237,
      "Ġmeantime": 9238,
      "Ġmarty": 9239,
      "Ġtitles": 9240,
      "silence": 9241,
      "Ġjuliet": 9242,
      "Ġsplash": 9243,
      "Ġswinging": 9244,
      "kerchief": 9245,
      "Ġrelieved": 9246,
      "Ġemploy": 9247,
      "Ġsteamer": 9248,
      "Ġdepends": 9249,
      "Ġwarned": 9250,
      "Ġsuspicion": 9251,
      "Ġpenguin": 9252,
      "\"),": 9253,
      "70": 9254,
      "bom": 9255,
      "Ġts": 9256,
      "Ġtut": 9257,
      "Ġtire": 9258,
      "Ġald": 9259,
      "Ġcwww": 9260,
      "Ġcared": 9261,
      "Ġdried": 9262,
      "Ġjus": 9263,
      "abs": 9264,
      "Ġconcept": 9265,
      "Ġmanchester": 9266,
      "endous": 9267,
      "Ġmarine": 9268,
      "Ġshade": 9269,
      "Ġjoking": 9270,
      "Ġslim": 9271,
      "Ġdistress": 9272,
      "Ġgeneration": 9273,
      "Ġ85": 9274,
      "Ġ179": 9275,
      "Ġ1948": 9276,
      "Ġruin": 9277,
      "guess": 9278,
      "Ġstrip": 9279,
      "Ġassociated": 9280,
      "Ġtrembling": 9281,
      "Ġgraduated": 9282,
      "Ġselwyn": 9283,
      "Ġjaguar": 9284,
      "sweet": 9285,
      "Ġbunk": 9286,
[...]
