{
  "version": "1.0",
  "truncation": null,
  "padding": null,
  "added_tokens": [
    {
      "id": 0,
      "content": "PAD",
      "single_word": false,
      "lstrip": false,
      "rstrip": false,
      "normalized": false,
      "special": true
    },
    {
      "id": 1,
      "content": "UNK",
      "single_word": false,
      "lstrip": false,
      "rstrip": false,
      "normalized": false,
      "special": true
    },
    {
      "id": 2,
      "content": "UTT_BOUNDARY",
      "single_word": false,
      "lstrip": false,
      "rstrip": false,
      "normalized": false,
      "special": true
    }
  ],
  "normalizer": {
    "type": "Sequence",
    "normalizers": [
      {
        "type": "Strip",
        "strip_left": true,
        "strip_right": true
      },
      {
        "type": "NFC"
      },
      {
        "type": "Lowercase"
      }
    ]
  },
  "pre_tokenizer": {
    "type": "ByteLevel",
    "add_prefix_space": false,
    "trim_offsets": true,
    "use_regex": true
  },
  "post_processor": {
    "type": "TemplateProcessing",
    "single": [
      {
        "SpecialToken": {
          "id": "UTT_BOUNDARY",
          "type_id": 0
        }
      },
      {
        "Sequence": {
          "id": "A",
          "type_id": 0
        }
      },
      {
        "SpecialToken": {
          "id": "UTT_BOUNDARY",
          "type_id": 0
        }
      }
    ],
    "pair": [
      {
        "SpecialToken": {
          "id": "UTT_BOUNDARY",
          "type_id": 0
        }
      },
      {
        "Sequence": {
          "id": "A",
          "type_id": 0
        }
      },
      {
        "SpecialToken": {
          "id": "UTT_BOUNDARY",
          "type_id": 0
        }
      },
      {
        "SpecialToken": {
          "id": "UTT_BOUNDARY",
          "type_id": 0
        }
      },
      {
        "Sequence": {
          "id": "B",
          "type_id": 0
        }
      },
      {
        "SpecialToken": {
          "id": "UTT_BOUNDARY",
          "type_id": 0
        }
      }
    ],
    "special_tokens": {
      "UTT_BOUNDARY": {
        "id": "UTT_BOUNDARY",
        "ids": [
          2
        ],
        "tokens": [
          "UTT_BOUNDARY"
        ]
      }
    }
  },
  "decoder": {
    "type": "ByteLevel",
    "add_prefix_space": true,
    "trim_offsets": true,
    "use_regex": true
  },
  "model": {
    "type": "BPE",
    "dropout": null,
    "unk_token": null,
    "continuing_subword_prefix": null,
    "end_of_word_suffix": null,
    "fuse_unk": false,
    "byte_fallback": false,
    "ignore_merges": false,
    "vocab": {
      "PAD": 0,
      "UNK": 1,
      "UTT_BOUNDARY": 2,
      "!": 3,
      "\"": 4,
      "#": 5,
      "$": 6,
      "%": 7,
      "&": 8,
      "'": 9,
      "(": 10,
      ")": 11,
      "*": 12,
      "+": 13,
      ",": 14,
      "-": 15,
      ".": 16,
      "/": 17,
      "0": 18,
      "1": 19,
      "2": 20,
      "3": 21,
      "4": 22,
      "5": 23,
      "6": 24,
      "7": 25,
      "8": 26,
      "9": 27,
      ":": 28,
      ";": 29,
      "<": 30,
      "=": 31,
      ">": 32,
      "?": 33,
      "@": 34,
      "[": 35,
      "\\": 36,
      "]": 37,
      "^": 38,
      "_": 39,
      "`": 40,
      "a": 41,
      "b": 42,
      "c": 43,
      "d": 44,
      "e": 45,
      "f": 46,
      "g": 47,
      "h": 48,
      "i": 49,
      "j": 50,
      "k": 51,
      "l": 52,
      "m": 53,
      "n": 54,
      "o": 55,
      "p": 56,
      "q": 57,
      "r": 58,
      "s": 59,
      "t": 60,
      "u": 61,
      "v": 62,
      "w": 63,
      "x": 64,
      "y": 65,
      "z": 66,
      "{": 67,
      "|": 68,
      "}": 69,
      "~": 70,
      "¡": 71,
      "¢": 72,
      "£": 73,
      "¤": 74,
      "¥": 75,
      "¦": 76,
      "§": 77,
      "¨": 78,
      "©": 79,
      "ª": 80,
      "«": 81,
      "¬": 82,
      "®": 83,
      "¯": 84,
      "°": 85,
      "±": 86,
      "²": 87,
      "³": 88,
      "´": 89,
      "µ": 90,
      "¶": 91,
      "·": 92,
      "¸": 93,
      "¹": 94,
      "º": 95,
      "»": 96,
      "¼": 97,
      "½": 98,
      "¾": 99,
      "¿": 100,
      "Â": 101,
      "Ã": 102,
      "Ä": 103,
      "Å": 104,
      "Æ": 105,
      "Ç": 106,
      "È": 107,
      "Ê": 108,
      "Ë": 109,
      "Ì": 110,
      "Î": 111,
      "Ï": 112,
      "Ð": 113,
      "Ñ": 114,
      "Õ": 115,
      "×": 116,
      "Ø": 117,
      "Ù": 118,
      "à": 119,
      "á": 120,
      "â": 121,
      "ã": 122,
      "ä": 123,
      "å": 124,
      "æ": 125,
      "ç": 126,
      "è": 127,
      "é": 128,
      "ê": 129,
      "ë": 130,
      "ì": 131,
      "í": 132,
      "ï": 133,
      "ð": 134,
      "Ĝ": 135,
      "Ğ": 136,
      "Ġ": 137,
      "Ģ": 138,
      "ģ": 139,
      "Ĥ": 140,
      "ĥ": 141,
      "Ħ": 142,
      "ħ": 143,
      "Ĩ": 144,
      "ĩ": 145,
      "Ī": 146,
      "ī": 147,
      "Ĭ": 148,
      "ĭ": 149,
      "Į": 150,
      "į": 151,
      "İ": 152,
      "ı": 153,
      "Ĳ": 154,
      "ĳ": 155,
      "Ĵ": 156,
      "ĵ": 157,
      "Ķ": 158,
      "ķ": 159,
      "ĸ": 160,
      "Ĺ": 161,
      "ĺ": 162,
      "Ļ": 163,
      "ļ": 164,
      "Ľ": 165,
      "ľ": 166,
      "Ŀ": 167,
      "ŀ": 168,
      "Ł": 169,
      "ł": 170,
      "Ń": 171,
      "en": 172,
      "er": 173,
      "Ġd": 174,
      "ch": 175,
      "ei": 176,
      "Ġs": 177,
      "ie": 178,
      "Ġw": 179,
      "Ġa": 180,
      "Ġi": 181,
      "Ġm": 182,
      "ein": 183,
      "un": 184,
      "st": 185,
      "Ġg": 186,
      "Ġh": 187,
      "Ġda": 188,
      "Ġn": 189,
      "Ġb": 190,
      "an": 191,
      "ich": 192,
      "es": 193,
      "Ġk": 194,
      "Ġdie": 195,
      "Ġun": 196,
      "te": 197,
      "Ġein": 198,
      "Ã¼": 199,
      "Ġv": 200,
      "in": 201,
      "Ġf": 202,
      "Ġau": 203,
      "Ġund": 204,
      "Ġz": 205,
      "Ã¤": 206,
      "ll": 207,
      "Ġder": 208,
      "Ġj": 209,
      "Ġdas": 210,
      "on": 211,
      "ar": 212,
      "sch": 213,
      "Ġl": 214,
      "au": 215,
      "al": 216,
      "hr": 217,
      "it": 218,
      "em": 219,
      "gen": 220,
      "el": 221,
      "or": 222,
      "der": 223,
      "Ġin": 224,
      "at": 225,
      "Ġsch": 226,
      "et": 227,
      "as": 228,
      "Ġich": 229,
      "icht": 230,
      "Ġr": 231,
      "Ġzu": 232,
      "ir": 233,
      "ach": 234,
      "Ġist": 235,
      "Ġer": 236,
      "Ġja": 237,
      "ten": 238,
      "Ġt": 239,
      "Ã¶": 240,
      "Ġge": 241,
      "Ġp": 242,
      "Ġden": 243,
      "Ġso": 244,
      "ur": 245,
      "mm": 246,
      "ck": 247,
      "ge": 248,
      "ÃŁ": 249,
      "Ġan": 250,
      "ber": 251,
      "Ġsie": 252,
      "Ġnicht": 253,
      "ter": 254,
      "och": 255,
      "ier": 256,
      "den": 257,
      "Ġes": 258,
      "ben": 259,
      "de": 260,
      "Ġmit": 261,
      "Ġauf": 262,
      "Ġo": 263,
      "Ġha": 264,
      "Ġver": 265,
      "ig": 266,
      "Ġdu": 267,
      "Ã¼r": 268,
      "Ġst": 269,
      "lich": 270,
      "Ġwir": 271,
      "xx": 272,
      "Ġwie": 273,
      "ss": 274,
      "um": 275,
      "ung": 276,
      "Ġwar": 277,
      "Ġwas": 278,
      "Ġauch": 279,
      "eu": 280,
      "eh": 281,
      "nn": 282,
      "ag": 283,
      "ro": 284,
      "ann": 285,
      "Ġal": 286,
      "Ġeine": 287,
      "Ġ\"": 288,
      "Ġhat": 289,
      "eit": 290,
      "hn": 291,
      "and": 292,
      "Ġvon": 293,
      "etz": 294,
      "Ġmal": 295,
      "Ġnoch": 296,
      "iel": 297,
      "Ġsich": 298,
      "isch": 299,
      "am": 300,
      "Ġaus": 301,
      "Ġdem": 302,
      "Ġbe": 303,
      "Ġwo": 304,
      "..": 305,
      "ut": 306,
      "Ġfr": 307,
      "sen": 308,
      "ind": 309,
      "is": 310,
      "Ġim": 311,
      "Ġaber": 312,
      "ol": 313,
      "Ġman": 314,
      "Ġwei": 315,
      "ehr": 316,
      "il": 317,
      "ft": 318,
      "Ġals": 319,
      "se": 320,
      "be": 321,
      "omm": 322,
      "chen": 323,
      "Ġbei": 324,
      "ĠfÃ¼r": 325,
      "eine": 326,
      "Ġvor": 327,
      "enn": 328,
      "cht": 329,
      "Ġall": 330,
      "etzt": 331,
      "Ġdann": 332,
      "Ġsp": 333,
      "Ġihr": 334,
      "ent": 335,
      "Ġhier": 336,
      "Ġnach": 337,
      "ra": 338,
      "ste": 339,
      "hl": 340,
      "Ã¼ber": 341,
      "Ġges": 342,
      "Ġmach": 343,
      "rei": 344,
      "eg": 345,
      "Ġxx": 346,
      "Ġxxx": 347,
      "Ġwer": 348,
      "fen": 349,
      "Ġsind": 350,
      "anz": 351,
      "ser": 352,
      "Ġjetzt": 353,
      "Ġkl": 354,
      "Ġgeh": 355,
      "Ã¤n": 356,
      "re": 357,
      "Ġum": 358,
      "ern": 359,
      "Ġkann": 360,
      "rau": 361,
      "Ġdes": 362,
      "Ġsein": 363,
      "ĠÃ¼ber": 364,
      "us": 365,
      "Ġle": 366,
      "ion": 367,
      "Ġdass": 368,
      "ill": 369,
      "wei": 370,
      "Ġoder": 371,
      "kt": 372,
      "sten": 373,
      "aus": 374,
      "Ġeinen": 375,
      "schen": 376,
      "bt": 377,
      "ing": 378,
      "le": 379,
      "Ġkomm": 380,
      "uck": 381,
      "Ġhaben": 382,
      "Ġe": 383,
      "llen": 384,
      "Ġgl": 385,
      "ĠkÃ¶": 386,
      "Ġher": 387,
      "Ġviel": 388,
      "mmer": 389,
      "om": 390,
      "Ġ1": 391,
      "Ġwenn": 392,
      "Ġdoch": 393,
      "ik": 394,
      "Ġander": 395,
      "rÃ¼": 396,
      "Ġhin": 397,
      "mal": 398,
      "Ġab": 399,
      "ort": 400,
      "Ġnur": 401,
      "Ġhm": 402,
      "Ġwieder": 403,
      "ahr": 404,
      "Ġnein": 405,
      "Ġganz": 406,
      "ff": 407,
      "Ġdenn": 408,
      "und": 409,
      "ot": 410,
      "Ġbl": 411,
      "ne": 412,
      "sp": 413,
      "ien": 414,
      "Ã¶r": 415,
      "Ġmir": 416,
      "Ġschon": 417,
      "Ġre": 418,
      "Ġam": 419,
      "ssen": 420,
      "Ġmehr": 421,
      "eich": 422,
      "ischen": 423,
      "Ġsag": 424,
      "Ġeinem": 425,
      "uss": 426,
      "Ġar": 427,
      "pp": 428,
      "hm": 429,
      "Ġste": 430,
      "Ġmein": 431,
      "ang": 432,
      "ist": 433,
      "Ġzum": 434,
      "Ġunter": 435,
      "pf": 436,
      "Ġ2": 437,
      "ĠkÃ¶nn": 438,
      "Ã¤t": 439,
      "ehen": 440,
      "rie": 441,
      "Ġeiner": 442,
      "Ġguck": 443,
      "Ġgro": 444,
      "Ã¤r": 445,
      "urch": 446,
      "Ġihn": 447,
      "Ġwird": 448,
      "Ġbes": 449,
      "che": 450,
      "Ġjahr": 451,
      "ab": 452,
      "all": 453,
      "os": 454,
      "Ġschl": 455,
      "Ġlie": 456,
      "Ġc": 457,
      "Ġschw": 458,
      "Ġwill": 459,
      "Ġfl": 460,
      "Ġent": 461,
      "Ġsoll": 462,
      "Ġei": 463,
      "hen": 464,
      "ad": 465,
      "ungen": 466,
      "her": 467,
      "Ġwerden": 468,
      "Ġmich": 469,
      "agen": 470,
      "imm": 471,
      "zu": 472,
      "zen": 473,
      "ger": 474,
      "Ġwur": 475,
      "Ġdurch": 476,
      "ÃŁen": 477,
      "Ġdr": 478,
      "Ġ.": 479,
      "Ġne": 480,
      "Ġbis": 481,
      "gt": 482,
      "Ġgi": 483,
      "Ġzwei": 484,
      "Ġhatte": 485,
      "Ġgen": 486,
      "bei": 487,
      "elt": 488,
      "Ġimmer": 489,
      "igen": 490,
      "ges": 491,
      "nen": 492,
      "Ġmen": 493,
      "eute": 494,
      "ick": 495,
      "acht": 496,
      "eil": 497,
      "Ġgut": 498,
      "Ġhabe": 499,
      "Ġgew": 500,
      "ige": 501,
      "he": 502,
      "Ġet": 503,
      "Ġbr": 504,
      "ht": 505,
      "ĠmÃ¼": 506,
      "uch": 507,
      "ul": 508,
      "ken": 509,
      "Ġmachen": 510,
      "Ġpro": 511,
      "tet": 512,
      "Ġber": 513,
      "âĢ": 514,
      "Ġger": 515,
      "ster": 516,
      "Ġhast": 517,
      "oll": 518,
      "Ã¤hr": 519,
      "gel": 520,
      "men": 521,
      "Ġetw": 522,
      "Ġgel": 523,
      "Ġdir": 524,
      "Ġgr": 525,
      "ver": 526,
      "Ġdar": 527,
      "Ġkon": 528,
      "Ġgef": 529,
      "Ġgesch": 530,
      "mit": 531,
      "iert": 532,
      "ap": 533,
      "Ã¤u": 534,
      "eut": 535,
      "Ġtr": 536,
      "Ġgibt": 537,
      "scha": 538,
      "amm": 539,
      "ÃŁt": 540,
      "Ġen": 541,
      "Ġhei": 542,
      "Ġson": 543,
      "ische": 544,
      "Ã¼n": 545,
      "ĠâĢ": 546,
      "ass": 547,
      ".\"": 548,
      "hal": 549,
      "Ġgem": 550,
      "Ġleo": 551,
      "Ġsei": 552,
      "Ġje": 553,
      "dern": 554,
      "Ġalle": 555,
      "art": 556,
      "im": 557,
      "Ġsehr": 558,
      "Ã¼ck": 559,
      "00": 560,
      "Ġdies": 561,
      "Ġmuss": 562,
      "ĠgroÃŁ": 563,
      "schl": 564,
      "ieren": 565,
      "bl": 566,
      "Ġmenschen": 567,
      "Ġuns": 568,
      "br": 569,
      "Ġzw": 570,
      "rÃ¼ck": 571,
      "iv": 572,
      "ĠkÃ¶nnen": 573,
      "ation": 574,
      "ze": 575,
      "einen": 576,
      "Ġse": 577,
      "Ġweil": 578,
      "Ġgeht": 579,
      "Ġdiese": 580,
      "ommen": 581,
      "ke": 582,
      "assen": 583,
      "Ġwurde": 584,
      "tel": 585,
      "ĠâĢĵ": 586,
      "rÃ¤": 587,
      "Ġviele": 588,
      "eln": 589,
      "schaft": 590,
      "chte": 591,
      "Ġsel": 592,
      "...": 593,
      "ert": 594,
      "Ġdeut": 595,
      "bst": 596,
      "Ġwaren": 597,
      "gl": 598,
      "op": 599,
      "Ġna": 600,
      "Ġkommt": 601,
      "Ġdich": 602,
      "Ġalles": 603,
      "angen": 604,
      "Ġ'": 605,
      "Ġmus": 606,
      "Ġte": 607,
      "gend": 608,
      "ĠdaÃŁ": 609,
      "Ġde": 610,
      "Ġerst": 611,
      "Ġweiter": 612,
      "Ġneu": 613,
      "Ġbau": 614,
      "Ġbin": 615,
      "kl": 616,
      "fl": 617,
      "ade": 618,
      "Ġkeine": 619,
      "Ġihm": 620,
      "ffen": 621,
      "ast": 622,
      "ell": 623,
      "\",": 624,
      "Ġpl": 625,
      "Ġweg": 626,
      "Ġspiel": 627,
      "alt": 628,
      "Ġfrau": 629,
      "end": 630,
      "Ġ-": 631,
      "Ġheute": 632,
      "ahn": 633,
      "Ġgar": 634,
      "Ġ(": 635,
      "Ã¶n": 636,
      "Ġalso": 637,
      "Ġsa": 638,
      "me": 639,
      "Ġch": 640,
      "Ġkr": 641,
      "fe": 642,
      "eicht": 643,
      "Ġetwas": 644,
      "Ġwoll": 645,
      "Ġnie": 646,
      "Ġmon": 647,
      "Ġbet": 648,
      "ahren": 649,
      "Ġgeb": 650,
      "ahl": 651,
      "Ġzeit": 652,
      "Ġsagte": 653,
      "Ġgegen": 654,
      "ĠweiÃŁ": 655,
      "Ġleben": 656,
      "Ġmacht": 657,
      "tern": 658,
      "Ġihre": 659,
      "Ġma": 660,
      "achen": 661,
      "Ġ,": 662,
      "inder": 663,
      "Ġho": 664,
      "Ġob": 665,
      "Ġgleich": 666,
      "ĠmÃ¶": 667,
      "ĠwÃ¼r": 668,
      "ichtig": 669,
      "ungs": 670,
      "ug": 671,
      "dem": 672,
      "heit": 673,
      "Ġkam": 674,
      "Ġseine": 675,
      "Ġzur": 676,
      "lichen": 677,
      "uÃŁ": 678,
      "ĠnÃ¤": 679,
      "Ã¼hr": 680,
      "Ġdamit": 681,
      "Ġeigen": 682,
      "rauf": 683,
      "per": 684,
      "bar": 685,
      "Ġko": 686,
      "inn": 687,
      "Ġhab": 688,
      "Ġhaus": 689,
      "kommen": 690,
      "liche": 691,
      "ild": 692,
      "spiel": 693,
      "Ġkein": 694,
      "Ġglau": 695,
      "aut": 696,
      "cken": 697,
      "ehmen": 698,
      "Ġandere": 699,
      "Ã¤hl": 700,
      "Ġdrei": 701,
      "Ã¤l": 702,
      "iz": 703,
      "est": 704,
      "ob": 705,
      "age": 706,
      "Ġaut": 707,
      "Ġmam": 708,
      "Ġrein": 709,
      "Ġmeine": 710,
      "ant": 711,
      "atz": 712,
      "ank": 713,
      "Âł": 714,
      "og": 715,
      "Ġdort": 716,
      "adt": 717,
      "Ġwen": 718,
      "ri": 719,
      "fer": 720,
      "samm": 721,
      "Ġwarum": 722,
      "iell": 723,
      "ingen": 724,
      "Ġverl": 725,
      "ĠĠ": 726,
      "ange": 727,
      "Ġpol": 728,
      "ine": 729,
      "Ġnun": 730,
      "unter": 731,
      "iger": 732,
      "ok": 733,
      "issen": 734,
      "stell": 735,
      "ha": 736,
      "Ġselbst": 737,
      "Ã¼t": 738,
      "ler": 739,
      "Ġland": 740,
      "zt": 741,
      "Ġanderen": 742,
      "Ġschne": 743,
      "Ġzei": 744,
      "pt": 745,
      "Ġspr": 746,
      "auf": 747,
      "sche": 748,
      "Ġgenau": 749,
      "ĠmÃ¼ssen": 750,
      "Ġmar": 751,
      "unden": 752,
      "Ġhand": 753,
      "ĠmÃ¤": 754,
      "ess": 755,
      "Ġbist": 756,
      "Ġunser": 757,
      "Ġnichts": 758,
      "Ġbrau": 759,
      "Ġsagt": 760,
      "dr": 761,
      "Ġel": 762,
      "Ġmann": 763,
      "Ġwel": 764,
      "Ġro": 765,
      "Ġvom": 766,
      "Ġu": 767,
      "Ġkinder": 768,
      "keit": 769,
      "Ġ20": 770,
      "Ġlei": 771,
      "ĠschÃ¶n": 772,
      "Ġkonn": 773,
      "Ġsehen": 774,
      "sammen": 775,
      "Ġgerade": 776,
      "Ġreg": 777,
      "Ġwasser": 778,
      "esen": 779,
      "Ġeh": 780,
      "Ġdieser": 781,
      "Ġmama": 782,
      "Ġis": 783,
      "Ġzusammen": 784,
      "aten": 785,
      "Ġeur": 786,
      "Ġir": 787,
      "na": 788,
      "Ġrecht": 789,
      "Ġhal": 790,
      "Ġins": 791,
      "ord": 792,
      "hne": 793,
      "qu": 794,
      "Ġhol": 795,
      "wo": 796,
      "Ġhau": 797,
      "Ġbest": 798,
      "ald": 799,
      "'s": 800,
      "ielleicht": 801,
      "Ġwelt": 802,
      "Ġklein": 803,
      "Ġwe": 804,
      "ner": 805,
      "ĠzurÃ¼ck": 806,
      "ĠhÃ¶r": 807,
      "Ġvielleicht": 808,
      "ĠÃ¤": 809,
      "ĠhÃ¤t": 810,
      "erk": 811,
      "Ġkrie": 812,
      "Ġeinmal": 813,
      "ho": 814,
      "Ġeu": 815,
      "agt": 816,
      "Ġ3": 817,
      "sse": 818,
      "Ġfin": 819,
      "Ġeines": 820,
      "tr": 821,
      "Ġgehen": 822,
      "hin": 823,
      "att": 824,
      "Ġtun": 825,
      "sam": 826,
      "Ġgemacht": 827,
      "cher": 828,
      "Ġeinf": 829,
      "dig": 830,
      "zi": 831,
      "utter": 832,
      "Ġkannst": 833,
      "ĠÃ¶": 834,
      "Ġme": 835,
      "Ġdein": 836,
      "Ġwollen": 837,
      "ÃŁer": 838,
      "ÃŁe": 839,
      "Ġlang": 840,
      "Ġerz": 841,
      "ust": 842,
      "under": 843,
      "geb": 844,
      "ma": 845,
      "Ġvers": 846,
      "ater": 847,
      "Ġteil": 848,
      "Ġbeg": 849,
      "Ġsu": 850,
      "Ġhoch": 851,
      "Ġbo": 852,
      "Ġkur": 853,
      "pl": 854,
      "ĠgehÃ¶r": 855,
      "Ġrei": 856,
      "Ġwohl": 857,
      "Ġsagen": 858,
      "Ġdabei": 859,
      "gef": 860,
      "Ġihnen": 861,
      "Ġkommen": 862,
      "Ġvier": 863,
      "Ġpa": 864,
      "itte": 865,
      "orden": 866,
      "Ġwollte": 867,
      "Ġmei": 868,
      "ander": 869,
      "Ġbeispiel": 870,
      "ekt": 871,
      "Ġsol": 872,
      "schie": 873,
      "tlich": 874,
      "ĠfrÃ¼": 875,
      "ochen": 876,
      "\".": 877,
      "Ġraus": 878,
      "ww": 879,
      "fÃ¼r": 880,
      "Ġfre": 881,
      "Ġpap": 882,
      "Ġzie": 883,
      "Ġstadt": 884,
      "Ġdan": 885,
      "!\"": 886,
      "mlich": 887,
      "gesch": 888,
      "Ġ19": 889,
      "Ã¤re": 890,
      "so": 891,
      "aufen": 892,
      "beit": 893,
      "Ġru": 894,
      "Ġerf": 895,
      "ĠwÃ¼rde": 896,
      "Ġgu": 897,
      "ers": 898,
      "innen": 899,
      "Ġkonnte": 900,
      "Ġpr": 901,
      "Ġseit": 902,
      "orgen": 903,
      "Ġwww": 904,
      "Ġschnell": 905,
      "Ġzwischen": 906,
      "anden": 907,
      "unde": 908,
      "Ġdrauf": 909,
      "zeit": 910,
      "ckt": 911,
      "Ġhe": 912,
      "vor": 913,
      "glich": 914,
      "upp": 915,
      "Ġblei": 916,
      "ehn": 917,
      "Ġbeim": 918,
      "cke": 919,
      "Ġ--": 920,
      "Ã¼hl": 921,
      "Ġgest": 922,
      "Ġsit": 923,
      "we": 924,
      "Ġirgend": 925,
      "Ġeinfach": 926,
      "eten": 927,
      "Ġherr": 928,
      "Ġbek": 929,
      "Ġeben": 930,
      "Ġerw": 931,
      "Ġverb": 932,
      "id": 933,
      "Ġsteht": 934,
      "Ġverst": 935,
      "Ġto": 936,
      "gar": 937,
      "Ġstr": 938,
      "land": 939,
      "immt": 940,
      "ud": 941,
      "Ġkleine": 942,
      "bahn": 943,
      "Ġget": 944,
      "Ġwillst": 945,
      "Ġsieht": 946,
      "ce": 947,
      "Ġetwa": 948,
      "ief": 949,
      "Ġjahren": 950,
      "Ġessen": 951,
      "Ġauto": 952,
      "erst": 953,
      "ĠgrÃ¼": 954,
      "lle": 955,
      "Ġang": 956,
      "Ġwirk": 957,
      "Ġstra": 958,
      "chs": 959,
      "ĠlÃ¤n": 960,
      "ĠerzÃ¤hl": 961,
      "Ġglaube": 962,
      "Ġth": 963,
      "aum": 964,
      "Ġbesch": 965,
      "itt": 966,
      "Ġdazu": 967,
      "halb": 968,
      "ĠhÃ¶": 969,
      "orm": 970,
      "ak": 971,
      "Ġohne": 972,
      "eter": 973,
      "ache": 974,
      "wie": 975,
      "Ġseiner": 976,
      "des": 977,
      "lo": 978,
      "schland": 979,
      "ennt": 980,
      "Ġfest": 981,
      "Ġem": 982,
      "Ġoben": 983,
      "Ġtag": 984,
      "ĠtÃ¼r": 985,
      "Ġwohn": 986,
      "Ġnat": 987,
      "iere": 988,
      "Ġlange": 989,
      "rot": 990,
      "gr": 991,
      "Ġhinter": 992,
      "Ġach": 993,
      "weg": 994,
      "?\"": 995,
      "Ġwissen": 996,
      "tag": 997,
      "Ġihren": 998,
      "ffe": 999,
      "sst": 1000,
      "Ġfrei": 1001,
      "Ġgab": 1002,
      "Ġhatten": 1003,
      "ĠwÃ¤re": 1004,
      "Ã¼nf": 1005,
      "ĠheiÃŁt": 1006,
      "eid": 1007,
      "Ġsondern": 1008,
      "ionen": 1009,
      "Ġleute": 1010,
      "Ġdeutschland": 1011,
      "Ġseinen": 1012,
      "af": 1013,
      "zie": 1014,
      "ĠfÃ¤hr": 1015,
      "itz": 1016,
      "Ġaugen": 1017,
      "Ġwurden": 1018,
      "Ġdrin": 1019,
      "Ġkleinen": 1020,
      "ere": 1021,
      "ett": 1022,
      "ĠhÃ¤tte": 1023,
      "aden": 1024,
      "Ġbitte": 1025,
      "Ġy": 1026,
      "Ġmer": 1027,
      "rechen": 1028,
      "Ġoh": 1029,
      "ott": 1030,
      "Ġeins": 1031,
      "Ġoft": 1032,
      "Ã¶t": 1033,
      "Ã¤ch": 1034,
      "ale": 1035,
      "Ġpass": 1036,
      "Ġdarf": 1037,
      "Ġnochmal": 1038,
      "eiten": 1039,
      "str": 1040,
      "allen": 1041,
      "fall": 1042,
      "von": 1043,
      "ink": 1044,
      "ĠgroÃŁe": 1045,
      "Ġsta": 1046,
      "ennen": 1047,
      "zeu": 1048,
      "Ġku": 1049,
      "onder": 1050,
      "Ġarbeit": 1051,
      "wer": 1052,
      "ĠfÃ¼nf": 1053,
      "asse": 1054,
      "amen": 1055,
      "Ġlos": 1056,
      "ichte": 1057,
      "Ġkap": 1058,
      "Ġrichtig": 1059,
      "ark": 1060,
      "auen": 1061,
      "Ġor": 1062,
      "Ġfahr": 1063,
      "Ġjahre": 1064,
      "Ġwirklich": 1065,
      ".?": 1066,
      "reich": 1067,
      "ĠkÃ¶nnte": 1068,
      "di": 1069,
      "Ġtrau": 1070,
      "unge": 1071,
      "Ġgeld": 1072,
      "Ġsollen": 1073,
      "ĠdafÃ¼r": 1074,
      "annt": 1075,
      "Ġsollte": 1076,
      "Ġant": 1077,
      "Ġgern": 1078,
      "Ã¤ter": 1079,
      "pr": 1080,
      "Ġging": 1081,
      "oren": 1082,
      "Ġham": 1083,
      "ĠgrÃ¶": 1084,
      "Ġschu": 1085,
      "Ġdieses": 1086,
      "Ġeigentlich": 1087,
      "Ġmutter": 1088,
      "Ġlassen": 1089,
      "Ġdiesem": 1090,
      "ĠweiÃŁt": 1091,
      "Ġbesser": 1092,
      "mer": 1093,
      "Ġsicher": 1094,
      "ĠmuÃŁ": 1095,
      "net": 1096,
      "Ġmusst": 1097,
      "halten": 1098,
      "gangen": 1099,
      "lin": 1100,
      "ĠgroÃŁen": 1101,
      "zent": 1102,
      "Ġ4": 1103,
      "du": 1104,
      "Ġmax": 1105,
      ",\"": 1106,
      "ierung": 1107,
      "llt": 1108,
      "geben": 1109,
      "nis": 1110,
      "Ġaller": 1111,
      "Ġnacht": 1112,
      "hst": 1113,
      "Ġmin": 1114,
      "Ġgesagt": 1115,
      "Ġtra": 1116,
      "Ġseinem": 1117,
      "nehmen": 1118,
      "Ġex": 1119,
      "ĠkÃ¼": 1120,
      "Ġfahren": 1121,
      "Ã¤um": 1122,
      "wir": 1123,
      "utz": 1124,
      "fte": 1125,
      "Ġbesonder": 1126,
      "Ġkopf": 1127,
      "Ġihrer": 1128,
      "Ġkar": 1129,
      "Ġeinz": 1130,
      "Ġdeine": 1131,
      "Ġarbei": 1132,
      "ingt": 1133,
      "Ġschrei": 1134,
      "ogen": 1135,
      "Ġschn": 1136,
      "Ġange": 1137,
      "Ġrunter": 1138,
      "ĠhÃ¤n": 1139,
      "Ġbuch": 1140,
      "Ġsonst": 1141,
      "ans": 1142,
      "Ġbisschen": 1143,
      "utt": 1144,
      "Ġlu": 1145,
      "Ġwahr": 1146,
      "Ġallem": 1147,
      "Ġsah": 1148,
      "hol": 1149,
      "ĠgehÃ¶rt": 1150,
      "Ġdavon": 1151,
      "kr": 1152,
      "Ġka": 1153,
      "dchen": 1154,
      "Ġzug": 1155,
      "Ġbef": 1156,
      "Ġqu": 1157,
      "Ġwa": 1158,
      "ian": 1159,
      "Ġkurz": 1160,
      "Ã¤lt": 1161,
      "Ġstehen": 1162,
      "Ġjem": 1163,
      "Ġbi": 1164,
      "Ġende": 1165,
      "ĠwÃ¤hr": 1166,
      "Ġvoll": 1167,
      "Ġwelche": 1168,
      "ia": 1169,
      "Ġgesehen": 1170,
      "Ġletz": 1171,
      "Ġersten": 1172,
      "Ġmorgen": 1173,
      "Ġged": 1174,
      "Ġbild": 1175,
      "ic": 1176,
      "was": 1177,
      "dien": 1178,
      "Ġpapa": 1179,
      "Ġeurop": 1180,
      "Ġhel": 1181,
      "amil": 1182,
      "stag": 1183,
      "bend": 1184,
      "anken": 1185,
      "Ġmone": 1186,
      "Ġdiesen": 1187,
      "weise": 1188,
      "Ġverw": 1189,
      "unk": 1190,
      "ktion": 1191,
      "eht": 1192,
      "einander": 1193,
      "Ġbeh": 1194,
      "ucht": 1195,
      "Ġpolit": 1196,
      "itÃ¤t": 1197,
      "Ġliegt": 1198,
      "ĠsÃ¼": 1199,
      "Ġjunge": 1200,
      "gehen": 1201,
      "hau": 1202,
      "ings": 1203,
      "etzen": 1204,
      "Ġmo": 1205,
      "Ġfast": 1206,
      "urt": 1207,
      "Ġkat": 1208,
      "ĠfÃ¼hr": 1209,
      "undes": 1210,
      "ichten": 1211,
      "ĠspÃ¤ter": 1212,
      "Ġkind": 1213,
      "euer": 1214,
      "dlich": 1215,
      "alen": 1216,
      "Ġgra": 1217,
      "Ġgemein": 1218,
      "Ġverk": 1219,
      "ase": 1220,
      "Ġunten": 1221,
      "ĠmÃ¶chte": 1222,
      "Ġschwer": 1223,
      "Ġschul": 1224,
      "ĠwÃ¤hrend": 1225,
      "Ġfil": 1226,
      "ieÃŁ": 1227,
      "Ġern": 1228,
      "mals": 1229,
      "Ġanf": 1230,
      "Ġ5": 1231,
      "die": 1232,
      "Ġjo": 1233,
      "nung": 1234,
      "Ġwenig": 1235,
      "ĠlÃ¶": 1236,
      "tete": 1237,
      "Ġneue": 1238,
      "iss": 1239,
      "000": 1240,
      "Ġganze": 1241,
      "chten": 1242,
      "ften": 1243,
      "Ġkn": 1244,
      "schw": 1245,
      "Ġart": 1246,
      "bo": 1247,
      "ĠmÃ¤nn": 1248,
      "Ġfreund": 1249,
      "isten": 1250,
      "cker": 1251,
      "bur": 1252,
      "Ġben": 1253,
      "ats": 1254,
      "Ġbeiden": 1255,
      "essen": 1256,
      "Ġklar": 1257,
      "Ġeuch": 1258,
      "Ġweit": 1259,
      "Ġneben": 1260,
      "Ġdran": 1261,
      "Ġvater": 1262,
      "ertig": 1263,
      "Ġstand": 1264,
      "Ġmill": 1265,
      "Ġgucken": 1266,
      "Ġlch": 1267,
      "ja": 1268,
      "ĠkÃ¤": 1269,
      "haus": 1270,
      "Ġflie": 1271,
      "Ġspielen": 1272,
      "Ġju": 1273,
      "Ã¤ft": 1274,
      "igkeit": 1275,
      "eits": 1276,
      "immer": 1277,
      "gew": 1278,
      "ehl": 1279,
      "spr": 1280,
      "Ġus": 1281,
      "Ġschwar": 1282,
      "Ġwichtig": 1283,
      "Ġnehmen": 1284,
      "Ã¶l": 1285,
      "sk": 1286,
      "Ġeinige": 1287,
      "schieden": 1288,
      "Ġfrauen": 1289,
      "Ġdenen": 1290,
      "ĠhÃ¤u": 1291,
      "hÃ¤n": 1292,
      "pa": 1293,
      "Ġbel": 1294,
      "Ġfamil": 1295,
      "Ġdo": 1296,
      "nig": 1297,
      "Ġnet": 1298,
      "Ġmachst": 1299,
      "Ã¤rt": 1300,
      "iff": 1301,
      "fr": 1302,
      "ĠauÃŁer": 1303,
      "Ã¤nder": 1304,
      "Ġdeshalb": 1305,
      "Ġpf": 1306,
      "Ġheraus": 1307,
      "inge": 1308,
      "mp": 1309,
      "ay": 1310,
      "ierte": 1311,
      "fel": 1312,
      "Ġinter": 1313,
      "Ġvielen": 1314,
      "Ġsogar": 1315,
      "Ġkeinen": 1316,
      "ive": 1317,
      "Ġfol": 1318,
      "Ġauss": 1319,
      "ĠmÃ¶glich": 1320,
      "....": 1321,
      "stand": 1322,
      "Ġpar": 1323,
      "Ġgewesen": 1324,
      "si": 1325,
      "Ġdarauf": 1326,
      "Ġihrem": 1327,
      "undert": 1328,
      "Ġmeisten": 1329,
      "Ġkrieg": 1330,
      "Ġkom": 1331,
      "Ġleg": 1332,
      "Ã¼rlich": 1333,
      "ĠnÃ¤ch": 1334,
      "Ġmag": 1335,
      "nahm": 1336,
      "asst": 1337,
      "rieben": 1338,
      "Ġfort": 1339,
      "Ġfor": 1340,
      "ko": 1341,
      "bel": 1342,
      "ĠfÃ¤hrt": 1343,
      "ĠnÃ¤mlich": 1344,
      "Ġhil": 1345,
      "Ġbundes": 1346,
      "Ġvert": 1347,
      "ĠgrÃ¼n": 1348,
      "zlich": 1349,
      "ima": 1350,
      "Ġpaar": 1351,
      "Ġgesp": 1352,
      "Ġtre": 1353,
      "Ġgott": 1354,
      "Ġwerde": 1355,
      "app": 1356,
      "rat": 1357,
      "Ġricht": 1358,
      "ĠrÃ¼ck": 1359,
      "Ġfertig": 1360,
      "olle": 1361,
      "mann": 1362,
      "Ġalt": 1363,
      "ĠmÃ¤dchen": 1364,
      "itten": 1365,
      "Ġ201": 1366,
      "Ġnee": 1367,
      "Ġbett": 1368,
      "uchen": 1369,
      "Ġmanch": 1370,
      "ĠkÃ¶nig": 1371,
      "Ġfinden": 1372,
      "Ġdis": 1373,
      "Ġpoliz": 1374,
      "ĠflÃ¼": 1375,
      "machen": 1376,
      "Ġbede": 1377,
      "Ġjemand": 1378,
      "reis": 1379,
      "ielt": 1380,
      "det": 1381,
      "Ġpart": 1382,
      "Ġverm": 1383,
      "Ġmeinen": 1384,
      "mus": 1385,
      "stellen": 1386,
      "ult": 1387,
      "inken": 1388,
      "Ġmu": 1389,
      "bis": 1390,
      "Ġverf": 1391,
      "ehe": 1392,
      "ĠfrÃ¼her": 1393,
      "pro": 1394,
      "Ġmensch": 1395,
      "ipp": 1396,
      "stellt": 1397,
      "achte": 1398,
      "zeug": 1399,
      "Ġgeben": 1400,
      "one": 1401,
      "Ã¤ren": 1402,
      "Ġoffen": 1403,
      "Ġhalt": 1404,
      "achsen": 1405,
      "Ġalte": 1406,
      "Ġrot": 1407,
      "Ġabend": 1408,
      "hÃ¶r": 1409,
      "ĠstÃ¼ck": 1410,
      "ĠnatÃ¼rlich": 1411,
      "eiden": 1412,
      "Ġalten": 1413,
      "Ġmaxe": 1414,
      "inger": 1415,
      "sto": 1416,
      "form": 1417,
      "Ġflug": 1418,
      "Ġentsch": 1419,
      "Ġur": 1420,
      "Ġschm": 1421,
      "Ġjeder": 1422,
      "Ġuhr": 1423,
      "ischer": 1424,
      "Ġanders": 1425,
      "Ġschle": 1426,
      "hof": 1427,
      "dent": 1428,
      "Ġgrund": 1429,
      "zw": 1430,
      "Ġbald": 1431,
      "elm": 1432,
      "stÃ¤n": 1433,
      "Ġbil": 1434,
      "scht": 1435,
      "Ġnamen": 1436,
      "Ġat": 1437,
      "Ġwort": 1438,
      "igt": 1439,
      "ĠÃ¼": 1440,
      "Ġzahl": 1441,
      "gang": 1442,
      "Ġersch": 1443,
      "Ġgerne": 1444,
      "Ġpfl": 1445,
      "Ġta": 1446,
      "Ġpers": 1447,
      "Ġschau": 1448,
      "ĠhÃ¼": 1449,
      "ziehen": 1450,
      "blem": 1451,
      "Ġerkl": 1452,
      "aul": 1453,
      "ker": 1454,
      "annte": 1455,
      "Ġmanchmal": 1456,
      "Ġrum": 1457,
      "gem": 1458,
      "Ġbez": 1459,
      "urm": 1460,
      "Ġprozent": 1461,
      "gessen": 1462,
      "sel": 1463,
      "ina": 1464,
      ",,": 1465,
      "Ã¤d": 1466,
      "Ġlau": 1467,
      "Ġra": 1468,
      "Ġchr": 1469,
      "Ġ202": 1470,
      "Ġrie": 1471,
      "ĠbÃ¼r": 1472,
      "arbei": 1473,
      "Ġhaupt": 1474,
      "Ġlaut": 1475,
      "Ġverschieden": 1476,
      "uten": 1477,
      "indet": 1478,
      "bisschen": 1479,
      "Ġla": 1480,
      "Ġmusste": 1481,
      "Ġblau": 1482,
      "halt": 1483,
      "umen": 1484,
      "Ġdachte": 1485,
      "aby": 1486,
      "gleich": 1487,
      "Ġwor": 1488,
      "ĠschÃ¶": 1489,
      "Ġwarte": 1490,
      "Ġallein": 1491,
      "Ġschr": 1492,
      "Ġhause": 1493,
      "uppe": 1494,
      "Ġgek": 1495,
      "Ġpo": 1496,
      "Ġtau": 1497,
      "Ġacht": 1498,
      "ock": 1499,
      "Ġkir": 1500,
      "Ġball": 1501,
      "Ġseite": 1502,
      "Ġbesonders": 1503,
      "burg": 1504,
      "ĠfÃ¤": 1505,
      "elle": 1506,
      "Ġwil": 1507,
      "Ġstar": 1508,
      "Ġ0": 1509,
      "Ġpu": 1510,
      "ph": 1511,
      "ĠlÃ¤": 1512,
      "erik": 1513,
      "Ġrechts": 1514,
      "gegen": 1515,
      "Ġmil": 1516,
      "Ġmeiner": 1517,
      "ĠglÃ¼ck": 1518,
      "Ġerste": 1519,
      "Ġkaputt": 1520,
      "Ġunsere": 1521,
      "Ġsechs": 1522,
      "Ġstu": 1523,
      "tschaft": 1524,
      "Ġherz": 1525,
      "Ġfrag": 1526,
      "Ġstimm": 1527,
      "Ġsau": 1528,
      "egt": 1529,
      "Ġganzen": 1530,
      "Ġbleiben": 1531,
      "Ġtrot": 1532,
      "hei": 1533,
      "ĠkÃ¶r": 1534,
      "Ġfar": 1535,
      "ĠprÃ¤": 1536,
      "Ġfall": 1537,
      "Ġfeuer": 1538,
      "alten": 1539,
      "Ġzwar": 1540,
      "Ġzehn": 1541,
      "ĠfuÃŁ": 1542,
      "els": 1543,
      "gte": 1544,
      "blick": 1545,
      "Ġluft": 1546,
      "Ġlink": 1547,
      "pu": 1548,
      "ĠÃ¶ff": 1549,
      "Ġruss": 1550,
      "Ġboden": 1551,
      "Ġproblem": 1552,
      "Ġzimmer": 1553,
      "Ġstatt": 1554,
      "orn": 1555,
      "Ġeuro": 1556,
      "Ġerk": 1557,
      "Ġsiehst": 1558,
      "ix": 1559,
      "Ġchrist": 1560,
      "Ġtut": 1561,
      "Ġtraum": 1562,
      "ationen": 1563,
      "Ġplatz": 1564,
      "Ġgenug": 1565,
      "eint": 1566,
      "Ġfilm": 1567,
      "Ġtrotz": 1568,
      "ieb": 1569,
      "Ġhu": 1570,
      "Ġfen": 1571,
      "ragen": 1572,
      "vers": 1573,
      "ah": 1574,
      "haupt": 1575,
      "oÃŁ": 1576,
      "ĠdÃ¼r": 1577,
      "ip": 1578,
      "achten": 1579,
      "Ġ6": 1580,
      "Ġtoll": 1581,
      "Ġbereits": 1582,
      "Ġbaby": 1583,
      "Ġwegen": 1584,
      "isse": 1585,
      "legen": 1586,
      "Ġgeschichte": 1587,
      "ball": 1588,
      "if": 1589,
      "ga": 1590,
      "Ġakt": 1591,
      "Ġausge": 1592,
      "Ġvorbei": 1593,
      "ellschaft": 1594,
      "Ġdanke": 1595,
      "das": 1596,
      "Ġlag": 1597,
      "wick": 1598,
      "Ġangst": 1599,
      "Ġrau": 1600,
      "wohl": 1601,
      "Ġtro": 1602,
      "bes": 1603,
      "Ġpfer": 1604,
      "Ġsy": 1605,
      "Ġberlin": 1606,
      "wor": 1607,
      "etter": 1608,
      "Ġnor": 1609,
      "bracht": 1610,
      "eigen": 1611,
      "Ġreich": 1612,
      "Ġgute": 1613,
      "amp": 1614,
      "get": 1615,
      "Ġrund": 1616,
      "Ġmittel": 1617,
      "zig": 1618,
      "kon": 1619,
      "kel": 1620,
      "Ġnennt": 1621,
      "Ġpolizei": 1622,
      "Ġerinn": 1623,
      "Ġlinks": 1624,
      "sy": 1625,
      "Ġthe": 1626,
      "eren": 1627,
      "jÃ¤hr": 1628,
      "Ġtiere": 1629,
      "ard": 1630,
      "iker": 1631,
      "Ġbaum": 1632,
      "Ġmeinem": 1633,
      "ismus": 1634,
      "Ġweniger": 1635,
      "io": 1636,
      "Ġober": 1637,
      "Ġneuen": 1638,
      "Ġlieber": 1639,
      "yy": 1640,
      "ium": 1641,
      "inden": 1642,
      "afen": 1643,
      "fÃ¼hr": 1644,
      "Ġjeden": 1645,
      "Ġkaum": 1646,
      "pfer": 1647,
      "ru": 1648,
      "Ġlass": 1649,
      "fahr": 1650,
      "stadt": 1651,
      "ĠdarÃ¼ber": 1652,
      "Ġyyy": 1653,
      "Ġworden": 1654,
      "Ġallen": 1655,
      "Ġbahn": 1656,
      "Ġjungen": 1657,
      "Ġbeide": 1658,
      "ĠfÃ¼": 1659,
      "Ġhinten": 1660,
      "Ġhalten": 1661,
      "Ġkont": 1662,
      "Ġnieder": 1663,
      "Ġco": 1664,
      "Ġnich": 1665,
      "zer": 1666,
      "ack": 1667,
      "wohn": 1668,
      "Ġniem": 1669,
      "Ġfern": 1670,
      "Ġmache": 1671,
      "Ġdaran": 1672,
      "Ġfe": 1673,
      "ame": 1674,
      "Ġbu": 1675,
      "licher": 1676,
      "Ġgesicht": 1677,
      "iet": 1678,
      "schein": 1679,
      "uer": 1680,
      "da": 1681,
      "Ġbru": 1682,
      "bert": 1683,
      "fahren": 1684,
      "lau": 1685,
      "gan": 1686,
      "Ġanderes": 1687,
      "Ġbauen": 1688,
      "Ġgol": 1689,
      "zei": 1690,
      "Ġsozi": 1691,
      "lung": 1692,
      "uren": 1693,
      "Ġfamilie": 1694,
      "dings": 1695,
      "Ġdien": 1696,
      "Ġverd": 1697,
      "Ġeltern": 1698,
      "Ġhinein": 1699,
      "ĠkÃ¶rper": 1700,
      "falls": 1701,
      "Ġsolche": 1702,
      "Ġdeutschen": 1703,
      "lie": 1704,
      "del": 1705,
      "eister": 1706,
      "Ġsetz": 1707,
      "ĠbÃ¼": 1708,
      "doch": 1709,
      "Ġper": 1710,
      "are": 1711,
      "nete": 1712,
      "onen": 1713,
      "zug": 1714,
      "Ġdarum": 1715,
      "Ġlebens": 1716,
      "Ġerde": 1717,
      "Ġschwei": 1718,
      "Ġmom": 1719,
      "Ġgeworden": 1720,
      "ĠÃ¤hn": 1721,
      "kte": 1722,
      "teil": 1723,
      "Ġbar": 1724,
      "Ġtage": 1725,
      "uhr": 1726,
      "Ġdamals": 1727,
      "Ġwin": 1728,
      "Ġfenster": 1729,
      "rad": 1730,
      "Ġ18": 1731,
      "Ġliegen": 1732,
      "Ġstaat": 1733,
      "Ġfa": 1734,
      "wort": 1735,
      "schn": 1736,
      "ierten": 1737,
      "Ġmillionen": 1738,
      "Ġort": 1739,
      "fÃ¤": 1740,
      "Ġsof": 1741,
      "ette": 1742,
      "mittel": 1743,
      "ĠĠĠĠ": 1744,
      "los": 1745,
      "anzen": 1746,
      "eist": 1747,
      "auft": 1748,
      "ren": 1749,
      "Ġbew": 1750,
      "ka": 1751,
      "ĠmÃ¤nner": 1752,
      "recht": 1753,
      "Ġbrauchen": 1754,
      "Ġwald": 1755,
      "Ġaufge": 1756,
      "druck": 1757,
      "Ġarm": 1758,
      "Ġdahin": 1759,
      "Ġlo": 1760,
      "--": 1761,
      "Ġph": 1762,
      "Ġoma": 1763,
      "Ġheim": 1764,
      "Ġbraucht": 1765,
      "Ġschei": 1766,
      "Ġfrank": 1767,
      "ĠÃ¤h": 1768,
      "Ġdi": 1769,
      "iges": 1770,
      "raft": 1771,
      "Ġletzten": 1772,
      "tem": 1773,
      "Ġwunder": 1774,
      "Ġide": 1775,
      "Ġbekommen": 1776,
      "Ġallerdings": 1777,
      "reck": 1778,
      "Ġziemlich": 1779,
      "Ġschule": 1780,
      "ĠwÃ¼rden": 1781,
      "Ġmanche": 1782,
      "asen": 1783,
      "kun": 1784,
      "Ġfragen": 1785,
      "ĠÃ¼berhaupt": 1786,
      "Ġfehl": 1787,
      "Ġeis": 1788,
      "Ġdrau": 1789,
      "Ġstell": 1790,
      "Ġfal": 1791,
      "mar": 1792,
      "Ġhund": 1793,
      "Ġleu": 1794,
      "ĠfÃ¼hl": 1795,
      "Ġeher": 1796,
      "Ġdick": 1797,
      "Ġstud": 1798,
      "Ġsprechen": 1799,
      "ition": 1800,
      "amt": 1801,
      "Ġhabt": 1802,
      "dest": 1803,
      "Ġstimmt": 1804,
      "eile": 1805,
      "Ġniemand": 1806,
      "Ġblick": 1807,
      "fern": 1808,
      "Ġjedoch": 1809,
      "Ġentwick": 1810,
      "ieÃŁen": 1811,
      "Ġhar": 1812,
      "Ġbed": 1813,
      "unkt": 1814,
      "scher": 1815,
      "uppen": 1816,
      "bau": 1817,
      "Ġlust": 1818,
      "Ġrief": 1819,
      "wegen": 1820,
      "stem": 1821,
      "Ġ7": 1822,
      "oten": 1823,
      "Ġkenn": 1824,
      "Ġmeinst": 1825,
      "Ġlicht": 1826,
      "ĠvÃ¶": 1827,
      "ister": 1828,
      "Ġehr": 1829,
      "Ġgesellschaft": 1830,
      "Ġnahm": 1831,
      "Ġliebe": 1832,
      "Ġherum": 1833,
      "Ġtisch": 1834,
      "Ġalter": 1835,
      "Ġhelfen": 1836,
      "sta": 1837,
      "min": 1838,
      "Ġsachen": 1839,
      "ĠtÃ¶": 1840,
      "Ġfisch": 1841,
      "man": 1842,
      "Ġrad": 1843,
      "Ġfrie": 1844,
      "stra": 1845,
      "itter": 1846,
      "eig": 1847,
      "Ġabge": 1848,
      "ib": 1849,
      "off": 1850,
      "Ġeisen": 1851,
      "elte": 1852,
      "rÃ¼cke": 1853,
      "Ġschwe": 1854,
      "rieb": 1855,
      "Ġmusik": 1856,
      "Ġzeigen": 1857,
      "yp": 1858,
      "Ġmeer": 1859,
      "Ġtu": 1860,
      "bild": 1861,
      "Ġarbeiten": 1862,
      "zogen": 1863,
      "ve": 1864,
      "Ġpassiert": 1865,
      "Ġmr": 1866,
      "Ġintern": 1867,
      "Ġeuropa": 1868,
      "Ġwahl": 1869,
      "ÃŁte": 1870,
      "Ġfrage": 1871,
      "Ġholen": 1872,
      "Ġsieben": 1873,
      "Ġkleiner": 1874,
      "Ġok": 1875,
      "Ġtier": 1876,
      "Ġmachte": 1877,
      "ider": 1878,
      "richt": 1879,
      "Ġdro": 1880,
      "ĠhÃ¤": 1881,
      "Ġerd": 1882,
      "Ġkrank": 1883,
      "ĠauÃŁerdem": 1884,
      "Ġschien": 1885,
      "Ġfro": 1886,
      "pfel": 1887,
      "Ã¤ng": 1888,
      "mÃ¤": 1889,
      "Ġfreu": 1890,
      "Ġjugend": 1891,
      "Ġans": 1892,
      "Ġ200": 1893,
      "Ã¼ss": 1894,
      "ump": 1895,
      "olog": 1896,
      "ieg": 1897,
      "Ġsollten": 1898,
      "Ġgekommen": 1899,
      "helm": 1900,
      "Ġfel": 1901,
      "kunft": 1902,
      "Ġkleines": 1903,
      ").": 1904,
      "ĠhÃ¶ren": 1905,
      "durch": 1906,
      "stein": 1907,
      "Ġsal": 1908,
      "Ġlern": 1909,
      "Ġvorher": 1910,
      "keiten": 1911,
      "rÃ¼n": 1912,
      "Ġdinge": 1913,
      "chn": 1914,
      "ont": 1915,
      "ate": 1916,
      "Ġbestimm": 1917,
      "Ġbringen": 1918,
      "Ġcom": 1919,
      "enden": 1920,
      "Ġscha": 1921,
      "gra": 1922,
      "Ġ8": 1923,
      "stens": 1924,
      "ĠstraÃŁe": 1925,
      "az": 1926,
      "Ġtot": 1927,
      "werk": 1928,
      "Ã¶s": 1929,
      "viel": 1930,
      "Ġnachher": 1931,
      "Ġmoment": 1932,
      "Ġentst": 1933,
      "utet": 1934,
      "Ġgucke": 1935,
      "genommen": 1936,
      "nel": 1937,
      "Ġbeweg": 1938,
      "Ġbleibt": 1939,
      "Ġfragte": 1940,
      "Ġsor": 1941,
      "Ġwind": 1942,
      "ommt": 1943,
      "Ġsitzen": 1944,
      "ĠplÃ¶t": 1945,
      "Ġunbe": 1946,
      "Ġleicht": 1947,
      "Ġengl": 1948,
      "llo": 1949,
      "Ġstark": 1950,
      "reg": 1951,
      "Ġsehe": 1952,
      "Ġmund": 1953,
      "Ġwochen": 1954,
      "Ġster": 1955,
      "ĠerzÃ¤hlt": 1956,
      "Ġusa": 1957,
      "ĠhÃ¤tten": 1958,
      "Ġkin": 1959,
      "ande": 1960,
      "ĠhÃ¤user": 1961,
      "ĠkÃ¼n": 1962,
      "inen": 1963,
      "Ġmalen": 1964,
      "Ġbetr": 1965,
      "kehr": 1966,
      "Ġgefunden": 1967,
      "Ġvors": 1968,
      "Ġvol": 1969,
      "ĠplÃ¶tzlich": 1970,
      "Ġberu": 1971,
      "krie": 1972,
      "wÃ¼r": 1973,
      "bte": 1974,
      "err": 1975,
      "Ġzeigt": 1976,
      "Ġeigenen": 1977,
      "ossen": 1978,
      "berg": 1979,
      "Ġprin": 1980,
      "Ġwann": 1981,
      "Ġanfang": 1982,
      "Ġpasst": 1983,
      "Ġwilhelm": 1984,
      "Ġvo": 1985,
      "ĠbÃ¼rger": 1986,
      "zehn": 1987,
      "rom": 1988,
      "hig": 1989,
      "ieÃŁlich": 1990,
      "urn": 1991,
      "Ġarme": 1992,
      "Ġbilder": 1993,
      "Ã¶hn": 1994,
      "par": 1995,
      "ller": 1996,
      "Ġunternehmen": 1997,
      "ide": 1998,
      "ĠkÃ¶nnten": 1999,
      "ĠÃ¤r": 2000,
      "Ġkas": 2001,
      "Ġon": 2002,
      "orf": 2003,
      "Ġfand": 2004,
      "Ġwieso": 2005,
      "abt": 2006,
      "Ġstellen": 2007,
      "Ġwelch": 2008,
      "olg": 2009,
      "alien": 2010,
      "Ġsprach": 2011,
      "Ġkna": 2012,
      "ehm": 2013,
      "immel": 2014,
      "lam": 2015,
      "Ġberg": 2016,
      "Ġsofort": 2017,
      "hundert": 2018,
      "Ġerstmal": 2019,
      "Ġschiff": 2020,
      "fig": 2021,
      "len": 2022,
      "ucken": 2023,
      "ational": 2024,
      "Ġton": 2025,
      "wagen": 2026,
      "ille": 2027,
      "Ġkamen": 2028,
      "anten": 2029,
      "hand": 2030,
      "Ġsowie": 2031,
      "dy": 2032,
      "prÃ¤": 2033,
      "send": 2034,
      "atten": 2035,
      "Ġmitt": 2036,
      "chter": 2037,
      "Ġfindet": 2038,
      "ow": 2039,
      "Ġwagen": 2040,
      "Ġlehr": 2041,
      "ĠgrÃ¶ÃŁer": 2042,
      "ppe": 2043,
      "akt": 2044,
      "Ġjung": 2045,
      "schu": 2046,
      "Ġschwier": 2047,
      "etten": 2048,
      "Ġah": 2049,
      "Ġverein": 2050,
      "Ġbus": 2051,
      "Ġschick": 2052,
      "Ġdeutsche": 2053,
      "Ġsonne": 2054,
      "Ã¶ff": 2055,
      "Ġtunnel": 2056,
      "Ġthem": 2057,
      "buch": 2058,
      "ultur": 2059,
      "itzen": 2060,
      "Ġschlecht": 2061,
      "mpf": 2062,
      "Ġwollten": 2063,
      "Ġdeinen": 2064,
      "ĠnÃ¤chsten": 2065,
      "Ġgib": 2066,
      "Ġfein": 2067,
      "Ġkerst": 2068,
      "Ġhalb": 2069,
      "Ġvergangen": 2070,
      "Ġbem": 2071,
      "Ġerh": 2072,
      "glie": 2073,
      "reifen": 2074,
      "Ġkerstin": 2075,
      "for": 2076,
      "ven": 2077,
      "ĠlÃ¤sst": 2078,
      "Ġtrinken": 2079,
      "rift": 2080,
      "eite": 2081,
      "auer": 2082,
      "Ġwirtschaft": 2083,
      "Ġkonnten": 2084,
      "Ġneun": 2085,
      "oss": 2086,
      "haft": 2087,
      "Ġsuchen": 2088,
      "Ġregierung": 2089,
      "hlen": 2090,
      "Ġsitzt": 2091,
      "Ġol": 2092,
      "Ġ15": 2093,
      "Ġvorne": 2094,
      "Ġangel": 2095,
      "ĠsÃ¼d": 2096,
      "Ġnimm": 2097,
      "Ġsuper": 2098,
      "ichtet": 2099,
      "Ġind": 2100,
      "Ġamerik": 2101,
      "co": 2102,
      "Ġhinaus": 2103,
      "sie": 2104,
      "ĠlÃ¤u": 2105,
      "Ġverschw": 2106,
      "llig": 2107,
      "erg": 2108,
      "Ã¤chst": 2109,
      "utzen": 2110,
      "ganis": 2111,
      "Ġlhr": 2112,
      "Ġguten": 2113,
      "leben": 2114,
      "ordnung": 2115,
      "sident": 2116,
      "Ã¤ume": 2117,
      "zimmer": 2118,
      "annten": 2119,
      "Ġcar": 2120,
      "Ġnord": 2121,
      "Ġraum": 2122,
      "reichen": 2123,
      "Ġbra": 2124,
      "Ġstein": 2125,
      "ativ": 2126,
      "esse": 2127,
      "ond": 2128,
      "Ġzeig": 2129,
      "reiben": 2130,
      "Ã¤chlich": 2131,
      "zwischen": 2132,
      "Ġzweiten": 2133,
      "Ġtrotzdem": 2134,
      "Ġszen": 2135,
      "Ġzun": 2136,
      "lossen": 2137,
      "voll": 2138,
      "Ġit": 2139,
      "ellen": 2140,
      "alter": 2141,
      "Ġendlich": 2142,
      "trag": 2143,
      "Ġpartei": 2144,
      "ks": 2145,
      "unst": 2146,
      "ende": 2147,
      "Ġpaul": 2148,
      "Ġseien": 2149,
      "Ġabs": 2150,
      "Ġschreiben": 2151,
      "zz": 2152,
      "Ġmhm": 2153,
      "Ġfranz": 2154,
      "Ġmeist": 2155,
      "ĠgefÃ¤hr": 2156,
      "ĠlieÃŁ": 2157,
      "Ġlangsam": 2158,
      "Ġfun": 2159,
      "Ġreden": 2160,
      "Ġkor": 2161,
      "Ġcor": 2162,
      "Ġuni": 2163,
      "Ġprodu": 2164,
      "itze": 2165,
      "Ġeinge": 2166,
      "Ġgemeinsam": 2167,
      "Ġverg": 2168,
      "Ġmerk": 2169,
      "ĠÃ¤hnlich": 2170,
      "raum": 2171,
      "Ġform": 2172,
      "Ġdunk": 2173,
      "riff": 2174,
      "Ġnot": 2175,
      "arten": 2176,
      "ala": 2177,
      "esser": 2178,
      "Ġkrit": 2179,
      "Ġplan": 2180,
      "Ġmark": 2181,
      "Ġweitere": 2182,
      "lei": 2183,
      "zess": 2184,
      "Ġlok": 2185,
      "Ġandern": 2186,
      "Ġnormal": 2187,
      "Ġholz": 2188,
      "ÃŁig": 2189,
      "Ġ9": 2190,
      "ÃŁchen": 2191,
      "Ġsommer": 2192,
      "ĠschlieÃŁlich": 2193,
      "Ġvergessen": 2194,
      "Ġwilhelmine": 2195,
      "oche": 2196,
      "Ġwol": 2197,
      "Ġtor": 2198,
      "lang": 2199,
      "Ġdach": 2200,
      "Ã©": 2201,
      "Ġbekannt": 2202,
      "Ġfot": 2203,
      "Ġbur": 2204,
      "wÃ¤rt": 2205,
      "ĠÃ¼br": 2206,
      "Ġdenken": 2207,
      "ĠhÃ¤lt": 2208,
      "Ġkennen": 2209,
      "nahme": 2210,
      "Ġdaher": 2211,
      "Ġsee": 2212,
      "Ġstelle": 2213,
      "Ġmehrere": 2214,
      "ĠdrauÃŁen": 2215,
      "ys": 2216,
      "Ġschlafen": 2217,
      "Ġlaufen": 2218,
      "Ġbesuch": 2219,
      "Ġtats": 2220,
      "Ġgehabt": 2221,
      "Ġad": 2222,
      "ĠgroÃŁer": 2223,
      "Ġmitte": 2224,
      "Ġziehen": 2225,
      "schaften": 2226,
      "Ġjen": 2227,
      "Ġrom": 2228,
      "ĠgefÃ¼hl": 2229,
      "Ġlangen": 2230,
      "ĠstraÃŁen": 2231,
      "erin": 2232,
      "Ġweihn": 2233,
      "Ġderen": 2234,
      "iegen": 2235,
      "ov": 2236,
      "Ġand": 2237,
      "ĠschÃ¶ne": 2238,
      "Ġgeburt": 2239,
      "Ġecht": 2240,
      "Ġgil": 2241,
      "ĠschÃ¼t": 2242,
      "Ã¤tz": 2243,
      "od": 2244,
      "Ġeich": 2245,
      "ieben": 2246,
      "mÃ¶": 2247,
      "Ġversuch": 2248,
      "Ġwand": 2249,
      "Ġgren": 2250,
      "Ġbedeutet": 2251,
      "welt": 2252,
      "Ġprof": 2253,
      "platz": 2254,
      "prochen": 2255,
      "Ġsuch": 2256,
      "Ġstamm": 2257,
      "ĠÃ¼berl": 2258,
      "Ġwohnung": 2259,
      "Ġblut": 2260,
      "ika": 2261,
      "Ġmet": 2262,
      "iÃŁ": 2263,
      "Ġlieb": 2264,
      "Ġinteress": 2265,
      "ĠmuÃŁte": 2266,
      "Ġkasper": 2267,
      "Ġblauen": 2268,
      "Ġunterschie": 2269,
      "stellung": 2270,
      "Ġsil": 2271,
      "lichkeit": 2272,
      "Ġbrauch": 2273,
      "Ġempf": 2274,
      "Ġkatze": 2275,
      "Ġgehe": 2276,
      "jahr": 2277,
      "Ġtom": 2278,
      "Ġdarin": 2279,
      "Ġdanach": 2280,
      "Ġeinzel": 2281,
      "Ġnatur": 2282,
      "Ã¼hrt": 2283,
      "grund": 2284,
      "heiten": 2285,
      "Ġrel": 2286,
      "lagen": 2287,
      "Ġkan": 2288,
      "isches": 2289,
      "kra": 2290,
      "Ġregen": 2291,
      "Ġhilfe": 2292,
      "Ġwinter": 2293,
      "Ġnu": 2294,
      "Ġwarten": 2295,
      "Ġweiss": 2296,
      "bringen": 2297,
      "pol": 2298,
      "Ġziel": 2299,
      "Ġglauben": 2300,
      "kam": 2301,
      "ktor": 2302,
      "Ġverschiedene": 2303,
      "Ġsen": 2304,
      "Ġschwarz": 2305,
      "Ġgestern": 2306,
      "pfen": 2307,
      "Ġbill": 2308,
      "Ġfunktion": 2309,
      "eichen": 2310,
      "sehen": 2311,
      "Ġsim": 2312,
      "ĠbrÃ¼cke": 2313,
      "Ġlandes": 2314,
      "Ġhallo": 2315,
      "ĠgehÃ¶ren": 2316,
      "Ġgeschrieben": 2317,
      "Ġeisenbahn": 2318,
      "......": 2319,
      "son": 2320,
      "ĠbÃ¶": 2321,
      "Ġstunden": 2322,
      "Ġirgendwie": 2323,
      "ĠdÃ¼rfen": 2324,
      "Ġsport": 2325,
      "Ġdirekt": 2326,
      "Ġminuten": 2327,
      "Ġlin": 2328,
      "Ġgewalt": 2329,
      "Ġgesetz": 2330,
      "ĠmÃ¼n": 2331,
      "setzen": 2332,
      "Ġser": 2333,
      "Ġname": 2334,
      "Ġdessen": 2335,
      "Ġverloren": 2336,
      "zahl": 2337,
      "Ġfuhr": 2338,
      "Ġkunst": 2339,
      "test": 2340,
      "zus": 2341,
      "Ġak": 2342,
      "Ġlesen": 2343,
      "Ġspricht": 2344,
      "Ġantwor": 2345,
      "Ã¤ndern": 2346,
      "Ġdon": 2347,
      "fon": 2348,
      "Ġbevor": 2349,
      "je": 2350,
      "Ġentde": 2351,
      "Ġaugenblick": 2352,
      "aÃŁ": 2353,
      "rÃ¼cken": 2354,
      "Ġpeter": 2355,
      "stÃ¼t": 2356,
      "Ġnix": 2357,
      "Ġfolgen": 2358,
      "dete": 2359,
      "ry": 2360,
      "Ġtat": 2361,
      "Ġzer": 2362,
      "ĠrÃ¶": 2363,
      "ftig": 2364,
      "ĠheiÃŁ": 2365,
      "ĠÃ¶ster": 2366,
      "Ġhimmel": 2367,
      "Ġsache": 2368,
      "roffen": 2369,
      "Ã¼ssel": 2370,
      "Ġsand": 2371,
      "Ġsohn": 2372,
      "utzt": 2373,
      "Ġerfolg": 2374,
      "nisse": 2375,
      "Ġpat": 2376,
      "Ġhung": 2377,
      "endet": 2378,
      "wehr": 2379,
      "rauen": 2380,
      "ogra": 2381,
      "Ġjedes": 2382,
      "dert": 2383,
      "Ġohr": 2384,
      "eilen": 2385,
      "Ġroten": 2386,
      "Ġbesten": 2387,
      "Ġtele": 2388,
      "ĠkÃ¶nne": 2389,
      "Ġsprache": 2390,
      "zte": 2391,
      "Ġwert": 2392,
      "Ġgener": 2393,
      "lage": 2394,
      "Ġgell": 2395,
      "ĠeuropÃ¤": 2396,
      "ieten": 2397,
      "ĠbiÃŁchen": 2398,
      "Ġselber": 2399,
      "wohner": 2400,
      "ift": 2401,
      "Ġdadurch": 2402,
      "Ġgilt": 2403,
      "ĠstÃ¤d": 2404,
      "ĠÃ¼berall": 2405,
      "heim": 2406,
      "ies": 2407,
      "Ġbegann": 2408,
      "bs": 2409,
      "wand": 2410,
      "Ġflugzeug": 2411,
      "weil": 2412,
      "ĠlÃ¤nger": 2413,
      "ef": 2414,
      "Ġfinger": 2415,
      "ĠlÃ¤ndern": 2416,
      "Ġstill": 2417,
      "ĠÃ¤l": 2418,
      "Ġkalt": 2419,
      "aun": 2420,
      "eidung": 2421,
      "ĠfÃ¤llt": 2422,
      "Ġgold": 2423,
      "Ġnachdem": 2424,
      "Ġangeb": 2425,
      "als": 2426,
      "gefallen": 2427,
      "Ġfliegen": 2428,
      "Ġschlimm": 2429,
      "Ġbestimmt": 2430,
      "Ġkaufen": 2431,
      "digen": 2432,
      "igung": 2433,
      "Ġletzte": 2434,
      "okrat": 2435,
      "ĠhÃ¤nde": 2436,
      "hnen": 2437,
      "Ġnase": 2438,
      "ĠbrÃ¼": 2439,
      "stÃ¼ck": 2440,
      "ĠwÃ¤r": 2441,
      "Ġzuerst": 2442,
      "Ġtief": 2443,
      "Ġfinde": 2444,
      "ĠgroÃŁes": 2445,
      "Ġdeinem": 2446,
      "Ġgegeben": 2447,
      "alis": 2448,
      "pfl": 2449,
      "ĠÃ¶ffent": 2450,
      "rig": 2451,
      "Ġkriegt": 2452,
      "Ġbrot": 2453,
      "Ġfei": 2454,
      "Ġmond": 2455,
      "Ġmaus": 2456,
      "zeich": 2457,
      "Ġgehei": 2458,
      "Ġwus": 2459,
      "Ġkranken": 2460,
      "gramm": 2461,
      "zung": 2462,
      "Ġautos": 2463,
      "scheinlich": 2464,
      "Ġkirche": 2465,
      "),": 2466,
      "aner": 2467,
      "pen": 2468,
      "ckte": 2469,
      "ĠkrÃ¤": 2470,
      "Ġbruder": 2471,
      "Ġzent": 2472,
      "Ġbezahl": 2473,
      "Ġobwohl": 2474,
      "Ġspe": 2475,
      "kten": 2476,
      "icher": 2477,
      "geln": 2478,
      "alitÃ¤t": 2479,
      "ehme": 2480,
      "Ġleid": 2481,
      "Ġtod": 2482,
      "Ġsam": 2483,
      "Ġwoche": 2484,
      "ĠschÃ¼": 2485,
      "ppen": 2486,
      "arbeit": 2487,
      "Ġrest": 2488,
      "ickt": 2489,
      "ĠhÃ¶rte": 2490,
      "Ġspielt": 2491,
      "ĠtatsÃ¤chlich": 2492,
      "Ġmot": 2493,
      "Ġschme": 2494,
      "ĠunterstÃ¼t": 2495,
      "meister": 2496,
      "jÃ¤hrige": 2497,
      "blik": 2498,
      "Ġgarten": 2499,
      "stern": 2500,
      "Ġkomme": 2501,
      "ĠgeschÃ¤ft": 2502,
      "ĠerzÃ¤hlen": 2503,
      "Ġstimme": 2504,
      "jekt": 2505,
      "Ġpferd": 2506,
      "aren": 2507,
      "Ġverh": 2508,
      "Ġchar": 2509,
      "Ġfiel": 2510,
      "egen": 2511,
      "Ġukra": 2512,
      "Ġwissenschaft": 2513,
      "Ġhoff": 2514,
      "sw": 2515,
      "iner": 2516,
      "Ġwirst": 2517,
      "Ġdeutlich": 2518,
      "Ġentfern": 2519,
      "Ġdank": 2520,
      "Ġmh": 2521,
      "Ġtragen": 2522,
      "Ġfrem": 2523,
      "ĠwÃ¼": 2524,
      "gestellt": 2525,
      "itel": 2526,
      "Ġirgendwo": 2527,
      "ante": 2528,
      "Ġversch": 2529,
      "zeitig": 2530,
      "Ġgeg": 2531,
      "atte": 2532,
      "Ġebenfalls": 2533,
      "Ġker": 2534,
      "puter": 2535,
      "ĠlÃ¤uft": 2536,
      "ĠfrÃ¼h": 2537,
      "ĠgesprÃ¤": 2538,
      "Ġerle": 2539,
      "Ġstre": 2540,
      "Ġemme": 2541,
      "Ġmel": 2542,
      "Ġtex": 2543,
      "kÃ¤": 2544,
      "Ġbauch": 2545,
      "ed": 2546,
      "Ġidee": 2547,
      "Ġbrauche": 2548,
      "Ġsex": 2549,
      "Ġpolitik": 2550,
      "weit": 2551,
      "Ã¤tze": 2552,
      "Ã¤hlt": 2553,
      "Ġkuh": 2554,
      "Ġwest": 2555,
      "Ġinform": 2556,
      "Ã¶lker": 2557,
      "Ġsage": 2558,
      "ĠÃ¶sterreich": 2559,
      "anischen": 2560,
      "Ġmilch": 2561,
      "Ġhielt": 2562,
      "Ġglas": 2563,
      "ĠmÃ¼s": 2564,
      "Ġverste": 2565,
      "stehen": 2566,
      "Ġsieh": 2567,
      "Ġbein": 2568,
      "Ġrolle": 2569,
      "Ġrote": 2570,
      "Ġrussland": 2571,
      "Ġkil": 2572,
      "Ġreise": 2573,
      "Ġnimmt": 2574,
      "Ġlegen": 2575,
      "Ġdau": 2576,
      "Ġneues": 2577,
      "Ġnational": 2578,
      "Ġweh": 2579,
      "Ġ10": 2580,
      "Ġhundert": 2581,
      "Ã¤gt": 2582,
      "garten": 2583,
      "Ġszene": 2584,
      "wÃ¤rts": 2585,
      "ochter": 2586,
      "onnen": 2587,
      "sprechen": 2588,
      "Ġordnung": 2589,
      "Ġstrom": 2590,
      "hle": 2591,
      "Ġbrie": 2592,
      "raus": 2593,
      "Ġzul": 2594,
      "Ġgegangen": 2595,
      "Ġkuchen": 2596,
      "fol": 2597,
      "atur": 2598,
      "Ġschwierig": 2599,
      "fin": 2600,
      "Ġheil": 2601,
      "Ġflei": 2602,
      "digt": 2603,
      "ober": 2604,
      "Ġkasperle": 2605,
      "Ġrichtung": 2606,
      "Ġvogel": 2607,
      "seite": 2608,
      "Ġarbeits": 2609,
      "band": 2610,
      "ise": 2611,
      "ĠstÃ¤r": 2612,
      "Ġenerg": 2613,
      "Ġeigene": 2614,
      "bung": 2615,
      "Ġwild": 2616,
      "ons": 2617,
      "mo": 2618,
      "Ġeinst": 2619,
      "Ġeier": 2620,
      "Ġglaub": 2621,
      "ling": 2622,
      "Ġwider": 2623,
      "Ġgebaut": 2624,
      "ex": 2625,
      "Ã¤ude": 2626,
      "Ġdenke": 2627,
      "setz": 2628,
      "Ġgesund": 2629,
      "Ġgrie": 2630,
      "ts": 2631,
      "Ġfarbe": 2632,
      "Ġzukunft": 2633,
      "Ġblumen": 2634,
      "Ġernst": 2635,
      "ĠfuÃŁball": 2636,
      "ĠdÃ¼": 2637,
      "Ġsetzen": 2638,
      "Ġcomputer": 2639,
      "nach": 2640,
      "geg": 2641,
      "ĠwÃ¼n": 2642,
      "Ġbringt": 2643,
      "arte": 2644,
      "Ġjan": 2645,
      "Ġjede": 2646,
      "Ġdenk": 2647,
      "Ġpflanzen": 2648,
      "Ġlernen": 2649,
      "Ġsk": 2650,
      "Ġice": 2651,
      "sweise": 2652,
      "org": 2653,
      "anne": 2654,
      "Ġ30": 2655,
      "Ġfinanz": 2656,
      "Ġgelb": 2657,
      "ial": 2658,
      "liches": 2659,
      "gesetzt": 2660,
      "Ġtechn": 2661,
      "Ġbeginn": 2662,
      "Ġseiten": 2663,
      "Ġrobert": 2664,
      "ĠmÃ¤r": 2665,
      "Ġmitglie": 2666,
      "Ġtreffen": 2667,
      "fs": 2668,
      "hung": 2669,
      "ta": 2670,
      "Ġerl": 2671,
      "Ġalleine": 2672,
      "oo": 2673,
      "Ġkeiner": 2674,
      "Ġdaten": 2675,
      "Ġkultur": 2676,
      "stelle": 2677,
      "Ġschwimm": 2678,
      "lein": 2679,
      "Ġunserer": 2680,
      "Ġzahlen": 2681,
      "Ġscheint": 2682,
      "Ġbisher": 2683,
      "Ġverz": 2684,
      "schlag": 2685,
      "Ġeg": 2686,
      "abel": 2687,
      "deut": 2688,
      "Ġsonnen": 2689,
      "reise": 2690,
      "Ġdunkel": 2691,
      "Ġsir": 2692,
      "Ġinner": 2693,
      "Ġgetan": 2694,
      "Ġehe": 2695,
      "Ġwahrscheinlich": 2696,
      "Ã¼gen": 2697,
      "Ġmeter": 2698,
      "Ġtie": 2699,
      "anzig": 2700,
      "Ġgefahren": 2701,
      "anc": 2702,
      "gÃ¤n": 2703,
      "tra": 2704,
      "Ġnik": 2705,
      "Ġsamm": 2706,
      "Ġdur": 2707,
      "Ã¶rt": 2708,
      "Ġgross": 2709,
      "nahmen": 2710,
      "Ã¤ndert": 2711,
      "ĠsÃ¤": 2712,
      "Ġschnee": 2713,
      "Ġmiss": 2714,
      "Ġitalien": 2715,
      "Ġschlaf": 2716,
      "schr": 2717,
      "rÃ¼ckt": 2718,
      "Ġorganis": 2719,
      "ute": 2720,
      "Ġbauern": 2721,
      "ĠgegenÃ¼ber": 2722,
      "Ġbahnhof": 2723,
      "Ġwach": 2724,
      "la": 2725,
      "schutz": 2726,
      "Ġleich": 2727,
      "Ġsogen": 2728,
      "Ġklima": 2729,
      "krieg": 2730,
      "iste": 2731,
      "Ġsan": 2732,
      "Ġverstehen": 2733,
      "Ġsorgen": 2734,
      "ĠlÃ¤nder": 2735,
      "Ġungl": 2736,
      "ĠjÃ¼n": 2737,
      "ĠhÃ¶ch": 2738,
      "eller": 2739,
      "Ġbraun": 2740,
      "eilt": 2741,
      "Ġgedanken": 2742,
      "Ġhervor": 2743,
      "ĠbeschÃ¤ft": 2744,
      "ĠkÃ¼nst": 2745,
      "Ã¤che": 2746,
      "wasser": 2747,
      "chtig": 2748,
      "Ġinsel": 2749,
      "Ġpriv": 2750,
      "Ġsto": 2751,
      "ĠnÃ¤chste": 2752,
      "hÃ¤ng": 2753,
      "Ġwal": 2754,
      "heits": 2755,
      "Ġdagegen": 2756,
      "see": 2757,
      "ĠâĢľ": 2758,
      "Ġfrankreich": 2759,
      "ffer": 2760,
      "ĠtÃ¼rk": 2761,
      "ĠnÃ¤he": 2762,
      "gebracht": 2763,
      "Ġverlassen": 2764,
      "ument": 2765,
      "Ġprob": 2766,
      "Ġgegessen": 2767,
      "Ġkle": 2768,
      "fest": 2769,
      "Ġelekt": 2770,
      "Ġpauline": 2771,
      "ichts": 2772,
      "Ġreicht": 2773,
      "ĠgÃ¤": 2774,
      "Ġkaffe": 2775,
      "satz": 2776,
      "Ġ199": 2777,
      "Ġhaut": 2778,
      "zentr": 2779,
      "Ġgedacht": 2780,
      "Ġmittler": 2781,
      "anische": 2782,
      "ator": 2783,
      "Ġseines": 2784,
      "Ġanderem": 2785,
      "Ġheut": 2786,
      "Ġtages": 2787,
      "fra": 2788,
      "Ġlebt": 2789,
      "Ġperson": 2790,
      "Ġzweite": 2791,
      "uchs": 2792,
      "Ġkindern": 2793,
      "pe": 2794,
      "Ġweise": 2795,
      "ub": 2796,
      "Ġsonn": 2797,
      "Ġvorl": 2798,
      "aber": 2799,
      "Ġsinn": 2800,
      "Ġwusste": 2801,
      "Ġsozial": 2802,
      "Ġschweiz": 2803,
      "Ġverwand": 2804,
      "Ġfehlt": 2805,
      "Ġisst": 2806,
      "orben": 2807,
      "ÃŁten": 2808,
      "Ġdeiner": 2809,
      "gst": 2810,
      "Ġdaraus": 2811,
      "Ġblieb": 2812,
      "Ġpapier": 2813,
      "minister": 2814,
      "Ġnehme": 2815,
      "Ġres": 2816,
      "Ġwelcher": 2817,
      "daten": 2818,
      "frie": 2819,
      "uar": 2820,
      "usst": 2821,
      "ĠhÃ¶her": 2822,
      "Ġkriegen": 2823,
      "Ġkosten": 2824,
      "ins": 2825,
      "âĢĿ": 2826,
      "ias": 2827,
      "Ã¤ngt": 2828,
      "Ġ16": 2829,
      "Ġirgendw": 2830,
      "Ġschwein": 2831,
      "Ġverkehr": 2832,
      "Ġgefr": 2833,
      "gefÃ¤hr": 2834,
      "Ġkontro": 2835,
      "Ġthema": 2836,
      "Ã¤nde": 2837,
      "Ġmedien": 2838,
      "Ã¤umen": 2839,
      "Ġafr": 2840,
      "Ġvide": 2841,
      "Ġpos": 2842,
      "Ġeinigen": 2843,
      "Ġvergangenen": 2844,
      "Ġfreunde": 2845,
      "feld": 2846,
      "wen": 2847,
      "Ġselten": 2848,
      "mt": 2849,
      "Ġehm": 2850,
      "Ġchristian": 2851,
      "fil": 2852,
      "Ġaktu": 2853,
      "Ġkreu": 2854,
      "Ġ17": 2855,
      "ĠzunÃ¤chst": 2856,
      "Ġapfel": 2857,
      "Ġkal": 2858,
      "Ġkennt": 2859,
      "ele": 2860,
      "Ġarmen": 2861,
      "Ġstunde": 2862,
      "Ġwohin": 2863,
      "denten": 2864,
      "Ġgefallen": 2865,
      "Ġmed": 2866,
      "Ġruhig": 2867,
      "Ġtochter": 2868,
      "Ġfalsch": 2869,
      "Ġwart": 2870,
      "Ġnetz": 2871,
      "sa": 2872,
      "Ġmittag": 2873,
      "alle": 2874,
      "Ã¤hlen": 2875,
      "piel": 2876,
      "will": 2877,
      "Ġweib": 2878,
      "Ġschreibt": 2879,
      "Ġkraft": 2880,
      "wegs": 2881,
      "Ġisra": 2882,
      "Ġfamilien": 2883,
      "Ġpra": 2884,
      "Ġjul": 2885,
      "Ġoffenbar": 2886,
      "ĠwuÃŁ": 2887,
      "ffel": 2888,
      "ĠrÃ¼cken": 2889,
      "Ġgenommen": 2890,
      "schung": 2891,
      "Ġgruppe": 2892,
      "Ġapp": 2893,
      "Ġgeburtstag": 2894,
      "Ġsetzte": 2895,
      "aben": 2896,
      "Ġhart": 2897,
      "stimm": 2898,
      "th": 2899,
      "Ġkre": 2900,
      "Ġcos": 2901,
      "ĠhÃ¶rt": 2902,
      "ĠkÃ¼che": 2903,
      "gemacht": 2904,
      "Ġwelches": 2905,
      "Ġklo": 2906,
      "Ġeng": 2907,
      "Ġzudem": 2908,
      "rik": 2909,
      "Ġfische": 2910,
      "anke": 2911,
      "ance": 2912,
      "gegangen": 2913,
      "Ġruhe": 2914,
      "Ġunge": 2915,
      "Ġindem": 2916,
      "Ġtelefon": 2917,
      "ĠerklÃ¤r": 2918,
      "Ġgebracht": 2919,
      "ager": 2920,
      "hÃ¤u": 2921,
      "iebt": 2922,
      "Ġschlie": 2923,
      "Ġgetr": 2924,
      "Ġmat": 2925,
      "ddy": 2926,
      "schte": 2927,
      "Ġteile": 2928,
      "Ġecke": 2929,
      "Ġhmhm": 2930,
      "Ġpost": 2931,
      "Ã¼ge": 2932,
      "Ġ12": 2933,
      "Ġros": 2934,
      "iver": 2935,
      "Ġba": 2936,
      "Ġhunger": 2937,
      "Ġrat": 2938,
      "hÃ¶": 2939,
      "Ġbeob": 2940,
      "Ġdemokrat": 2941,
      "gabe": 2942,
      "far": 2943,
      "Ġzog": 2944,
      "Ġhaste": 2945,
      "Ġunivers": 2946,
      "stit": 2947,
      "bet": 2948,
      "Ġwein": 2949,
      "ĠmÃ¼de": 2950,
      "Ġsterben": 2951,
      "arbeiter": 2952,
      "Ġkreis": 2953,
      "Ġversuchen": 2954,
      "Ġkompl": 2955,
      "ĠschÃ¶nen": 2956,
      "amerik": 2957,
      "lament": 2958,
      "punkt": 2959,
      "Ġnachbar": 2960,
      "Ġbesteht": 2961,
      "Ġeule": 2962,
      "Ġstuhl": 2963,
      "Ġkommun": 2964,
      "Ġkart": 2965,
      "Ġschar": 2966,
      "Ġwieviel": 2967,
      "ĠblÃ¤t": 2968,
      "sych": 2969,
      "ĠerklÃ¤rt": 2970,
      "Ġgeist": 2971,
      "Ġ14": 2972,
      "frei": 2973,
      "Ġinzwischen": 2974,
      "up": 2975,
      "Ġdopp": 2976,
      "richten": 2977,
      "ity": 2978,
      "Ġchina": 2979,
      "artet": 2980,
      "ember": 2981,
      "selben": 2982,
      "komm": 2983,
      "holen": 2984,
      "uation": 2985,
      "Ġ100": 2986,
      "ĠgrÃ¼nen": 2987,
      "rt": 2988,
      "Ġinnen": 2989,
      "Ġpark": 2990,
      "straÃŁe": 2991,
      "Ġschwester": 2992,
      "stet": 2993,
      "Ġeinzige": 2994,
      "Ã¤ss": 2995,
      "ĠwÃ¤ren": 2996,
      "elten": 2997,
      "ienen": 2998,
      "ĠfÃ¤hrst": 2999,
      "ct": 3000,
      "Ġnew": 3001,
      "ieht": 3002,
      "Ġdoll": 3003,
      "Ġmami": 3004,
      "ĠzÃ¤": 3005,
      "Ã¼g": 3006,
      "Ġanderer": 3007,
      "Ġkarte": 3008,
      "Ġboot": 3009,
      "Ġcosima": 3010,
      "bsch": 3011,
      "Ġunters": 3012,
      "Ġstaaten": 3013,
      "Ġhaare": 3014,
      "Ġwarst": 3015,
      "ĠfÃ¶r": 3016,
      "ĠmÃ¼ll": 3017,
      "Ġgleichzeitig": 3018,
      "Ġkommst": 3019,
      "wa": 3020,
      "auber": 3021,
      "ansp": 3022,
      "uckt": 3023,
      "ĠfÃ¼hren": 3024,
      "Ġding": 3025,
      "Ġjedem": 3026,
      "Ġebenso": 3027,
      "Ġwicht": 3028,
      "Ġdisk": 3029,
      "Ġlala": 3030,
      "Ġjahrhundert": 3031,
      "Ġlief": 3032,
      "urnal": 3033,
      "han": 3034,
      "vo": 3035,
      "Ġrepar": 3036,
      "Ġjob": 3037,
      "Ġauseinander": 3038,
      "Ġgeschw": 3039,
      "dessen": 3040,
      "mpfen": 3041,
      "ĠgebÃ¤ude": 3042,
      "Ġfluss": 3043,
      "bten": 3044,
      "eck": 3045,
      "mel": 3046,
      "Ġbegl": 3047,
      "Ġbas": 3048,
      "Ġfir": 3049,
      "Ġrut": 3050,
      "Ġseid": 3051,
      "Ġparis": 3052,
      "Ġtagen": 3053,
      "lassen": 3054,
      "Ġstaats": 3055,
      "Ġschok": 3056,
      "ĠzwÃ¶l": 3057,
      "Ġbereit": 3058,
      "Ġ,,": 3059,
      "Ġklapp": 3060,
      "ĠfranzÃ¶s": 3061,
      "Ġkamer": 3062,
      "Ġzuletzt": 3063,
      "trem": 3064,
      "Ġvolk": 3065,
      "ign": 3066,
      "Ġdarfst": 3067,
      "ote": 3068,
      "Ġgesprochen": 3069,
      "brochen": 3070,
      "Ġbay": 3071,
      "Ġgeschen": 3072,
      "ĠmÃ¼sse": 3073,
      "mittag": 3074,
      "irn": 3075,
      "Ġgo": 3076,
      "Ġzerst": 3077,
      "Ġgingen": 3078,
      "ative": 3079,
      "Ġarzt": 3080,
      "ĠÃ¼brigen": 3081,
      "Ġschmeckt": 3082,
      "ĠsaÃŁ": 3083,
      "Ġregion": 3084,
      "bauen": 3085,
      "ĠbÃ¼cher": 3086,
      "wenn": 3087,
      "Ġsollst": 3088,
      "Ġkaffee": 3089,
      "eider": 3090,
      "afft": 3091,
      "Ġinternet": 3092,
      "ite": 3093,
      "eisen": 3094,
      "Ġcl": 3095,
      "Ġlat": 3096,
      "rag": 3097,
      "weile": 3098,
      "wend": 3099,
      "unken": 3100,
      "Ġaufs": 3101,
      "Ġdeutsch": 3102,
      "Ġkol": 3103,
      "sent": 3104,
      "Ġmarkt": 3105,
      "Ġmor": 3106,
      "Ġmenge": 3107,
      "ĠflÃ¼cht": 3108,
      "ĠauÃŁen": 3109,
      "ĠmÃ¤u": 3110,
      "Ġverdamm": 3111,
      "vol": 3112,
      "ĠbloÃŁ": 3113,
      "Ġenergie": 3114,
      "raten": 3115,
      "Ġhose": 3116,
      "Ġverschiedenen": 3117,
      "ĠgrÃ¶ÃŁte": 3118,
      "Ġschrift": 3119,
      "Ġ:": 3120,
      "Ġelef": 3121,
      "Ġdat": 3122,
      "anst": 3123,
      "ĠnÃ¤her": 3124,
      "arm": 3125,
      "Ġaufm": 3126,
      "Ġbat": 3127,
      "Ġdicht": 3128,
      "ane": 3129,
      "Ġdreh": 3130,
      "Ġgefangen": 3131,
      "Ġsolchen": 3132,
      "ĠmuÃŁt": 3133,
      "reiten": 3134,
      "Ã¤nd": 3135,
      "Ġsauber": 3136,
      "Ġfur": 3137,
      "Ġbank": 3138,
      "isst": 3139,
      "itÃ¤r": 3140,
      "Ġwenige": 3141,
      "Ġbeispielsweise": 3142,
      "Ġhinauf": 3143,
      "stoff": 3144,
      "Ġgeheim": 3145,
      "Ġegal": 3146,
      "Ġeink": 3147,
      "Ġanziehen": 3148,
      "Ġost": 3149,
      "Ġoff": 3150,
      "Ġmeistens": 3151,
      "ĠprÃ¤sident": 3152,
      "Ġisrael": 3153,
      "Ġche": 3154,
      "Ġloch": 3155,
      "antwort": 3156,
      "vent": 3157,
      "Ġtomm": 3158,
      "Ġmut": 3159,
      "Ġfallen": 3160,
      "ure": 3161,
      "ĠÃ¤lter": 3162,
      "Ġfeuerwehr": 3163,
      "eitung": 3164,
      "ohn": 3165,
      "Ġmik": 3166,
      "Ġmussten": 3167,
      "inna": 3168,
      "uche": 3169,
      "Ġiss": 3170,
      "ĠbÃ¤r": 3171,
      "Ġstanden": 3172,
      "Ġvorsichtig": 3173,
      "Ġauge": 3174,
      "recher": 3175,
      "Ġjahres": 3176,
      "markt": 3177,
      "Ġmiteinander": 3178,
      "ĠvÃ¶gel": 3179,
      "Ġversucht": 3180,
      "ĠfÃ¼hrt": 3181,
      "Ġleider": 3182,
      "ĠgÃ¤n": 3183,
      "Ã¤ten": 3184,
      "wirtschaft": 3185,
      "Ġgebe": 3186,
      "mÃ¶glich": 3187,
      "Ġwarm": 3188,
      "ĠhÃ¶he": 3189,
      "zern": 3190,
      "Ġdorf": 3191,
      "obo": 3192,
      "Ġsonntag": 3193,
      "ĠrÃ¤": 3194,
      "Ġsagst": 3195,
      "Ġwes": 3196,
      "Ġnutz": 3197,
      "lungen": 3198,
      "umm": 3199,
      "eitet": 3200,
      "Ġmart": 3201,
      "Ġ50": 3202,
      "ĠpersÃ¶n": 3203,
      "aur": 3204,
      "Ġknapp": 3205,
      "Ġbezie": 3206,
      "Ġgenannt": 3207,
      "ole": 3208,
      "Ġaf": 3209,
      "Ġherein": 3210,
      "ĠschÃ¼ler": 3211,
      "ĠwuÃŁte": 3212,
      "fre": 3213,
      "ient": 3214,
      "aub": 3215,
      "Ġnahe": 3216,
      "Ġworte": 3217,
      "iegel": 3218,
      "Ġbrauchst": 3219,
      "Ġwachsen": 3220,
      "Ġanges": 3221,
      "Ġgeboren": 3222,
      "Ġkais": 3223,
      "vÃ¶lker": 3224,
      "digung": 3225,
      "Ã¼hm": 3226,
      "Ġschreck": 3227,
      "eidet": 3228,
      "auto": 3229,
      "Ġgep": 3230,
      "eitag": 3231,
      "ose": 3232,
      "Ġbezeich": 3233,
      "Ġrede": 3234,
      "Ġuntersch": 3235,
      "Ġcorinna": 3236,
      "ĠspÃ¤t": 3237,
      "Ġhof": 3238,
      "Ġerhalten": 3239,
      "50": 3240,
      "Ġsc": 3241,
      "Ġsetzt": 3242,
      "echt": 3243,
      "ĠhÃ¤l": 3244,
      "Ġentscheiden": 3245,
      "Ġgrau": 3246,
      "Ġihres": 3247,
      "Ġsicht": 3248,
      "ations": 3249,
      "Ġzieht": 3250,
      "Ġzeu": 3251,
      "Ġbekommt": 3252,
      "ukt": 3253,
      "Ġpunk": 3254,
      "Ġwollt": 3255,
      "ustrie": 3256,
      "schluss": 3257,
      "Ġerinner": 3258,
      "ement": 3259,
      "ore": 3260,
      "Ġaufzu": 3261,
      "Ġleuten": 3262,
      "denken": 3263,
      "ds": 3264,
      "Ġehem": 3265,
      "ĠheiÃŁen": 3266,
      "laub": 3267,
      "dung": 3268,
      "ehmer": 3269,
      "iar": 3270,
      "schul": 3271,
      "Ġpop": 3272,
      "ĠblÃ¼": 3273,
      "sicht": 3274,
      "Ġbon": 3275,
      "ckel": 3276,
      "tert": 3277,
      "beh": 3278,
      "vier": 3279,
      "Ġwerk": 3280,
      "hÃ¶ren": 3281,
      "Ġphil": 3282,
      "Ġlustig": 3283,
      "Ġtommy": 3284,
      "ahrung": 3285,
      "mutter": 3286,
      "Ġtyp": 3287,
      "Ġaktiv": 3288,
      "Ġfleisch": 3289,
      "Ġpsych": 3290,
      "Ġunterschied": 3291,
      "Ġstei": 3292,
      "Ġkriegst": 3293,
      "Ġgast": 3294,
      "Ġgegend": 3295,
      "ĠungefÃ¤hr": 3296,
      "Ġnennen": 3297,
      "Ġfig": 3298,
      "Ġparlament": 3299,
      "Ġfing": 3300,
      "Ġbehand": 3301,
      "publik": 3302,
      "bast": 3303,
      "Ġumwelt": 3304,
      "ometer": 3305,
      "urs": 3306,
      "kommt": 3307,
      "Ġbeste": 3308,
      "Ġwechs": 3309,
      "steigen": 3310,
      "Ġlil": 3311,
      "Ġbrief": 3312,
      "gekommen": 3313,
      "Ġkapit": 3314,
      "stitut": 3315,
      "Ġturm": 3316,
      "ĠspaÃŁ": 3317,
      "Ġ13": 3318,
      "Ġzeichen": 3319,
      "Ġgefahr": 3320,
      "Ġente": 3321,
      "uni": 3322,
      "Ã¼l": 3323,
      "linge": 3324,
      "glichen": 3325,
      "Ġarbeitet": 3326,
      "ĠzwÃ¶lf": 3327,
      "tau": 3328,
      "baum": 3329,
      "olz": 3330,
      "Ġkindergarten": 3331,
      "Ġprinzess": 3332,
      "ufen": 3333,
      "elbe": 3334,
      "Ġentschul": 3335,
      "eise": 3336,
      "gesetz": 3337,
      "Ġwolle": 3338,
      "ĠvÃ¶llig": 3339,
      "Ġbeine": 3340,
      "Ġkarten": 3341,
      "Ġwem": 3342,
      "Ġhey": 3343,
      "Ġlauter": 3344,
      "Ġfreude": 3345,
      "Ġausl": 3346,
      "Ġhohen": 3347,
      "Ġsimone": 3348,
      "Ġstellt": 3349,
      "Ġschaffen": 3350,
      "lig": 3351,
      "Ġaua": 3352,
      "ĠblÃ¶": 3353,
      "Ġschuhe": 3354,
      "Ġblaue": 3355,
      "Ġukraine": 3356,
      "Ġzentr": 3357,
      "Ġrechte": 3358,
      "fahrt": 3359,
      "ĠgesprÃ¤ch": 3360,
      "Ġbrumm": 3361,
      "bil": 3362,
      "ech": 3363,
      "annen": 3364,
      "Ġdumm": 3365,
      "ĠhÃ¤ufig": 3366,
      "Ġschatz": 3367,
      "Ġeichi": 3368,
      "wur": 3369,
      "Ġmittlerweile": 3370,
      "Ġanzu": 3371,
      "Ã¤ger": 3372,
      "Ġhell": 3373,
      "ĠgefÃ¤": 3374,
      "Ġteddy": 3375,
      "Ġstrasse": 3376,
      "Ġarten": 3377,
      "vest": 3378,
      "achtet": 3379,
      "Ġfressen": 3380,
      "Ġprima": 3381,
      "Ġweihnacht": 3382,
      "Ġas": 3383,
      "Ġvern": 3384,
      "ĠweiÃŁe": 3385,
      "treten": 3386,
      "ippen": 3387,
      "Ġschwarze": 3388,
      "ologie": 3389,
      "Ġjournal": 3390,
      "Ġhinzu": 3391,
      "Ġtausend": 3392,
      "ice": 3393,
      "ernt": 3394,
      "Ġfreitag": 3395,
      "Ġschluss": 3396,
      "Ġonkel": 3397,
      "iter": 3398,
      "Ġzuvor": 3399,
      "Ġverantwort": 3400,
      "Ġ11": 3401,
      "dienst": 3402,
      "Ġschwarzen": 3403,
      "passen": 3404,
      "teten": 3405,
      "Ġantwort": 3406,
      "Ġzeich": 3407,
      "Ġunseren": 3408,
      "Ġerwachsen": 3409,
      "stÃ¤ndig": 3410,
      "Ġzit": 3411,
      "wechs": 3412,
      "Ġlegte": 3413,
      "Ġherunter": 3414,
      "Ġdavor": 3415,
      "obil": 3416,
      "Ġpal": 3417,
      "rech": 3418,
      "gesamt": 3419,
      "pfe": 3420,
      "Ġwunderbar": 3421,
      "Ġtal": 3422,
      "ama": 3423,
      "Ġterr": 3424,
      "Ġpersonen": 3425,
      "gaben": 3426,
      "ĠÃ¼berra": 3427,
      "ĠgrÃ¶ÃŁten": 3428,
      "Ġrichtige": 3429,
      "Ġkauf": 3430,
      "Ġoster": 3431,
      "Ġbag": 3432,
      "Ġsebast": 3433,
      "Ġfrosch": 3434,
      "Ġstat": 3435,
      "Ġschauen": 3436,
      "Ġteam": 3437,
      "Ġsalz": 3438,
      "Ġbro": 3439,
      "Ġzauber": 3440,
      "ĠÃ¼berleg": 3441,
      "dige": 3442,
      "weis": 3443,
      "ue": 3444,
      "Ġheimat": 3445,
      "ĠgefÃ¤hrlich": 3446,
      "rab": 3447,
      "reicht": 3448,
      "Ġreihe": 3449,
      "Ġpferde": 3450,
      "Ġtour": 3451,
      "arbeitet": 3452,
      "Ġsprachen": 3453,
      "Ġgespielt": 3454,
      "bÃ¼r": 3455,
      "Ġed": 3456,
      "Ġgelegen": 3457,
      "Ġherrn": 3458,
      "Ġband": 3459,
      "indest": 3460,
      "Ġmitten": 3461,
      "Ġkro": 3462,
      "Ġring": 3463,
      "Ġauszu": 3464,
      "Ġorden": 3465,
      "Ġgei": 3466,
      "Ġmode": 3467,
      "iten": 3468,
      "erweise": 3469,
      "anien": 3470,
      "geht": 3471,
      "asche": 3472,
      "Ġles": 3473,
      "ĠstÃ¼r": 3474,
      "Ġsituation": 3475,
      "Ġirgendwann": 3476,
      "Ġoch": 3477,
      "ĠhieÃŁ": 3478,
      "Ġfle": 3479,
      "ÂŃ": 3480,
      "Ġbal": 3481,
      "Ġwoher": 3482,
      "Ġunterwegs": 3483,
      "ĠberÃ¼hm": 3484,
      "Ġfahrrad": 3485,
      "yn": 3486,
      "Ġwelchen": 3487,
      "Ġhans": 3488,
      "Ġladen": 3489,
      "Ġpreis": 3490,
      "Ġsebastian": 3491,
      "li": 3492,
      "pft": 3493,
      "Ġkoch": 3494,
      "Ġgutes": 3495,
      "Ġyo": 3496,
      "Ġfunktioniert": 3497,
      "Ġabzu": 3498,
      "Ġdarunter": 3499,
      "iven": 3500,
      "Ġherzen": 3501,
      "Ġverschl": 3502,
      "Ġlen": 3503,
      "ĠfÃ¼hrte": 3504,
      "Ġfurcht": 3505,
      "ĠschÃ¶nes": 3506,
      "Ġprogramm": 3507,
      "imin": 3508,
      "ufel": 3509,
      "entlich": 3510,
      "Ġtob": 3511,
      "Ġgrossen": 3512,
      "Ġinsgesamt": 3513,
      "Ġsoldaten": 3514,
      "Ġspiele": 3515,
      "Ġtext": 3516,
      "walt": 3517,
      "Ġkenne": 3518,
      "Ġerg": 3519,
      "Ġelektr": 3520,
      "Ġkampf": 3521,
      "Ġwaffen": 3522,
      "Ġehrlich": 3523,
      "licht": 3524,
      "ĠÃ¤u": 3525,
      "Ġprobleme": 3526,
      "Ġtrat": 3527,
      "ume": 3528,
      "weisen": 3529,
      "arr": 3530,
      "Ġrelig": 3531,
      "folge": 3532,
      "Ġhotel": 3533,
      "Ġsystem": 3534,
      "eng": 3535,
      "inkt": 3536,
      "Ġhilft": 3537,
      "iete": 3538,
      "inne": 3539,
      "Ġopa": 3540,
      "ĠhÃ¤lfte": 3541,
      "Ġwetter": 3542,
      "Ġpassen": 3543,
      "Ġmeint": 3544,
      "ĠkÃ¶nnt": 3545,
      "Ġwohnen": 3546,
      "Ġantwortete": 3547,
      "Ġinte": 3548,
      "Ġverbr": 3549,
      "Ġdeswegen": 3550,
      "zial": 3551,
      "Ġof": 3552,
      "Ġhabee": 3553,
      "Ġbestimmte": 3554,
      "ĠpaÃŁ": 3555,
      "ĠmilitÃ¤r": 3556,
      "sh": 3557,
      "Ġrh": 3558,
      "Ġschneller": 3559,
      "itzer": 3560,
      "Ġstellte": 3561,
      "Ġroll": 3562,
      "Ġklasse": 3563,
      "ĠbevÃ¶lker": 3564,
      "Ġleer": 3565,
      "Ġsowas": 3566,
      "Ġschloss": 3567,
      "Ġchin": 3568,
      "Ġleiden": 3569,
      "Ġgrade": 3570,
      "ĠmÃ¶chtest": 3571,
      "Ġzucker": 3572,
      "Ġdruck": 3573,
      "Ġerkennen": 3574,
      "frieden": 3575,
      "Ġandre": 3576,
      "ĠkÃ¼r": 3577,
      "ĠgewÃ¶hn": 3578,
      "Ġmeines": 3579,
      "hstÃ¼ck": 3580,
      "lauf": 3581,
      "seh": 3582,
      "Ġzumindest": 3583,
      "Ġgehst": 3584,
      "fter": 3585,
      "les": 3586,
      "schau": 3587,
      "ĠweiÃŁen": 3588,
      "Ġheidi": 3589,
      "ĠtrÃ¤gt": 3590,
      "arbeiten": 3591,
      "Ġschritt": 3592,
      "sver": 3593,
      "Ġunver": 3594,
      "schine": 3595,
      "ba": 3596,
      "Ġries": 3597,
      "Ġhing": 3598,
      "Ã¤nger": 3599,
      "schule": 3600,
      "ĠbÃ¶se": 3601,
      "Ġgebrau": 3602,
      "indung": 3603,
      "Ġmonate": 3604,
      "Ġdonner": 3605,
      "nehmer": 3606,
      "Ġpunkt": 3607,
      "Ġgekl": 3608,
      "igr": 3609,
      "Ġrech": 3610,
      "Ġ198": 3611,
      "Ġdoktor": 3612,
      "Ġplast": 3613,
      "Ġeinsatz": 3614,
      "Ġbad": 3615,
      "Ġmeinte": 3616,
      "zept": 3617,
      "Ġballa": 3618,
      "Ġverstanden": 3619,
      "Ġtreppe": 3620,
      "bie": 3621,
      "Ġren": 3622,
      "Ġbun": 3623,
      "Ġsicherheit": 3624,
      "hel": 3625,
      "Ġschmer": 3626,
      "Ġbekannte": 3627,
      "Ġberuf": 3628,
      "blieben": 3629,
      "Ġaussehen": 3630,
      "Ġlehrer": 3631,
      "hmen": 3632,
      "Ġschienen": 3633,
      "Ġjoh": 3634,
      "gern": 3635,
      "wahl": 3636,
      "Ġfach": 3637,
      "reiche": 3638,
      "Ġabgesch": 3639,
      "Ġunserem": 3640,
      "laden": 3641,
      "Ġmotor": 3642,
      "Ġag": 3643,
      "Ġbade": 3644,
      "Ã¤nen": 3645,
      "Ġentgegen": 3646,
      "pel": 3647,
      "to": 3648,
      "Ġfreundin": 3649,
      "Ġbrachte": 3650,
      "ĠsÃ¼den": 3651,
      "Ġteufel": 3652,
      "nein": 3653,
      "hil": 3654,
      "Ġkriege": 3655,
      "Ġerwachte": 3656,
      "Ġaug": 3657,
      "Ġport": 3658,
      "Ġaufmachen": 3659,
      "Ġgelang": 3660,
      "ĠrÃ¼ber": 3661,
      "Ġkomp": 3662,
      "do": 3663,
      "Ġhinunter": 3664,
      "Ġzeigte": 3665,
      "chtet": 3666,
      "Ġteilen": 3667,
      "Ġtransp": 3668,
      "Ġbetroffen": 3669,
      "Ġschokol": 3670,
      "port": 3671,
      "Ġli": 3672,
      "icken": 3673,
      "Ġdienst": 3674,
      "Ġzugleich": 3675,
      "Ġdennoch": 3676,
      "fahrer": 3677,
      "Ġkaiser": 3678,
      "fallen": 3679,
      "stÃ¼r": 3680,
      "Ġnorden": 3681,
      "ĠnÃ¶t": 3682,
      "Ġzoo": 3683,
      "ĠÃ¤rger": 3684,
      "Ġverspr": 3685,
      "Ġhals": 3686,
      "kreis": 3687,
      "ens": 3688,
      "ikt": 3689,
      "Ġderzeit": 3690,
      "Ġvergleich": 3691,
      "ischt": 3692,
      "Ġsuche": 3693,
      "schlieÃŁen": 3694,
      "Ġreisen": 3695,
      "hÃ¤lt": 3696,
      "Ġbekam": 3697,
      "ĠgrÃ¼ne": 3698,
      "Ġschutz": 3699,
      "ĠmaÃŁ": 3700,
      "steller": 3701,
      "Ġprofess": 3702,
      "Ġmilliar": 3703,
      "zeigt": 3704,
      "tritt": 3705,
      "brechen": 3706,
      "ĠtÃ¼": 3707,
      "Ġsolle": 3708,
      "Ġbutter": 3709,
      "zeichen": 3710,
      "hÃ¤user": 3711,
      "Ġweisst": 3712,
      "Ġumge": 3713,
      "ona": 3714,
      "istische": 3715,
      "Ġbewegung": 3716,
      "Ġdauer": 3717,
      "Ġtanz": 3718,
      "istischen": 3719,
      "Ġregel": 3720,
      "Ġweder": 3721,
      "Ġeinzu": 3722,
      "Ġpil": 3723,
      "ĠwÃ¶r": 3724,
      "Ã¼llt": 3725,
      "erksam": 3726,
      "Ġriesen": 3727,
      "por": 3728,
      "zeuge": 3729,
      "Ġkennst": 3730,
      "part": 3731,
      "Ġnutzen": 3732,
      "ĠschÃ¤": 3733,
      "Ġleise": 3734,
      "Ġkatzen": 3735,
      "polit": 3736,
      "Ġoffiz": 3737,
      "neten": 3738,
      "wig": 3739,
      "Ġexper": 3740,
      "ĠerzÃ¤hlte": 3741,
      "auso": 3742,
      "Ġfarben": 3743,
      "ĠhÃ¤ngt": 3744,
      "Ġblatt": 3745,
      "Ġ25": 3746,
      "Ġgeschichten": 3747,
      "Ġangucken": 3748,
      "Ġ40": 3749,
      "gemein": 3750,
      "Ġjohn": 3751,
      "ĠlaÃŁ": 3752,
      "ding": 3753,
      "assung": 3754,
      "riffen": 3755,
      "Ġrauf": 3756,
      "Ġgenauso": 3757,
      "ĠblÃ¤tter": 3758,
      "19": 3759,
      "schm": 3760,
      "Ġstock": 3761,
      "sein": 3762,
      "Ġautor": 3763,
      "ĠbÃ¤ume": 3764,
      "igten": 3765,
      "jÃ¤hrigen": 3766,
      "ograf": 3767,
      "Ġkreuz": 3768,
      "hi": 3769,
      "Ġhunde": 3770,
      "Ġtante": 3771,
      "Ġdenkt": 3772,
      "Ġangef": 3773,
      "bew": 3774,
      "Ġarch": 3775,
      "ime": 3776,
      "Ġmoder": 3777,
      "burger": 3778,
      "ĠschloÃŁ": 3779,
      "Ġsahen": 3780,
      "line": 3781,
      "fan": 3782,
      "mmern": 3783,
      "Ġgang": 3784,
      "finden": 3785,
      "las": 3786,
      "baren": 3787,
      "Ġohren": 3788,
      "stu": 3789,
      "ĠschlÃ¼ssel": 3790,
      "hafen": 3791,
      "Ġguter": 3792,
      "ĠglÃ¼cklich": 3793,
      "bÃ¼": 3794,
      "Ġzzz": 3795,
      "Ġaufmerksam": 3796,
      "Ġhon": 3797,
      "vater": 3798,
      "Ġinvest": 3799,
      "Ġpuppe": 3800,
      "Ġstift": 3801,
      "omen": 3802,
      "20": 3803,
      "ĠbÃ¤": 3804,
      "itzt": 3805,
      "Ã¤tzen": 3806,
      "Ġtasche": 3807,
      "Ġfeld": 3808,
      "Ã¤ndig": 3809,
      "Ġsm": 3810,
      "Ġerreichen": 3811,
      "ĠfrÃ¶": 3812,
      "enz": 3813,
      "abhÃ¤ng": 3814,
      "mb": 3815,
      "Ġbring": 3816,
      "Ġzwanzig": 3817,
      "Ġerstaun": 3818,
      "paar": 3819,
      "hu": 3820,
      "krÃ¤": 3821,
      "Ġlage": 3822,
      "schnitt": 3823,
      "Ġdauert": 3824,
      "Ġzweit": 3825,
      "ĠkÃ¼nstler": 3826,
      "ehler": 3827,
      "Ġspieler": 3828,
      "Ġmonat": 3829,
      "Ġverwendet": 3830,
      "Ġteller": 3831,
      "Ġehemal": 3832,
      "ost": 3833,
      "Ġpolitiker": 3834,
      "Ġkartoff": 3835,
      "Ġwien": 3836,
      "ĠerklÃ¤ren": 3837,
      "Ġsilber": 3838,
      "Ġzuge": 3839,
      "Ġgeschle": 3840,
      "haben": 3841,
      "Ġfreiheit": 3842,
      "ĠhÃ¤ngen": 3843,
      "Ġsamstag": 3844,
      "Ġident": 3845,
      "Ġbot": 3846,
      "ums": 3847,
      "recken": 3848,
      "eis": 3849,
      "iti": 3850,
      "Ġergeb": 3851,
      "Ġweihnachten": 3852,
      "Ġdom": 3853,
      "Ġmeinung": 3854,
      "ĠmÃ¼sste": 3855,
      "Ġx": 3856,
      "aler": 3857,
      "gebaut": 3858,
      "eier": 3859,
      "bald": 3860,
      "Ġschen": 3861,
      "gelegt": 3862,
      "Ġtrump": 3863,
      "Ġbie": 3864,
      "Ġerm": 3865,
      "Ġherab": 3866,
      "Ġgericht": 3867,
      "ĠdÃ¼nn": 3868,
      "Ġpau": 3869,
      "inde": 3870,
      "Ġentfernt": 3871,
      "dorf": 3872,
      "Ġtiger": 3873,
      "ison": 3874,
      "ĠprÃ¼": 3875,
      "Ġtee": 3876,
      "ĠstÃ¤dte": 3877,
      "Ġviertel": 3878,
      "Ġtrocken": 3879,
      "Ġzeiten": 3880,
      "met": 3881,
      "esch": 3882,
      "hem": 3883,
      "Ġhut": 3884,
      "Ġgehol": 3885,
      "oph": 3886,
      "Ġwohnt": 3887,
      "fÃ¼hrer": 3888,
      "Ġdecke": 3889,
      "Ġregeln": 3890,
      "Ġpolitische": 3891,
      "bildung": 3892,
      "Ġverdien": 3893,
      "Ġokt": 3894,
      "Ġguckt": 3895,
      "ĠfrÃ¼hstÃ¼ck": 3896,
      "Ã¤tzchen": 3897,
      "Ġsatz": 3898,
      "Ġyor": 3899,
      "ĠflÃ¼gel": 3900,
      "bare": 3901,
      "Ġner": 3902,
      "yr": 3903,
      "Ġmesser": 3904,
      "Ġpet": 3905,
      "rÃ¼ben": 3906,
      "Ġdreck": 3907,
      "Ġschild": 3908,
      "ĠhÃ¤usern": 3909,
      "iko": 3910,
      "Ġgras": 3911,
      "Ġosten": 3912,
      "ĠkÃ¼hl": 3913,
      "reibt": 3914,
      "Ġtrug": 3915,
      "kraft": 3916,
      "acher": 3917,
      "Ġdritten": 3918,
      "Ġminde": 3919,
      "Ġfrieden": 3920,
      "hang": 3921,
      "Ġwau": 3922,
      "Ġbrei": 3923,
      "Ġeinwohner": 3924,
      "Ġrass": 3925,
      "Ġhi": 3926,
      "Ã¤te": 3927,
      "Ġschorn": 3928,
      "Ġgruppen": 3929,
      "Ġmaria": 3930,
      "Ġhauptstadt": 3931,
      "ampe": 3932,
      "Ġwichtige": 3933,
      "hlich": 3934,
      "kan": 3935,
      "ara": 3936,
      "Ġpip": 3937,
      "Ã¤rm": 3938,
      "kn": 3939,
      "Ġdollar": 3940,
      "Ġmikro": 3941,
      "Ġschie": 3942,
      "Ġbauer": 3943,
      "Ġnud": 3944,
      "Ġ197": 3945,
      "by": 3946,
      "izin": 3947,
      "Ġerfahren": 3948,
      "appen": 3949,
      "Ġdrehen": 3950,
      "Ġkurve": 3951,
      "ĠunglÃ¼ck": 3952,
      "sinn": 3953,
      "andid": 3954,
      "malen": 3955,
      "Ġweihnachts": 3956,
      "Ġrechten": 3957,
      "Ġahn": 3958,
      "auspiel": 3959,
      "opf": 3960,
      "Ġopfer": 3961,
      "spl": 3962,
      "riegt": 3963,
      "Ġbuchsta": 3964,
      "hause": 3965,
      "Ġfliegt": 3966,
      "ĠuniversitÃ¤t": 3967,
      "Ġmilliarden": 3968,
      "30": 3969,
      "ku": 3970,
      "flÃ¤che": 3971,
      "Ġtraurig": 3972,
      "ĠgefÃ¤ng": 3973,
      "frage": 3974,
      "Ġjohann": 3975,
      "bus": 3976,
      "ĠeuropÃ¤ischen": 3977,
      "dingt": 3978,
      "hte": 3979,
      "Ġke": 3980,
      "Ã¤cht": 3981,
      "Ġbrand": 3982,
      "Ġsech": 3983,
      "Ġjap": 3984,
      "isiert": 3985,
      "geld": 3986,
      "Ã¼nst": 3987,
      "Ġbagger": 3988,
      "Ġ2024": 3989,
      "Ġbestimmten": 3990,
      "system": 3991,
      "Ġsteigen": 3992,
      "abrik": 3993,
      "Ġhaar": 3994,
      "zin": 3995,
      "iken": 3996,
      "Ġbegeg": 3997,
      "derung": 3998,
      "Ġbewegen": 3999,
      "Ġgekriegt": 4000,
      "Ġprojekt": 4001,
      "Ġgemalt": 4002,
      "Ġrand": 4003,
      "Ġerinnern": 4004,
      "Ġschlag": 4005,
      "ĠschlÃ¤ft": 4006,
      "Ã¼sse": 4007,
      "Ġwesten": 4008,
      "Ġneuer": 4009,
      "Ġprakt": 4010,
      "war": 4011,
      "Ġnett": 4012,
      "Ã¤ul": 4013,
      "ĠdrÃ¼ber": 4014,
      "ĠmÃ¼nchen": 4015,
      "frau": 4016,
      "Ġerlau": 4017,
      "holt": 4018,
      "Ġherzog": 4019,
      "ĠbevÃ¶lkerung": 4020,
      "iffe": 4021,
      "Ġdampf": 4022,
      "ĠzÃ¤hne": 4023,
      "hase": 4024,
      "ĠgÃ¶t": 4025,
      "istor": 4026,
      "kur": 4027,
      "schlÃ¤": 4028,
      "Ġverkauft": 4029,
      "eien": 4030,
      "Ġrasen": 4031,
      "ĠkÃ¤se": 4032,
      "of": 4033,
      "statt": 4034,
      "ution": 4035,
      "ĠÃ¤g": 4036,
      "Ġglo": 4037,
      "ĠfÃ¼ÃŁe": 4038,
      "Ġafrika": 4039,
      "laufen": 4040,
      "wald": 4041,
      "Ġschuld": 4042,
      "Ġgir": 4043,
      "schrift": 4044,
      "karte": 4045,
      "Ġerb": 4046,
      "ehrt": 4047,
      "Ã¤ne": 4048,
      "Ġgewonnen": 4049,
      "Ġbereich": 4050,
      "Ġislam": 4051,
      "Ġlila": 4052,
      "Ġtrans": 4053,
      "Ġverdammt": 4054,
      "Ġwolltest": 4055,
      "Ġthom": 4056,
      "bi": 4057,
      "Ġsucht": 4058,
      "ĠlÃ¤ngst": 4059,
      "Ġmeister": 4060,
      "Ġzieh": 4061,
      "Ġvoller": 4062,
      "Ġheu": 4063,
      "Ġnov": 4064,
      "Ġhole": 4065,
      "Ġernie": 4066,
      "Ġbemerk": 4067,
      "Ġbeginnt": 4068,
      "Ġprinzessin": 4069,
      "lern": 4070,
      "Ã¼ll": 4071,
      "Ġfangen": 4072,
      "Ġjes": 4073,
      "Ġ24": 4074,
      "Ġgebiet": 4075,
      "ĠgetÃ¶": 4076,
      "Ġschwimmen": 4077,
      "reisen": 4078,
      "stÃ¤nde": 4079,
      "boden": 4080,
      "sÃ¤t": 4081,
      "Ġklingt": 4082,
      "lege": 4083,
      "Ġsitz": 4084,
      "Ġabends": 4085,
      "Ġgekauft": 4086,
      "ps": 4087,
      "teste": 4088,
      "akter": 4089,
      "Ġnachts": 4090,
      "Ġdrogen": 4091,
      "Ġwolf": 4092,
      "Ġentstanden": 4093,
      "Ġsexu": 4094,
      "Ġlachen": 4095,
      "Ġausges": 4096,
      "Ġsteuer": 4097,
      "ĠlÃ¶ffel": 4098,
      "Ġinformationen": 4099,
      "ĠmÃ¼t": 4100,
      "Ġris": 4101,
      "bruch": 4102,
      "Ġokay": 4103,
      "ĠunabhÃ¤ng": 4104,
      "old": 4105,
      "fluss": 4106,
      "press": 4107,
      "Ġverfol": 4108,
      "Ġerkennt": 4109,
      "film": 4110,
      "setzt": 4111,
      "Ġschauspiel": 4112,
      "Ġkugel": 4113,
      "Ġsingen": 4114,
      "neben": 4115,
      "spekt": 4116,
      "Ġvideo": 4117,
      "wn": 4118,
      "Ġdel": 4119,
      "Ġweile": 4120,
      "Ġjuni": 4121,
      "Ġdiesmal": 4122,
      "Ġsiehste": 4123,
      "ĠkÃ¤mpfen": 4124,
      "testen": 4125,
      "Ġlieben": 4126,
      "Ġsek": 4127,
      "ĠÃ¶l": 4128,
      "Ġmagst": 4129,
      "Ġschrieb": 4130,
      "ĠverÃ¶ff": 4131,
      "Ġleist": 4132,
      "Ġhor": 4133,
      "emie": 4134,
      "Ġbir": 4135,
      "onstr": 4136,
      "orfen": 4137,
      "Ġprotest": 4138,
      "Ġstimmen": 4139,
      "fach": 4140,
      "Ġbrit": 4141,
      "mitt": 4142,
      "Ġbesondere": 4143,
      "Ġrauch": 4144,
      "mon": 4145,
      "ehren": 4146,
      "ĠfÃ¤hrste": 4147,
      "iew": 4148,
      "Ġwobei": 4149,
      "Ġumf": 4150,
      "ĠhÃ¼hn": 4151,
      "Ġfroh": 4152,
      "fisch": 4153,
      "ĠÃ¼bern": 4154,
      "zut": 4155,
      "Ġzeitung": 4156,
      "Ġbestehen": 4157,
      "Ġvolks": 4158,
      "Ġgeschehen": 4159,
      "iziert": 4160,
      "ettern": 4161,
      "omot": 4162,
      "Ġdun": 4163,
      "ĠlÃ¤ch": 4164,
      "ĠschÃ¶ner": 4165,
      "Ġnummer": 4166,
      "Ġapr": 4167,
      "Ġmai": 4168,
      "Ġelf": 4169,
      "Ġwelchem": 4170,
      "Ġmindestens": 4171,
      "Ġgez": 4172,
      "Ġhalte": 4173,
      "orgt": 4174,
      "Ġunbedingt": 4175,
      "wÃ¼rdig": 4176,
      "Ġhen": 4177,
      "Ġsobald": 4178,
      "ierungs": 4179,
      "Ġarg": 4180,
      "Ġgrosse": 4181,
      "jet": 4182,
      "hÃ¤nger": 4183,
      "Ġpuzz": 4184,
      "ĠgefÃ¤llt": 4185,
      "Ġplastik": 4186,
      "Ġerreicht": 4187,
      "Ġschornstein": 4188,
      "oge": 4189,
      "Ġdor": 4190,
      "anen": 4191,
      "Ã¶st": 4192,
      "Ġprivat": 4193,
      "Ġmaul": 4194,
      "altung": 4195,
      "Ġgrad": 4196,
      "Ġgrenze": 4197,
      "Ġkilometer": 4198,
      "ĠÃ¤uÃŁer": 4199,
      "Ġlond": 4200,
      "sslich": 4201,
      "Ġrasch": 4202,
      "ativen": 4203,
      "Ġ196": 4204,
      "ĠthÃ¼r": 4205,
      "Ġtitel": 4206,
      "igte": 4207,
      "Ġkleider": 4208,
      "Ġgelernt": 4209,
      "Ġinternation": 4210,
      "ĠÃ¼berw": 4211,
      "gruppe": 4212,
      "bank": 4213,
      "Ġeingesch": 4214,
      "Ġstefan": 4215,
      "Ġend": 4216,
      "Ġjeweil": 4217,
      "Ġatom": 4218,
      "ĠÃ¤ndern": 4219,
      "stchen": 4220,
      "Ġnass": 4221,
      "Ġunfall": 4222,
      "ĠverÃ¤ndert": 4223,
      "ĠgrÃ¤": 4224,
      "Ġhohe": 4225,
      "sidenten": 4226,
      "Ġwissenschaftler": 4227,
      "Ġdig": 4228,
      "Ġmartin": 4229,
      "Ġstolz": 4230,
      "Ġausger": 4231,
      "chtete": 4232,
      "flug": 4233,
      "Ġgefragt": 4234,
      "Ġordentlich": 4235,
      "Ã¤ck": 4236,
      "schreiben": 4237,
      "ielten": 4238,
      "Ġentsteht": 4239,
      "geschichte": 4240,
      "Ġjim": 4241,
      "elmÃ¤": 4242,
      "Ġaugust": 4243,
      "nicht": 4244,
      "ĠschÃ¼tzen": 4245,
      "ius": 4246,
      "Ġmad": 4247,
      "Ġweiteren": 4248,
      "book": 4249,
      "Ġbewusst": 4250,
      "Ġtobias": 4251,
      "Ġstern": 4252,
      "Ġspann": 4253,
      "Ġbrust": 4254,
      "Ġreichen": 4255,
      "dient": 4256,
      "Ġbeit": 4257,
      "Ġlegt": 4258,
      "Ġthomas": 4259,
      "Ġmale": 4260,
      "ĠzÃ¼r": 4261,
      "Ġzahn": 4262,
      "Ġweltweit": 4263,
      "Ġtrad": 4264,
      "vin": 4265,
      "erkt": 4266,
      "Ġbier": 4267,
      "spro": 4268,
      "gefahren": 4269,
      "ĠmÃ¤rz": 4270,
      "Ġdazwischen": 4271,
      "Ġdaneben": 4272,
      "erne": 4273,
      "ĠtÃ¼ren": 4274,
      "Ġposit": 4275,
      "sÃ¤tzlich": 4276,
      "ael": 4277,
      "Ġletzt": 4278,
      "irm": 4279,
      "rÃ¤ge": 4280,
      "Ġgriechen": 4281,
      "aschen": 4282,
      "Ġfehler": 4283,
      "ĠtÃ¤": 4284,
      "Ġgleichen": 4285,
      "rÃ¤umen": 4286,
      "Ġflughafen": 4287,
      "Ġpipi": 4288,
      "Ġlondon": 4289,
      "Ġsagten": 4290,
      "Ġjedenfalls": 4291,
      "ĠscheiÃŁe": 4292,
      "vid": 4293,
      "ied": 4294,
      "Ġjag": 4295,
      "Ġbleib": 4296,
      "volution": 4297,
      "ĠÃ¼berzeu": 4298,
      "nungen": 4299,
      "setzung": 4300,
      "Ġoktober": 4301,
      "Ġbunde": 4302,
      "Ġtieren": 4303,
      "Ġsh": 4304,
      "ĠfrÃ¤ul": 4305,
      "Ġbeteil": 4306,
      "Ġverkaufen": 4307,
      "lÃ¤u": 4308,
      "Ġglob": 4309,
      "Ġwege": 4310,
      "Ġkrankenhaus": 4311,
      "Ġmedizin": 4312,
      "Ġbayern": 4313,
      "ĠfÃ¤ngt": 4314,
      "Ġsteine": 4315,
      "Ġkrankheit": 4316,
      "ĠfrÃ¤ulein": 4317,
      "Ġmonaten": 4318,
      "Ġniederl": 4319,
      "Ġfoto": 4320,
      "abend": 4321,
      "gro": 4322,
      "Ġmanchen": 4323,
      "Ġmachten": 4324,
      "raut": 4325,
      "abil": 4326,
      "Ġmontag": 4327,
      "Ġmittelalter": 4328,
      "Ġfanden": 4329,
      "hren": 4330,
      "Ġerster": 4331,
      "Ġhingegen": 4332,
      "Ã¼nd": 4333,
      "ĠtÃ¶ten": 4334,
      "ĠwÃ¶rter": 4335,
      "nchen": 4336,
      "Ġeure": 4337,
      "Ã¤st": 4338,
      "Ġgezeigt": 4339,
      "ĠstÃ¶r": 4340,
      "Ġbaden": 4341,
      "Ġpolitischen": 4342,
      "Ġjuden": 4343,
      "ĠÃ¼brigens": 4344,
      "Ġfeu": 4345,
      "Ã¼gt": 4346,
      "Ġwillste": 4347,
      "Ġentlang": 4348,
      "Ġvorstellen": 4349,
      "ĠmÃ¶gen": 4350,
      "kampf": 4351,
      "Ġhind": 4352,
      "Ġkochen": 4353,
      "atisch": 4354,
      "schneiden": 4355,
      "Ġseg": 4356,
      "Ġalex": 4357,
      "prÃ¤sident": 4358,
      "Ġparteien": 4359,
      "ĠdrÃ¼ben": 4360,
      "Ġveranst": 4361,
      "ĠhÃ¤nden": 4362,
      "sal": 4363,
      "Ġbern": 4364,
      "Ġkant": 4365,
      "anzler": 4366,
      "Ġrepublik": 4367,
      "Ġschaff": 4368,
      "halte": 4369,
      "hÃ¶rt": 4370,
      "ĠtÃ¼rkei": 4371,
      "ĠgehÃ¶rte": 4372,
      "Ġextrem": 4373,
      "Ġvorlesen": 4374,
      "Ġterror": 4375,
      "Ġschlug": 4376,
      "Ġsonder": 4377,
      "ym": 4378,
      "Ġnachmittag": 4379,
      "Ġholt": 4380,
      "Ġdigit": 4381,
      "go": 4382,
      "Ġbeein": 4383,
      "Ġeinzelnen": 4384,
      "dil": 4385,
      "ĠgÃ¼": 4386,
      "Ġgewinn": 4387,
      "ĠgewiÃŁ": 4388,
      "Ġgepl": 4389,
      "ckten": 4390,
      "tragen": 4391,
      "schinen": 4392,
      "Ġter": 4393,
      "seum": 4394,
      "Ġirgendwas": 4395,
      "Ġerdbe": 4396,
      "Ġwander": 4397,
      "Ġbegriff": 4398,
      "ĠmÃ¶glichkeit": 4399,
      "Ġtheater": 4400,
      "Ġkak": 4401,
      "Ġev": 4402,
      "Ġfernseh": 4403,
      "Ġverboten": 4404,
      "Ġblock": 4405,
      "Ġgeschl": 4406,
      "Ġgemeint": 4407,
      "Ġinnerhalb": 4408,
      "Ġlauf": 4409,
      "Ġdemonstr": 4410,
      "verb": 4411,
      "teg": 4412,
      "kla": 4413,
      "how": 4414,
      "Ġbezahlen": 4415,
      "Ġaben": 4416,
      "Ġhein": 4417,
      "emin": 4418,
      "Ġgeschlossen": 4419,
      "Ġaussieht": 4420,
      "Ġ2023": 4421,
      "Ġstarb": 4422,
      "Ġran": 4423,
      "Ġgewinnen": 4424,
      "Ġweltkrieg": 4425,
      "Ġhamburg": 4426,
      "Ġpartner": 4427,
      "Ġentwickelt": 4428,
      "Ġengland": 4429,
      "Ġarmee": 4430,
      "Ġther": 4431,
      "bern": 4432,
      "Ġspielte": 4433,
      "Ġkamera": 4434,
      "Ġverletzt": 4435,
      "ĠerklÃ¤rte": 4436,
      "tun": 4437,
      "Ġelefant": 4438,
      "stieg": 4439,
      "dia": 4440,
      "ĠgeschÃ¤fts": 4441,
      "Ġabt": 4442,
      "Ġred": 4443,
      "gefÃ¼hrt": 4444,
      "Ġstreit": 4445,
      "Ġsow": 4446,
      "Ġfragt": 4447,
      "ĠlÃ¶s": 4448,
      "Ġgottes": 4449,
      "Ġgolden": 4450,
      "park": 4451,
      "Ġmigr": 4452,
      "Ġwun": 4453,
      "zel": 4454,
      "Ġzufrieden": 4455,
      "Ġalltag": 4456,
      "Ġdeb": 4457,
      "Ġmater": 4458,
      "Ġzusch": 4459,
      "ĠÃ¼berlegen": 4460,
      "ions": 4461,
      "Ġweiterhin": 4462,
      "Ġhinterher": 4463,
      "keln": 4464,
      "Ġbuchstaben": 4465,
      "Ġapril": 4466,
      "gliche": 4467,
      "ĠdÃ¤": 4468,
      "Ġtoten": 4469,
      "Ġnick": 4470,
      "itÃ¤ten": 4471,
      "Ġgeblieben": 4472,
      "Ġvergn": 4473,
      "ĠrÃ¶m": 4474,
      "sph": 4475,
      "brit": 4476,
      "Ġchance": 4477,
      "Ġstammt": 4478,
      "ĠbeschÃ¤ftigt": 4479,
      "Ġmitnehmen": 4480,
      "annien": 4481,
      "Ġschwanz": 4482,
      "kodil": 4483,
      "ikel": 4484,
      "othe": 4485,
      "Ġleiter": 4486,
      "Ġmos": 4487,
      "istisch": 4488,
      "werke": 4489,
      "Ġfrankf": 4490,
      "Ġbedro": 4491,
      "Ġschokolade": 4492,
      "ĠgetÃ¶tet": 4493,
      "derte": 4494,
      "Ġgetroffen": 4495,
      "Ġabsol": 4496,
      "our": 4497,
      "emen": 4498,
      "Ġausdruck": 4499,
      "Ġdurchaus": 4500,
      "Ġzweimal": 4501,
      "Ġeigent": 4502,
      "Ġgestellt": 4503,
      "agte": 4504,
      "anger": 4505,
      "Ġhandelt": 4506,
      "Ġleip": 4507,
      "Ġseitdem": 4508,
      "Ġhoffnung": 4509,
      "ela": 4510,
      "Ġhuhn": 4511,
      "woch": 4512,
      "Ġniemals": 4513,
      "Ġbedeut": 4514,
      "Ġknete": 4515,
      "Ġgesam": 4516,
      "Ġanl": 4517,
      "Ġamt": 4518,
      "Ġbehau": 4519,
      "wissen": 4520,
      "Ġvi": 4521,
      "beweg": 4522,
      "Ġherbst": 4523,
      "ĠweiÃŁte": 4524,
      "Ġbesuchen": 4525,
      "Ġanfangen": 4526,
      "Ġindustrie": 4527,
      "jen": 4528,
      "Ġstreich": 4529,
      "Ġentscheidung": 4530,
      "regierung": 4531,
      "kÃ¶": 4532,
      "Ġdok": 4533,
      "Ġverstehe": 4534,
      "wau": 4535,
      "ĠverhÃ¤lt": 4536,
      "wert": 4537,
      "Ġwett": 4538,
      "Ġabsch": 4539,
      "ĠmÃ¶glichst": 4540,
      "Ġrichtigen": 4541,
      "Ġyork": 4542,
      "ymp": 4543,
      "gebung": 4544,
      "tember": 4545,
      "sex": 4546,
      "bewer": 4547,
      "Ġstecken": 4548,
      "Ġsozialen": 4549,
      "Ġonline": 4550,
      "hÃ¼": 4551,
      "ana": 4552,
      "Ġumher": 4553,
      "Ġdritte": 4554,
      "Ġradio": 4555,
      "kÃ¤fer": 4556,
      "Ġgumm": 4557,
      "ĠwÃ¤hl": 4558,
      "Ġverhalten": 4559,
      "Ġteuer": 4560,
      "Ġbetrieb": 4561,
      "ĠlÃ¶wen": 4562,
      "Ġcarol": 4563,
      "Ġgriech": 4564,
      "jahren": 4565,
      "herr": 4566,
      "ĠfÃ¼hlen": 4567,
      "wal": 4568,
      "losen": 4569,
      "Ġkrokodil": 4570,
      "schel": 4571,
      "Ġspaz": 4572,
      "Ġjemanden": 4573,
      "Ġvertrauen": 4574,
      "lungs": 4575,
      "Ġ21": 4576,
      "heben": 4577,
      "ichtete": 4578,
      "Ġlego": 4579,
      "Ġgehalten": 4580,
      "Ġlinken": 4581,
      "Ã¼tzt": 4582,
      "Ġufer": 4583,
      "kat": 4584,
      "ĠsÃ¤u": 4585,
      "ppich": 4586,
      "Ġtrink": 4587,
      "schlagen": 4588,
      "Ġface": 4589,
      "Ġniklas": 4590,
      "Ġverlieren": 4591,
      "kopf": 4592,
      "Ġversuchte": 4593,
      "Ġversteckt": 4594,
      "Ġmitglieder": 4595,
      "Ġmist": 4596,
      "Ġkau": 4597,
      "Ġinstitut": 4598,
      "Ġput": 4599,
      "Ġschlange": 4600,
      "Ġflasche": 4601,
      "Ġruf": 4602,
      "Ġgestorben": 4603,
      "Ġsyr": 4604,
      "britannien": 4605,
      "Ġschaf": 4606,
      "Ġtradition": 4607,
      "Ġaufgew": 4608,
      "verstÃ¤n": 4609,
      "wiesen": 4610,
      "Ġentwicklung": 4611,
      "Ġdurfte": 4612,
      "Ġsogenannten": 4613,
      "ĠhÃ¤ttest": 4614,
      "Ġkirchen": 4615,
      "Ġbundestag": 4616,
      "nun": 4617,
      "Ġdame": 4618,
      "sende": 4619,
      "Ġlatein": 4620,
      "ĠgefÃ¤ngnis": 4621,
      "Ġaha": 4622,
      "Ġleisten": 4623,
      "Ġentstehen": 4624,
      "Ġdonnerstag": 4625,
      "hungen": 4626,
      "Ġgas": 4627,
      "gest": 4628,
      "Ġgemeinde": 4629,
      "Ġjesus": 4630,
      "Ġsowjet": 4631,
      "Ġentsprechen": 4632,
      "Ġtemp": 4633,
      "Ġherren": 4634,
      "ĠkÃ¶nigin": 4635,
      "fÃ¼hren": 4636,
      "Ġkoffer": 4637,
      "ĠstÃ¤rker": 4638,
      "Ġreag": 4639,
      "Ġsep": 4640,
      "Ġbilden": 4641,
      "ong": 4642,
      "Ġniedr": 4643,
      "Ġfindest": 4644,
      "Ġminister": 4645,
      "Ġkons": 4646,
      "Ġwenigen": 4647,
      "Ġfahrt": 4648,
      "Ġwenigstens": 4649,
      "Ġurlaub": 4650,
      "Ġflu": 4651,
      "teln": 4652,
      "Ġtrain": 4653,
      "Ġreparieren": 4654,
      "ĠrÃ¼": 4655,
      "gebiet": 4656,
      "gn": 4657,
      "mmert": 4658,
      "ĠbÃ¼ro": 4659,
      "Ġdrunter": 4660,
      "Ġerwartet": 4661,
      "Ġerinnert": 4662,
      "schiff": 4663,
      "organis": 4664,
      "Ġ60": 4665,
      "Ġberliner": 4666,
      "stes": 4667,
      "Ġnil": 4668,
      "Ġrunde": 4669,
      "abet": 4670,
      "Ġmorgens": 4671,
      "Ġdoppel": 4672,
      "affen": 4673,
      "Ġsw": 4674,
      "untern": 4675,
      "Ġhir": 4676,
      "Ġuner": 4677,
      "ola": 4678,
      "artig": 4679,
      "mpfe": 4680,
      "ĠerhÃ¶": 4681,
      "ĠwÃ¤": 4682,
      "Ġkannte": 4683,
      "produ": 4684,
      "Ġmittwoch": 4685,
      "ino": 4686,
      "otz": 4687,
      "plan": 4688,
      "prÃ¼": 4689,
      "Ġwarf": 4690,
      "ilien": 4691,
      "rauber": 4692,
      "Ġamerika": 4693,
      "the": 4694,
      "Ġhasen": 4695,
      "ĠgerÃ¤t": 4696,
      "Ġgeschickt": 4697,
      "Ġrock": 4698,
      "Ġerwachen": 4699,
      "Ġsolch": 4700,
      "Ġbefindet": 4701,
      "uktur": 4702,
      "kÃ¼n": 4703,
      "Ġhom": 4704,
      "Ġbobo": 4705,
      "Ġfas": 4706,
      "ĠverÃ¤nder": 4707,
      "Ġschuh": 4708,
      "Ġwahrheit": 4709,
      "mpft": 4710,
      "Ġvir": 4711,
      "ĠrÃ¼hr": 4712,
      "blei": 4713,
      "hilfe": 4714,
      "ca": 4715,
      "Ġap": 4716,
      "Ġrunden": 4717,
      "umpf": 4718,
      "ĠspÃ¼r": 4719,
      "Ġplatt": 4720,
      "Ġarbeiter": 4721,
      "Ġlager": 4722,
      "Ġfernsehen": 4723,
      "liegen": 4724,
      "ĠfÃ¼hlte": 4725,
      "gelassen": 4726,
      "Ġschaute": 4727,
      "Ġdicke": 4728,
      "Ġsuchte": 4729,
      "Ġfeier": 4730,
      "zeichnet": 4731,
      "Ġzuhause": 4732,
      "Ġ[": 4733,
      "Ġstro": 4734,
      "za": 4735,
      "Ġtest": 4736,
      "ielle": 4737,
      "grÃ¶": 4738,
      "dler": 4739,
      "ĠanhÃ¤nger": 4740,
      "Ġkleid": 4741,
      "Ġ194": 4742,
      "Ġorange": 4743,
      "Ġjanuar": 4744,
      "Ġjungs": 4745,
      "Ġgelten": 4746,
      "Ġoliver": 4747,
      "amerika": 4748,
      "Ġseptember": 4749,
      "seit": 4750,
      "auch": 4751,
      "Ġrob": 4752,
      "Ġverab": 4753,
      "Ġsteckt": 4754,
      "Ġcr": 4755,
      "Ġdrinnen": 4756,
      "ico": 4757,
      "Ġschulen": 4758,
      "Ã¼tte": 4759,
      "Ġversuche": 4760,
      "Ġkarl": 4761,
      "Ġhierher": 4762,
      "sprÃ¼n": 4763,
      "Ġgelegt": 4764,
      "Ġheisst": 4765,
      "Ġsogenannte": 4766,
      "Ġfacebook": 4767,
      "emann": 4768,
      "Ġlebte": 4769,
      "Ġdez": 4770,
      "Ġhase": 4771,
      "Ġliter": 4772,
      "Ġinse": 4773,
      "Ġann": 4774,
      "spielen": 4775,
      "ĠÃ¼brig": 4776,
      "Ġwaschen": 4777,
      "hÃ¤ngen": 4778,
      "Ġkritik": 4779,
      "Ġnudeln": 4780,
      "ene": 4781,
      "ĠnÃ¶": 4782,
      "Ġkeller": 4783,
      "altet": 4784,
      "Ġgezogen": 4785,
      "Ġentdeckt": 4786,
      "Ġkoll": 4787,
      "Ġstart": 4788,
      "ĠregelmÃ¤": 4789,
      "rÃ¼ndet": 4790,
      "Ġnovember": 4791,
      "Ġvorn": 4792,
      "Ġhem": 4793,
      "ĠstÃ¤ndig": 4794,
      "Ġsauer": 4795,
      "Ġfer": 4796,
      "Ġrufen": 4797,
      "Ġwasch": 4798,
      "Ġpunkte": 4799,
      "Ġstrich": 4800,
      "Ġfuss": 4801,
      "iene": 4802,
      "afel": 4803,
      "fÃ¤llig": 4804,
      "Ġprofessor": 4805,
      "Ġwauwau": 4806,
      "Ġschaden": 4807,
      "Ġtim": 4808,
      "Ġmitarbeiter": 4809,
      "Ġehren": 4810,
      "tin": 4811,
      "Ġmauer": 4812,
      "stre": 4813,
      "Ġnannte": 4814,
      "Ġnachrichten": 4815,
      "Ġfolge": 4816,
      "ĠgÃ¤ste": 4817,
      "ĠÃ¤gyp": 4818,
      "ahe": 4819,
      "nitten": 4820,
      "rock": 4821,
      "Ġflucht": 4822,
      "ifft": 4823,
      "bu": 4824,
      "bach": 4825,
      "Ġschrie": 4826,
      "Ġmehreren": 4827,
      "Ġdeckel": 4828,
      "Ġerwider": 4829,
      "Ġmerkte": 4830,
      "bra": 4831,
      "rich": 4832,
      "----": 4833,
      "Ġpe": 4834,
      "ĠrÃ¤der": 4835,
      "oben": 4836,
      "Ġkop": 4837,
      "Ġverbesser": 4838,
      "urteil": 4839,
      "ollegen": 4840,
      "omotive": 4841,
      "imeter": 4842,
      "Ġversteh": 4843,
      "maÃŁ": 4844,
      "Ġschliesslich": 4845,
      "Ġdemokratie": 4846,
      "ĠnÃ¶tig": 4847,
      "Ġseh": 4848,
      "Ã¤chen": 4849,
      "mme": 4850,
      "Ġansch": 4851,
      "Ġos": 4852,
      "ĠvorwÃ¤rts": 4853,
      "Ġfreundlich": 4854,
      "Ġjugendliche": 4855,
      "Ġgesundheit": 4856,
      "Ġkolon": 4857,
      "atsch": 4858,
      "Ġworten": 4859,
      "Ġhann": 4860,
      "ath": 4861,
      "Ġot": 4862,
      "Ġjahrzehn": 4863,
      "ivil": 4864,
      "lose": 4865,
      "ĠjÃ¼nger": 4866,
      "Ã¼lt": 4867,
      "Ġgradeaus": 4868,
      "bon": 4869,
      "Ġten": 4870,
      "\"-": 4871,
      "wart": 4872,
      "aktion": 4873,
      "einer": 4874,
      "Ġaufgrund": 4875,
      "Ġstieg": 4876,
      "Ġkerl": 4877,
      "gut": 4878,
      "lex": 4879,
      "Ġjuli": 4880,
      "Ġtransport": 4881,
      "ĠverfÃ¼g": 4882,
      "Ġhoffe": 4883,
      "Ġeinkaufen": 4884,
      "Ġlebten": 4885,
      "Ã¼cken": 4886,
      "ĠwÃ¼rdest": 4887,
      "Ġrussischen": 4888,
      "Ġhistor": 4889,
      "Ġretten": 4890,
      "Ġbedeuten": 4891,
      "ĠbrÃ¼der": 4892,
      "kor": 4893,
      "ugen": 4894,
      "Ġmy": 4895,
      "Ġspitze": 4896,
      "ĠÃ¤hm": 4897,
      "Ġunbek": 4898,
      "mes": 4899,
      "Ġno": 4900,
      "urop": 4901,
      "verl": 4902,
      "Ġverletz": 4903,
      "ĠbehÃ¶r": 4904,
      "Ġdunkl": 4905,
      ".!": 4906,
      "Ġki": 4907,
      "Ġbewer": 4908,
      "Ġgleiche": 4909,
      "Ġangaben": 4910,
      "Ġmitglied": 4911,
      "hoben": 4912,
      "Ġdet": 4913,
      "Ġberge": 4914,
      "Ġgelbe": 4915,
      "zur": 4916,
      "Ġliebl": 4917,
      "staat": 4918,
      "Ġleichter": 4919,
      "ohlen": 4920,
      "Ġkunden": 4921,
      "Ġoper": 4922,
      "Ġgewissen": 4923,
      "Ġschweizer": 4924,
      "zten": 4925,
      "Ġtur": 4926,
      "Ġvorber": 4927,
      "Ġlandschaft": 4928,
      "Ġosterhase": 4929,
      "zum": 4930,
      "Ġereig": 4931,
      "ĠgroÃŁbritannien": 4932,
      "Ġkostet": 4933,
      "Ġknochen": 4934,
      "hÃ¤": 4935,
      "ĠbÃ¤ren": 4936,
      "Ġpuppen": 4937,
      "ĠgemÃ¼": 4938,
      "Ġpolen": 4939,
      "Ġbehalten": 4940,
      "echnet": 4941,
      "Ġchines": 4942,
      "Ã¼d": 4943,
      "Ġaufpassen": 4944,
      "Ã¤rchen": 4945,
      "Ġcon": 4946,
      "Ġtraf": 4947,
      "Ġban": 4948,
      "Ġheutigen": 4949,
      "grÃ¼n": 4950,
      "Ġunion": 4951,
      "Ġtab": 4952,
      "rÃ¤um": 4953,
      "Ġmass": 4954,
      "Ġklass": 4955,
      "Ġstrassen": 4956,
      "Ġburg": 4957,
      "Ġbehaup": 4958,
      "ĠursprÃ¼n": 4959,
      "Ġenglisch": 4960,
      "Ġahnung": 4961,
      "brot": 4962,
      "Ġnahrung": 4963,
      "eme": 4964,
      "Ġopt": 4965,
      "fft": 4966,
      "Ġhas": 4967,
      "Ġaustr": 4968,
      "Ġspiegel": 4969,
      "Ġvieles": 4970,
      "Ġsteh": 4971,
      "Ġheft": 4972,
      "boot": 4973,
      "eger": 4974,
      "Ġkletter": 4975,
      "Ġfabrik": 4976,
      "Ġmichael": 4977,
      "Ġsowohl": 4978,
      "Ġhopp": 4979,
      "Ġverbunden": 4980,
      "Ġfreien": 4981,
      "Ġkontroll": 4982,
      "insel": 4983,
      "ettet": 4984,
      "Ġjack": 4985,
      "Ġausziehen": 4986,
      "Ġenten": 4987,
      "rid": 4988,
      "Ġsolange": 4989,
      "reten": 4990,
      "Ġmau": 4991,
      "star": 4992,
      "Ġgans": 4993,
      "Ġautom": 4994,
      "Ġzeug": 4995,
      "ystem": 4996,
      "zun": 4997,
      "Ġgewohn": 4998,
      "vert": 4999,
      "ĠbestÃ¤t": 5000,
      "wirk": 5001,
      "dam": 5002,
      "standen": 5003,
      "Ġverbrau": 5004,
      "ĠmÃ¤nnern": 5005,
      "spruch": 5006,
      "Ġtue": 5007,
      "Ġkra": 5008,
      "weder": 5009,
      "Ġwichtiger": 5010,
      "Ġvermut": 5011,
      "Ġrhein": 5012,
      "hild": 5013,
      "Ġtsch": 5014,
      "ckung": 5015,
      "Ġpassieren": 5016,
      "Ġbeinahe": 5017,
      "Ġdauern": 5018,
      "ĠwÃ¤hlen": 5019,
      "Ġsaft": 5020,
      "zeiten": 5021,
      "Ġstoff": 5022,
      "Ġaktuell": 5023,
      "ire": 5024,
      "Ġdesto": 5025,
      "Ġaufger": 5026,
      "Ġaufgabe": 5027,
      "Ġglaubt": 5028,
      "bad": 5029,
      "Ġheran": 5030,
      "Ġrollen": 5031,
      "syl": 5032,
      "Ġnation": 5033,
      "Ġbor": 5034,
      "Ġeinander": 5035,
      "Ġlied": 5036,
      "Ġverbrei": 5037,
      "utti": 5038,
      "Ġdienstag": 5039,
      "Ã¶ffnet": 5040,
      "Ġkaka": 5041,
      "ĠdrÃ¼cken": 5042,
      "Ġausland": 5043,
      "Ġdurchs": 5044,
      "gren": 5045,
      "ĠÃ¼b": 5046,
      "ĠzÃ¼ge": 5047,
      "ĠeÃŁen": 5048,
      "Ã¤hrt": 5049,
      "drehen": 5050,
      "zip": 5051,
      "Ġbenutzt": 5052,
      "gten": 5053,
      "Ġverhand": 5054,
      "Ġvorder": 5055,
      "gesehen": 5056,
      "Ġproduz": 5057,
      "Ġdezember": 5058,
      "ierungen": 5059,
      "denk": 5060,
      "Ġgeschafft": 5061,
      "Ã¤uber": 5062,
      "Ġkontakt": 5063,
      "mut": 5064,
      "Ġstutt": 5065,
      "Ġ22": 5066,
      "ĠfrÃ¼hl": 5067,
      "sprache": 5068,
      "Ġleucht": 5069,
      "Ġeingang": 5070,
      "Ġgrenzen": 5071,
      "Ġuntersuch": 5072,
      "aurant": 5073,
      "wurf": 5074,
      "kuchen": 5075,
      "arch": 5076,
      "Ġerr": 5077,
      "geladen": 5078,
      "Ġkonfl": 5079,
      "dar": 5080,
      "macht": 5081,
      "Ġstehe": 5082,
      "bchen": 5083,
      "schÃ¼t": 5084,
      "irk": 5085,
      "ĠmÃ¤nnchen": 5086,
      "Ġthemen": 5087,
      "aft": 5088,
      "ĠlÃ¼": 5089,
      "mack": 5090,
      "kÃ¼": 5091,
      "Ġlecker": 5092,
      "Ġverkauf": 5093,
      "Ġverdienen": 5094,
      "kind": 5095,
      "stau": 5096,
      "Ã¶te": 5097,
      "Ġpre": 5098,
      "Ġkling": 5099,
      "Ġdahinter": 5100,
      "Ġnimmst": 5101,
      "bÃ¤r": 5102,
      "Ġill": 5103,
      "fÃ¶r": 5104,
      "lÃ¶": 5105,
      "view": 5106,
      "Ġwitz": 5107,
      "Ġmitgebracht": 5108,
      "fÃ¤lle": 5109,
      "Ġbreit": 5110,
      "Ġfalls": 5111,
      "Ġhubsch": 5112,
      "Ġbesucher": 5113,
      "Ġmetall": 5114,
      "Ġprobieren": 5115,
      "Ġchef": 5116,
      "gucken": 5117,
      "passt": 5118,
      "Ġsign": 5119,
      "Ġvan": 5120,
      "auss": 5121,
      "illen": 5122,
      "kret": 5123,
      "Ġhilf": 5124,
      "Ġbewegt": 5125,
      "ĠÃ¼berlegte": 5126,
      "volle": 5127,
      "Ġhafen": 5128,
      "Ġausgesch": 5129,
      "verkehr": 5130,
      "Ġtrifft": 5131,
      "ettel": 5132,
      "Ġanw": 5133,
      "ĠverrÃ¼ckt": 5134,
      "Ġspanien": 5135,
      "bruar": 5136,
      "bahnhof": 5137,
      "ĠhÃ¶re": 5138,
      "Ġperfe": 5139,
      "pekt": 5140,
      "ĠdrÃ¼ck": 5141,
      "ones": 5142,
      "Ġschatten": 5143,
      "ĠvorÃ¼ber": 5144,
      "dreht": 5145,
      "Ġcaroline": 5146,
      "Ġwh": 5147,
      "Ġze": 5148,
      "geber": 5149,
      "Ġgefl": 5150,
      "Ġroman": 5151,
      "ĠmÃ¤use": 5152,
      "Ġfc": 5153,
      "Ġwartet": 5154,
      "ĠsÃ¼ÃŁ": 5155,
      "Ġgeschlecht": 5156,
      "din": 5157,
      "Ġsturm": 5158,
      "istin": 5159,
      "Ġentstand": 5160,
      "Ġsaison": 5161,
      "Ġhochzeit": 5162,
      "gress": 5163,
      "Ã¤umt": 5164,
      "Ġfilme": 5165,
      "ĠhÃ¼bsch": 5166,
      "mbol": 5167,
      "Ġ23": 5168,
      "ĠgerÃ¤u": 5169,
      "Ġschnitt": 5170,
      "bÃ¼rger": 5171,
      "pfte": 5172,
      "Ġentweder": 5173,
      "Ġselben": 5174,
      "ĠkapitÃ¤n": 5175,
      "dass": 5176,
      "Ġmord": 5177,
      "ehrte": 5178,
      "Ġzweifel": 5179,
      "Ġnah": 5180,
      "Ġlebensmittel": 5181,
      "ĠeuropÃ¤ische": 5182,
      "nt": 5183,
      "eiter": 5184,
      "Ġlagen": 5185,
      "Ġsieb": 5186,
      "Ġfebruar": 5187,
      "Ġolymp": 5188,
      "âĢĿ.": 5189,
      "Ġkonzentr": 5190,
      "Ġerfolgreich": 5191,
      "Ġstrecke": 5192,
      "aster": 5193,
      "Ġholl": 5194,
      "Ġaufw": 5195,
      "Ġteppich": 5196,
      "Ġeigenes": 5197,
      "Ġhauses": 5198,
      "Ġeinfluss": 5199,
      "..!": 5200,
      "Ġwerfen": 5201,
      "Ġreal": 5202,
      "Ġsowieso": 5203,
      "Ġlhre": 5204,
      "tes": 5205,
      "Ġlast": 5206,
      "Ġversp": 5207,
      "Ġhinab": 5208,
      "fÃ¼hrung": 5209,
      "ĠflÃ¼chtlinge": 5210,
      "wander": 5211,
      "Ġeindruck": 5212,
      "Ġruft": 5213,
      "Ġfahrer": 5214,
      "Ġaltes": 5215,
      "Ġsorge": 5216,
      "Ġnormalerweise": 5217,
      "Ġhubschrauber": 5218,
      "gart": 5219,
      "Ġass": 5220,
      "Ġminder": 5221,
      "ĠgroÃŁmutter": 5222,
      "zwanzig": 5223,
      "ĠstÃ¤dten": 5224,
      "sphÃ¤re": 5225,
      "Ġnehm": 5226,
      "serv": 5227,
      "Ġsat": 5228,
      "Ġbienen": 5229,
      "stÃ¼cke": 5230,
      "Ġleipzig": 5231,
      "Ġerwiderte": 5232,
      "Ġeinsam": 5233,
      "Ġschiffe": 5234,
      "Ġbezeichnet": 5235,
      ".)": 5236,
      "turm": 5237,
      "Ġrett": 5238,
      "schaffen": 5239,
      "Ġmonchen": 5240,
      "Ġnad": 5241,
      "spart": 5242,
      "Ġseele": 5243,
      "Ġwirklichkeit": 5244,
      "Ġkomisch": 5245,
      "ĠÃ¶ffnen": 5246,
      "alisierung": 5247,
      "Ġasien": 5248,
      "Ġfans": 5249,
      "Ġkannste": 5250,
      "gesellschaft": 5251,
      "Ġnamens": 5252,
      "Ġschrank": 5253,
      "drÃ¼cken": 5254,
      "ham": 5255,
      "Ġinn": 5256,
      "Ġanru": 5257,
      "besch": 5258,
      "Ġindien": 5259,
      "Ġanal": 5260,
      "Ġstall": 5261,
      "ienten": 5262,
      "ĠgefÃ¼hrt": 5263,
      "erz": 5264,
      "chern": 5265,
      "Ġarab": 5266,
      "int": 5267,
      "Ġsteigt": 5268,
      "ĠbefÃ¼r": 5269,
      "Ġinteressant": 5270,
      "Ġbaut": 5271,
      "Ġhob": 5272,
      "ament": 5273,
      "Ã¼ckt": 5274,
      "bin": 5275,
      "Ġkass": 5276,
      "ĠlÃ¤rm": 5277,
      "Ġwurst": 5278,
      "Ġhalbe": 5279,
      "maschine": 5280,
      "Ġlohn": 5281,
      "iden": 5282,
      "Ã¡": 5283,
      "Ġsus": 5284,
      "Ġfett": 5285,
      "anze": 5286,
      "Ġmeike": 5287,
      "Ġweinen": 5288,
      "Ġwirkt": 5289,
      "Ġschlagen": 5290,
      "hÃ¶rnchen": 5291,
      "Ġfried": 5292,
      "Ġmutti": 5293,
      "Ġzivil": 5294,
      "ĠÃ¼berleben": 5295,
      "Ġbislang": 5296,
      "Ġbrille": 5297,
      "Ġfremden": 5298,
      "Ġerlebt": 5299,
      "Ġtanzen": 5300,
      "Ġletzter": 5301,
      "Ġlanger": 5302,
      "Ġstrand": 5303,
      "Ġerschien": 5304,
      "Ġfotos": 5305,
      "Ġtiefer": 5306,
      "Ġisses": 5307,
      "Ġhum": 5308,
      "Ġschade": 5309,
      "Ġsteu": 5310,
      "eltsam": 5311,
      "mÃ¤nn": 5312,
      "Ġfurchtbar": 5313,
      "Ġfrankfurt": 5314,
      "kultur": 5315,
      "Ġul": 5316,
      "Ġwink": 5317,
      "Ġkern": 5318,
      "Ġgesetzt": 5319,
      "Ġmars": 5320,
      "ging": 5321,
      "Ġgre": 5322,
      "Ġrenn": 5323,
      "mmel": 5324,
      "igar": 5325,
      "Ġtodes": 5326,
      "Ġwichtigsten": 5327,
      "Ġtust": 5328,
      "ĠdÃ¼rfte": 5329,
      "pert": 5330,
      "Ġautob": 5331,
      "ĠzerstÃ¶r": 5332,
      "nissen": 5333,
      "scheln": 5334,
      "Ġanerk": 5335,
      "Ġdorthin": 5336,
      "Ġbrauchte": 5337,
      "Ġfalsche": 5338,
      "Ġverschwunden": 5339,
      "Ġwiederum": 5340,
      "Ġgelben": 5341,
      "ĠhÃ¤schen": 5342,
      "ac": 5343,
      "Ġseltsam": 5344,
      "Ġengel": 5345,
      "ble": 5346,
      "ĠlieÃŁen": 5347,
      "Ġorient": 5348,
      "krÃ¤fte": 5349,
      "Ġbre": 5350,
      "Ġjur": 5351,
      "ĠtÃ¤t": 5352,
      "Ġkleidung": 5353,
      "riften": 5354,
      "Ġlandwirtschaft": 5355,
      "Ġquad": 5356,
      "Ġgraf": 5357,
      "ippe": 5358,
      "bogen": 5359,
      "schrei": 5360,
      "irge": 5361,
      "Ġberichtet": 5362,
      "Ġ80": 5363,
      "Ġjunger": 5364,
      "ĠmÃ¼ssten": 5365,
      "Ġbietet": 5366,
      "Ġeiniger": 5367,
      "ĠallmÃ¤": 5368,
      "Ġrevolution": 5369,
      "Ġmrs": 5370,
      "Ġhindurch": 5371,
      "osen": 5372,
      "vis": 5373,
      "Ġkrei": 5374,
      "Ġlas": 5375,
      "Ġaufgesch": 5376,
      "Ġfehlen": 5377,
      "jahre": 5378,
      "mehr": 5379,
      "chthild": 5380,
      "Ġgehirn": 5381,
      "ppt": 5382,
      "stimmung": 5383,
      "Ġengag": 5384,
      "Ġschein": 5385,
      "Ġthr": 5386,
      "Ġfrisch": 5387,
      "Ġchri": 5388,
      "Ġmechthild": 5389,
      "Ġerfor": 5390,
      "Ġversteht": 5391,
      "Ġextra": 5392,
      "ĠstÃ¼ckchen": 5393,
      "Ġlaufe": 5394,
      "richtung": 5395,
      "Ġverkehrs": 5396,
      "beln": 5397,
      "Ġasyl": 5398,
      "Ġabgel": 5399,
      "Ġflor": 5400,
      "Ġmarie": 5401,
      "kir": 5402,
      "Ġsehn": 5403,
      "ĠunmÃ¶glich": 5404,
      "orte": 5405,
      "Ġdasselbe": 5406,
      "Ġangriff": 5407,
      "Ġartikel": 5408,
      "une": 5409,
      "ĠmÃ¶chten": 5410,
      "gier": 5411,
      "Ġwesen": 5412,
      "Ġbeant": 5413,
      "Ġweich": 5414,
      "Ġdreht": 5415,
      "Ġbestand": 5416,
      "Ġkapitel": 5417,
      "lÃ¤nder": 5418,
      "Ġlande": 5419,
      "angel": 5420,
      "Ġgelesen": 5421,
      "Ġbeginnen": 5422,
      "staaten": 5423,
      "Ġmeeres": 5424,
      "Ġhonig": 5425,
      "essel": 5426,
      "mu": 5427,
      "oc": 5428,
      "Ġdavid": 5429,
      "lligen": 5430,
      "Ġentschieden": 5431,
      "ĠgewÃ¤hlt": 5432,
      "Ġtopf": 5433,
      "Ġeinzelne": 5434,
      "ĠunterstÃ¼tzung": 5435,
      "rechte": 5436,
      "Ġstets": 5437,
      "Ġmusl": 5438,
      "Ġeinzigen": 5439,
      "Ġfelsen": 5440,
      "gezogen": 5441,
      "stete": 5442,
      "Ġstattdessen": 5443,
      "Ġlinie": 5444,
      "Ġbedeutung": 5445,
      "Ġinsekten": 5446,
      "Ġimm": 5447,
      "Ġbeute": 5448,
      "stellungen": 5449,
      "Ġkurze": 5450,
      "ĠernÃ¤hr": 5451,
      "Ġgeschwind": 5452,
      "Ġalko": 5453,
      "Ġglaubte": 5454,
      "Ġsprang": 5455,
      "Ġpublik": 5456,
      "Ġrespekt": 5457,
      "fung": 5458,
      "Ġangesch": 5459,
      "Ġverdient": 5460,
      "Ġerfr": 5461,
      "Ġ70": 5462,
      "Ġafrik": 5463,
      "Ġjeweils": 5464,
      "zunehmen": 5465,
      "ĠwÃ¤chst": 5466,
      "Ġanstr": 5467,
      "Ġinteressiert": 5468,
      "Ġzufolge": 5469,
      "Ġsogleich": 5470,
      "Ġstraf": 5471,
      "Ġdiskut": 5472,
      "Ġ...": 5473,
      "Ġskla": 5474,
      "Ġbom": 5475,
      "Ġlad": 5476,
      "Ġtannen": 5477,
      "Ġ2022": 5478,
      "ĠzÃ¼rich": 5479,
      "kom": 5480,
      "Ġlar": 5481,
      "Ġgret": 5482,
      "Ġsolcher": 5483,
      "krimin": 5484,
      "Ġbildung": 5485,
      "Ġrestaurant": 5486,
      "wendig": 5487,
      "rop": 5488,
      "gi": 5489,
      "Ġschnu": 5490,
      "Ġerneut": 5491,
      "Ġbemerkte": 5492,
      "zeln": 5493,
      "Ġfell": 5494,
      "Ġschwere": 5495,
      "hindern": 5496,
      "Ġwolken": 5497,
      "Ġafd": 5498,
      "fa": 5499,
      "Ġkeines": 5500,
      "Ġkriegs": 5501,
      "schuhe": 5502,
      "ĠmÃ¤rchen": 5503,
      "bewegung": 5504,
      "hier": 5505,
      "atik": 5506,
      "Ġwillen": 5507,
      "ĠlÃ¶we": 5508,
      "Ġrahmen": 5509,
      "lu": 5510,
      "derungen": 5511,
      "Ġohn": 5512,
      "rak": 5513,
      "Ġthun": 5514,
      "packt": 5515,
      "Ġdicken": 5516,
      "Ġplaneten": 5517,
      "Ġaffen": 5518,
      "verein": 5519,
      "ission": 5520,
      "gewÃ¶hn": 5521,
      "ĠhÃ¼hner": 5522,
      "Ġweint": 5523,
      "andern": 5524,
      "Ġbewohner": 5525,
      "Ġklim": 5526,
      "ĠmÃ¼he": 5527,
      "ĠdreiÃŁig": 5528,
      "Ġreis": 5529,
      "Ġschweren": 5530,
      "Ġ2014": 5531,
      "Ġbast": 5532,
      "Ġhattest": 5533,
      "mitglie": 5534,
      "Ġhex": 5535,
      "Ġfolgte": 5536,
      "lad": 5537,
      "ĠwÃ¤l": 5538,
      "Ġverhindern": 5539,
      "Ġfreut": 5540,
      "Ġblume": 5541,
      "drich": 5542,
      "yl": 5543,
      "zwei": 5544,
      "Ġwahn": 5545,
      "ĠglÃ¤n": 5546,
      "otten": 5547,
      "Ġfreunden": 5548,
      "Ġrussische": 5549,
      "dacht": 5550,
      "Ġmas": 5551,
      "ittel": 5552,
      "Ġina": 5553,
      "irgend": 5554,
      "angt": 5555,
      "Ġschmei": 5556,
      "Ġgeneration": 5557,
      "kw": 5558,
      "tiere": 5559,
      "Ġsar": 5560,
      "union": 5561,
      "ĠkÃ¤l": 5562,
      "lli": 5563,
      "ennung": 5564,
      "Ġnest": 5565,
      "haltung": 5566,
      "Ġfeste": 5567,
      "Ġergebnis": 5568,
      "leute": 5569,
      "Ġhit": 5570,
      "ratet": 5571,
      "Ã¤ufer": 5572,
      "Ġfreiwill": 5573,
      "Ġbenutzen": 5574,
      "Ġtonband": 5575,
      "ĠverÃ¶ffent": 5576,
      "Ġjagd": 5577,
      "karten": 5578,
      "Ġfinn": 5579,
      "orie": 5580,
      "Ġmannschaft": 5581,
      "ĠmÃ¶glichkeiten": 5582,
      "Ġjugendlichen": 5583,
      "Ġfirma": 5584,
      "Ġvertrag": 5585,
      "Ġeil": 5586,
      "Ġscharf": 5587,
      "ĠmÃ¤uschen": 5588,
      "fÃ¼": 5589,
      "mil": 5590,
      "rÃ¤n": 5591,
      "ĠrÃ¤uber": 5592,
      "Ġtafel": 5593,
      "Ġaltern": 5594,
      "hose": 5595,
      "Ġthat": 5596,
      "Ġkathol": 5597,
      "Ġfiguren": 5598,
      "Ġkartoffeln": 5599,
      "dann": 5600,
      "ube": 5601,
      "ĠprÃ¤sent": 5602,
      "Ġstudien": 5603,
      "tens": 5604,
      "ierter": 5605,
      "Ġvorhin": 5606,
      "Ġparty": 5607,
      "Ġsoziale": 5608,
      "Ã¤ngst": 5609,
      "Ġkiste": 5610,
      "Ġeinger": 5611,
      "Ġnachricht": 5612,
      "Ġchem": 5613,
      "Ġsitze": 5614,
      "Ġschmutz": 5615,
      "ĠgemÃ¼se": 5616,
      "mpfer": 5617,
      "ya": 5618,
      "Ġzigar": 5619,
      "Ġversamm": 5620,
      "enne": 5621,
      "klÃ¤r": 5622,
      "strasse": 5623,
      "Ġschneiden": 5624,
      "Ġ500": 5625,
      "Ġunterschiedlich": 5626,
      "ail": 5627,
      "mi": 5628,
      "Ġnachhalt": 5629,
      "getan": 5630,
      "Ġkakao": 5631,
      "Ġalkohol": 5632,
      "nam": 5633,
      "Ġausbildung": 5634,
      "rauch": 5635,
      "ĠschlieÃŁen": 5636,
      "Ġsong": 5637,
      "Ġhandel": 5638,
      "Ġnikol": 5639,
      "Ġfigur": 5640,
      "unternehmen": 5641,
      "orge": 5642,
      "Ġsoviel": 5643,
      "olit": 5644,
      "zend": 5645,
      "Ġgelassen": 5646,
      "ĠtrÃ¤ume": 5647,
      "krank": 5648,
      "Ġmuseum": 5649,
      "Ġausgest": 5650,
      "Ġschicken": 5651,
      "ĠregelmÃ¤ÃŁig": 5652,
      "affe": 5653,
      "pag": 5654,
      "Ã¤hn": 5655,
      "eli": 5656,
      "ĠkÃ¶l": 5657,
      "Ġtritt": 5658,
      "Ġangefangen": 5659,
      "Ġpuzzle": 5660,
      "Ġbart": 5661,
      "igkeiten": 5662,
      "Ġstau": 5663,
      "Ġhintergrund": 5664,
      "Ġexpl": 5665,
      "po": 5666,
      "Ġsing": 5667,
      "Ġkollegen": 5668,
      "Ġinhalt": 5669,
      "Ġtolle": 5670,
      "gleichen": 5671,
      "stellte": 5672,
      "Ġstudieren": 5673,
      "ochte": 5674,
      "Ġbelieb": 5675,
      "Ġ2015": 5676,
      "Ġfo": 5677,
      "ĠanschlieÃŁen": 5678,
      "eilung": 5679,
      "Ġangem": 5680,
      "ĠbÃ¼rgermeister": 5681,
      "Ġbilli": 5682,
      "Ġaffe": 5683,
      "schÃ¶n": 5684,
      "ĠkÃ¼mmern": 5685,
      "Ġtiefe": 5686,
      "tre": 5687,
      "Ġast": 5688,
      "Ġanger": 5689,
      "anda": 5690,
      "reif": 5691,
      "Ġganzes": 5692,
      "Ġgeraten": 5693,
      "Ġeuer": 5694,
      "ĠgegrÃ¼ndet": 5695,
      "Ġmobil": 5696,
      "Ġabl": 5697,
      "Ġprozess": 5698,
      "Ġkarr": 5699,
      "frist": 5700,
      "kehrt": 5701,
      "dit": 5702,
      "Ġstil": 5703,
      "Ġpresse": 5704,
      "Ã¼hle": 5705,
      "Ġschreib": 5706,
      "Ġfeiern": 5707,
      "Ġsmart": 5708,
      "undzwanzig": 5709,
      "riffe": 5710,
      "ĠgrÃ¶ÃŁere": 5711,
      "Ġlog": 5712,
      "Ġaufstehen": 5713,
      "Ġstarken": 5714,
      "Ġvergangenheit": 5715,
      "Ġprobier": 5716,
      "Ġschrecklich": 5717,
      "hard": 5718,
      "Ġgearbeitet": 5719,
      "Ġhaha": 5720,
      "Ġimmerhin": 5721,
      "iment": 5722,
      "oper": 5723,
      "Ġnull": 5724,
      "Ġbezahlt": 5725,
      "Ġwunsch": 5726,
      "higen": 5727,
      "jo": 5728,
      "mein": 5729,
      "Ġandr": 5730,
      "spieler": 5731,
      "hafte": 5732,
      "Ġliebsten": 5733,
      "jekte": 5734,
      "Ġzuschauer": 5735,
      "stÃ¤t": 5736,
      "Ġums": 5737,
      "Ġschnabel": 5738,
      "Ġgeheimnis": 5739,
      "Ġintegr": 5740,
      "arzt": 5741,
      "ĠkÃ¶nntest": 5742,
      "ĠkrÃ¤ftig": 5743,
      "Ġddr": 5744,
      "Ġmie": 5745,
      "Ġgeneral": 5746,
      "Ġrosa": 5747,
      "Ġerlaubt": 5748,
      "Ġentschl": 5749,
      "Ġerfunden": 5750,
      "ĠscheiÃŁ": 5751,
      "Ġtotal": 5752,
      "Ġunglaub": 5753,
      "Ġfirmen": 5754,
      "ĠberÃ¼hr": 5755,
      "meer": 5756,
      "Ġschnecke": 5757,
      "Ġorgan": 5758,
      "ĠÃ¶ffentlichen": 5759,
      "seits": 5760,
      "Ġsamen": 5761,
      "Ġfie": 5762,
      "Ġindi": 5763,
      "Ġanna": 5764,
      "Ġstabil": 5765,
      "Ġwirken": 5766,
      "ĠlÃ¶sung": 5767,
      "har": 5768,
      "Ġbieten": 5769,
      "igin": 5770,
      "isieren": 5771,
      "ildet": 5772,
      "Ġschmetter": 5773,
      "formen": 5774,
      "Ġweibchen": 5775,
      "Ġdiskuss": 5776,
      "Ġfind": 5777,
      "Ġlasse": 5778,
      "Ġtuch": 5779,
      "bereich": 5780,
      "Ġalb": 5781,
      "Ġverstand": 5782,
      "Ġdrinne": 5783,
      "Ġwichtigste": 5784,
      "Ġschmerz": 5785,
      "Ġstuttgart": 5786,
      "dat": 5787,
      "Ġausgel": 5788,
      "lebt": 5789,
      "ĠtrÃ¤nen": 5790,
      "Ġpfei": 5791,
      "Ġtreppen": 5792,
      "Ġlokomotive": 5793,
      "Ġgeholt": 5794,
      "Ġmitteil": 5795,
      "Ġbras": 5796,
      "ahne": 5797,
      "Ġmaschinen": 5798,
      "Ġmex": 5799,
      "Ġerzeu": 5800,
      "Ġangeg": 5801,
      "getragen": 5802,
      "Ġschweden": 5803,
      "ey": 5804,
      "isen": 5805,
      "stÃ¤d": 5806,
      "ĠzÃ¤hlen": 5807,
      "iller": 5808,
      "ĠÃ¤pfel": 5809,
      "programm": 5810,
      "leist": 5811,
      "mper": 5812,
      "tro": 5813,
      "Ġbitten": 5814,
      "Ġkandid": 5815,
      "inik": 5816,
      "Ġlach": 5817,
      "Ġschil": 5818,
      "ĠfÃ¼hlt": 5819,
      "Ġgesetze": 5820,
      "iam": 5821,
      "Ġaufgenommen": 5822,
      "Ġfrucht": 5823,
      "Ġvertei": 5824,
      "Ġstudenten": 5825,
      "Ġphilos": 5826,
      "kar": 5827,
      "Ġstreifen": 5828,
      "Ġvieler": 5829,
      "Ġgeschm": 5830,
      "schied": 5831,
      "akte": 5832,
      "ĠkÃ¼ste": 5833,
      "Ġbeliebt": 5834,
      "rÃ¤umt": 5835,
      "kinder": 5836,
      "Ġobst": 5837,
      "ney": 5838,
      "Ġkost": 5839,
      "sozial": 5840,
      "Ġ2016": 5841,
      "Ġbacken": 5842,
      "Ġtouristen": 5843,
      "Ġmodell": 5844,
      "Ġmehrheit": 5845,
      "ada": 5846,
      "erseits": 5847,
      "ĠprÃ¤sidenten": 5848,
      "Ġantworten": 5849,
      "ĠallmÃ¤hlich": 5850,
      "isa": 5851,
      "Ġeff": 5852,
      "Ġbilderbuch": 5853,
      "ancen": 5854,
      "Ġkontrolle": 5855,
      "jetzt": 5856,
      "Ġinterview": 5857,
      "Ġkomplett": 5858,
      "Ġgeschenkt": 5859,
      "Ġerinnerung": 5860,
      "Ġangen": 5861,
      "Ġsieg": 5862,
      "Ġgibst": 5863,
      "Ġgriff": 5864,
      "Ġachtung": 5865,
      "Ġzitr": 5866,
      "Ġpause": 5867,
      "ĠtÃ¤glich": 5868,
      "west": 5869,
      "Ġpupp": 5870,
      "Ġtreu": 5871,
      "Ġprinz": 5872,
      "kas": 5873,
      "ĠlÃ¤cheln": 5874,
      "famil": 5875,
      "Ġmassen": 5876,
      "hre": 5877,
      "Ġteilweise": 5878,
      "Ġ2021": 5879,
      "ministerium": 5880,
      "Ġess": 5881,
      "Ġstahl": 5882,
      "holz": 5883,
      "Ġerschienen": 5884,
      "Ġjener": 5885,
      "Ġklappt": 5886,
      "freund": 5887,
      "cr": 5888,
      "zert": 5889,
      "Ġbitter": 5890,
      "Ġalice": 5891,
      "osition": 5892,
      "Ġbeton": 5893,
      "ĠkÃ¤fer": 5894,
      "Ġpfarr": 5895,
      "Ġ90": 5896,
      "hop": 5897,
      "Ġ000": 5898,
      "Ġpie": 5899,
      "Ã¼rf": 5900,
      "Ġgift": 5901,
      "ĠbekÃ¤": 5902,
      "Ġstarke": 5903,
      "Ġfreuen": 5904,
      "Ġvorsicht": 5905,
      "Ġgeschlafen": 5906,
      "kau": 5907,
      "kul": 5908,
      "Ġjacke": 5909,
      "zustellen": 5910,
      "Ġthor": 5911,
      "Ġwirtschafts": 5912,
      "Ġlippen": 5913,
      "Ġbrem": 5914,
      "Ġtreten": 5915,
      "treter": 5916,
      "Ġverbindung": 5917,
      "ippt": 5918,
      "Ġzahlreiche": 5919,
      "Ġideen": 5920,
      "ĠzÃ¤hlt": 5921,
      "Ġderselben": 5922,
      "ets": 5923,
      "uÃŁt": 5924,
      "Ġneg": 5925,
      "ĠjÃ¼d": 5926,
      "Ġaussteigen": 5927,
      "Ġgering": 5928,
      "Ġfeind": 5929,
      "Ġnikolaus": 5930,
      "Ġpiz": 5931,
      "Ġklotz": 5932,
      "Ġliebes": 5933,
      "Ġzeige": 5934,
      "Ġinteresse": 5935,
      "Ġsymbol": 5936,
      "Ġbuben": 5937,
      "Ġvermutlich": 5938,
      "idu": 5939,
      "Ġsorgt": 5940,
      "Ġverschwinden": 5941,
      "Ġungar": 5942,
      "Ġumgebung": 5943,
      "pfels": 5944,
      "Ġhosen": 5945,
      "ĠbegrÃ¼": 5946,
      "Ġansehen": 5947,
      "Ġgretchen": 5948,
      "Ġmisch": 5949,
      "ĠjÃ¤ger": 5950,
      "Ġschaut": 5951,
      "mmen": 5952,
      "Ġesse": 5953,
      "Ġspringen": 5954,
      "digte": 5955,
      "Ġsolltest": 5956,
      "ĠhÃ¼gel": 5957,
      "stift": 5958,
      "Ġbud": 5959,
      "Ġrico": 5960,
      "Ġhalle": 5961,
      "endung": 5962,
      "Ġlux": 5963,
      "ĠeichhÃ¶rnchen": 5964,
      "sack": 5965,
      "tÃ¤u": 5966,
      "Ġsach": 5967,
      "tend": 5968,
      "usse": 5969,
      "Ġturn": 5970,
      "Ġbericht": 5971,
      "ĠÃ¶fter": 5972,
      "Ġschritte": 5973,
      "steckt": 5974,
      "ĠkÃ¶nigs": 5975,
      "ĠbÃ¼hne": 5976,
      "Ġwochenende": 5977,
      "ĠjÃ¼ng": 5978,
      "Ġposition": 5979,
      ".,": 5980,
      "Ġjust": 5981,
      "ausend": 5982,
      "Ġward": 5983,
      "Ġbecher": 5984,
      "Ġtemper": 5985,
      "ĠflÃ¼ss": 5986,
      "Ġsterne": 5987,
      "schlÃ¤ge": 5988,
      "Ġfluter": 5989,
      "ĠdÃ¤n": 5990,
      "Ġschlimmer": 5991,
      "Ġwohnzimmer": 5992,
      "ĠkÃ¼he": 5993,
      "Ġ2020": 5994,
      "Ġfriedrich": 5995,
      "Ġkino": 5996,
      "Ġzunehmen": 5997,
      "schirm": 5998,
      "Ġhandeln": 5999,
      "Ġfahre": 6000,
      "Ġschlechte": 6001,
      "Ġhaupts": 6002,
      "Ġbeding": 6003,
      "Ġgegner": 6004,
      "use": 6005,
      "Ġback": 6006,
      "schei": 6007,
      "Ã¤nden": 6008,
      "kete": 6009,
      "Ġvaters": 6010,
      "Ġelefanten": 6011,
      "ĠfrÃ¼hling": 6012,
      "lings": 6013,
      "Ġrennen": 6014,
      "Ġ27": 6015,
      "gert": 6016,
      "ĠhÃ¶rst": 6017,
      "Ġpolitisch": 6018,
      "Ġstudie": 6019,
      "..?": 6020,
      "Ġgerecht": 6021,
      "Ã¼nden": 6022,
      "Ġerfahr": 6023,
      "Ġprofit": 6024,
      "Ġgeschenk": 6025,
      "Ã¼m": 6026,
      "istan": 6027,
      "ĠgroÃŁvater": 6028,
      "Ġwag": 6029,
      "aust": 6030,
      "Ġmannes": 6031,
      "Ġtaschen": 6032,
      "Ġverzwei": 6033,
      "ebt": 6034,
      "ĠgÃ¼nst": 6035,
      "Ġnirgend": 6036,
      "Ġtoil": 6037,
      "Ġfreilich": 6038,
      "Ġangekommen": 6039,
      "Ġdokument": 6040,
      "ĠwofÃ¼r": 6041,
      "Ġklassen": 6042,
      "Ġschwert": 6043,
      "Ġrosen": 6044,
      "Ġfahrzeug": 6045,
      "kehren": 6046,
      "Ġbauernhof": 6047,
      "don": 6048,
      "Ġseu": 6049,
      "Ġigel": 6050,
      "Ġhy": 6051,
      "Ġbord": 6052,
      "Ġschrau": 6053,
      "ash": 6054,
      "euten": 6055,
      "Ġspitz": 6056,
      "Ġerstmals": 6057,
      "perrt": 6058,
      "Ġbefinden": 6059,
      "ĠbenÃ¶t": 6060,
      "Ġdiener": 6061,
      "Ġdikt": 6062,
      "zchen": 6063,
      "unt": 6064,
      "Ġiniti": 6065,
      "Ġbeam": 6066,
      "Ġvoraus": 6067,
      "Ġhinweg": 6068,
      "otte": 6069,
      "Ġbehinder": 6070,
      "ĠflieÃŁt": 6071,
      "Ġnutzer": 6072,
      "ĠbehÃ¶rden": 6073,
      "Ġschere": 6074,
      "ight": 6075,
      "Ġbringe": 6076,
      "Ġtram": 6077,
      "Ġsprich": 6078,
      "packen": 6079,
      "ĠrÃ¼ckwÃ¤rts": 6080,
      "Ġschaukel": 6081,
      "Ġverstecken": 6082,
      "unen": 6083,
      "unnen": 6084,
      "Ġinseln": 6085,
      "Ġorte": 6086,
      "Ġsicherheits": 6087,
      "Ġminute": 6088,
      "ĠgrÃ¼nden": 6089,
      "Ġerhielt": 6090,
      "Ġukrain": 6091,
      "ĠzerstÃ¶rt": 6092,
      "sextrem": 6093,
      "ĠÃ¤gypten": 6094,
      "Ġofen": 6095,
      "Ġkohl": 6096,
      "Ġdraussen": 6097,
      "xt": 6098,
      "Ġmatt": 6099,
      "Ġputzen": 6100,
      "Ġbefrei": 6101,
      "ĠursprÃ¼nglich": 6102,
      "ftet": 6103,
      "ment": 6104,
      "Ġpan": 6105,
      "reift": 6106,
      "Ġleb": 6107,
      "Ġliest": 6108,
      "ĠgrÃ¶ÃŁe": 6109,
      "icherung": 6110,
      "Ġgelegenheit": 6111,
      "Ġlampe": 6112,
      "sser": 6113,
      "chtigen": 6114,
      "Ġherbei": 6115,
      "Ġ28": 6116,
      "artigen": 6117,
      "spiele": 6118,
      "Ġcorona": 6119,
      "Ġserie": 6120,
      "ĠzÃ¤hl": 6121,
      "schi": 6122,
      "etzte": 6123,
      "ĠschlÃ¤": 6124,
      "Ġgebiete": 6125,
      "Ġ2017": 6126,
      "Ġentwickeln": 6127,
      "Ġbehandelt": 6128,
      "Ġwahnsinn": 6129,
      "oh": 6130,
      "ese": 6131,
      "Ġhergestellt": 6132,
      "Ġbefr": 6133,
      "hausen": 6134,
      "Ġangebot": 6135,
      "Ġgiraffe": 6136,
      "feln": 6137,
      "Ġpolizisten": 6138,
      "ram": 6139,
      "anlage": 6140,
      "schten": 6141,
      "Ġritter": 6142,
      "Ġstach": 6143,
      "sport": 6144,
      "Ġbaue": 6145,
      "Ġgleichsam": 6146,
      "Ġdenkst": 6147,
      "Ġklimawand": 6148,
      "ĠblÃ¼ten": 6149,
      "preis": 6150,
      "Ġwachte": 6151,
      "inchen": 6152,
      "Ġlud": 6153,
      "Ġjapan": 6154,
      "Ġquadrat": 6155,
      "Ġbach": 6156,
      "Ġbrach": 6157,
      "ĠgemÃ¼t": 6158,
      "Ġhaufen": 6159,
      "gehend": 6160,
      "ĠwÃ¼nschen": 6161,
      "ĠfranzÃ¶sischen": 6162,
      "lant": 6163,
      "Ġwozu": 6164,
      "Ġlege": 6165,
      "pfchen": 6166,
      "Ġapfels": 6167,
      "Ġesel": 6168,
      "Ġschlief": 6169,
      "Ġ300": 6170,
      "Ġjene": 6171,
      "ĠrÃ¶mer": 6172,
      "mosphÃ¤re": 6173,
      "kÃ¶r": 6174,
      "Ġbegeister": 6175,
      "Ġerwarten": 6176,
      "Ġproduktion": 6177,
      "Ġbeziehung": 6178,
      "Ġaufnahme": 6179,
      "Ġwiederhol": 6180,
      "izieren": 6181,
      "swahl": 6182,
      "Ġaufmerksamkeit": 6183,
      "Ġleuchtturm": 6184,
      "lok": 6185,
      "Ġfang": 6186,
      "ĠgeschÃ¤": 6187,
      "ĠselbstverstÃ¤n": 6188,
      "Ġbibel": 6189,
      "fÃ¤lt": 6190,
      "ĠhÃ¼tte": 6191,
      "Ġfuchs": 6192,
      "Ġspd": 6193,
      "flÃ¼": 6194,
      "Ġfremd": 6195,
      "mÃ¼t": 6196,
      "res": 6197,
      "chtern": 6198,
      "Ġermitt": 6199,
      "Ġstaub": 6200,
      "Ġhinsetzen": 6201,
      "Ġdreimal": 6202,
      "orgung": 6203,
      "Ġnachbarn": 6204,
      "asi": 6205,
      "Ġgeorg": 6206,
      "Ġblitz": 6207,
      "Ġcap": 6208,
      "opfen": 6209,
      "Ġtrainer": 6210,
      "ace": 6211,
      "Ġtrinkt": 6212,
      "werfen": 6213,
      "Ġfotograf": 6214,
      "Ġsteuern": 6215,
      "Ġsomit": 6216,
      "Ġspitzen": 6217,
      "illa": 6218,
      "Ġkomment": 6219,
      "Ġbesucht": 6220,
      "underte": 6221,
      "stÃ¤nden": 6222,
      "Ġzentimeter": 6223,
      "ley": 6224,
      "ĠzurÃ¼ckzu": 6225,
      "ĠgetrÃ¤umt": 6226,
      "Ġbesonderen": 6227,
      "bleiben": 6228,
      "szen": 6229,
      "yer": 6230,
      "ĠÃ¤nder": 6231,
      "Ġgesucht": 6232,
      "Ġ26": 6233,
      "stoffe": 6234,
      "zentrum": 6235,
      "Ġjournalisten": 6236,
      "av": 6237,
      "Ġgal": 6238,
      "Ġgot": 6239,
      "annter": 6240,
      "ikation": 6241,
      "Ġlaster": 6242,
      "Ġpatienten": 6243,
      "Ġsass": 6244,
      "Ġbum": 6245,
      "Ġviv": 6246,
      "Ġzogen": 6247,
      "Ġverkl": 6248,
      "ĠstÃ¶": 6249,
      "Ġabw": 6250,
      "gericht": 6251,
      "Ġkurs": 6252,
      "ehnt": 6253,
      "Ġmillion": 6254,
      "Ġformen": 6255,
      "Ġbeobachten": 6256,
      "ĠaufhÃ¶ren": 6257,
      "Ġstir": 6258,
      "Ġstad": 6259,
      "Ġstief": 6260,
      "Ġklaus": 6261,
      "Ġregisse": 6262,
      "Ġgestalt": 6263,
      "ĠgÃ¼ter": 6264,
      "ĠvÃ¶lker": 6265,
      "Ġfutter": 6266,
      "ĠverÃ¤ndern": 6267,
      "Ġdrum": 6268,
      "Ġkurzen": 6269,
      "Ġarbeitete": 6270,
      "Ġrelativ": 6271,
      "jenigen": 6272,
      "ĠdÃ¶r": 6273,
      "Ġmc": 6274,
      "Ġunw": 6275,
      "Ġfunk": 6276,
      "Ġbekannten": 6277,
      "ĠtÃ¼re": 6278,
      "hÃ¤ngt": 6279,
      "cy": 6280,
      "dlichen": 6281,
      "eiert": 6282,
      "iniert": 6283,
      "reche": 6284,
      "Ġsack": 6285,
      "Ġjoe": 6286,
      "musik": 6287,
      "ĠmerkwÃ¼rdig": 6288,
      "chse": 6289,
      "isierung": 6290,
      "Ġentsp": 6291,
      "ĠwÃ¼rfel": 6292,
      "Ġwellen": 6293,
      "besonder": 6294,
      "Ġkorb": 6295,
      "Ġpuppa": 6296,
      "let": 6297,
      "anwalt": 6298,
      "Ġerhe": 6299,
      "gegeben": 6300,
      "Ġrichter": 6301,
      "ĠschÃ¼ttel": 6302,
      "ĠgeflÃ¼": 6303,
      "Ġlob": 6304,
      "Ġschweine": 6305,
      "haften": 6306,
      "mitteln": 6307,
      "Ġgriechenland": 6308,
      "Ġdingen": 6309,
      "Ġmand": 6310,
      "ĠbÃ¤umen": 6311,
      "irt": 6312,
      "Ġgesamt": 6313,
      "reib": 6314,
      "egte": 6315,
      "weilen": 6316,
      "immern": 6317,
      "ĠverstÃ¤r": 6318,
      "Ġangeblich": 6319,
      "Ġfremde": 6320,
      "Ġexperten": 6321,
      "ĠÃ¼berzeugt": 6322,
      "rÃ¤t": 6323,
      "Ġatem": 6324,
      "techn": 6325,
      "Ġlor": 6326,
      "reiÃŁen": 6327,
      "astrop": 6328,
      "Ġglaubst": 6329,
      "Ġkommenden": 6330,
      "Ġmuster": 6331,
      "hungs": 6332,
      "ziger": 6333,
      "anche": 6334,
      "ocht": 6335,
      "Ġumgang": 6336,
      "Ġerfahrung": 6337,
      "ĠnÃ¼t": 6338,
      "achtete": 6339,
      "Ġanne": 6340,
      "Ġdut": 6341,
      "Ġtrag": 6342,
      "Ġenglischen": 6343,
      "Ġkapital": 6344,
      "Ġehemaligen": 6345,
      "Ġerfol": 6346,
      "ĠfÃ¤llen": 6347,
      "Ġreligion": 6348,
      "Ġpraktisch": 6349,
      "Ġsekunden": 6350,
      "tor": 6351,
      "Ġnag": 6352,
      "Ġerober": 6353,
      "Ġenthalten": 6354,
      "ĠenttÃ¤u": 6355,
      "Ġgegenteil": 6356,
      "Ġfreie": 6357,
      "Ġknaben": 6358,
      "ĠunterstÃ¼tzen": 6359,
      "Ġverantwortung": 6360,
      "ĠmiÃŁ": 6361,
      "schmer": 6362,
      "Ġklang": 6363,
      "Ã¶rder": 6364,
      "Ġflog": 6365,
      "Ġentz": 6366,
      "ĠauÃŁerhalb": 6367,
      "Ġschauspieler": 6368,
      "organisation": 6369,
      "kanzler": 6370,
      "tell": 6371,
      "Ġjog": 6372,
      "Ġerstes": 6373,
      "ĠbetrÃ¼": 6374,
      "Ġeuropas": 6375,
      "zusagen": 6376,
      "Ġvis": 6377,
      "Ġschmal": 6378,
      "Ġheiss": 6379,
      "mode": 6380,
      "Ġhuch": 6381,
      "Ġzunge": 6382,
      "ĠzusÃ¤tzlich": 6383,
      "Ġabmachen": 6384,
      "Ġgeflo": 6385,
      "Ġdiesel": 6386,
      "fliegen": 6387,
      "Ġanton": 6388,
      "Ġrap": 6389,
      "Ġsaal": 6390,
      "Ġgegenseit": 6391,
      "ĠwÃ¼rstchen": 6392,
      "Ġschlechter": 6393,
      "ĠidentitÃ¤t": 6394,
      "Ġpublikum": 6395,
      "Ã¶gen": 6396,
      "Ġherauf": 6397,
      "Ġmain": 6398,
      "Ġmerken": 6399,
      "werden": 6400,
      "Ġfilmen": 6401,
      "gewalt": 6402,
      "bilder": 6403,
      "ĠverfÃ¼gung": 6404,
      "fein": 6405,
      "Ġdra": 6406,
      "Ġlab": 6407,
      "Ġschal": 6408,
      "Ġverhei": 6409,
      "idar": 6410,
      "Ġwaffe": 6411,
      "Ġnahmen": 6412,
      "Ġmedik": 6413,
      "Ġsowjetunion": 6414,
      "drÃ¼ck": 6415,
      "nd": 6416,
      "iehen": 6417,
      "deckt": 6418,
      "ammen": 6419,
      "Ġneugier": 6420,
      "ogle": 6421,
      "Ġrechtsextrem": 6422,
      "gruppen": 6423,
      "Ġpflege": 6424,
      "Ġforscher": 6425,
      "Ġtw": 6426,
      "Ġausgeb": 6427,
      "ĠhÃ¶hle": 6428,
      "Ġherausfor": 6429,
      "Ġ2019": 6430,
      "pferd": 6431,
      "ĠbemÃ¼": 6432,
      "ĠÃ¶ffentlich": 6433,
      "Ġwechseln": 6434,
      "ummer": 6435,
      "Ġverzei": 6436,
      "Ġanteil": 6437,
      "ĠstÃ¼cke": 6438,
      "Ġwindel": 6439,
      "lager": 6440,
      "wind": 6441,
      "Ġras": 6442,
      "Ã¤chter": 6443,
      "ackel": 6444,
      "Ġfunktionieren": 6445,
      "ogramm": 6446,
      "gÃ¤nger": 6447,
      "Ġorganisation": 6448,
      "ki": 6449,
      "rum": 6450,
      "ris": 6451,
      "Ġliste": 6452,
      "Ġbekomm": 6453,
      "geworfen": 6454,
      "Ġheiligen": 6455,
      "Ġmoral": 6456,
      "Ġglocken": 6457,
      "com": 6458,
      "sste": 6459,
      "Ġwiese": 6460,
      "Ġmaler": 6461,
      "olf": 6462,
      "Ġurs": 6463,
      "iban": 6464,
      "wechsel": 6465,
      "Ġdauerte": 6466,
      "xi": 6467,
      "Ġoze": 6468,
      "rÃ¤ger": 6469,
      "ĠstrÃ¶": 6470,
      "Ġbessere": 6471,
      "Ġzugang": 6472,
      "ĠÃ¶ffnete": 6473,
      "Ġbarbie": 6474,
      "liga": 6475,
      "tur": 6476,
      "itionen": 6477,
      "geschÃ¤ft": 6478,
      "Ġwiderstand": 6479,
      "politik": 6480,
      "Ġschim": 6481,
      "Ġzustand": 6482,
      "Ġdeutscher": 6483,
      "Ġstrahl": 6484,
      "Ġbeschlossen": 6485,
      "10": 6486,
      "ring": 6487,
      "Ġtel": 6488,
      "ieder": 6489,
      "Ġvar": 6490,
      "Ġkrimin": 6491,
      "ĠgrÃ¼nde": 6492,
      "Ġkab": 6493,
      "chef": 6494,
      "Ġgemeinschaft": 6495,
      "ĠunterstÃ¼tzt": 6496,
      "gas": 6497,
      "xis": 6498,
      "Ġsachsen": 6499,
      "Ġhahn": 6500,
      "Ġampel": 6501,
      "Ġ2000": 6502,
      "eidungen": 6503,
      "ĠgÃ¤nse": 6504,
      "Ġord": 6505,
      "etzung": 6506,
      "ĠfÃ¼rs": 6507,
      "Ġdieselbe": 6508,
      "umente": 6509,
      "Ġstimmung": 6510,
      "acken": 6511,
      "Ġgelangen": 6512,
      "Ġgelaufen": 6513,
      "Ġdeutschlands": 6514,
      "Ġgedanke": 6515,
      "Ġtrambahn": 6516,
      "ĠselbstverstÃ¤ndlich": 6517,
      "deten": 6518,
      "mund": 6519,
      "team": 6520,
      "Ġschach": 6521,
      "Ġrich": 6522,
      "Ġvorstellung": 6523,
      "Ġspeich": 6524,
      "ike": 6525,
      "Ġhandwerk": 6526,
      "Ġleib": 6527,
      "ĠschÃ¶nheit": 6528,
      "Ġlangweil": 6529,
      "Ġbeschlo": 6530,
      "Ġbefehl": 6531,
      "Ġverwenden": 6532,
      "ĠlÃ¤ÃŁt": 6533,
      "Ġinternationalen": 6534,
      "rika": 6535,
      "ton": 6536,
      "Ġ&": 6537,
      "Ġmagen": 6538,
      "Ġgock": 6539,
      "Ġkut": 6540,
      "Ġauftrag": 6541,
      "Ġallgem": 6542,
      "artige": 6543,
      "zellen": 6544,
      "Ġfolgt": 6545,
      "Ġworauf": 6546,
      "Ġbergen": 6547,
      "blÃ¤t": 6548,
      "ividu": 6549,
      "gefunden": 6550,
      "imal": 6551,
      "ifte": 6552,
      "Ġ_": 6553,
      "Ġsha": 6554,
      "ĠmÃ¼ller": 6555,
      "quem": 6556,
      "Ġreihen": 6557,
      "Ġinteressen": 6558,
      "Ġmaterial": 6559,
      "aff": 6560,
      "gÃ¼lt": 6561,
      "Ġmi": 6562,
      "Ġmess": 6563,
      "Ġgis": 6564,
      "ĠrÃ¤um": 6565,
      "Ġaufgaben": 6566,
      "ssystem": 6567,
      "pper": 6568,
      "assungs": 6569,
      "Ġgedul": 6570,
      "Ġanfangs": 6571,
      "kÃ¼r": 6572,
      "Ġln": 6573,
      "ckchen": 6574,
      "Ġeimer": 6575,
      "Ġgenutzt": 6576,
      "ĠsaÃŁen": 6577,
      "Ġverfahren": 6578,
      "leiter": 6579,
      "Ġgebraucht": 6580,
      "morgen": 6581,
      "Ġzumachen": 6582,
      "chteten": 6583,
      "anders": 6584,
      "Ġgrab": 6585,
      "Ġerscheinen": 6586,
      "Ġfarb": 6587,
      "Ġfeder": 6588,
      "stuhl": 6589,
      "ĠmÃ¼tze": 6590,
      "Ġsyrien": 6591,
      "eide": 6592,
      "Ġhie": 6593,
      "Ġreform": 6594,
      "Ġliefer": 6595,
      "stellten": 6596,
      "ĠlÃ¶sen": 6597,
      "ĠhÃ¤uschen": 6598,
      "Ġlinke": 6599,
      "15": 6600,
      "Ġwall": 6601,
      "ĠermÃ¶": 6602,
      "euert": 6603,
      "flei": 6604,
      "Ġpapi": 6605,
      "low": 6606,
      "Ã¶tchen": 6607,
      "Ġkammer": 6608,
      "Ġgespen": 6609,
      "ĠatmosphÃ¤re": 6610,
      "stud": 6611,
      "Ġzurecht": 6612,
      "ĠtÃ¤ter": 6613,
      "andemie": 6614,
      "spiegel": 6615,
      "ĠschlÃ¤gt": 6616,
      "klus": 6617,
      "sprach": 6618,
      "Ġchristus": 6619,
      "zusehen": 6620,
      "mond": 6621,
      "su": 6622,
      "Ġ>": 6623,
      "Ġsab": 6624,
      "Ġgaben": 6625,
      "eidigen": 6626,
      "Ġbesonderes": 6627,
      "Ġknie": 6628,
      "Ġdoof": 6629,
      "Ġseht": 6630,
      "ory": 6631,
      "ĠzufÃ¤llig": 6632,
      "ĠheiÃŁe": 6633,
      "ĠâĢ¦": 6634,
      "Ġruntergefallen": 6635,
      "losigkeit": 6636,
      "Ġradik": 6637,
      "Ġverantwortlich": 6638,
      "tier": 6639,
      "Ã¤nge": 6640,
      "ĠglÃ¼": 6641,
      "Ġschulter": 6642,
      "Ġmarkus": 6643,
      "Ġbonbon": 6644,
      "punk": 6645,
      "tÃ¼r": 6646,
      "ini": 6647,
      "Ġteich": 6648,
      "ferenz": 6649,
      "Ġrotes": 6650,
      "vollen": 6651,
      "bein": 6652,
      "ĠzÃ¶": 6653,
      "schuss": 6654,
      "Ġversprechen": 6655,
      "Ġarsch": 6656,
      "Ġverbrechen": 6657,
      "Ġquer": 6658,
      "ica": 6659,
      "heimlich": 6660,
      "ĠÃ¶ffentlichkeit": 6661,
      "Ġgoogle": 6662,
      "ĠnÃ¶r": 6663,
      "Ġerblick": 6664,
      "Ġtaten": 6665,
      "Ġtasse": 6666,
      "Ġemp": 6667,
      "prob": 6668,
      "ĠfÃ¼ÃŁen": 6669,
      "Ġsammeln": 6670,
      "Ġgewohnt": 6671,
      "kre": 6672,
      "stall": 6673,
      "Ġbob": 6674,
      "inter": 6675,
      "Ġlhnen": 6676,
      "Ġkohlen": 6677,
      "Ã¤lde": 6678,
      "Ġ195": 6679,
      "Ġ2025": 6680,
      "Ġserv": 6681,
      "Ġgetrunken": 6682,
      "Ġspazieren": 6683,
      "prechen": 6684,
      "Ã¤nk": 6685,
      "reckt": 6686,
      "ernen": 6687,
      "Ġblieben": 6688,
      "Ġschwanger": 6689,
      "Ġheiraten": 6690,
      "Ġinternational": 6691,
      "schrank": 6692,
      "Ġaktion": 6693,
      "Ġgalt": 6694,
      "industrie": 6695,
      "reicher": 6696,
      "Ġpoten": 6697,
      "ĠÃ¤hnliches": 6698,
      "Ġtechnik": 6699,
      "Ġversprochen": 6700,
      "besondere": 6701,
      "Ġlachte": 6702,
      "Ġbekl": 6703,
      "Ġschwach": 6704,
      "flu": 6705,
      "Ġhoffen": 6706,
      "aufnahme": 6707,
      "Ġgenauer": 6708,
      "Ġ193": 6709,
      "Ġrechnen": 6710,
      "ware": 6711,
      "Ġschrecken": 6712,
      "Ġmalt": 6713,
      "Ġdemselben": 6714,
      "weiÃŁ": 6715,
      "Ġunterricht": 6716,
      "ĠÃ¶k": 6717,
      "Ġschwerer": 6718,
      "belt": 6719,
      "Ġfan": 6720,
      "Ġumdrehen": 6721,
      "Ġeck": 6722,
      "Ġechte": 6723,
      "Ġdeines": 6724,
      "Ġarmut": 6725,
      "arkt": 6726,
      "Ġklettern": 6727,
      "ots": 6728,
      "Ġ(\"": 6729,
      "Ġkohle": 6730,
      "kasten": 6731,
      "ju": 6732,
      "chan": 6733,
      "Ġgn": 6734,
      "Ġjawohl": 6735,
      "Ġaufgebaut": 6736,
      "ile": 6737,
      "stecken": 6738,
      "Ġkla": 6739,
      "Ġwiedersehen": 6740,
      "ĠmÃ¶cht": 6741,
      "Ġ35": 6742,
      "Ġgramm": 6743,
      "ĠfrÃ¼heren": 6744,
      "Ġbabys": 6745,
      "Ġkrankheiten": 6746,
      "Ġindividu": 6747,
      "Ġwalde": 6748,
      "steine": 6749,
      "Ã¤sst": 6750,
      "Ġschafft": 6751,
      "Ġpud": 6752,
      "ĠÃ¼bernehmen": 6753,
      "Ġgerettet": 6754,
      "Ġwohnungen": 6755,
      "graben": 6756,
      "behÃ¶r": 6757,
      "Ġoffiziell": 6758,
      "cen": 6759,
      "dach": 6760,
      "Ġmessen": 6761,
      "teuer": 6762,
      "Ġspan": 6763,
      "Ġgeschieht": 6764,
      "Ġstreng": 6765,
      "ĠvollstÃ¤ndig": 6766,
      "Ġangeln": 6767,
      "Ġkleben": 6768,
      "Ġaktuellen": 6769,
      "Ġerwachsene": 6770,
      "Ġandreas": 6771,
      "Ġeingesetzt": 6772,
      "Ġfischer": 6773,
      "ĠrÃ¤t": 6774,
      "ird": 6775,
      "Ġverwir": 6776,
      "Ã¤tzt": 6777,
      "Ġkonzern": 6778,
      "Ġfliege": 6779,
      "Ġ1990": 6780,
      "ĠanschlieÃŁend": 6781,
      "vÃ¶": 6782,
      "Ġgon": 6783,
      "Ġhuck": 6784,
      "Ġaufbauen": 6785,
      "Ġweiche": 6786,
      "ĠgenÃ¼": 6787,
      "Ġgere": 6788,
      "klar": 6789,
      "Ġharry": 6790,
      "Ġcharakter": 6791,
      "Ġpir": 6792,
      "urz": 6793,
      "Ġopp": 6794,
      "Ġverurs": 6795,
      "Ġbeides": 6796,
      "Ġsteckte": 6797,
      "Ġschlacht": 6798,
      "Ġflach": 6799,
      "verband": 6800,
      "Ġwohnte": 6801,
      "Ġmodern": 6802,
      "Ġmuscheln": 6803,
      "Ġoffenen": 6804,
      "ĠÃ¤hnliche": 6805,
      "Ġleuchten": 6806,
      "Ġletztes": 6807,
      "Ġstroh": 6808,
      "iÃ¶": 6809,
      "Ġlacht": 6810,
      "atzen": 6811,
      "Ġstudium": 6812,
      "Ġabgeord": 6813,
      "ĠerhÃ¤lt": 6814,
      "ĠwÃ¼nsche": 6815,
      "Ġferien": 6816,
      "Ġunheimlich": 6817,
      "Ġzaun": 6818,
      "Ġtreiben": 6819,
      "Ġwerbung": 6820,
      "Ġcol": 6821,
      "Ġlanges": 6822,
      "ĠwÃ¼ste": 6823,
      "freiheit": 6824,
      "Ġunterschiedliche": 6825,
      "wissenschaft": 6826,
      "Ġhielten": 6827,
      "Ġtin": 6828,
      "ĠstÃ¤": 6829,
      "abl": 6830,
      "Ġzusammenhang": 6831,
      "Ġperspekt": 6832,
      "Ġfelix": 6833,
      "ĠgrÃ¶ÃŁeren": 6834,
      "Ġstammen": 6835,
      "Ġportug": 6836,
      "Ġrettungs": 6837,
      "nehm": 6838,
      "Ġsatt": 6839,
      "Ġsinne": 6840,
      "stei": 6841,
      "berger": 6842,
      "Ġ2013": 6843,
      "Ġkonsum": 6844,
      "fle": 6845,
      "iw": 6846,
      "va": 6847,
      "Ġnar": 6848,
      "Ġstich": 6849,
      "eitungen": 6850,
      "beg": 6851,
      "ktionen": 6852,
      "Ġseel": 6853,
      "Ġdringend": 6854,
      "Ġunterscheiden": 6855,
      "station": 6856,
      "ĠschÃ¤d": 6857,
      "Ġbesetzt": 6858,
      "rifft": 6859,
      "Ġbefand": 6860,
      "Ġ2018": 6861,
      "druckt": 6862,
      "Ġamerikanische": 6863,
      "Ġszenen": 6864,
      "diger": 6865,
      "Ġtv": 6866,
      "Ġhandy": 6867,
      "ĠfrÃ¼hen": 6868,
      "Ġeinsteigen": 6869,
      "ĠhÃ¶chste": 6870,
      "Ġeinkauf": 6871,
      "ĠpersÃ¶nlich": 6872,
      "Ġpizza": 6873,
      "lingen": 6874,
      "Ġert": 6875,
      "ologen": 6876,
      "Ġlebe": 6877,
      "Ġbrennt": 6878,
      "Ġhaushalt": 6879,
      "Ġteils": 6880,
      "Ġorangen": 6881,
      "Ġtrecker": 6882,
      "Ġamerikaner": 6883,
      "Ġamerikanischen": 6884,
      "zusetzen": 6885,
      "Ġisser": 6886,
      "helfen": 6887,
      "ena": 6888,
      "Ġkette": 6889,
      "Ġlut": 6890,
      "Ġtank": 6891,
      "Ġmalst": 6892,
      "Ġdemnach": 6893,
      "Ġsteck": 6894,
      "Ġcont": 6895,
      "Ġinsbesondere": 6896,
      "Ġkleinere": 6897,
      "Ġbestimmen": 6898,
      "ĠblÃ¶d": 6899,
      "Ġwit": 6900,
      "Ġhass": 6901,
      "roland": 6902,
      "spolit": 6903,
      "Ġcamp": 6904,
      "Ġreintun": 6905,
      "zahlen": 6906,
      "Ġafg": 6907,
      "Ġhenry": 6908,
      "ĠkÃ¶ln": 6909,
      "nungs": 6910,
      "Ġsl": 6911,
      "Ġgrauen": 6912,
      "Ġschieben": 6913,
      "Ġanblick": 6914,
      "Ġhinlegen": 6915,
      "Ġstehst": 6916,
      "Ġnackt": 6917,
      "Ġchancen": 6918,
      "Ġteilte": 6919,
      "Ġbiste": 6920,
      "stoÃŁen": 6921,
      "Ġintelligen": 6922,
      "Ġseuf": 6923,
      "Ġdamen": 6924,
      "Ġsozusagen": 6925,
      "sequ": 6926,
      "Ġnationalsozial": 6927,
      "Ġermord": 6928,
      "Ġsmartph": 6929,
      "bart": 6930,
      "fiel": 6931,
      "sar": 6932,
      "schÃ¶": 6933,
      "Ġ29": 6934,
      "Ġcomm": 6935,
      "ĠtrÃ¤um": 6936,
      "Ġfesthalten": 6937,
      "Ġempor": 6938,
      "schwein": 6939,
      "Ġprinzip": 6940,
      "Ġabsicht": 6941,
      "Ġverfolgt": 6942,
      "Ġchristen": 6943,
      "Ġmeilen": 6944,
      "schne": 6945,
      "Ġerleben": 6946,
      "beding": 6947,
      "ĠrealitÃ¤t": 6948,
      "hme": 6949,
      "Ġentgeg": 6950,
      "estern": 6951,
      "maÃŁen": 6952,
      "Ġsorg": 6953,
      "meter": 6954,
      "ĠrÃ¤umen": 6955,
      "Ġrobo": 6956,
      "Ġkinderzimmer": 6957,
      "Ġsolidar": 6958,
      "Ġorigin": 6959,
      "Ġausser": 6960,
      "Ġstube": 6961,
      "ĠstraÃŁenbahn": 6962,
      "Ġdoppelt": 6963,
      "Ġarchite": 6964,
      "mark": 6965,
      "Ġshow": 6966,
      "Ġeinheit": 6967,
      "ony": 6968,
      "onom": 6969,
      "Ġpreise": 6970,
      "Ġspinn": 6971,
      "Ġkonkur": 6972,
      "Ġbegonnen": 6973,
      "Ġschnur": 6974,
      "farben": 6975,
      "Ġkanton": 6976,
      "Ġgesamte": 6977,
      "gott": 6978,
      "Ã¤ngen": 6979,
      "Ġcdu": 6980,
      "gelaufen": 6981,
      "gefÃ¼hl": 6982,
      "Ġallerlei": 6983,
      "Ġtausende": 6984,
      "Ġscheisse": 6985,
      "ĠfÃ¼hle": 6986,
      "Ġwettbewer": 6987,
      "Ġil": 6988,
      "schauen": 6989,
      "Ġschna": 6990,
      "Ġala": 6991,
      "Ġgelingt": 6992,
      "barkeit": 6993,
      "Ġirma": 6994,
      "Ġqual": 6995,
      "Ġvollen": 6996,
      "Ġgeholfen": 6997,
      "-,": 6998,
      "sitzen": 6999,
      "Ġzo": 7000,
      "schÃ¼": 7001,
      "alte": 7002,
      "ĠschoÃŁ": 7003,
      "Ġpul": 7004,
      "Ġspur": 7005,
      "Ġep": 7006,
      "Ġameisen": 7007,
      "ĠgemÃ¤lde": 7008,
      "Ġzweck": 7009,
      "Ġverfassung": 7010,
      "Ġferne": 7011,
      "ymn": 7012,
      "gelt": 7013,
      "Ã¤ub": 7014,
      "Ġneulich": 7015,
      "Ġbogen": 7016,
      "ĠhÃ¤uf": 7017,
      "ĠverhÃ¤ltnis": 7018,
      "Ġunglaublich": 7019,
      "Ġregisseur": 7020,
      "ii": 7021,
      "Ġunru": 7022,
      "Ġruck": 7023,
      "Ġdurchschnitt": 7024,
      "Ġunseres": 7025,
      "trud": 7026,
      "Ġorten": 7027,
      "Ġbildet": 7028,
      "Ġpflaster": 7029,
      "tausend": 7030,
      "Ġgeplant": 7031,
      "stÃ¤": 7032,
      "Ġnic": 7033,
      "Ġzettel": 7034,
      "ppel": 7035,
      "Ġdurcheinander": 7036,
      "gesp": 7037,
      "Ġdefin": 7038,
      "Ġzusammenge": 7039,
      "kreu": 7040,
      "Ġgrenz": 7041,
      "Ġkrebs": 7042,
      "Ġkloster": 7043,
      "Ġyou": 7044,
      "Ġbunt": 7045,
      "mach": 7046,
      "Ġhimm": 7047,
      "aubt": 7048,
      "irr": 7049,
      "Ġaufnehmen": 7050,
      "rocken": 7051,
      "ischem": 7052,
      "antas": 7053,
      "spricht": 7054,
      "alisiert": 7055,
      "ĠbÃ¤cker": 7056,
      "Ġphilosoph": 7057,
      "fleisch": 7058,
      "Ġeingeladen": 7059,
      "Ġsprecher": 7060,
      "Ġseen": 7061,
      "Ġhalben": 7062,
      "Ġverteilt": 7063,
      "ĠhÃ¼b": 7064,
      "Ġtomaten": 7065,
      "Ġakzept": 7066,
      "Ġglocke": 7067,
      "ihr": 7068,
      "kore": 7069,
      "lÃ¤ndern": 7070,
      "sucht": 7071,
      "Ġbatter": 7072,
      "Ġnerven": 7073,
      "Ġkonflikt": 7074,
      "brÃ¼": 7075,
      "Ġdad": 7076,
      "Ġfemin": 7077,
      "anzer": 7078,
      "Ġberichten": 7079,
      "Ġziegen": 7080,
      "ida": 7081,
      "Ġexist": 7082,
      "Ġblaues": 7083,
      "rechts": 7084,
      "Ġadler": 7085,
      "Ġhitler": 7086,
      "alition": 7087,
      "Ġstrei": 7088,
      "Ġstille": 7089,
      "ĠbrÃ¤": 7090,
      "aktiv": 7091,
      "ĠmaÃŁnahmen": 7092,
      "ios": 7093,
      "tum": 7094,
      "Ġkuck": 7095,
      "Ġaustau": 7096,
      "Ġinstr": 7097,
      "Ġleder": 7098,
      "ival": 7099,
      "Ġhauen": 7100,
      "Ġkasten": 7101,
      "Ġwilden": 7102,
      "jÃ¤hriger": 7103,
      "ĠgepÃ¤ck": 7104,
      "Ġerstaunt": 7105,
      "sÃ¤": 7106,
      "Ġbeinen": 7107,
      "ĠfÃ¼t": 7108,
      "Ġeinfacher": 7109,
      "Ġstren": 7110,
      "Ġcharlie": 7111,
      "sichtlich": 7112,
      "Ġerwachsenen": 7113,
      "ket": 7114,
      "teile": 7115,
      "Ġgeister": 7116,
      "Ġanzahl": 7117,
      "Ġwovon": 7118,
      "indungen": 7119,
      "Ġbrut": 7120,
      "ĠtrÃ¶": 7121,
      "Ġverlor": 7122,
      "cl": 7123,
      "yt": 7124,
      "Ġkult": 7125,
      "Ã¤ser": 7126,
      "Ġziehe": 7127,
      "Ġstudent": 7128,
      "ĠstÃ¤rk": 7129,
      "Ġwichtigen": 7130,
      "Ġschildkr": 7131,
      "Ġinternationale": 7132,
      "ichert": 7133,
      "Ġtar": 7134,
      "Ġverraten": 7135,
      "Ġvorh": 7136,
      "Ġgelebt": 7137,
      "Ġgetrei": 7138,
      "Ġangezogen": 7139,
      "Ã¤rtner": 7140,
      "Ġregional": 7141,
      "Ġgockel": 7142,
      "?\",": 7143,
      "dis": 7144,
      "nern": 7145,
      "Ġastr": 7146,
      "ĠgeÃ¤ndert": 7147,
      "ehle": 7148,
      "Ġzwang": 7149,
      "Ġbildungs": 7150,
      "Ġprodukte": 7151,
      "Ġfeiert": 7152,
      "ĠwÃ¼tend": 7153,
      "Ġerfahrungen": 7154,
      "\":": 7155,
      "hurt": 7156,
      "lehr": 7157,
      "mas": 7158,
      "schent": 7159,
      "ĠgeÃ¶ffnet": 7160,
      "Ġvorauss": 7161,
      "Ġhierhin": 7162,
      "Ġschlangen": 7163,
      "Ġgeschah": 7164,
      "Ġachten": 7165,
      "Ġbedeckt": 7166,
      "Ġattra": 7167,
      "Ġprodukt": 7168,
      "higkeit": 7169,
      "Ġwut": 7170,
      "Ġmurm": 7171,
      "Ġeiniges": 7172,
      "Ġtsche": 7173,
      "euen": 7174,
      "Ġgerman": 7175,
      "Ġmaschine": 7176,
      "Ġemot": 7177,
      "Ġvollkommen": 7178,
      "Ġerscheint": 7179,
      "ĠpalÃ¤st": 7180,
      "Ġsolches": 7181,
      "Ġotto": 7182,
      "fÃ¶rm": 7183,
      "ĠgenÃ¼gend": 7184,
      "Ġurteil": 7185,
      "Ġac": 7186,
      "ĠhinÃ¼ber": 7187,
      "Ġsagste": 7188,
      "Ġirr": 7189,
      "ĠfrÃ¼chte": 7190,
      "Ġkurzem": 7191,
      "Ġschicksal": 7192,
      "Ġzentral": 7193,
      "bot": 7194,
      "Ġwi": 7195,
      "Ġhan": 7196,
      "Ġdaheim": 7197,
      "Ġkauft": 7198,
      "ĠjÃ¤hr": 7199,
      "Ã¶ten": 7200,
      "ington": 7201,
      "ĠnÃ¤chstes": 7202,
      "Ġraupe": 7203,
      "Ġdial": 7204,
      "Ġmoderne": 7205,
      "Ġ#": 7206,
      "Ġzus": 7207,
      "Ġsodass": 7208,
      "Ġmitgenommen": 7209,
      "ssel": 7210,
      "Ġandererseits": 7211,
      "Ġstrafe": 7212,
      "ĠvermÃ¶gen": 7213,
      "Ġmotiv": 7214,
      "Ġschweinchen": 7215,
      "viertel": 7216,
      "fir": 7217,
      "opp": 7218,
      "Ġveg": 7219,
      "ĠerÃ¶ff": 7220,
      "amer": 7221,
      "regen": 7222,
      "ĠschlÃ¼": 7223,
      "Ġgeschlagen": 7224,
      "struktur": 7225,
      "Ġbundeskanzler": 7226,
      "Ġluftball": 7227,
      "Ġdienen": 7228,
      "Ġentschuldigung": 7229,
      "Ġputin": 7230,
      "ou": 7231,
      "Ġga": 7232,
      "Ġhaft": 7233,
      "Ġgertrud": 7234,
      "eutr": 7235,
      "Ġspielzeug": 7236,
      "Ġgraben": 7237,
      "ĠÃ¼bel": 7238,
      "Ġreiche": 7239,
      "Ġadr": 7240,
      "atoren": 7241,
      "ĠflÃ¤che": 7242,
      "ĠgerÃ¼": 7243,
      "Ġkeinem": 7244,
      "Ġberufs": 7245,
      "ĠÃ¤rzte": 7246,
      "Ġperfekt": 7247,
      "Ġklimawandel": 7248,
      "Ġapfelsaft": 7249,
      "iellen": 7250,
      "stung": 7251,
      "Ġgeeig": 7252,
      "ĠâĢļ": 7253,
      "flogen": 7254,
      "Ġangekl": 7255,
      "Ġjose": 7256,
      "ski": 7257,
      "Ġbundesregierung": 7258,
      "ĠoberflÃ¤che": 7259,
      "ĠwÃ¤rme": 7260,
      "wechseln": 7261,
      "pern": 7262,
      "ward": 7263,
      "Ġdritt": 7264,
      "ĠmÃ¼ÃŁte": 7265,
      "ucher": 7266,
      "ustr": 7267,
      "ĠmÃ¶glicherweise": 7268,
      "Ġlernt": 7269,
      "Ġfolgenden": 7270,
      "Ġverbreitet": 7271,
      "schmerzen": 7272,
      "Ġrapp": 7273,
      "enthalt": 7274,
      "Ġherkunft": 7275,
      "Ġschluck": 7276,
      "Ġgewicht": 7277,
      "verfahren": 7278,
      "ierenden": 7279,
      "Ġgetragen": 7280,
      "sprung": 7281,
      "Ġfenstern": 7282,
      "ĠkÃ¼nftig": 7283,
      "Ġopposition": 7284,
      "ieh": 7285,
      "ors": 7286,
      "Ġtop": 7287,
      "Ġausgang": 7288,
      "ĠfÃ¼rchter": 7289,
      "Ġwerd": 7290,
      "Ġamts": 7291,
      "fÃ¤llt": 7292,
      "Ġmittagessen": 7293,
      "Ġbeobachtet": 7294,
      "Ġweshalb": 7295,
      "Ġriesige": 7296,
      "Ġsegel": 7297,
      "Ġhemd": 7298,
      "Ġindianer": 7299,
      "Ġvivien": 7300,
      "Ġratten": 7301,
      "decke": 7302,
      "ĠfÃ¼rchten": 7303,
      "Ġdrittel": 7304,
      "Ġiran": 7305,
      "Ġpacken": 7306,
      "zeugen": 7307,
      "Ġbenzin": 7308,
      "Ġdiskrimin": 7309,
      "Ġmetho": 7310,
      "ĠÃ¤ltere": 7311,
      "Ġtherap": 7312,
      "Ġaufgewacht": 7313,
      "Ġdunklen": 7314,
      "cial": 7315,
      "falt": 7316,
      "atter": 7317,
      "Ġbequem": 7318,
      "achtung": 7319,
      "Ġheftig": 7320,
      "Ġeinzeln": 7321,
      "krise": 7322,
      "Ġkurzer": 7323,
      "Ġknopf": 7324,
      "Ġfordert": 7325,
      "Ġ150": 7326,
      "Ġpersonal": 7327,
      "ĠwÃ¤hler": 7328,
      "Ġbeantwor": 7329,
      "eben": 7330,
      "iga": 7331,
      "Ġmantel": 7332,
      "ftigen": 7333,
      "Ġgeschmack": 7334,
      "Ġplus": 7335,
      "Ġverliert": 7336,
      "Ġbildern": 7337,
      "Ġcool": 7338,
      "schwei": 7339,
      "Ġdrachen": 7340,
      "konzern": 7341,
      "uropa": 7342,
      "ĠgerÃ¤usch": 7343,
      "bul": 7344,
      "drei": 7345,
      "Ġvoran": 7346,
      "ahrt": 7347,
      "Ġbesitz": 7348,
      "Ġtraur": 7349,
      "Ġrassismus": 7350,
      "Ġmoskau": 7351,
      "kap": 7352,
      "Ġq": 7353,
      "ĠsÃ¤nger": 7354,
      "Ġmochte": 7355,
      "Ġdamal": 7356,
      "Ġledig": 7357,
      "ĠkÃ¶n": 7358,
      "Ġmay": 7359,
      "ĠmÃ¶gliche": 7360,
      "ĠlÃ¶cher": 7361,
      "Ġfeinde": 7362,
      "Ġschmecken": 7363,
      "Ġyout": 7364,
      "Ġalaed": 7365,
      "vp": 7366,
      "Ġwomit": 7367,
      "Ġabger": 7368,
      "Ġwurzeln": 7369,
      "imon": 7370,
      "Ġmaj": 7371,
      "ĠhÃ¶chst": 7372,
      "ĠfranzÃ¶sische": 7373,
      "ĠvergnÃ¼gen": 7374,
      "Ġautobahn": 7375,
      "Ġpfarrer": 7376,
      "fst": 7377,
      "halle": 7378,
      "ĠbÃ¶s": 7379,
      "amin": 7380,
      "Ġgleise": 7381,
      "Ã¼hlen": 7382,
      "wege": 7383,
      "Ġque": 7384,
      "ĠfÃ¼hrer": 7385,
      "Ġpflicht": 7386,
      "figur": 7387,
      "Ġbeitrag": 7388,
      "Ġgriechischen": 7389,
      "Ġmahl": 7390,
      "institut": 7391,
      "Ġlst": 7392,
      "ehin": 7393,
      "Ġhinge": 7394,
      "Ġgrunde": 7395,
      "ĠfÃ¼hrung": 7396,
      "mittelt": 7397,
      "fred": 7398,
      "bieten": 7399,
      "etern": 7400,
      "Ġanz": 7401,
      "Ġimpf": 7402,
      "Ġallgemein": 7403,
      "Ġeilig": 7404,
      "Ġprot": 7405,
      "Ġkonserv": 7406,
      "ammelt": 7407,
      "vention": 7408,
      "Ġwechsel": 7409,
      "Ġbadew": 7410,
      "Ġkarriere": 7411,
      "Ġroboter": 7412,
      "18": 7413,
      "vi": 7414,
      "ente": 7415,
      "schungs": 7416,
      "Ġlot": 7417,
      "aturen": 7418,
      "Ġrak": 7419,
      "Ġvorteil": 7420,
      "Ġbetont": 7421,
      "ĠmuÃŁten": 7422,
      "ĠfÃ¤lle": 7423,
      "pflicht": 7424,
      "ziel": 7425,
      "Ġhig": 7426,
      "Ġschale": 7427,
      "Ġtrieb": 7428,
      "ĠenthÃ¤lt": 7429,
      "Ġgebirge": 7430,
      "Ġfreiburg": 7431,
      "Ġ400": 7432,
      "Ġkaninchen": 7433,
      "Ġfieber": 7434,
      "Ġpor": 7435,
      "Ġbedien": 7436,
      "geschlagen": 7437,
      "Ġehre": 7438,
      "doll": 7439,
      "hein": 7440,
      "weh": 7441,
      "Ġbund": 7442,
      "Ġbos": 7443,
      "Ġlanden": 7444,
      "atischen": 7445,
      "Ġverurt": 7446,
      "Ã¼rtel": 7447,
      "Ã¤nke": 7448,
      "Ã¼ndet": 7449,
      "wood": 7450,
      "Ġtonnen": 7451,
      "ĠgefÃ¼hle": 7452,
      "Ġkilogramm": 7453,
      "Ġtiefen": 7454,
      "Ġohnehin": 7455,
      "'t": 7456,
      "pap": 7457,
      "inos": 7458,
      "inke": 7459,
      "Ã¶re": 7460,
      "Ġausnahme": 7461,
      "Ġclo": 7462,
      "Ġgemerkt": 7463,
      "Ã¼tzen": 7464,
      "Ġebene": 7465,
      "Ġentscheidungen": 7466,
      "Ġbumm": 7467,
      "Ġlou": 7468,
      "umpen": 7469,
      "Ġentdecken": 7470,
      "Ġhoffentlich": 7471,
      "Ġerleich": 7472,
      "bÃ¼cher": 7473,
      "Ġabsolut": 7474,
      "Ġtja": 7475,
      "Ġgleis": 7476,
      "zugehen": 7477,
      "ula": 7478,
      "Ġgefeiert": 7479,
      "hes": 7480,
      "Ġgebrochen": 7481,
      "Ġheia": 7482,
      "Ġblickte": 7483,
      "Ġkorru": 7484,
      "Ġschwierigkeiten": 7485,
      "ĠgÃ¤be": 7486,
      "Ġanstren": 7487,
      "Ġmedikamen": 7488,
      "drÃ¼ckt": 7489,
      "fragen": 7490,
      "Ġwis": 7491,
      "Ġscheinen": 7492,
      "Ġwirft": 7493,
      "Ġredu": 7494,
      "Ġwillkommen": 7495,
      "ĠfluÃŁ": 7496,
      "Ġlebendig": 7497,
      "Ġfalle": 7498,
      "',": 7499,
      "kern": 7500,
      "nes": 7501,
      "ĠrÃ¤ume": 7502,
      "egel": 7503,
      "Ġkonzert": 7504,
      "afrika": 7505,
      "Ġfreundschaft": 7506,
      "sky": 7507,
      "Ġpfeil": 7508,
      "Ġstellung": 7509,
      "richtungen": 7510,
      "Ġfingern": 7511,
      "hÃ¤usern": 7512,
      "Ġleistung": 7513,
      "ĠwÃ¤sche": 7514,
      "hahn": 7515,
      "ĠnÃ¼sse": 7516,
      "Ġbit": 7517,
      "Ġkehrte": 7518,
      "ĠtrÃ¼": 7519,
      "Ġkrim": 7520,
      "Ġvertrau": 7521,
      "mÃ¤ÃŁig": 7522,
      "ĠfÃ¶rster": 7523,
      "stunde": 7524,
      "Ġunterhalten": 7525,
      "Ġnebel": 7526,
      "zif": 7527,
      "Ġprem": 7528,
      "Ġirgendwel": 7529,
      "Ġsichtbar": 7530,
      "Ġkomplex": 7531,
      "Ġbedroht": 7532,
      "Ġaustralien": 7533,
      "Ġgeschwindigkeit": 7534,
      "name": 7535,
      "Ġseil": 7536,
      "Ġfaul": 7537,
      "Ġlkw": 7538,
      "Ġprie": 7539,
      "Ġregierungs": 7540,
      "Ġherrscher": 7541,
      "ĠfÃ¼nfzig": 7542,
      "ĠkÃ¼mmert": 7543,
      "alender": 7544,
      "Ġmittelmeer": 7545,
      "konom": 7546,
      "Ġerinnere": 7547,
      "Ġdonald": 7548,
      "Ġphilipp": 7549,
      "tchen": 7550,
      "Ġwoanders": 7551,
      "Ġfrisst": 7552,
      "ĠgeschÃ¼tzt": 7553,
      "Ġschmuck": 7554,
      "Ġentdeckte": 7555,
      "Ġvideos": 7556,
      "Ġalexander": 7557,
      "?!": 7558,
      "mama": 7559,
      "esa": 7560,
      "Ġferk": 7561,
      "Ġrang": 7562,
      "ologe": 7563,
      "ftige": 7564,
      "endes": 7565,
      "ĠmÃ¶glichen": 7566,
      "ampen": 7567,
      "stimmen": 7568,
      "Ġzentrum": 7569,
      "Ġdreckig": 7570,
      "Ġbreite": 7571,
      "hten": 7572,
      "eia": 7573,
      "stÃ¶": 7574,
      "Ġschauf": 7575,
      "Ġgebr": 7576,
      "urer": 7577,
      "Ġankl": 7578,
      "schieben": 7579,
      "Ġgestiegen": 7580,
      "erstoff": 7581,
      "Ġgemeinsamen": 7582,
      "ziell": 7583,
      "republik": 7584,
      "ahrungs": 7585,
      "Ġstrateg": 7586,
      "Ġfedern": 7587,
      "kriegen": 7588,
      "Ġargument": 7589,
      "Ġtempel": 7590,
      "abeth": 7591,
      "car": 7592,
      "ek": 7593,
      "Ġay": 7594,
      "Ġcity": 7595,
      "Ġhalf": 7596,
      "Ġholte": 7597,
      "krit": 7598,
      "Ġbelg": 7599,
      "Ġ2011": 7600,
      "Ġbreiten": 7601,
      "Ġbakter": 7602,
      "schild": 7603,
      ".....": 7604,
      "Ġregnet": 7605,
      "Ġdaniel": 7606,
      "Ġbeherr": 7607,
      "wohnern": 7608,
      "Ġbemerkt": 7609,
      "Ġpatri": 7610,
      "Ġgegenseitig": 7611,
      "Ġnei": 7612,
      "Ġweite": 7613,
      "reichs": 7614,
      "sprecher": 7615,
      "Ġca": 7616,
      "Ġzeitpunkt": 7617,
      "Ġdrehte": 7618,
      "hoch": 7619,
      "ĠcÃ¤": 7620,
      "Ġkonsequ": 7621,
      "ĠmÃ¶bel": 7622,
      "haber": 7623,
      "Ġreiten": 7624,
      "werken": 7625,
      "Ġjahrhunderts": 7626,
      "ĠunabhÃ¤ngig": 7627,
      "Ġungarn": 7628,
      "bÃ¤ume": 7629,
      "dp": 7630,
      "fuhr": 7631,
      "wel": 7632,
      "xu": 7633,
      "ĠsÃ¶": 7634,
      "enny": 7635,
      "ĠÃ¼berprÃ¼": 7636,
      "Ġherrscht": 7637,
      "Ġatlant": 7638,
      "Ġehemalige": 7639,
      "Ġausgesprochen": 7640,
      "Ġgetreide": 7641,
      "heil": 7642,
      "enzen": 7643,
      "ĠwÃ¶l": 7644,
      "Ġby": 7645,
      "Ġbanken": 7646,
      "Ġbusse": 7647,
      "Ġlasst": 7648,
      "ordert": 7649,
      "Ġschief": 7650,
      "chtige": 7651,
      "Ġlieder": 7652,
      "Ġrose": 7653,
      "Ġschreien": 7654,
      "Ġforschung": 7655,
      "Ġtolles": 7656,
      "Ġgesichter": 7657,
      "Ġsofa": 7658,
      "Ġkerzen": 7659,
      "Ġnerv": 7660,
      "ĠverÃ¶ffentlicht": 7661,
      "Ġdist": 7662,
      "Ġwik": 7663,
      "Ġeinkommen": 7664,
      "lla": 7665,
      "Ġausb": 7666,
      "Ġgeworfen": 7667,
      "Ġmusiker": 7668,
      "Ġpolizist": 7669,
      "Ġkontin": 7670,
      "prÃ¤sent": 7671,
      "Ġdurften": 7672,
      "Ġdorian": 7673,
      "Ġsignal": 7674,
      "24": 7675,
      "gs": 7676,
      "pul": 7677,
      "Ã¥": 7678,
      "Ġhaaren": 7679,
      "Ġumgefallen": 7680,
      "spe": 7681,
      "ierende": 7682,
      "ĠzurÃ¼ckge": 7683,
      "Ġmerkt": 7684,
      "Ġschweigen": 7685,
      "Ġpopul": 7686,
      "Ġtoilette": 7687,
      "Ġlediglich": 7688,
      "auern": 7689,
      "atische": 7690,
      "Ġspar": 7691,
      "Ġschlei": 7692,
      "rÃ¤gt": 7693,
      "Ġkai": 7694,
      "Ġjemals": 7695,
      "Ġriecht": 7696,
      "Ġerkannte": 7697,
      "ips": 7698,
      "Ġgemeinsame": 7699,
      "Ġschmerzen": 7700,
      "Ġbrasilien": 7701,
      "dollar": 7702,
      "osse": 7703,
      "Ġagen": 7704,
      "Ġbiene": 7705,
      "Ġheimlich": 7706,
      "Ġpack": 7707,
      "Ġgestanden": 7708,
      "Ġdaraufhin": 7709,
      "Ġflugzeuge": 7710,
      "ĠhÃ¶chstens": 7711,
      "warum": 7712,
      "Ġrisiko": 7713,
      "rang": 7714,
      "Ġkissen": 7715,
      "Ġeinig": 7716,
      "Ġjer": 7717,
      "Ġintens": 7718,
      "ĠÃ¼bert": 7719,
      "Ġedel": 7720,
      "opft": 7721,
      "Ġup": 7722,
      "ĠkÃ¼mmer": 7723,
      "Ġwahlkampf": 7724,
      "milch": 7725,
      "Ġtschech": 7726,
      "dor": 7727,
      "Ġerwei": 7728,
      "ierst": 7729,
      "Ġguckst": 7730,
      "ĠnatÃ¼r": 7731,
      "Ġbenutz": 7732,
      "Ġcharles": 7733,
      "Ġbalkon": 7734,
      "ital": 7735,
      "Ã¶rung": 7736,
      "Ġschlitten": 7737,
      "Ġbranden": 7738,
      "rÃ¤ume": 7739,
      "klasse": 7740,
      "Ġroter": 7741,
      "ichteten": 7742,
      "stagram": 7743,
      "liebe": 7744,
      "Ġdicker": 7745,
      "deutschland": 7746,
      "Ġbayer": 7747,
      "Ġzauberer": 7748,
      "wirkungen": 7749,
      "Ġbeschloss": 7750,
      "Ġbadewanne": 7751,
      "erei": 7752,
      "Ġsingt": 7753,
      "Ġzoll": 7754,
      "brach": 7755,
      "Ġbetrifft": 7756,
      "Ġverlangen": 7757,
      "ĠhaustÃ¼r": 7758,
      "Ġsauerstoff": 7759,
      "Ġvorles": 7760,
      "Ġmotorrad": 7761,
      "ĠgÃ¶tter": 7762,
      "Ġdiskussion": 7763,
      "\"?": 7764,
      "iffen": 7765,
      "Ã³": 7766,
      "ita": 7767,
      "aming": 7768,
      "Ġspuren": 7769,
      "Ġspeise": 7770,
      "Ġgerichts": 7771,
      "Ġgelungen": 7772,
      "Ġeinziges": 7773,
      "Ġalters": 7774,
      "regung": 7775,
      "Ġsuchst": 7776,
      "ĠfranzÃ¶sisch": 7777,
      "Ġliber": 7778,
      "Ġverstehst": 7779,
      "Ġentgegnete": 7780,
      "bett": 7781,
      "Ġsche": 7782,
      "Ġamaz": 7783,
      "Ġdres": 7784,
      "Ġanget": 7785,
      "Ġfalschen": 7786,
      "Ġpeters": 7787,
      "Ġmem": 7788,
      "ĠungewÃ¶hn": 7789,
      "Ġjames": 7790,
      "Ġaufenthalt": 7791,
      "ollt": 7792,
      "Ġeinfache": 7793,
      "ĠkÃ¤fig": 7794,
      "Ġdurst": 7795,
      "bedingungen": 7796,
      "gor": 7797,
      "nur": 7798,
      "Ġkos": 7799,
      "Ġeinschl": 7800,
      "Ġgewiss": 7801,
      "Ġbundesland": 7802,
      "Ġriefen": 7803,
      "Ġelektro": 7804,
      "Ġmexiko": 7805,
      "Ġrichard": 7806,
      "Ġferkel": 7807,
      "over": 7808,
      "stum": 7809,
      "anlagen": 7810,
      "Ġunmittel": 7811,
      "llte": 7812,
      "Ġpist": 7813,
      "Ġhammer": 7814,
      "herz": 7815,
      "zukommen": 7816,
      "blatt": 7817,
      "Ġtaschent": 7818,
      "Ġclub": 7819,
      "ĠÃ¼berraschen": 7820,
      "Ġdebatte": 7821,
      "zÃ¤hl": 7822,
      "Ġkrab": 7823,
      "Ġunschul": 7824,
      "Ġew": 7825,
      "Ġheide": 7826,
      "ĠâĢĵ,": 7827,
      "Ġzusammenarbeit": 7828,
      "strich": 7829,
      "Ġarbeite": 7830,
      "Ġkatastrop": 7831,
      "ĠknÃ¶": 7832,
      "ĠtÃ¶chter": 7833,
      "Ġfuhren": 7834,
      "Ġscro": 7835,
      "Ġentschuldigen": 7836,
      "Ġmikrofon": 7837,
      "Ġbritischen": 7838,
      "ly": 7839,
      "Ġnutzt": 7840,
      "Ġinstagram": 7841,
      "Ġanwalt": 7842,
      "Ġwiesen": 7843,
      "agten": 7844,
      "Ġbrachten": 7845,
      "verk": 7846,
      "Ġmedi": 7847,
      "Ġfortschr": 7848,
      "ruf": 7849,
      "Ġziele": 7850,
      "Ġtermin": 7851,
      "Ġdetail": 7852,
      "bÃ¤ren": 7853,
      "rÃ¶": 7854,
      "einhalb": 7855,
      "Ġvul": 7856,
      "Ġjagen": 7857,
      "Ġostern": 7858,
      "Ġalarm": 7859,
      "Ġfront": 7860,
      "Ã¤rten": 7861,
      "Ġcent": 7862,
      "Ġgewann": 7863,
      "Ġgefiel": 7864,
      "Ġvierzig": 7865,
      "ĠerwÃ¤hn": 7866,
      "ĠgrundsÃ¤tzlich": 7867,
      "Ġbetrachtet": 7868,
      "ĠÃ¤lteren": 7869,
      "Ġbotschaft": 7870,
      "Ġabenteuer": 7871,
      "Ġliebling": 7872,
      "Ġwinkel": 7873,
      "Ġgisela": 7874,
      "higt": 7875,
      "Ġadel": 7876,
      "Ġrande": 7877,
      "decken": 7878,
      "Ġbefest": 7879,
      "hlt": 7880,
      "Ġbrennen": 7881,
      "Ġkrise": 7882,
      "Ġversicher": 7883,
      "iefert": 7884,
      "Ġbescheid": 7885,
      "ĠhÃ¶lle": 7886,
      "Ġpflanze": 7887,
      "Ġniemanden": 7888,
      "Ġrutsche": 7889,
      "Ġafghan": 7890,
      "Ġzelt": 7891,
      "Ġsocken": 7892,
      "riebe": 7893,
      "Ã¤rter": 7894,
      "ĠbrÃ¶tchen": 7895,
      "Ġgreg": 7896,
      "Ġholst": 7897,
      "Ġstruktur": 7898,
      "Ġkindes": 7899,
      "bock": 7900,
      "Ġbelei": 7901,
      "Ġungeh": 7902,
      "Ġbegleitet": 7903,
      "Ġgebrauchen": 7904,
      "ĠhauptsÃ¤chlich": 7905,
      "Ġlangweilig": 7906,
      "Ġmehl": 7907,
      "Ġgreifen": 7908,
      "eher": 7909,
      "Ġwerdet": 7910,
      "Ġliege": 7911,
      "Ġvierzehn": 7912,
      "Ġphys": 7913,
      "Ġbewegungen": 7914,
      "Ġtexte": 7915,
      "Ġlaterne": 7916,
      "Ġbeteiligt": 7917,
      "ĠrÃ¶mischen": 7918,
      "Ġstrassenbahn": 7919,
      "Ġthorsten": 7920,
      "brÃ¼cke": 7921,
      "dro": 7922,
      "ode": 7923,
      "ocken": 7924,
      "Ġfund": 7925,
      "Ġrings": 7926,
      "anzt": 7927,
      "Ġchamp": 7928,
      "Ġquatsch": 7929,
      "Ġrauchen": 7930,
      "Ġtrock": 7931,
      "wÃ¼rfe": 7932,
      "ĠmerkwÃ¼r": 7933,
      "Ġinnenstadt": 7934,
      "Ġidentif": 7935,
      "Ġilleg": 7936,
      "Ġsklaven": 7937,
      "Ġbedingungen": 7938,
      "vel": 7939,
      "ĠmÃ¶rder": 7940,
      "Ġnr": 7941,
      "Ġkast": 7942,
      "ĠaufrÃ¤umen": 7943,
      "olen": 7944,
      "ĠfÃ¼rchte": 7945,
      "ĠabhÃ¤ng": 7946,
      "Ġdeck": 7947,
      "tain": 7948,
      "Ġstatue": 7949,
      "Ġlese": 7950,
      "ÃŃ": 7951,
      "Ġnom": 7952,
      "Ġjak": 7953,
      "ĠgeprÃ¤": 7954,
      "Ġsoweit": 7955,
      "Ġwarn": 7956,
      "Ġbeweisen": 7957,
      "Ġobgleich": 7958,
      "Ġgespannt": 7959,
      "Ġkirch": 7960,
      "Ġschafe": 7961,
      "ĠÃ¼berrascht": 7962,
      "Ġleidenschaft": 7963,
      "Ġgesamten": 7964,
      "Ġgondel": 7965,
      "stande": 7966,
      "Ġpein": 7967,
      "Ġstation": 7968,
      "Ġleon": 7969,
      "Ġjahrh": 7970,
      "Ġtrugen": 7971,
      "ĠgehÃ¶rten": 7972,
      "Ġerwart": 7973,
      "Ġschreibe": 7974,
      "Ġworan": 7975,
      "Ġgrosser": 7976,
      "farbe": 7977,
      "Ġnirgends": 7978,
      "Ġgaz": 7979,
      "Ġausprob": 7980,
      "egten": 7981,
      "ĠtrÃ¤umen": 7982,
      "ops": 7983,
      "Ġgebieten": 7984,
      "hÃ¤nomen": 7985,
      "ĠflÃ¼ster": 7986,
      "llover": 7987,
      "rigol": 7988,
      "Ġletztlich": 7989,
      "szene": 7990,
      "cel": 7991,
      "hat": 7992,
      "osten": 7993,
      "Ġweichen": 7994,
      "bellen": 7995,
      "entwick": 7996,
      "Ġgerufen": 7997,
      "Ġ36": 7998,
      "Ġ45": 7999,
      "Ġernte": 8000,
      "Ġsalat": 8001,
      "schuh": 8002,
      "Ġbetroffenen": 8003,
      "Ġkartoffel": 8004,
      "--------": 8005,
      "klÃ¤rung": 8006,
      "Ġludwig": 8007,
      "ĠschieÃŁen": 8008,
      "ĠschÃ¤tz": 8009,
      "weite": 8010,
      "Ġewig": 8011,
      "ikes": 8012,
      "gerÃ¤t": 8013,
      "Ġgestohlen": 8014,
      "Ġhamburger": 8015,
      "ĠkÃ¤mpf": 8016,
      "Ġstudiert": 8017,
      "bungen": 8018,
      "Ġwandern": 8019,
      "Ġhitze": 8020,
      "Ġanstatt": 8021,
      "Ġvergeben": 8022,
      "istik": 8023,
      "Ã¼cke": 8024,
      "ĠangehÃ¶r": 8025,
      "hauses": 8026,
      "Ġschreit": 8027,
      "Ġangesehen": 8028,
      "Ġapothe": 8029,
      "Ġdachten": 8030,
      "otter": 8031,
      "Ġbesorgt": 8032,
      "Ġeig": 8033,
      "ĠerfÃ¼llt": 8034,
      "Ġknall": 8035,
      "Ġaussah": 8036,
      "reckte": 8037,
      "ĠÃ¼berlegt": 8038,
      "Ġangeboten": 8039,
      "Ġmelden": 8040,
      "ĠgrÃ¤fin": 8041,
      "Ġbakterien": 8042,
      "Ġ$": 8043,
      "Ġfassen": 8044,
      "Ġvortrag": 8045,
      "ĠgegenstÃ¤nde": 8046,
      "Ġbeschrieben": 8047,
      "zieht": 8048,
      "wirken": 8049,
      "stoÃŁ": 8050,
      "Ġinneren": 8051,
      "Ġkalte": 8052,
      "ĠkÃ¼rzlich": 8053,
      "familie": 8054,
      "Ġreduz": 8055,
      "ĠcÃ¤sar": 8056,
      "nacht": 8057,
      "Ġkie": 8058,
      "Ġzut": 8059,
      "Ġwies": 8060,
      "Ġvorschlag": 8061,
      "âĢĵ": 8062,
      "blÃ¼": 8063,
      "Ġdecken": 8064,
      "Ġcha": 8065,
      "sammlung": 8066,
      "Ġsub": 8067,
      "Ġsuppe": 8068,
      "Ġwirkung": 8069,
      "ĠanfÃ¼hr": 8070,
      "Ġraff": 8071,
      "Ġkerze": 8072,
      "ĠwildgÃ¤n": 8073,
      "Ġdiskutiert": 8074,
      "Ġschmetterling": 8075,
      "fuÃŁ": 8076,
      "sÃ¼": 8077,
      "Ġacker": 8078,
      "ĠnÃ¼": 8079,
      "Ġnuss": 8080,
      "Ġgelle": 8081,
      "raben": 8082,
      "Ġklat": 8083,
      "Ġ31": 8084,
      "Ġgesundheits": 8085,
      "Ġstoffe": 8086,
      "Ġmittags": 8087,
      "Ġerinnerte": 8088,
      "kord": 8089,
      "lag": 8090,
      "Ġsur": 8091,
      "Ġnationen": 8092,
      "ĠstieÃŁ": 8093,
      "Ġredet": 8094,
      "Ġbron": 8095,
      "Ġbaust": 8096,
      "Ġverband": 8097,
      "Ġtote": 8098,
      "Ġparall": 8099,
      "Ġatmen": 8100,
      "Ġaufgestellt": 8101,
      "Ġorganisiert": 8102,
      "Ġleiche": 8103,
      "Ġlorry": 8104,
      "Ġjoghurt": 8105,
      "leid": 8106,
      "wi": 8107,
      "Ġbieg": 8108,
      "Ġpel": 8109,
      "Ġfrische": 8110,
      "Ġfritz": 8111,
      "Ã¤nglich": 8112,
      "Ġliebt": 8113,
      "Ã¼nde": 8114,
      "Ġunsicher": 8115,
      "Ġrabe": 8116,
      "Ġschranke": 8117,
      "phon": 8118,
      "fÃ¤llen": 8119,
      "Ġknabe": 8120,
      "ukturen": 8121,
      "oÃŁen": 8122,
      "Ġunangen": 8123,
      "sender": 8124,
      "Ġblind": 8125,
      "Ġschla": 8126,
      "Ġwilliam": 8127,
      "ĠgerÃ¤te": 8128,
      "Ġweiterer": 8129,
      "Ġregionen": 8130,
      "ĠkÃ¤me": 8131,
      "ologischen": 8132,
      "Ġbetrachten": 8133,
      "Ġschickt": 8134,
      "Ġbursch": 8135,
      "bewesen": 8136,
      "Ġsekunde": 8137,
      "Ġkonkurren": 8138,
      "ainer": 8139,
      "fort": 8140,
      "messer": 8141,
      "Ġkell": 8142,
      "Ġungleich": 8143,
      "eldet": 8144,
      "irekt": 8145,
      "Ġangenommen": 8146,
      "Ġfranken": 8147,
      "zul": 8148,
      "Ġbrunnen": 8149,
      "okraten": 8150,
      "ĠkÃ¼chen": 8151,
      "ietnam": 8152,
      "law": 8153,
      "ĠhÃ¶chsten": 8154,
      "Ġjahrzehnten": 8155,
      "funk": 8156,
      "mor": 8157,
      "Ġwuchs": 8158,
      "steht": 8159,
      "Ġnahrungs": 8160,
      "Ġkump": 8161,
      "ĠergÃ¤n": 8162,
      "Ġgedreht": 8163,
      "Ġstol": 8164,
      "Ġstap": 8165,
      "Ġkamel": 8166,
      "stritten": 8167,
      "kosten": 8168,
      "stock": 8169,
      "Ġverdacht": 8170,
      "Ġdunkle": 8171,
      "Ġbeziehungen": 8172,
      "Ġwiener": 8173,
      "bnis": 8174,
      "dul": 8175,
      "Ġmasse": 8176,
      "emark": 8177,
      "Ġpur": 8178,
      "Ġvertreten": 8179,
      "Ġausschl": 8180,
      "reden": 8181,
      "Ġflur": 8182,
      "ĠmÃ¼sst": 8183,
      "Ġschnecken": 8184,
      "ologische": 8185,
      "Ġzeugen": 8186,
      "Ġbritische": 8187,
      "ny": 8188,
      "ritt": 8189,
      "Ġbase": 8190,
      "ĠzÃ¼": 8191,
      "tent": 8192,
      "Ġauft": 8193,
      "Ġgeschaffen": 8194,
      "rÃ¤der": 8195,
      "Ġteilt": 8196,
      "Ġreiter": 8197,
      "Ġaussicht": 8198,
      "handel": 8199,
      "Ġformul": 8200,
      "Ġfielen": 8201,
      "ĠfrÃ¼hjahr": 8202,
      "ĠgesprÃ¤che": 8203,
      "Ġandres": 8204,
      "fo": 8205,
      "wein": 8206,
      "Ġgymn": 8207,
      "Ġeinges": 8208,
      "arf": 8209,
      "Ġlord": 8210,
      "Ġalpen": 8211,
      "oler": 8212,
      "Ġgesessen": 8213,
      "reffen": 8214,
      "ĠÃ¼bertragen": 8215,
      "Ġhermann": 8216,
      "Ġgewisse": 8217,
      "Ġberat": 8218,
      "Ġbenannt": 8219,
      "Ġrakete": 8220,
      "ĠbÃ¶sen": 8221,
      "Ġjohannes": 8222,
      "ĠÃ¼bernommen": 8223,
      "kretÃ¤r": 8224,
      "grÃ¼": 8225,
      "hielt": 8226,
      "mord": 8227,
      "Ġken": 8228,
      "Ã¼llen": 8229,
      "emmt": 8230,
      "ppchen": 8231,
      "Ġliefen": 8232,
      "Ġweiteres": 8233,
      "Ġbraut": 8234,
      "gebÃ¤ude": 8235,
      "Ġbox": 8236,
      "Ġtode": 8237,
      "Ġwinz": 8238,
      "Ġbegannen": 8239,
      "ĠÃ¶ffentliche": 8240,
      "Ġbriefe": 8241,
      "ĠgewÃ¶hnlich": 8242,
      "Ġabgeschlossen": 8243,
      "Ġgewinnt": 8244,
      "Ġfaszin": 8245,
      "Ġyoutube": 8246,
      "bien": 8247,
      "dliche": 8248,
      "fot": 8249,
      "rand": 8250,
      "sichtig": 8251,
      "ĠbÃ¶r": 8252,
      "Ġzellen": 8253,
      "schriften": 8254,
      "Ġnachdenken": 8255,
      "Ġteilnehmen": 8256,
      "Ġstandard": 8257,
      "gewicht": 8258,
      "mannschaft": 8259,
      "pflanzen": 8260,
      "ĠkÃ¤lte": 8261,
      "Ġzitronen": 8262,
      "punkte": 8263,
      "fÃ¼nf": 8264,
      "rut": 8265,
      "sl": 8266,
      "sich": 8267,
      "streifen": 8268,
      "Ġeinsch": 8269,
      "becken": 8270,
      "Ġsoldat": 8271,
      "ĠhÃ¤nger": 8272,
      "Ġ2012": 8273,
      "projekt": 8274,
      "Ġangesichts": 8275,
      "Ġstirbt": 8276,
      "ĠkÃ¶nige": 8277,
      "ev": 8278,
      "Ġgackel": 8279,
      "Ġbrechen": 8280,
      "Ġdiejenigen": 8281,
      "Ġpri": 8282,
      "ingu": 8283,
      "Ġabschluss": 8284,
      "Ġrufe": 8285,
      "prungen": 8286,
      "problem": 8287,
      "Ġerhob": 8288,
      "osexu": 8289,
      "Ġanrufen": 8290,
      "Ġzunehmend": 8291,
      "kamen": 8292,
      "mung": 8293,
      "sol": 8294,
      "Ġair": 8295,
      "Ġaschen": 8296,
      "itu": 8297,
      "Ġrannte": 8298,
      "eue": 8299,
      "Ġumgehen": 8300,
      "Ġlebewesen": 8301,
      "Ġvielmehr": 8302,
      "Ġschlau": 8303,
      "Ġlautet": 8304,
      "Ġstattfinden": 8305,
      "Ġberlinale": 8306,
      "geteilt": 8307,
      "getreten": 8308,
      "Ġnotwendig": 8309,
      "Ġkompliziert": 8310,
      "ĠberÃ¼hmt": 8311,
      "Ġgoldenen": 8312,
      "Ġhirsch": 8313,
      "Ġlieblings": 8314,
      "ĠdÃ¤nemark": 8315,
      "Ġgeflogen": 8316,
      "instr": 8317,
      "achter": 8318,
      "Ġanspruch": 8319,
      "Ġvertreter": 8320,
      "Ġbege": 8321,
      "olin": 8322,
      "Ġgegenstand": 8323,
      "ption": 8324,
      "Ġspringt": 8325,
      "Ġstrick": 8326,
      "dies": 8327,
      "Ġwilde": 8328,
      "Ġsupermarkt": 8329,
      "Ġnas": 8330,
      "Ã¤ÃŁ": 8331,
      "Ã¶ster": 8332,
      "ochten": 8333,
      "Ġvorbild": 8334,
      "Ġgesungen": 8335,
      "herap": 8336,
      "blasen": 8337,
      "Ġteilnehmer": 8338,
      "Ġbeispiele": 8339,
      "Ġirgendein": 8340,
      "otto": 8341,
      "Ġtrauer": 8342,
      "Ġgemeinden": 8343,
      "Ġrepariert": 8344,
      "Ġbeziehungs": 8345,
      "schmei": 8346,
      "Ġfeucht": 8347,
      "Ġeffekt": 8348,
      "flich": 8349,
      "kle": 8350,
      "arl": 8351,
      "Ġhingehen": 8352,
      "ives": 8353,
      "Ġgegenwart": 8354,
      "Ġui": 8355,
      "ĠbeschÃ¤": 8356,
      "stru": 8357,
      "Ġhauptbahnhof": 8358,
      "laubnis": 8359,
      "Ġproduziert": 8360,
      "Ġunn": 8361,
      "Ġunrecht": 8362,
      "schicht": 8363,
      "Ġauftritt": 8364,
      "Ġverp": 8365,
      "reiber": 8366,
      "Ġflaschen": 8367,
      "Ġgewe": 8368,
      "Ġweb": 8369,
      "Ġhilfs": 8370,
      "ĠrÃ¼ckkehr": 8371,
      "Ġsetze": 8372,
      "mÃ¤dchen": 8373,
      "Ġvorsitzen": 8374,
      "Ġwandte": 8375,
      "ĠwÃ¼nschte": 8376,
      "Ġverwandelt": 8377,
      "Ġuntersucht": 8378,
      "Ġsusanne": 8379,
      "Ġattrakt": 8380,
      "bundes": 8381,
      "kal": 8382,
      "Ġ*": 8383,
      "Ġmisst": 8384,
      "Ġtick": 8385,
      "ehrten": 8386,
      "Ġvorgestellt": 8387,
      "Ġbesitzer": 8388,
      "Ġpreu": 8389,
      "ĠerzÃ¤hlung": 8390,
      "Ġkupfer": 8391,
      "istenz": 8392,
      "Ã¤rtchen": 8393,
      "Ġscheibe": 8394,
      "Ġ2008": 8395,
      "Ġbraune": 8396,
      "fristig": 8397,
      "felt": 8398,
      "mchen": 8399,
      "Ġmm": 8400,
      "Ġhorn": 8401,
      "Ġersatz": 8402,
      "Ġglatt": 8403,
      "spir": 8404,
      "Ġkonzept": 8405,
      "Ġtrick": 8406,
      "akten": 8407,
      "Ġwohnten": 8408,
      "ĠfÃ¼nfzehn": 8409,
      "Ġraub": 8410,
      "Ġmathem": 8411,
      "Ġraketen": 8412,
      "oder": 8413,
      "Ġkalten": 8414,
      "Ġvit": 8415,
      "orten": 8416,
      "etisch": 8417,
      "Ġbaustelle": 8418,
      "Ġreifen": 8419,
      "Ġnato": 8420,
      "Ġpassag": 8421,
      "Ġstarten": 8422,
      "ĠstÃ¶ren": 8423,
      "ĠdrÃ¼ckte": 8424,
      "netz": 8425,
      "steig": 8426,
      "Ġschuss": 8427,
      "ĠÃ¼bersetzt": 8428,
      "Ġgegensatz": 8429,
      "Ġnebeneinander": 8430,
      "Ġschwarzer": 8431,
      "hÃ¤ndler": 8432,
      "Ġheutige": 8433,
      "ĠvernÃ¼n": 8434,
      "Ġparallel": 8435,
      "Ġnanc": 8436,
      "Ġkund": 8437,
      "Ġzirk": 8438,
      "itsch": 8439,
      "senden": 8440,
      "rate": 8441,
      "Ġbricht": 8442,
      "Ġgrat": 8443,
      "ierend": 8444,
      "Ġfordern": 8445,
      "Ġhaltung": 8446,
      "Ġkanada": 8447,
      "Ġumgekehrt": 8448,
      "biegen": 8449,
      "frauen": 8450,
      "leitung": 8451,
      "Ġeing": 8452,
      "Ġrennt": 8453,
      "Ġstreiten": 8454,
      "Ġklingen": 8455,
      "flÃ¤chen": 8456,
      "ĠlÃ¤nge": 8457,
      "kammer": 8458,
      "ĠwunderschÃ¶n": 8459,
      "Ġostsee": 8460,
      "Ġbegeistert": 8461,
      "Ġpriester": 8462,
      "kÃ¶n": 8463,
      "Ġbeu": 8464,
      "itar": 8465,
      "attet": 8466,
      "Ġgeorge": 8467,
      "ckern": 8468,
      "necht": 8469,
      "ĠmÃ¼h": 8470,
      "Ġverstorben": 8471,
      "Ġhelfe": 8472,
      "Ġfliehen": 8473,
      "Ġpullover": 8474,
      "Ġcomic": 8475,
      "Ġgetrennt": 8476,
      "fÃ¤ltig": 8477,
      "Ġverheiratet": 8478,
      "Ġarchitekt": 8479,
      "Ġgackeleia": 8480,
      "maus": 8481,
      "ron": 8482,
      "enk": 8483,
      "stamm": 8484,
      "Ġstirn": 8485,
      "etzten": 8486,
      "Ġweiten": 8487,
      "reibung": 8488,
      "Ġprop": 8489,
      "Ġspielten": 8490,
      "Ġversehen": 8491,
      "Ġbleibe": 8492,
      "Ġhelden": 8493,
      "Ġdahinten": 8494,
      "Ġbemer": 8495,
      "ĠflÃ¼chtlings": 8496,
      "ĠsÃ¤uget": 8497,
      "ypt": 8498,
      "erbe": 8499,
      "ĠwÃ¤nde": 8500,
      "schÃ¤": 8501,
      "ĠlÃ¼gen": 8502,
      "orien": 8503,
      "ĠzustÃ¤ndig": 8504,
      "Ã¤uter": 8505,
      "Ġanti": 8506,
      "Ġbiden": 8507,
      "azin": 8508,
      "Ġgrosses": 8509,
      "aurier": 8510,
      "Ġergebnisse": 8511,
      "fb": 8512,
      "nie": 8513,
      "witz": 8514,
      "Ġdol": 8515,
      "anie": 8516,
      "Ġfaden": 8517,
      "Ġansp": 8518,
      "Ġfranc": 8519,
      "Ġabges": 8520,
      "Ġcal": 8521,
      "einend": 8522,
      "astet": 8523,
      "ĠplÃ¤tzchen": 8524,
      "altungen": 8525,
      "Ġ192": 8526,
      "Ġbeschreibt": 8527,
      "Ġherauszu": 8528,
      "Ġstarr": 8529,
      "Ġsetzten": 8530,
      "aktionen": 8531,
      "ĠkrÃ¤fte": 8532,
      "Ġmuslim": 8533,
      "Ġangenehm": 8534,
      "Ġvorhanden": 8535,
      "namen": 8536,
      "zÃ¼ge": 8537,
      "Ġirak": 8538,
      "Ġfass": 8539,
      "Ġgegl": 8540,
      "Ġaneinander": 8541,
      "reichte": 8542,
      "anzug": 8543,
      "Ġherstellen": 8544,
      "Ġclau": 8545,
      "Ġeifer": 8546,
      "Ġzweiter": 8547,
      "ĠhÃ¶rten": 8548,
      "Ġ--\"": 8549,
      "ĠkÃ¼ken": 8550,
      "Ġ2010": 8551,
      "umenten": 8552,
      "Ġskand": 8553,
      "Ġpraxis": 8554,
      "ĠberÃ¼hmte": 8555,
      "Ġniedrig": 8556,
      "Ġamazon": 8557,
      "ĠbrÃ¼cken": 8558,
      "Ġvietnam": 8559,
      "Ġvergewalt": 8560,
      "Ġmehrmals": 8561,
      "Ġgestalten": 8562,
      "werte": 8563,
      "Ġeinzig": 8564,
      "Ġerschrocken": 8565,
      "Ġfasch": 8566,
      "Ġlocker": 8567,
      "Ġnadel": 8568,
      ".'": 8569,
      "zis": 8570,
      "Ġwick": 8571,
      "auten": 8572,
      "ehnen": 8573,
      "Ġausgew": 8574,
      "ĠkÃ¶pfe": 8575,
      "ĠgroÃŁt": 8576,
      "gesprÃ¤": 8577,
      "Ġdire": 8578,
      "gling": 8579,
      "drin": 8580,
      "ĠschÃ¶nsten": 8581,
      "ĠqualitÃ¤t": 8582,
      "Ġdrohen": 8583,
      "ĠhÃ¤ltst": 8584,
      "Ġkalif": 8585,
      "ĠerklÃ¤rung": 8586,
      "Ã¤ndnis": 8587,
      "Ġjournalist": 8588,
      "gÃ¼ltig": 8589,
      "spolitik": 8590,
      "Ġermordet": 8591,
      "iegt": 8592,
      "onsten": 8593,
      "Ġaufeinander": 8594,
      "Ġgewehr": 8595,
      "Ġtrend": 8596,
      "Ġkoalition": 8597,
      "Ġhandels": 8598,
      "Ġwohnungs": 8599,
      "Ġfreier": 8600,
      "Ġarbeitspl": 8601,
      "Ġstaatsanwalt": 8602,
      "Ġelektron": 8603,
      "Ġmauern": 8604,
      "no": 8605,
      "ieÃŁt": 8606,
      "Ġgor": 8607,
      "elang": 8608,
      "derten": 8609,
      "Ġpanzer": 8610,
      "Ġmithelfen": 8611,
      "Ġausstellung": 8612,
      "Ġechten": 8613,
      "Ġrecher": 8614,
      "indert": 8615,
      "barer": 8616,
      "ĠmÃ¤chtig": 8617,
      "Ġeleg": 8618,
      "Ġbegren": 8619,
      "Ġrausholen": 8620,
      "Ġenglische": 8621,
      "Ġliteratur": 8622,
      "feuer": 8623,
      "pass": 8624,
      "ĠkrÃ¼": 8625,
      "elig": 8626,
      "asste": 8627,
      "ierer": 8628,
      "Ã¼rzt": 8629,
      "sspr": 8630,
      "Ġalph": 8631,
      "Ġnachge": 8632,
      "Ġgewerk": 8633,
      "uchte": 8634,
      "Ã¶nt": 8635,
      "Ġmechan": 8636,
      "Ġbio": 8637,
      "front": 8638,
      "Ġverteidigen": 8639,
      "appt": 8640,
      "Ġstaatliche": 8641,
      "Ġunterschiede": 8642,
      "Ġschwimmbad": 8643,
      "gÃ¤nge": 8644,
      "ĠblÃ¤ttern": 8645,
      "Ġanaly": 8646,
      "ĠgeschÃ¤fte": 8647,
      "ĠpalÃ¤stinen": 8648,
      "11": 8649,
      "gumm": 8650,
      "ĠÃ¤ngst": 8651,
      "Ġwerte": 8652,
      "ĠgewÃ¼n": 8653,
      "Ġgefol": 8654,
      "Ġsicherlich": 8655,
      "Ġschulden": 8656,
      "ĠflieÃŁen": 8657,
      "Ġchristoph": 8658,
      "Ġsorgte": 8659,
      "Ġbraunen": 8660,
      "vogel": 8661,
      "Ġgrausam": 8662,
      "ĠÃ¼berzeugen": 8663,
      "Ġgummib": 8664,
      "Ġluftballon": 8665,
      "Ġkater": 8666,
      "Ġram": 8667,
      "Ġmitfahren": 8668,
      "ĠwomÃ¶glich": 8669,
      "Ġklagen": 8670,
      "Ġschleu": 8671,
      "Ġberichtete": 8672,
      "Ġruh": 8673,
      "Ġklara": 8674,
      "Ġansonsten": 8675,
      "Ġfranzosen": 8676,
      "ĠunabhÃ¤ngigkeit": 8677,
      "kÃ¶rper": 8678,
      "\")": 8679,
      "fertig": 8680,
      "ibt": 8681,
      "stunden": 8682,
      "Ġpandemie": 8683,
      "Ġabstand": 8684,
      "Ġeifr": 8685,
      "Ġplatten": 8686,
      "Ġgabel": 8687,
      "afÃ©": 8688,
      "Ġstarben": 8689,
      "Ġrathaus": 8690,
      "Ġklappe": 8691,
      "ĠpersÃ¶nliche": 8692,
      "Ġriesigen": 8693,
      "ĠfrÃ¶sche": 8694,
      "Ġfinnland": 8695,
      "ĠschÃ¼ttelte": 8696,
      "Ġozean": 8697,
      "Ġfu": 8698,
      "arat": 8699,
      "terung": 8700,
      "Ġstop": 8701,
      "Ġprovin": 8702,
      "Ã¼hren": 8703,
      "Ã¤lter": 8704,
      "Ġfreizeit": 8705,
      "Ġwahlen": 8706,
      "Ġdroht": 8707,
      "kamer": 8708,
      "sonst": 8709,
      "Ġrasender": 8710,
      "ĠverÃ¶ffentlich": 8711,
      "Ġviert": 8712,
      "Ġverdr": 8713,
      "rohr": 8714,
      "Ġfran": 8715,
      "Ġgewand": 8716,
      "Ġheiter": 8717,
      "ĠplÃ¤ne": 8718,
      "Ġleichen": 8719,
      "ordnet": 8720,
      "Ġerzie": 8721,
      "Ġendete": 8722,
      "Ġjemandem": 8723,
      "Ġoberen": 8724,
      "Ġideal": 8725,
      "ĠwÃ¤rst": 8726,
      "Ġentschuldige": 8727,
      "Ġschenken": 8728,
      "Ġanscheinend": 8729,
      "ĠglÃ¤nzen": 8730,
      "sau": 8731,
      "Ġbol": 8732,
      "Ġkasse": 8733,
      "istr": 8734,
      "Ġbesitzt": 8735,
      "Ġzeitungen": 8736,
      "ĠflÃ¼sse": 8737,
      "swert": 8738,
      "Ġgeguckt": 8739,
      "ĠernÃ¤hren": 8740,
      "vÃ¶gel": 8741,
      "Ġnancy": 8742,
      "nimmt": 8743,
      "rin": 8744,
      "ith": 8745,
      "Ġgesell": 8746,
      "Ġklug": 8747,
      "Ã¤nken": 8748,
      "Ġunterbrechen": 8749,
      "Ġdram": 8750,
      "Ġeinfachen": 8751,
      "Ġschnau": 8752,
      "Ġerkannt": 8753,
      "Ġreichte": 8754,
      "ĠbÃ¼chern": 8755,
      "Ġfelder": 8756,
      "Ġmetern": 8757,
      "Ġverwandt": 8758,
      "pra": 8759,
      "Ġlehn": 8760,
      "Ġdenselben": 8761,
      "Ġumso": 8762,
      "ĠglÃ¤ser": 8763,
      "bli": 8764,
      "glas": 8765,
      "Ġdete": 8766,
      "Ġplant": 8767,
      "Ġspielplatz": 8768,
      "Ġbekamen": 8769,
      "ĠangekÃ¼n": 8770,
      "ĠfÃ¼hrten": 8771,
      "Ġkritiker": 8772,
      "Ġsimon": 8773,
      "Ġheilige": 8774,
      "melade": 8775,
      "Ġbehandlung": 8776,
      "ritten": 8777,
      "val": 8778,
      "Ġkul": 8779,
      "gener": 8780,
      "Ġschott": 8781,
      "Ġoi": 8782,
      "Ġschwimmt": 8783,
      "Ġgeweint": 8784,
      "brand": 8785,
      "Ġplat": 8786,
      "antje": 8787,
      "okal": 8788,
      "Ġelement": 8789,
      "springen": 8790,
      "Ġvereinigten": 8791,
      "Ġwestlichen": 8792,
      "Ġverbessern": 8793,
      "ĠbestÃ¤tigt": 8794,
      "Ġhexe": 8795,
      "Ġangegriffen": 8796,
      "mat": 8797,
      "ĠbÃ¼nd": 8798,
      "Ã¤h": 8799,
      "Ġanzug": 8800,
      "Ġnachfrage": 8801,
      "Ġliefern": 8802,
      "Ġbrett": 8803,
      "Ġseeh": 8804,
      "unterricht": 8805,
      "mail": 8806,
      "Ġaktien": 8807,
      "bauer": 8808,
      "Ġzeichnung": 8809,
      "ĠwÃ¤lder": 8810,
      "Ġdieselben": 8811,
      "hauen": 8812,
      "Ġwich": 8813,
      "Ġkanzler": 8814,
      "Ġjon": 8815,
      "alem": 8816,
      "Ġscholz": 8817,
      "Ġergeben": 8818,
      "Ġsteig": 8819,
      "ague": 8820,
      "ftware": 8821,
      "Ġargen": 8822,
      "hmus": 8823,
      "Ġkran": 8824,
      "Ġmerke": 8825,
      "ĠkÃ¤stchen": 8826,
      "Ġkombin": 8827,
      "Ġaltertum": 8828,
      "Ġpalast": 8829,
      "Ġ1980": 8830,
      "zumachen": 8831,
      "Ġtwitter": 8832,
      "Ġgespenst": 8833,
      "haut": 8834,
      "hington": 8835,
      "king": 8836,
      "Ġbig": 8837,
      "ano": 8838,
      "Ã¼mer": 8839,
      "emit": 8840,
      "Ġpen": 8841,
      "cks": 8842,
      "Ġausschneiden": 8843,
      "Ġklinik": 8844,
      "Ġue": 8845,
      "Ġraben": 8846,
      "Ġstellten": 8847,
      "Ġmigration": 8848,
      "Ġhimmels": 8849,
      "zone": 8850,
      "Ġsult": 8851,
      "Ġwid": 8852,
      "Ġaal": 8853,
      "ari": 8854,
      "Ġschall": 8855,
      "Ġaufheben": 8856,
      "rolle": 8857,
      "rest": 8858,
      "Ġplay": 8859,
      "digungs": 8860,
      "Ġbegraben": 8861,
      "iefern": 8862,
      "Ġbefrie": 8863,
      "Ġadam": 8864,
      "Ġkolum": 8865,
      "Ġaggress": 8866,
      "gorit": 8867,
      "pon": 8868,
      "Ġeinwander": 8869,
      "Ġauk": 8870,
      "sspiel": 8871,
      "rap": 8872,
      "Ġgesammelt": 8873,
      "ĠreprÃ¤sent": 8874,
      "Ġbesorgen": 8875,
      "Ġbesitzen": 8876,
      "block": 8877,
      "ĠplÃ¤tze": 8878,
      "Ġverliebt": 8879,
      "Ġmarsch": 8880,
      "geschrieben": 8881,
      "Ġerwischt": 8882,
      "Ġgeschwister": 8883,
      "Ġflecken": 8884,
      "ĠfrÃ¶h": 8885,
      "Ġzweites": 8886,
      "ĠhÃ¤ufiger": 8887,
      "?.": 8888,
      "Ġlisa": 8889,
      "ĠphÃ¤nomen": 8890,
      "Ã¼rgen": 8891,
      "bek": 8892,
      "Ġabfall": 8893,
      "Ġreaktion": 8894,
      "ĠgebÃ¤u": 8895,
      "Ġrohst": 8896,
      "zwungen": 8897,
      "ĠÃ¤lteste": 8898,
      "Ġbrown": 8899,
      "Ġkocht": 8900,
      "Ġmodernen": 8901,
      "kop": 8902,
      "Ġ+": 8903,
      "Ġgur": 8904,
      "Ġdaumen": 8905,
      "ankt": 8906,
      "Ġfischen": 8907,
      "Ġsper": 8908,
      "Ġheizung": 8909,
      "Ġeinziger": 8910,
      "teilen": 8911,
      "Ġwussten": 8912,
      "saft": 8913,
      "Ġversprach": 8914,
      "Ġpilot": 8915,
      "Ġstiefel": 8916,
      "xid": 8917,
      "eins": 8918,
      "ago": 8919,
      "Ġklinger": 8920,
      "Ġgehor": 8921,
      "Ġ1000": 8922,
      "ĠflÃ¤chen": 8923,
      "Ġbrenn": 8924,
      "Ġenkel": 8925,
      "ternacht": 8926,
      "Ġverlangt": 8927,
      "Ġbleibst": 8928,
      "Ġbesseren": 8929,
      "Ġfriedlich": 8930,
      "Ġschwieriger": 8931,
      "Ġschriftsteller": 8932,
      "yram": 8933,
      "Ġmischung": 8934,
      "Ġverurteilt": 8935,
      "bons": 8936,
      "sachen": 8937,
      "wÃ¤l": 8938,
      "Â´": 8939,
      "ause": 8940,
      "etwas": 8941,
      "gerecht": 8942,
      "Ġmuskeln": 8943,
      "Ġkooper": 8944,
      "Ġhandelte": 8945,
      "Ġels": 8946,
      "ĠÃ¶h": 8947,
      "ĠÃ¶st": 8948,
      "plÃ¤tze": 8949,
      "Ġpapag": 8950,
      "Ġheben": 8951,
      "Ġvermeiden": 8952,
      "Ġnorwegen": 8953,
      "Ġberuhigen": 8954,
      "ĠsÃ¼damerika": 8955,
      "Ġkritisiert": 8956,
      "deutschen": 8957,
      "frastruktur": 8958,
      "ĠÃ¼berraschung": 8959,
      "Ġschnuller": 8960,
      "Ġtaschentuch": 8961,
      "Ġjakob": 8962,
      "blich": 8963,
      "sicher": 8964,
      "Ġ/": 8965,
      "Ġscheu": 8966,
      "Ġtipp": 8967,
      "serie": 8968,
      "Ġliess": 8969,
      "Ġflogen": 8970,
      "agentur": 8971,
      "Ġmais": 8972,
      "Ġ32": 8973,
      "plom": 8974,
      "Ġrussen": 8975,
      "Ġquelle": 8976,
      "Ġhelm": 8977,
      "ĠstÃ¼rzte": 8978,
      "ĠreligiÃ¶": 8979,
      "gibt": 8980,
      "ĠgroÃŁteil": 8981,
      "dt": 8982,
      "Ġdyn": 8983,
      "Ġfdp": 8984,
      "Ġauswirkungen": 8985,
      "Ġbeweis": 8986,
      "isabeth": 8987,
      "blau": 8988,
      "Ġgarant": 8989,
      "Ġhoher": 8990,
      "Ġeigener": 8991,
      "Ġaltstadt": 8992,
      "Ġaktuelle": 8993,
      "Ġleser": 8994,
      "ĠgewÃ¶hnt": 8995,
      "Ġalaeddin": 8996,
      "17": 8997,
      "wÃ¶r": 8998,
      "ĠdÃ¼ssel": 8999,
      "Ġsant": 9000,
      "Ġpick": 9001,
      "andet": 9002,
      "Ġschwestern": 9003,
      "Ġgeriet": 9004,
      "Ġgegenden": 9005,
      "Ġhaust": 9006,
      "lohn": 9007,
      "Ġverfolg": 9008,
      "Ġbasis": 9009,
      "Ġbunte": 9010,
      "Ġheinz": 9011,
      "Ġswantje": 9012,
      "500": 9013,
      "dels": 9014,
      "heu": 9015,
      "sitz": 9016,
      "tuch": 9017,
      "win": 9018,
      "Ġmiet": 9019,
      "Ġfok": 9020,
      "Ġress": 9021,
      "ĠverlieÃŁ": 9022,
      "Ġgrafen": 9023,
      "Ġaussuchen": 9024,
      "Ġkanal": 9025,
      "Ġrutschen": 9026,
      "bliothe": 9027,
      "fangen": 9028,
      "haufen": 9029,
      "zÃ¤": 9030,
      "iessen": 9031,
      "Ġeindeut": 9032,
      "eltern": 9033,
      "Ġinhalte": 9034,
      "Ġschicht": 9035,
      "Ġerhoben": 9036,
      "rollen": 9037,
      "Ġmehrfach": 9038,
      "Ã¤uft": 9039,
      "ĠÃ¶konom": 9040,
      "Ġschmid": 9041,
      "Ġschlechten": 9042,
      "ĠbedÃ¼rf": 9043,
      "kriegt": 9044,
      "ĠfÃ¶rder": 9045,
      "schulen": 9046,
      "ĠfrÃ¶hlich": 9047,
      "40": 9048,
      "hund": 9049,
      "lar": 9050,
      "nummer": 9051,
      "tu": 9052,
      "ĠsÃ¤tze": 9053,
      "Ġunklar": 9054,
      "Ġputz": 9055,
      "Ġhinstellen": 9056,
      "Ã¶rdert": 9057,
      "attung": 9058,
      "Ġschubl": 9059,
      "Ġlaub": 9060,
[...]
