{
  "version": "1.0",
  "truncation": null,
  "padding": null,
  "added_tokens": [
    {
      "id": 0,
      "content": "PAD",
      "single_word": false,
      "lstrip": false,
      "rstrip": false,
      "normalized": false,
      "special": true
    },
    {
      "id": 1,
      "content": "UNK",
      "single_word": false,
      "lstrip": false,
      "rstrip": false,
      "normalized": false,
      "special": true
    },
    {
      "id": 2,
      "content": "UTT_BOUNDARY",
      "single_word": false,
      "lstrip": false,
      "rstrip": false,
      "normalized": false,
      "special": true
    }
  ],
  "normalizer": {
    "type": "Sequence",
    "normalizers": [
      {
        "type": "Strip",
        "strip_left": true,
        "strip_right": true
      },
      {
        "type": "NFC"
      },
      {
        "type": "Lowercase"
      }
    ]
  },
  "pre_tokenizer": {
    "type": "ByteLevel",
    "add_prefix_space": false,
    "trim_offsets": true,
    "use_regex": true
  },
  "post_processor": {
    "type": "ByteLevel",
    "add_prefix_space": true,
    "trim_offsets": true,
    "use_regex": true
  },
  "decoder": null,
  "model": {
    "type": "BPE",
    "dropout": null,
    "unk_token": null,
    "continuing_subword_prefix": null,
    "end_of_word_suffix": null,
    "fuse_unk": false,
    "byte_fallback": false,
    "ignore_merges": false,
    "vocab": {
      "PAD": 0,
      "UNK": 1,
      "UTT_BOUNDARY": 2,
      "!": 3,
      "\"": 4,
      "#": 5,
      "$": 6,
      "%": 7,
      "&": 8,
      "'": 9,
      "(": 10,
      ")": 11,
      "*": 12,
      "+": 13,
      ",": 14,
      "-": 15,
      ".": 16,
      "/": 17,
      "0": 18,
      "1": 19,
      "2": 20,
      "3": 21,
      "4": 22,
      "5": 23,
      "6": 24,
      "7": 25,
      "8": 26,
      "9": 27,
      ":": 28,
      ";": 29,
      "<": 30,
      "=": 31,
      ">": 32,
      "?": 33,
      "@": 34,
      "[": 35,
      "\\": 36,
      "]": 37,
      "^": 38,
      "_": 39,
      "`": 40,
      "a": 41,
      "b": 42,
      "c": 43,
      "d": 44,
      "e": 45,
      "f": 46,
      "g": 47,
      "h": 48,
      "i": 49,
      "j": 50,
      "k": 51,
      "l": 52,
      "m": 53,
      "n": 54,
      "o": 55,
      "p": 56,
      "q": 57,
      "r": 58,
      "s": 59,
      "t": 60,
      "u": 61,
      "v": 62,
      "w": 63,
      "x": 64,
      "y": 65,
      "z": 66,
      "{": 67,
      "|": 68,
      "}": 69,
      "~": 70,
      "¡": 71,
      "¢": 72,
      "£": 73,
      "¤": 74,
      "¥": 75,
      "¦": 76,
      "§": 77,
      "¨": 78,
      "©": 79,
      "ª": 80,
      "«": 81,
      "¬": 82,
      "®": 83,
      "¯": 84,
      "°": 85,
      "±": 86,
      "²": 87,
      "³": 88,
      "´": 89,
      "µ": 90,
      "¶": 91,
      "·": 92,
      "¸": 93,
      "¹": 94,
      "º": 95,
      "»": 96,
      "¼": 97,
      "½": 98,
      "¾": 99,
      "¿": 100,
      "Â": 101,
      "Ã": 102,
      "Ä": 103,
      "Å": 104,
      "Æ": 105,
      "Ç": 106,
      "È": 107,
      "Ê": 108,
      "Ë": 109,
      "Ì": 110,
      "Î": 111,
      "Ï": 112,
      "Ð": 113,
      "Ñ": 114,
      "Õ": 115,
      "×": 116,
      "Ø": 117,
      "Ù": 118,
      "à": 119,
      "á": 120,
      "â": 121,
      "ã": 122,
      "ä": 123,
      "å": 124,
      "æ": 125,
      "ç": 126,
      "è": 127,
      "é": 128,
      "ê": 129,
      "ë": 130,
      "ì": 131,
      "í": 132,
      "ï": 133,
      "ð": 134,
      "Ĝ": 135,
      "Ğ": 136,
      "Ġ": 137,
      "Ģ": 138,
      "ģ": 139,
      "Ĥ": 140,
      "ĥ": 141,
      "Ħ": 142,
      "ħ": 143,
      "Ĩ": 144,
      "ĩ": 145,
      "Ī": 146,
      "ī": 147,
      "Ĭ": 148,
      "ĭ": 149,
      "Į": 150,
      "į": 151,
      "İ": 152,
      "ı": 153,
      "Ĳ": 154,
      "ĳ": 155,
      "Ĵ": 156,
      "ĵ": 157,
      "Ķ": 158,
      "ķ": 159,
      "ĸ": 160,
      "Ĺ": 161,
      "ĺ": 162,
      "Ļ": 163,
      "ļ": 164,
      "Ľ": 165,
      "ľ": 166,
      "Ŀ": 167,
      "ŀ": 168,
      "Ł": 169,
      "ł": 170,
      "Ń": 171,
      "en": 172,
      "er": 173,
      "ch": 174,
      "Ġd": 175,
      "ei": 176,
      "Ġs": 177,
      "ie": 178,
      "Ġa": 179,
      "Ġw": 180,
      "Ġi": 181,
      "Ġm": 182,
      "ein": 183,
      "un": 184,
      "st": 185,
      "Ġg": 186,
      "an": 187,
      "Ġh": 188,
      "ich": 189,
      "as": 190,
      "Ġb": 191,
      "Ġn": 192,
      "es": 193,
      "te": 194,
      "Ġk": 195,
      "und": 196,
      "Ġdie": 197,
      "Ġein": 198,
      "Ã¼": 199,
      "in": 200,
      "Ġv": 201,
      "Ġf": 202,
      "Ġau": 203,
      "Ã¤": 204,
      "ll": 205,
      "Ġz": 206,
      "ar": 207,
      "on": 208,
      "au": 209,
      "Ġder": 210,
      "Ġund": 211,
      "sch": 212,
      "al": 213,
      "der": 214,
      "Ġdas": 215,
      "Ġl": 216,
      "hr": 217,
      "it": 218,
      "gen": 219,
      "em": 220,
      "el": 221,
      "or": 222,
      "at": 223,
      "et": 224,
      "ach": 225,
      "Ġin": 226,
      "Ġsch": 227,
      "icht": 228,
      "ir": 229,
      "ja": 230,
      "Ġzu": 231,
      "Ġr": 232,
      "ten": 233,
      "Ã¶": 234,
      "Ġist": 235,
      "Ġer": 236,
      "Ġt": 237,
      "Ġge": 238,
      "ge": 239,
      "ur": 240,
      "Ġden": 241,
      "mm": 242,
      "ck": 243,
      "ÃŁ": 244,
      "ber": 245,
      "Ġp": 246,
      "Ġan": 247,
      "ter": 248,
      "och": 249,
      "ann": 250,
      "Ġich": 251,
      "Ġda": 252,
      "Ġnicht": 253,
      "ier": 254,
      "Ġsie": 255,
      "den": 256,
      "ben": 257,
      "Ġso": 258,
      "de": 259,
      "Ġes": 260,
      "Ġauf": 261,
      "Ġmit": 262,
      "ig": 263,
      "Ã¼r": 264,
      "Ġver": 265,
      "lich": 266,
      "Ġst": 267,
      "xx": 268,
      "ung": 269,
      "Ġha": 270,
      "um": 271,
      "ss": 272,
      "Ġo": 273,
      "eu": 274,
      "Ġwir": 275,
      "Ġj": 276,
      "eh": 277,
      "Ġdu": 278,
      "ro": 279,
      "Ġauch": 280,
      "ag": 281,
      "Ġwie": 282,
      "Ġwar": 283,
      "am": 284,
      "Ġun": 285,
      "eit": 286,
      "Ġhat": 287,
      "hn": 288,
      "and": 289,
      "Ġja": 290,
      "etz": 291,
      "le": 292,
      "Ġsich": 293,
      "isch": 294,
      "Ġvon": 295,
      "Ġmal": 296,
      "Ġal": 297,
      "Ġeine": 298,
      "Ġdem": 299,
      "Ġaus": 300,
      "Ġbe": 301,
      "Ġnoch": 302,
      "..": 303,
      "ut": 304,
      "is": 305,
      "sen": 306,
      "ind": 307,
      "eine": 308,
      "Ġfr": 309,
      "ol": 310,
      "se": 311,
      "chen": 312,
      "be": 313,
      "Ġ\"": 314,
      "ft": 315,
      "omm": 316,
      "il": 317,
      "das": 318,
      "ehr": 319,
      "Ġwas": 320,
      "Ġim": 321,
      "Ġman": 322,
      "iel": 323,
      "enn": 324,
      "etzt": 325,
      "cht": 326,
      "ĠfÃ¼r": 327,
      "was": 328,
      "Ġals": 329,
      "Ġvor": 330,
      "die": 331,
      "hm": 332,
      "Ġwo": 333,
      "Ġbei": 334,
      "ent": 335,
      "ste": 336,
      "Ġwei": 337,
      "ra": 338,
      "Ã¼ber": 339,
      "Ġsp": 340,
      "Ġihr": 341,
      "wei": 342,
      "rei": 343,
      "Ã¤n": 344,
      "Ġall": 345,
      "Ġges": 346,
      "Ġaber": 347,
      "xxx": 348,
      "re": 349,
      "Ã¶n": 350,
      "Ġnach": 351,
      "hl": 352,
      "fen": 353,
      "ern": 354,
      "anz": 355,
      "Ġsind": 356,
      "us": 357,
      "Ġmach": 358,
      "Ġdann": 359,
      "aus": 360,
      "Ġum": 361,
      "ist": 362,
      "Ġkl": 363,
      "ser": 364,
      "eg": 365,
      "Ġwer": 366,
      "Ġsein": 367,
      "da": 368,
      "Ġgeh": 369,
      "Ġhier": 370,
      "ĠÃ¼ber": 371,
      "ion": 372,
      "Ġdes": 373,
      "ill": 374,
      "kt": 375,
      "Ġdass": 376,
      "ne": 377,
      "so": 378,
      "Ġkann": 379,
      "bt": 380,
      "ing": 381,
      "rau": 382,
      "uck": 383,
      "all": 384,
      "Ġeinen": 385,
      "nen": 386,
      "Ġoder": 387,
      "schen": 388,
      "lei": 389,
      "mal": 390,
      "om": 391,
      "Ġle": 392,
      "mmer": 393,
      "sten": 394,
      "Ġhaben": 395,
      "Ġjetzt": 396,
      "Ã¶r": 397,
      "Ġher": 398,
      "rÃ¼": 399,
      "ik": 400,
      "Ġ1": 401,
      "Ġe": 402,
      "sp": 403,
      "ort": 404,
      "Ġhin": 405,
      "ff": 406,
      "Ġander": 407,
      "Ġwieder": 408,
      "Ġab": 409,
      "Ġxxx": 410,
      "ien": 411,
      "ot": 412,
      "Ġdenn": 413,
      "Ġnur": 414,
      "hren": 415,
      "Ġmir": 416,
      "Ġganz": 417,
      "llen": 418,
      "ssen": 419,
      "ĠkÃ¶n": 420,
      "che": 421,
      "Ġschon": 422,
      "Ġkomm": 423,
      "Ġre": 424,
      "Ġdoch": 425,
      "ischen": 426,
      "Ġmehr": 427,
      "uss": 428,
      "Ġeinem": 429,
      "pp": 430,
      "du": 431,
      "ang": 432,
      "ab": 433,
      "Ġwenn": 434,
      "Ġar": 435,
      "pf": 436,
      "Ġam": 437,
      "rie": 438,
      "bei": 439,
      "ehen": 440,
      "Ã¤t": 441,
      "Ġste": 442,
      "Ã¤r": 443,
      "zu": 444,
      "Ġunter": 445,
      "Ġeiner": 446,
      "Ġ2": 447,
      "urch": 448,
      "nein": 449,
      "Ġsag": 450,
      "Ġzum": 451,
      "lau": 452,
      "Ġihn": 453,
      "Ġgro": 454,
      "Ġwird": 455,
      "wo": 456,
      "Ġbes": 457,
      "her": 458,
      "Ġmein": 459,
      "mit": 460,
      "hen": 461,
      "war": 462,
      "he": 463,
      "Ġlie": 464,
      "os": 465,
      "ungen": 466,
      "gt": 467,
      "ger": 468,
      "komm": 469,
      "Ġwerden": 470,
      "Ġei": 471,
      "acht": 472,
      "imm": 473,
      "Ġmich": 474,
      "Ġent": 475,
      "agen": 476,
      "ver": 477,
      "ad": 478,
      "zen": 479,
      "ÃŁen": 480,
      "Ġwur": 481,
      "Ġdar": 482,
      "im": 483,
      "Ġschl": 484,
      "ht": 485,
      "wer": 486,
      "ges": 487,
      "ank": 488,
      "Ġ.": 489,
      "elt": 490,
      "Ġhatte": 491,
      "Ġdurch": 492,
      "Ġdr": 493,
      "igen": 494,
      "Ġc": 495,
      "eute": 496,
      "ick": 497,
      "eil": 498,
      "Ġfl": 499,
      "ige": 500,
      "Ġsoll": 501,
      "Ġmen": 502,
      "Ġimmer": 503,
      "uch": 504,
      "wie": 505,
      "Ġbis": 506,
      "Ġhabe": 507,
      "Ġvie": 508,
      "Ġet": 509,
      "gel": 510,
      "Ġwill": 511,
      "Ã¼n": 512,
      "tet": 513,
      "Ġzwei": 514,
      "Ġgi": 515,
      "men": 516,
      "ha": 517,
      "âĢ": 518,
      "ul": 519,
      "auf": 520,
      "ster": 521,
      "rÃ¤": 522,
      "Ġpro": 523,
      "Ġmachen": 524,
      "Ġgew": 525,
      "Ġgen": 526,
      "Ġber": 527,
      "Ġger": 528,
      "Ġdir": 529,
      "Ġviel": 530,
      "oll": 531,
      "Ġbr": 532,
      "hal": 533,
      "Ġgel": 534,
      "Ġkon": 535,
      "iert": 536,
      "Ġgef": 537,
      "Ġgesch": 538,
      "ap": 539,
      "scha": 540,
      "Ġjahr": 541,
      "eut": 542,
      "Ġgr": 543,
      "ĠmÃ¼": 544,
      "Ġfa": 545,
      "ÃŁt": 546,
      "Ġbl": 547,
      "Ġgut": 548,
      "wir": 549,
      "Ġgibt": 550,
      "einen": 551,
      "ische": 552,
      "sie": 553,
      ".\"": 554,
      "br": 555,
      "na": 556,
      "schl": 557,
      "Ġgem": 558,
      "Ġen": 559,
      "ert": 560,
      "ass": 561,
      "Ã¼ck": 562,
      "amm": 563,
      "ĠâĢ": 564,
      "Ġhei": 565,
      "dern": 566,
      "00": 567,
      "guck": 568,
      "Ġsei": 569,
      "ieren": 570,
      "Ġson": 571,
      "Ġuns": 572,
      "art": 573,
      "iv": 574,
      "ze": 575,
      "rÃ¼ck": 576,
      "ation": 577,
      "Ġmenschen": 578,
      "bl": 579,
      "ĠgroÃŁ": 580,
      "Ġsehr": 581,
      "Ġje": 582,
      "ken": 583,
      "Ġhast": 584,
      "leich": 585,
      "assen": 586,
      "Ġmuss": 587,
      "Ġwurde": 588,
      "Ġtr": 589,
      "ĠkÃ¶nnen": 590,
      "ĠâĢĵ": 591,
      "tel": 592,
      "Ġalle": 593,
      "eln": 594,
      "Ã¤u": 595,
      "schaft": 596,
      "Ġdies": 597,
      "kl": 598,
      "Ġse": 599,
      "est": 600,
      "...": 601,
      "Ã¤hr": 602,
      "bst": 603,
      "aber": 604,
      "nte": 605,
      "Ġdeut": 606,
      "angen": 607,
      "Ġgeht": 608,
      "Ġsel": 609,
      "op": 610,
      "Ġwaren": 611,
      "ww": 612,
      "Ġdich": 613,
      "gend": 614,
      "ĠdaÃŁ": 615,
      "ner": 616,
      "ell": 617,
      "Ġviele": 618,
      "ffen": 619,
      "Ġihm": 620,
      "Ġte": 621,
      "\",": 622,
      "ade": 623,
      "Ġneu": 624,
      "Ġne": 625,
      "fl": 626,
      "Ġschw": 627,
      "Ġ'": 628,
      "achen": 629,
      "me": 630,
      "Ġdiese": 631,
      "Ġbin": 632,
      "Ġkommt": 633,
      "Ġbau": 634,
      "Ġ-": 635,
      "Ġweiter": 636,
      "ĠwÃ¤": 637,
      "ob": 638,
      "Ġlei": 639,
      "Ġmus": 640,
      "Ġfrau": 641,
      "Ġpl": 642,
      "Ġsa": 643,
      "Ġ(": 644,
      "Ġgar": 645,
      "dem": 646,
      "Ġweg": 647,
      "Ġetwas": 648,
      "Ġsagte": 649,
      "Ġalles": 650,
      "ahr": 651,
      "Ġzeit": 652,
      "Ġgeb": 653,
      "ahl": 654,
      "Ġerst": 655,
      "Ġleben": 656,
      "Ġkeine": 657,
      "Ġbet": 658,
      "ahn": 659,
      "tern": 660,
      "ok": 661,
      "alt": 662,
      "Ġkr": 663,
      "Ġwoll": 664,
      "inder": 665,
      "Ġde": 666,
      "Ġnie": 667,
      "Ġgegen": 668,
      "ug": 669,
      "Ġspiel": 670,
      "Ġrei": 671,
      "ichtig": 672,
      "heit": 673,
      "ungs": 674,
      "jetzt": 675,
      "Ġihre": 676,
      "Ġguck": 677,
      "lichen": 678,
      "Ġleo": 679,
      "uÃŁ": 680,
      "kommen": 681,
      "Ġch": 682,
      "Ġweil": 683,
      "Ġkam": 684,
      "per": 685,
      "chte": 686,
      "ĠschÃ¶n": 687,
      "bar": 688,
      "aut": 689,
      "cken": 690,
      "Ġheute": 691,
      "ĠwÃ¼r": 692,
      "Ġmacht": 693,
      "Ġseine": 694,
      "Ġzur": 695,
      "liche": 696,
      "unter": 697,
      "ehmen": 698,
      "Ġzw": 699,
      "ild": 700,
      "hier": 701,
      "iz": 702,
      "age": 703,
      "ĠnÃ¤": 704,
      "Ġhaus": 705,
      "Ġho": 706,
      "ĠmÃ¶": 707,
      "ant": 708,
      "Ġeigen": 709,
      "spiel": 710,
      "Ġob": 711,
      "dr": 712,
      "og": 713,
      "Ġandere": 714,
      "ke": 715,
      "fÃ¼r": 716,
      "atz": 717,
      "fe": 718,
      "aten": 719,
      "Âł": 720,
      "Ġko": 721,
      "Ġglau": 722,
      "Ã¤l": 723,
      "adt": 724,
      "ĠweiÃŁ": 725,
      "stell": 726,
      "Ġwen": 727,
      "samm": 728,
      "ange": 729,
      "ama": 730,
      "fer": 731,
      "Ġrein": 732,
      "Ġgleich": 733,
      "Ġ,": 734,
      "ingen": 735,
      "issen": 736,
      "ĠĠ": 737,
      "ine": 738,
      "dann": 739,
      "ler": 740,
      "iger": 741,
      "kann": 742,
      "Ġmon": 743,
      "Ġkein": 744,
      "Ã¼t": 745,
      "pt": 746,
      "Ġdamit": 747,
      "zt": 748,
      "Ġdrei": 749,
      "Ġhab": 750,
      "gr": 751,
      "Ġpol": 752,
      "Ġland": 753,
      "Ġanderen": 754,
      "Ġaut": 755,
      "vor": 756,
      "Ġdort": 757,
      "unden": 758,
      "Ġgl": 759,
      "Ġselbst": 760,
      "ess": 761,
      "ho": 762,
      "ĠfÃ¼": 763,
      "Ġspr": 764,
      "Ġzei": 765,
      "Ġhand": 766,
      "keit": 767,
      "esen": 768,
      "Ã¤hl": 769,
      "Ġverl": 770,
      "Ġdrau": 771,
      "Ġma": 772,
      "Ġ20": 773,
      "des": 774,
      "sammen": 775,
      "Ġmeine": 776,
      "Ġschne": 777,
      "tr": 778,
      "hin": 779,
      "hne": 780,
      "Ġmann": 781,
      "ĠmÃ¼ssen": 782,
      "Ġkinder": 783,
      "Ġsehen": 784,
      "Ġzusammen": 785,
      "wa": 786,
      "Ġnichts": 787,
      "Ġreg": 788,
      "Ġalso": 789,
      "ander": 790,
      "Ġbrau": 791,
      "Ġvom": 792,
      "Ġgerade": 793,
      "Ġsagt": 794,
      "Ġeur": 795,
      "llei": 796,
      "cher": 797,
      "Ġnun": 798,
      "Ġel": 799,
      "fall": 800,
      "Ġmar": 801,
      "Ġwasser": 802,
      "qu": 803,
      "Ġunser": 804,
      "dig": 805,
      "'s": 806,
      "agt": 807,
      "ma": 808,
      "Ġrecht": 809,
      "ord": 810,
      "lleicht": 811,
      "Ġro": 812,
      "Ġu": 813,
      "Ġwelt": 814,
      "Ġbest": 815,
      "Ġhal": 816,
      "Ġins": 817,
      "Ġir": 818,
      "ast": 819,
      "ald": 820,
      "ÃŁe": 821,
      "Ġhm": 822,
      "Ġfin": 823,
      "ĠzurÃ¼ck": 824,
      "att": 825,
      "pl": 826,
      "Ġhau": 827,
      "sse": 828,
      "Ġbist": 829,
      "Ã¶rt": 830,
      "Ġis": 831,
      "Ġdieser": 832,
      "ÃŁer": 833,
      "geb": 834,
      "Ġgemacht": 835,
      "zi": 836,
      "Ġklein": 837,
      "ĠhÃ¤t": 838,
      "sam": 839,
      "Ġwe": 840,
      "utter": 841,
      "von": 842,
      "ater": 843,
      "Ã¤d": 844,
      "Ġeines": 845,
      "wenn": 846,
      "Ġ3": 847,
      "fÃ¼": 848,
      "Ġeh": 849,
      "Ġeu": 850,
      "fach": 851,
      "Ġgehen": 852,
      "Ġteil": 853,
      "schie": 854,
      "erst": 855,
      "Ġihnen": 856,
      "Ġkrie": 857,
      "itte": 858,
      "Ġeinmal": 859,
      "Ġlang": 860,
      "orden": 861,
      "inn": 862,
      "Ġwohl": 863,
      "Ġbeg": 864,
      "Ġme": 865,
      "sche": 866,
      "Ġgenau": 867,
      "ĠÃ¶": 868,
      "ochen": 869,
      "Ġkur": 870,
      "Ġsagen": 871,
      "Ġtun": 872,
      "\".": 873,
      "zie": 874,
      "lle": 875,
      "land": 876,
      "doch": 877,
      "Ġwollte": 878,
      "Ġmer": 879,
      "upp": 880,
      "gesch": 881,
      "zei": 882,
      "Ġnein": 883,
      "Ġvers": 884,
      "tlich": 885,
      "det": 886,
      "Ġkommen": 887,
      "we": 888,
      "Ġbo": 889,
      "Ġlu": 890,
      "!\"": 891,
      "Ġna": 892,
      "Ġhoch": 893,
      "ekt": 894,
      "mlich": 895,
      "Ġwel": 896,
      "Ġstadt": 897,
      "Ġbeispiel": 898,
      "achte": 899,
      "beit": 900,
      "innen": 901,
      "Ġfre": 902,
      "Ġ19": 903,
      "zeit": 904,
      "Ġdein": 905,
      "iff": 906,
      "Ġmei": 907,
      "ers": 908,
      "uchen": 909,
      "str": 910,
      "orgen": 911,
      "fr": 912,
      "Ġkonnte": 913,
      "warum": 914,
      "Ġsol": 915,
      "anden": 916,
      "Ġraus": 917,
      "ckt": 918,
      "Ġhol": 919,
      "Ġdabei": 920,
      "ĠwÃ¼rde": 921,
      "glich": 922,
      "ĠfrÃ¼": 923,
      "Ġzie": 924,
      "zÃ¤hl": 925,
      "di": 926,
      "for": 927,
      "Ġdrauf": 928,
      "Ġvier": 929,
      "oh": 930,
      "cke": 931,
      "weg": 932,
      "fa": 933,
      "auch": 934,
      "Ġ--": 935,
      "Ġpr": 936,
      "net": 937,
      "itz": 938,
      "bahn": 939,
      "Ġpa": 940,
      "Ġzwischen": 941,
      "Ġverb": 942,
      "Ġru": 943,
      "rot": 944,
      "gar": 945,
      "mer": 946,
      "nicht": 947,
      "lo": 948,
      "immt": 949,
      "chs": 950,
      "Ġwollen": 951,
      "Ġeinfach": 952,
      "Ġstr": 953,
      "ce": 954,
      "Ġget": 955,
      "Ġjahren": 956,
      "man": 957,
      "Ġto": 958,
      "Ġeben": 959,
      "Ġsteht": 960,
      "Ġschnell": 961,
      "halb": 962,
      "ief": 963,
      "ache": 964,
      "hei": 965,
      "aum": 966,
      "itt": 967,
      "ĠÃ¤": 968,
      "ehn": 969,
      "ĠlÃ¤n": 970,
      "Ġetwa": 971,
      "Ġblei": 972,
      "Ġherr": 973,
      "Ġkleine": 974,
      "Ġstra": 975,
      "Ġirgend": 976,
      "unde": 977,
      "Ġbesch": 978,
      "gst": 979,
      "Ġseiner": 980,
      "schland": 981,
      "Ġglaube": 982,
      "ennt": 983,
      "www": 984,
      "aufen": 985,
      "Ġgest": 986,
      "tag": 987,
      "Ġbeim": 988,
      "noch": 989,
      "Ġkannst": 990,
      "iere": 991,
      "zeu": 992,
      "rÃ¼n": 993,
      "Ġgu": 994,
      "Ġfest": 995,
      "?\"": 996,
      "eter": 997,
      "ĠhÃ¶": 998,
      "Ġessen": 999,
      "Ġseit": 1000,
      "Ġwohn": 1001,
      "Ġtag": 1002,
      "Ġvielleicht": 1003,
      "Ġihren": 1004,
      "Ġverst": 1005,
      "Ġsieht": 1006,
      "Ã¼nf": 1007,
      "Ġfrei": 1008,
      "ionen": 1009,
      "Ġlange": 1010,
      "pr": 1011,
      "Ġwirk": 1012,
      "sst": 1013,
      "Ġhatten": 1014,
      "id": 1015,
      "Ġseinen": 1016,
      "Ġwurden": 1017,
      "Ġgab": 1018,
      "Ġohne": 1019,
      "Ġem": 1020,
      "ĠtÃ¼r": 1021,
      "ale": 1022,
      "Ġth": 1023,
      "ks": 1024,
      "Ġdazu": 1025,
      "ett": 1026,
      "Ġsondern": 1027,
      "ott": 1028,
      "gl": 1029,
      "Ġleute": 1030,
      "Ġpap": 1031,
      "Ġdeutschland": 1032,
      "Ġoben": 1033,
      "Ġdrin": 1034,
      "ĠwÃ¤re": 1035,
      "Ġange": 1036,
      "Ġhinter": 1037,
      "rechen": 1038,
      "Ġwissen": 1039,
      "Ġkleinen": 1040,
      "Ã¶t": 1041,
      "weil": 1042,
      "Ã¶ren": 1043,
      "Ġsit": 1044,
      "kr": 1045,
      "lin": 1046,
      "Ġaugen": 1047,
      "ennen": 1048,
      "ĠerzÃ¤hl": 1049,
      "yy": 1050,
      "ĠheiÃŁt": 1051,
      "Ġauto": 1052,
      "ĠhÃ¤tte": 1053,
      "Ġfor": 1054,
      "amen": 1055,
      "onder": 1056,
      "Ġsta": 1057,
      "kel": 1058,
      "asse": 1059,
      "unge": 1060,
      "Ġmama": 1061,
      "ichte": 1062,
      "Ġoft": 1063,
      "Ġstu": 1064,
      "Ġarbeit": 1065,
      "ĠkÃ¼": 1066,
      "reich": 1067,
      "aden": 1068,
      ".?": 1069,
      "Ġjahre": 1070,
      "llt": 1071,
      "Ġnat": 1072,
      "ĠfÃ¤hr": 1073,
      "bo": 1074,
      "Ã¤ter": 1075,
      "ucht": 1076,
      "halten": 1077,
      "ĠgroÃŁe": 1078,
      "Ġgeld": 1079,
      "Ã¤ch": 1080,
      "Ġschwer": 1081,
      "one": 1082,
      "ark": 1083,
      "dien": 1084,
      "Ġging": 1085,
      "bis": 1086,
      "nehmen": 1087,
      "oren": 1088,
      "ĠgrÃ¶": 1089,
      "Ġgern": 1090,
      "Ġlin": 1091,
      "Ġdiesem": 1092,
      "Ġor": 1093,
      "geben": 1094,
      "Ġsollte": 1095,
      "nis": 1096,
      "hst": 1097,
      "Ġant": 1098,
      "hol": 1099,
      "zent": 1100,
      "kte": 1101,
      "gangen": 1102,
      "ĠkÃ¶nnte": 1103,
      "Ġmutter": 1104,
      ",\"": 1105,
      "leo": 1106,
      "ierung": 1107,
      "Ġschu": 1108,
      "ere": 1109,
      "hau": 1110,
      "af": 1111,
      "Ġbesser": 1112,
      "wen": 1113,
      "will": 1114,
      "nach": 1115,
      "ĠgroÃŁen": 1116,
      "Ġzug": 1117,
      "Ġgesagt": 1118,
      "Ġkap": 1119,
      "Ġfahr": 1120,
      "Ġseinem": 1121,
      "fte": 1122,
      "Ġrichtig": 1123,
      "Ġlassen": 1124,
      "utz": 1125,
      "fahren": 1126,
      "Ġsicher": 1127,
      "gehen": 1128,
      "oder": 1129,
      "Ġnacht": 1130,
      "ĠdafÃ¼r": 1131,
      "Ġihrer": 1132,
      "Ġwirklich": 1133,
      "Ġka": 1134,
      "ingt": 1135,
      "Ġmin": 1136,
      "ic": 1137,
      "immer": 1138,
      "pa": 1139,
      "Ġtrau": 1140,
      "ĠmuÃŁ": 1141,
      "mus": 1142,
      "ian": 1143,
      "eten": 1144,
      "Ġeinz": 1145,
      "ĠfÃ¼nf": 1146,
      "utt": 1147,
      "ia": 1148,
      "Ġeigentlich": 1149,
      "Ġtra": 1150,
      "Ġarbei": 1151,
      "Ġkopf": 1152,
      "Ġallem": 1153,
      "Ġex": 1154,
      "vie": 1155,
      "Ġfahren": 1156,
      "Ġ4": 1157,
      "eht": 1158,
      "fol": 1159,
      "anken": 1160,
      "ffe": 1161,
      "ans": 1162,
      "Ġsah": 1163,
      "Ġham": 1164,
      "iss": 1165,
      "Ã¤lt": 1166,
      "hrend": 1167,
      "Ġaller": 1168,
      "essen": 1169,
      "Ġschrei": 1170,
      "ah": 1171,
      "Ġbund": 1172,
      "Ġbesonder": 1173,
      "Ġdarf": 1174,
      "Ġbisschen": 1175,
      "isten": 1176,
      "ĠgehÃ¶rt": 1177,
      "Ġgesehen": 1178,
      "Ġblau": 1179,
      "Ġbuch": 1180,
      "Ġwahr": 1181,
      "ĠhÃ¤n": 1182,
      "euer": 1183,
      "Ġkar": 1184,
      "ib": 1185,
      "Ġdavon": 1186,
      "bend": 1187,
      "amil": 1188,
      "Ġstehen": 1189,
      "Ã¶l": 1190,
      "als": 1191,
      "weise": 1192,
      "ktion": 1193,
      "einander": 1194,
      "Ġersten": 1195,
      "Ġpass": 1196,
      "Ġhe": 1197,
      "itÃ¤t": 1198,
      "Ġende": 1199,
      "Ġbild": 1200,
      "etzen": 1201,
      "ings": 1202,
      "Ġverk": 1203,
      "dlich": 1204,
      "Ġschn": 1205,
      "urt": 1206,
      "Ġju": 1207,
      "Ġlos": 1208,
      "Ġvoll": 1209,
      "Ġeurop": 1210,
      "chten": 1211,
      "Ġkurz": 1212,
      "Ġletz": 1213,
      "Ġpolit": 1214,
      "Ġerw": 1215,
      "schei": 1216,
      "Ġbeh": 1217,
      "Ġliegt": 1218,
      "Ġjem": 1219,
      "alen": 1220,
      "Ġdiesen": 1221,
      "haus": 1222,
      "halt": 1223,
      "Ġeins": 1224,
      "machen": 1225,
      "ichten": 1226,
      "Ġjunge": 1227,
      "Ġdieses": 1228,
      "Ġkind": 1229,
      "hast": 1230,
      "Ġqu": 1231,
      "Ġfreund": 1232,
      "ase": 1233,
      "ĠsÃ¼": 1234,
      "ogen": 1235,
      "Ġdeine": 1236,
      "spr": 1237,
      "ieÃŁ": 1238,
      "mals": 1239,
      "Ġschr": 1240,
      "ka": 1241,
      "nung": 1242,
      "Ġwillst": 1243,
      "fahr": 1244,
      "hÃ¤n": 1245,
      "Ġfil": 1246,
      "Ġschul": 1247,
      "nten": 1248,
      "000": 1249,
      "ker": 1250,
      "umen": 1251,
      "ften": 1252,
      "Ġgemein": 1253,
      "Ġganze": 1254,
      "Ġfast": 1255,
      "bur": 1256,
      "Ġwenig": 1257,
      "ats": 1258,
      "Ġgra": 1259,
      "ĠmÃ¤n": 1260,
      "pro": 1261,
      "Ġhel": 1262,
      "cker": 1263,
      "Ġmorgen": 1264,
      "Ġrunter": 1265,
      "Ġbeiden": 1266,
      "Ġart": 1267,
      "Ġmusst": 1268,
      "schw": 1269,
      "ĠspÃ¤ter": 1270,
      "Ġeuch": 1271,
      "Ġged": 1272,
      "Ġdran": 1273,
      "anke": 1274,
      "xe": 1275,
      "Ġpf": 1276,
      ",,": 1277,
      "Ġunten": 1278,
      "also": 1279,
      "Ġ5": 1280,
      "Ġneue": 1281,
      "Ġmill": 1282,
      "Ġstand": 1283,
      "gut": 1284,
      "Ġweit": 1285,
      "mann": 1286,
      "Ġbef": 1287,
      "Ġus": 1288,
      "Ã¤ft": 1289,
      "ertig": 1290,
      "eits": 1291,
      "Ġnochmal": 1292,
      "ĠlÃ¶": 1293,
      "zw": 1294,
      "ehl": 1295,
      "Ġsu": 1296,
      "igkeit": 1297,
      "Ã¤dchen": 1298,
      "Ġben": 1299,
      "Ã¤h": 1300,
      "gew": 1301,
      "schieden": 1302,
      "Ġspielen": 1303,
      "Ġhund": 1304,
      "Ġkat": 1305,
      "gem": 1306,
      "fel": 1307,
      "ommen": 1308,
      "Ġdenen": 1309,
      "Ġvater": 1310,
      "gte": 1311,
      "Ã¤nder": 1312,
      "Ã¤rt": 1313,
      "Ġfamil": 1314,
      "iegen": 1315,
      "Ġgucken": 1316,
      "Ġwichtig": 1317,
      "Ġbel": 1318,
      "ĠmÃ¶chte": 1319,
      "inge": 1320,
      "sel": 1321,
      "Ġfrauen": 1322,
      "stag": 1323,
      "Ġheraus": 1324,
      "hlen": 1325,
      "stand": 1326,
      "Ġfall": 1327,
      "ierte": 1328,
      "mama": 1329,
      "auer": 1330,
      "ive": 1331,
      "ĠkÃ¤": 1332,
      "....": 1333,
      "Ġgewesen": 1334,
      "tete": 1335,
      "Ġsollen": 1336,
      "Ġihrem": 1337,
      "Ġschwar": 1338,
      "Ġnehmen": 1339,
      "Ã¼rlich": 1340,
      "nahm": 1341,
      "app": 1342,
      "Ġku": 1343,
      "mp": 1344,
      "asst": 1345,
      "Ġkeinen": 1346,
      "rieben": 1347,
      "Ġpar": 1348,
      "ust": 1349,
      "Ġauss": 1350,
      "uten": 1351,
      "ĠmÃ¶glich": 1352,
      "asch": 1353,
      "Ġsonst": 1354,
      "Ġsogar": 1355,
      "ĠwÃ¤hrend": 1356,
      "si": 1357,
      "Ġinter": 1358,
      "Ġmeisten": 1359,
      "mei": 1360,
      "Ġbitte": 1361,
      "zlich": 1362,
      "Ġneben": 1363,
      "ko": 1364,
      "rat": 1365,
      "ehe": 1366,
      "lch": 1367,
      "Ġfort": 1368,
      "Ġnet": 1369,
      "Ġbi": 1370,
      "Ġkom": 1371,
      "Ġfol": 1372,
      "Ġkn": 1373,
      "Ġpaar": 1374,
      "itten": 1375,
      "stellen": 1376,
      "ph": 1377,
      "ipp": 1378,
      "Ġdo": 1379,
      "Ġbundes": 1380,
      "Ġklar": 1381,
      "Ġwerde": 1382,
      "ĠnÃ¤ch": 1383,
      "Ġdarauf": 1384,
      "mein": 1385,
      "ĠmÃ¤dchen": 1386,
      "Ġricht": 1387,
      "Ġvert": 1388,
      "Ġanf": 1389,
      "Ġeinige": 1390,
      "Ġ201": 1391,
      "Ġgesp": 1392,
      "ima": 1393,
      "ielt": 1394,
      "Ġalt": 1395,
      "Ġfinden": 1396,
      "ga": 1397,
      "Ġern": 1398,
      "Ġvielen": 1399,
      "Ġbede": 1400,
      "stellt": 1401,
      "ĠhÃ¤": 1402,
      "ift": 1403,
      "ĠkÃ¶nig": 1404,
      "krie": 1405,
      "ĠnÃ¤mlich": 1406,
      "mach": 1407,
      "son": 1408,
      "ĠflÃ¼": 1409,
      "Ġpart": 1410,
      "ult": 1411,
      "Ġbett": 1412,
      "Ġwelche": 1413,
      "zeug": 1414,
      "reis": 1415,
      "Ã¤ren": 1416,
      "hel": 1417,
      "olle": 1418,
      "ĠrÃ¼ck": 1419,
      "ball": 1420,
      "bau": 1421,
      "Ġtre": 1422,
      "bes": 1423,
      "achsen": 1424,
      "los": 1425,
      "Ġmeinen": 1426,
      "Ġmo": 1427,
      "inger": 1428,
      "Ġpoliz": 1429,
      "kon": 1430,
      "hat": 1431,
      "gegen": 1432,
      "Ġalten": 1433,
      "hof": 1434,
      "under": 1435,
      "uppe": 1436,
      "off": 1437,
      "ischer": 1438,
      "pu": 1439,
      "ina": 1440,
      "ĠstÃ¼ck": 1441,
      "stÃ¤n": 1442,
      "gang": 1443,
      "dent": 1444,
      "ĠfÃ¤hrt": 1445,
      "bisschen": 1446,
      "ziehen": 1447,
      "Ġabend": 1448,
      "Ġersch": 1449,
      "Ġoffen": 1450,
      "ock": 1451,
      "Ġwort": 1452,
      "Ġnamen": 1453,
      "form": 1454,
      "Ġschle": 1455,
      "Ġalte": 1456,
      "Ġjemand": 1457,
      "igt": 1458,
      "Ġmachst": 1459,
      "Ġgott": 1460,
      "del": 1461,
      "arbei": 1462,
      "chmal": 1463,
      "Ġleg": 1464,
      "Ġgerne": 1465,
      "Ġpers": 1466,
      "blem": 1467,
      "ak": 1468,
      "Ġgeben": 1469,
      "Ġwarum": 1470,
      "mar": 1471,
      "wohn": 1472,
      "fÃ¼hr": 1473,
      "Ġflug": 1474,
      "Ġchr": 1475,
      "wor": 1476,
      "urm": 1477,
      "Ġgrund": 1478,
      "hÃ¶r": 1479,
      "Ġprozent": 1480,
      "ĠhÃ¶r": 1481,
      "gessen": 1482,
      "ru": 1483,
      "ĠauÃŁer": 1484,
      "Ġur": 1485,
      "ĠgrÃ¼n": 1486,
      "Ġerkl": 1487,
      "Ġbil": 1488,
      "Ġ202": 1489,
      "dung": 1490,
      "Ġmag": 1491,
      "Ġat": 1492,
      "indet": 1493,
      "Ġfertig": 1494,
      "Ġmu": 1495,
      "Ġpapa": 1496,
      "Ġuhr": 1497,
      "ĠÃ¼": 1498,
      "Ġhil": 1499,
      "aul": 1500,
      "Ġzahl": 1501,
      "sk": 1502,
      "Ġdeshalb": 1503,
      "Ġbekann": 1504,
      "Ġmensch": 1505,
      "Ġrum": 1506,
      "vers": 1507,
      "Ġdis": 1508,
      "ĠbÃ¼r": 1509,
      "aby": 1510,
      "Ġschau": 1511,
      "zahl": 1512,
      "Ġverschieden": 1513,
      "ay": 1514,
      "oÃŁ": 1515,
      "Ġbald": 1516,
      "nee": 1517,
      "elle": 1518,
      "ĠfrÃ¼her": 1519,
      "Ġhause": 1520,
      "ĠhÃ¼": 1521,
      "bel": 1522,
      "get": 1523,
      "erik": 1524,
      "tschaft": 1525,
      "burg": 1526,
      "Ġdachte": 1527,
      "Ġpu": 1528,
      "Ġseite": 1529,
      "Ġausge": 1530,
      "Ġpo": 1531,
      "Ġmusste": 1532,
      "ĠfÃ¼hr": 1533,
      "Ġhaupt": 1534,
      "Ġstar": 1535,
      "Ġwin": 1536,
      "Ġrie": 1537,
      "kei": 1538,
      "scht": 1539,
      "haupt": 1540,
      "Ġallein": 1541,
      "eigen": 1542,
      "Ġanders": 1543,
      "alten": 1544,
      "Ġganzen": 1545,
      "blick": 1546,
      "Ġstimm": 1547,
      "kommt": 1548,
      "alle": 1549,
      "durch": 1550,
      "agte": 1551,
      "Ġkir": 1552,
      "achten": 1553,
      "ĠkÃ¶r": 1554,
      "ip": 1555,
      "Ġjeder": 1556,
      "ĠglÃ¼ck": 1557,
      "Ġerste": 1558,
      "wick": 1559,
      "rotz": 1560,
      "ragen": 1561,
      "ĠprÃ¤": 1562,
      "ĠlÃ¤": 1563,
      "Ġfar": 1564,
      "zwei": 1565,
      "isse": 1566,
      "ix": 1567,
      "Ġmeiner": 1568,
      "dar": 1569,
      "Ġrot": 1570,
      "Ġbleiben": 1571,
      "legen": 1572,
      "Ġherz": 1573,
      "Ġeuro": 1574,
      "gleich": 1575,
      "mÃ¶": 1576,
      "Ġproblem": 1577,
      "schn": 1578,
      "Ġrechts": 1579,
      "Ġluft": 1580,
      "ationen": 1581,
      "pfer": 1582,
      "Ġfilm": 1583,
      "wohl": 1584,
      "la": 1585,
      "Ġaufge": 1586,
      "ĠÃ¶ff": 1587,
      "Ġzimmer": 1588,
      "Ġboden": 1589,
      "sei": 1590,
      "Ġzwar": 1591,
      "inken": 1592,
      "kam": 1593,
      "zug": 1594,
      "Ġplatz": 1595,
      "ĠfuÃŁ": 1596,
      "Ġbesonders": 1597,
      "ack": 1598,
      "ĠnatÃ¼rlich": 1599,
      "je": 1600,
      "ellschaft": 1601,
      "if": 1602,
      "lie": 1603,
      "zig": 1604,
      "eint": 1605,
      "Ġgeschichte": 1606,
      "wand": 1607,
      "Ġmil": 1608,
      "Ġnor": 1609,
      "Ġmone": 1610,
      "ĠweiÃŁt": 1611,
      "Ġlag": 1612,
      "sy": 1613,
      "Ġvorbei": 1614,
      "etter": 1615,
      "bracht": 1616,
      "min": 1617,
      "Ġfen": 1618,
      "ausen": 1619,
      "orn": 1620,
      "Ġruss": 1621,
      "ĠdÃ¼r": 1622,
      "Ġlaut": 1623,
      "Ġung": 1624,
      "stadt": 1625,
      "ume": 1626,
      "Ġ6": 1627,
      "jÃ¤hr": 1628,
      "iker": 1629,
      "Ġpfl": 1630,
      "Ġnennt": 1631,
      "Ġmittel": 1632,
      "Ġangst": 1633,
      "Ġunsere": 1634,
      "ismus": 1635,
      "zer": 1636,
      "Ġwor": 1637,
      "Ġgenug": 1638,
      "Ġsy": 1639,
      "Ġjo": 1640,
      "Ġkaputt": 1641,
      "Ġmeinem": 1642,
      "falls": 1643,
      "chter": 1644,
      "recht": 1645,
      "Ġakt": 1646,
      "Ġstatt": 1647,
      "Ġneuen": 1648,
      "dam": 1649,
      "Ġpolizei": 1650,
      "umm": 1651,
      "Ġtro": 1652,
      "kra": 1653,
      "Ġrund": 1654,
      "soll": 1655,
      "Ġbereits": 1656,
      "fin": 1657,
      "yyy": 1658,
      "Ġweniger": 1659,
      "Ġfeuer": 1660,
      "bert": 1661,
      "Ġworden": 1662,
      "Ġberlin": 1663,
      "Ġmanchmal": 1664,
      "licher": 1665,
      "Ġtiere": 1666,
      "pfel": 1667,
      "Ġjungen": 1668,
      "schein": 1669,
      "Ġsechs": 1670,
      "annt": 1671,
      "Ġpfer": 1672,
      "Ġy": 1673,
      "Ġallen": 1674,
      "fallen": 1675,
      "Ġzehn": 1676,
      "eren": 1677,
      "Ã¤llt": 1678,
      "wel": 1679,
      "Ġnieder": 1680,
      "viel": 1681,
      "zz": 1682,
      "Ġkrieg": 1683,
      "Ġkont": 1684,
      "ame": 1685,
      "Ġschm": 1686,
      "Ġdan": 1687,
      "Ġgesicht": 1688,
      "gra": 1689,
      "teil": 1690,
      "ÃŁte": 1691,
      "wegen": 1692,
      "amp": 1693,
      "gan": 1694,
      "schr": 1695,
      "Ġober": 1696,
      "fern": 1697,
      "Ġkaum": 1698,
      "Ġwegen": 1699,
      "dings": 1700,
      "uren": 1701,
      "lung": 1702,
      "ĠgefÃ¼": 1703,
      "Ġthe": 1704,
      "ub": 1705,
      "ieÃŁen": 1706,
      "Ġlinks": 1707,
      "chn": 1708,
      "Ġfamilie": 1709,
      "Ġdeutschen": 1710,
      "Ġball": 1711,
      "auft": 1712,
      "Ġdaran": 1713,
      "Ġfern": 1714,
      "Ġsozi": 1715,
      "ĠkÃ¶rper": 1716,
      "Ġbaum": 1717,
      "Ġla": 1718,
      "nete": 1719,
      "Ġtraum": 1720,
      "gef": 1721,
      "ĠdarÃ¼ber": 1722,
      "Ġeltern": 1723,
      "Ġacht": 1724,
      "io": 1725,
      "Ġgeworden": 1726,
      "Ġdien": 1727,
      "mand": 1728,
      "Ġhinein": 1729,
      "Ġanderes": 1730,
      "hund": 1731,
      "Ġchrist": 1732,
      "Ġhinten": 1733,
      "--": 1734,
      "Ġlebens": 1735,
      "Ġtage": 1736,
      "ette": 1737,
      "Ġhalten": 1738,
      "sta": 1739,
      "Ġfe": 1740,
      "Ġjeden": 1741,
      "mittel": 1742,
      "Ġerde": 1743,
      "Ġbauen": 1744,
      "anzen": 1745,
      "nur": 1746,
      "Ġbahn": 1747,
      "wort": 1748,
      "Ġlieber": 1749,
      "Ġco": 1750,
      "ĠbÃ¼": 1751,
      "wÃ¼r": 1752,
      "ierten": 1753,
      "Ġgol": 1754,
      "druck": 1755,
      "tem": 1756,
      "Ġmillionen": 1757,
      "Ġverm": 1758,
      "Ġschwei": 1759,
      "ĠĠĠĠ": 1760,
      "Ġliegen": 1761,
      "Ġort": 1762,
      "Ġmache": 1763,
      "Ġ18": 1764,
      "hle": 1765,
      "Ġnich": 1766,
      "dest": 1767,
      "schau": 1768,
      "Ġstaat": 1769,
      "iges": 1770,
      "kun": 1771,
      "Ġwil": 1772,
      "asen": 1773,
      "Ġtrotz": 1774,
      "ĠÃ¤hn": 1775,
      "Ġschiff": 1776,
      "Ġdun": 1777,
      "Ġabge": 1778,
      "affen": 1779,
      "onen": 1780,
      "zogen": 1781,
      "Ġlau": 1782,
      "uppen": 1783,
      "Ġfenster": 1784,
      "Ġper": 1785,
      "Ġheim": 1786,
      "ĠmÃ¤nner": 1787,
      "Ġbaby": 1788,
      "Ġbekommen": 1789,
      "ĠgrÃ¼": 1790,
      "vielleicht": 1791,
      "Ġletzten": 1792,
      "ard": 1793,
      "stra": 1794,
      "ganz": 1795,
      "Ġbeide": 1796,
      "Ġschule": 1797,
      "ieb": 1798,
      "Ġtoll": 1799,
      "diese": 1800,
      "Ġbraucht": 1801,
      "amt": 1802,
      "Ġbar": 1803,
      "zeich": 1804,
      "Ġgek": 1805,
      "Ġide": 1806,
      "ition": 1807,
      "sehen": 1808,
      "reck": 1809,
      "Ġra": 1810,
      "ihr": 1811,
      "err": 1812,
      "Ġgei": 1813,
      "sag": 1814,
      "bild": 1815,
      "Ġbrauchen": 1816,
      "stem": 1817,
      "rad": 1818,
      "unkt": 1819,
      "Ġfragen": 1820,
      "Ġdamals": 1821,
      "Ġentwick": 1822,
      "ister": 1823,
      "Ġsolche": 1824,
      "geht": 1825,
      "Ġrief": 1826,
      "weiÃŁt": 1827,
      "ĠÃ¼berhaupt": 1828,
      "fort": 1829,
      "Ġblick": 1830,
      "Ġfrank": 1831,
      "Ġsprechen": 1832,
      "dd": 1833,
      "Ġfel": 1834,
      "Ġbetr": 1835,
      "Ġhalt": 1836,
      "iet": 1837,
      "Ġjedoch": 1838,
      "Ġnahm": 1839,
      "eile": 1840,
      "stens": 1841,
      "Ġgesellschaft": 1842,
      "ĠwÃ¼rden": 1843,
      "Ġlo": 1844,
      "Ġherum": 1845,
      "itter": 1846,
      "Ġleu": 1847,
      "leben": 1848,
      "Ġeher": 1849,
      "hil": 1850,
      "Ġfehl": 1851,
      "oten": 1852,
      "Ġziemlich": 1853,
      "Ġwald": 1854,
      "Ġerk": 1855,
      "Ġgute": 1856,
      "scher": 1857,
      "immel": 1858,
      "rÃ¼cke": 1859,
      "par": 1860,
      "Ġsachen": 1861,
      "Ġdarum": 1862,
      "rieb": 1863,
      "yp": 1864,
      "Ġarm": 1865,
      "ve": 1866,
      "ump": 1867,
      "Ġentschei": 1868,
      "Ġlust": 1869,
      "Ġdick": 1870,
      "Ġdi": 1871,
      "Ġtisch": 1872,
      "richt": 1873,
      "Ġeis": 1874,
      "haben": 1875,
      "end": 1876,
      "reg": 1877,
      "Ġbu": 1878,
      "Ġmaxe": 1879,
      "Ġpassiert": 1880,
      "Ġliebe": 1881,
      "Ġschwe": 1882,
      "ider": 1883,
      "Ġarbeiten": 1884,
      "Ġ7": 1885,
      "stein": 1886,
      "ium": 1887,
      "Ġfrage": 1888,
      "Ġzeigen": 1889,
      "Ġlicht": 1890,
      "ĠvÃ¶": 1891,
      "Ġdahin": 1892,
      "Ġfal": 1893,
      "Ġmeer": 1894,
      "zwischen": 1895,
      "oment": 1896,
      "genau": 1897,
      "Ã¼ss": 1898,
      "Ġmachte": 1899,
      "kten": 1900,
      "Ġwahl": 1901,
      "Ġintern": 1902,
      "nel": 1903,
      "eich": 1904,
      "buch": 1905,
      "ehm": 1906,
      "Ġhelfen": 1907,
      "willst": 1908,
      "hÃ¤": 1909,
      "elte": 1910,
      "Ġfrie": 1911,
      "olog": 1912,
      "dies": 1913,
      "Ġkrank": 1914,
      "ens": 1915,
      "Ġschien": 1916,
      "Ġtier": 1917,
      "Ġgekommen": 1918,
      ").": 1919,
      "Ġmusik": 1920,
      "kunft": 1921,
      "helm": 1922,
      "Ġjugend": 1923,
      "danke": 1924,
      "Ġdro": 1925,
      "Ġtut": 1926,
      "keiten": 1927,
      "eig": 1928,
      "Ġeuropa": 1929,
      "ĠtrÃ¤": 1930,
      "raum": 1931,
      "auber": 1932,
      "ller": 1933,
      "ernen": 1934,
      "Ã¶s": 1935,
      "Ġ200": 1936,
      "Ġalter": 1937,
      "kehr": 1938,
      "Ġfun": 1939,
      "utet": 1940,
      "stehen": 1941,
      "Ġholen": 1942,
      "sicht": 1943,
      "Ġbestimm": 1944,
      "Ġdinge": 1945,
      "hand": 1946,
      "kar": 1947,
      "Ġfreu": 1948,
      "az": 1949,
      "Ġeinge": 1950,
      "are": 1951,
      "Ġwunder": 1952,
      "uhr": 1953,
      "ue": 1954,
      "rom": 1955,
      "Ġrad": 1956,
      "digen": 1957,
      "Ġfragte": 1958,
      "egt": 1959,
      "Ã¶ff": 1960,
      "Ġsollten": 1961,
      "ĠstraÃŁe": 1962,
      "ĠhÃ¤us": 1963,
      "akt": 1964,
      "wieso": 1965,
      "eins": 1966,
      "werk": 1967,
      "chst": 1968,
      "ande": 1969,
      "genommen": 1970,
      "Ġhar": 1971,
      "ossen": 1972,
      "Ġglei": 1973,
      "ide": 1974,
      "ont": 1975,
      "Ġvorher": 1976,
      "Ġleicht": 1977,
      "kÃ¤": 1978,
      "Ġstell": 1979,
      "hundert": 1980,
      "do": 1981,
      "ate": 1982,
      "Ġcom": 1983,
      "Ġwochen": 1984,
      "Ã¶tzlich": 1985,
      "prÃ¤": 1986,
      "Ġbed": 1987,
      "Ġeisen": 1988,
      "Ġbringen": 1989,
      "Ġkleines": 1990,
      "Ġusa": 1991,
      "Ġkleiner": 1992,
      "Ġsetz": 1993,
      "Ġallerdings": 1994,
      "Ġflie": 1995,
      "Ġkin": 1996,
      "Ġ8": 1997,
      "Ġniemand": 1998,
      "ĠerzÃ¤hlt": 1999,
      "Ġunbe": 2000,
      "geh": 2001,
      "Ġfisch": 2002,
      "afen": 2003,
      "wann": 2004,
      "schul": 2005,
      "Ġtot": 2006,
      "Ġgefunden": 2007,
      "Ġsor": 2008,
      "berg": 2009,
      "co": 2010,
      "Ġstark": 2011,
      "Ġsehe": 2012,
      "Ġsitzen": 2013,
      "ĠhÃ¤tten": 2014,
      "ĠkÃ¼n": 2015,
      "schu": 2016,
      "Ġeigenen": 2017,
      "zum": 2018,
      "ieÃŁlich": 2019,
      "ren": 2020,
      "Ġster": 2021,
      "Ã¶hn": 2022,
      "bte": 2023,
      "Ġschei": 2024,
      "Ġwind": 2025,
      "wagen": 2026,
      "abt": 2027,
      "urn": 2028,
      "itzen": 2029,
      "Ġbeweg": 2030,
      "orf": 2031,
      "ches": 2032,
      "Ġfro": 2033,
      "Ġvol": 2034,
      "Ġzeigt": 2035,
      "bitte": 2036,
      "Ġbleibt": 2037,
      "Ġmund": 2038,
      "zehn": 2039,
      "asche": 2040,
      "fig": 2041,
      "lang": 2042,
      "alter": 2043,
      "lam": 2044,
      "alien": 2045,
      "Ġunternehmen": 2046,
      "griff": 2047,
      "anten": 2048,
      "voll": 2049,
      "Ġrau": 2050,
      "Ġfand": 2051,
      "folg": 2052,
      "ĠbÃ¼rger": 2053,
      "Ġsieben": 2054,
      "Ġkna": 2055,
      "lass": 2056,
      "Ġsprach": 2057,
      "ĠhÃ¶ren": 2058,
      "iÃŁ": 2059,
      "hÃ¶": 2060,
      "Ġprin": 2061,
      "Ġkamen": 2062,
      "Ġklei": 2063,
      "Ġarme": 2064,
      "ille": 2065,
      "etten": 2066,
      "Ġsal": 2067,
      "test": 2068,
      "ĠplÃ¶tzlich": 2069,
      "Ġnu": 2070,
      "Ġoma": 2071,
      "Ġnachher": 2072,
      "ĠÃ¤r": 2073,
      "Ġlehr": 2074,
      "ultur": 2075,
      "Ġkenn": 2076,
      "Ġthem": 2077,
      "oss": 2078,
      "Ġjung": 2079,
      "Ġstellen": 2080,
      "Ġberu": 2081,
      "atten": 2082,
      "ĠgrÃ¶ÃŁer": 2083,
      "reifen": 2084,
      "ĠkÃ¶nnten": 2085,
      "glie": 2086,
      "Ġfindet": 2087,
      "erstin": 2088,
      "Ġwagen": 2089,
      "Ġschwier": 2090,
      "nun": 2091,
      "Ġnation": 2092,
      "Ġanfang": 2093,
      "ĠnÃ¤chsten": 2094,
      "allen": 2095,
      "ĠbÃ¤": 2096,
      "Ġwollten": 2097,
      "ĠrÃ¤": 2098,
      "geln": 2099,
      "sa": 2100,
      "Ġschlecht": 2101,
      "Ġbilder": 2102,
      "zimmer": 2103,
      "Ġbem": 2104,
      "haft": 2105,
      "ven": 2106,
      "ond": 2107,
      "Ġvergangen": 2108,
      "Ġhalb": 2109,
      "Ġberg": 2110,
      "Ġdeinen": 2111,
      "Ġregierung": 2112,
      "inen": 2113,
      "Ġdeutsche": 2114,
      "Ġkonnten": 2115,
      "Ġwirtschaft": 2116,
      "ichtet": 2117,
      "Ġkra": 2118,
      "utzen": 2119,
      "Ġbew": 2120,
      "reiben": 2121,
      "ys": 2122,
      "llig": 2123,
      "Ġhinaus": 2124,
      "Ġhabt": 2125,
      "ganis": 2126,
      "Ġon": 2127,
      "Ġvo": 2128,
      "ala": 2129,
      "esse": 2130,
      "ordnung": 2131,
      "sident": 2132,
      "stern": 2133,
      "reichen": 2134,
      "Ġschick": 2135,
      "Ġpartei": 2136,
      "ativ": 2137,
      "Ġkas": 2138,
      "Ġton": 2139,
      "Ġmalen": 2140,
      "Ġsuchen": 2141,
      "Ġsofort": 2142,
      "hÃ¤lt": 2143,
      "inner": 2144,
      "Ã¤uft": 2145,
      "ĠtÃ¶": 2146,
      "trag": 2147,
      "Ã¤chlich": 2148,
      "ĠlÃ¤sst": 2149,
      "lossen": 2150,
      "Ġraum": 2151,
      "Ġmanche": 2152,
      "Ġ15": 2153,
      "Ġsonne": 2154,
      "Ġmitt": 2155,
      "Ġszen": 2156,
      "annte": 2157,
      "Ġerd": 2158,
      "dete": 2159,
      "Ġuni": 2160,
      "setz": 2161,
      "Ġbus": 2162,
      "Ġverg": 2163,
      "Ġamerik": 2164,
      "pap": 2165,
      "Ġsitzt": 2166,
      "uer": 2167,
      "itze": 2168,
      "zus": 2169,
      "sind": 2170,
      "Ġehr": 2171,
      "ĠlieÃŁ": 2172,
      "auto": 2173,
      "mpf": 2174,
      "grund": 2175,
      "Ġerstmal": 2176,
      "Ġzweiten": 2177,
      "laub": 2178,
      "kannst": 2179,
      "Ġprodu": 2180,
      "Ġschreiben": 2181,
      "pol": 2182,
      "gie": 2183,
      "ĠgefÃ¤hr": 2184,
      "setzen": 2185,
      "Ġvorne": 2186,
      "mo": 2187,
      "ieg": 2188,
      "Ġfein": 2189,
      "Ġstein": 2190,
      "zess": 2191,
      "Ġform": 2192,
      "Ġtrinken": 2193,
      "Ġmoment": 2194,
      "ÃŁig": 2195,
      "helmine": 2196,
      "Ġhimmel": 2197,
      "oche": 2198,
      "Ġseien": 2199,
      "lichkeit": 2200,
      "ĠhÃ¤u": 2201,
      "ute": 2202,
      "iele": 2203,
      "nahme": 2204,
      "welt": 2205,
      "Ã©": 2206,
      "unst": 2207,
      "wÃ¤rt": 2208,
      "Ã¤ng": 2209,
      "Ġreden": 2210,
      "Ġandern": 2211,
      "warte": 2212,
      "aschen": 2213,
      "Ġfranz": 2214,
      "platz": 2215,
      "Ġplan": 2216,
      "Ġstimmt": 2217,
      "Ġsommer": 2218,
      "Ġholz": 2219,
      "Ġnot": 2220,
      "Ġkor": 2221,
      "zieh": 2222,
      "Ġgehabt": 2223,
      "ktor": 2224,
      "Ġstelle": 2225,
      "Ġeng": 2226,
      "schaften": 2227,
      "Ġmr": 2228,
      "bringen": 2229,
      "mÃ¤": 2230,
      "Ġkrit": 2231,
      "Ġmeist": 2232,
      "Ġnord": 2233,
      "icher": 2234,
      "jahr": 2235,
      "mone": 2236,
      "nt": 2237,
      "Ġzun": 2238,
      "vier": 2239,
      "Ġfot": 2240,
      "Ġgemeinsam": 2241,
      "ĠauÃŁerdem": 2242,
      "Ã¤tz": 2243,
      "Ġbur": 2244,
      "Ġlangen": 2245,
      "ausend": 2246,
      "Ġlaufen": 2247,
      "Ġvergessen": 2248,
      "liches": 2249,
      "mhm": 2250,
      "lassen": 2251,
      "ppe": 2252,
      "prochen": 2253,
      "Ġit": 2254,
      "Ġderen": 2255,
      "Ġdach": 2256,
      "len": 2257,
      "Ġdenken": 2258,
      "Ġsen": 2259,
      "Ġwand": 2260,
      "Ġgren": 2261,
      "Ġmitte": 2262,
      "Ġsee": 2263,
      "Ġwohnung": 2264,
      "Ġ9": 2265,
      "Ġgil": 2266,
      "Ġstamm": 2267,
      "ika": 2268,
      "Ġneun": 2269,
      "Ġlangsam": 2270,
      "Ġbedeutet": 2271,
      "li": 2272,
      "stellung": 2273,
      "fÃ¤": 2274,
      "heute": 2275,
      "ÃŁchen": 2276,
      "lagen": 2277,
      "ieben": 2278,
      "dass": 2279,
      "wasser": 2280,
      "uchte": 2281,
      "Ġwol": 2282,
      "Ġpasst": 2283,
      "Ġtor": 2284,
      "Ġunterschie": 2285,
      "Ġverein": 2286,
      "ĠstraÃŁen": 2287,
      "seit": 2288,
      "ele": 2289,
      "Ġmet": 2290,
      "ĠhÃ¤lt": 2291,
      "inden": 2292,
      "heiten": 2293,
      "ĠschÃ¼t": 2294,
      "Ġendlich": 2295,
      "isches": 2296,
      "Ġmeinst": 2297,
      "Ġlieb": 2298,
      "Ġgeburt": 2299,
      "Ġempf": 2300,
      "ĠÃ¼br": 2301,
      "Ġkennen": 2302,
      "Ġnatur": 2303,
      "pfen": 2304,
      "alles": 2305,
      "ow": 2306,
      "Ġblauen": 2307,
      "Ġbekannt": 2308,
      "gro": 2309,
      "Ġeinzel": 2310,
      "frau": 2311,
      "erin": 2312,
      "Ġmehrere": 2313,
      "Ġweitere": 2314,
      "Ġmark": 2315,
      "Ġrom": 2316,
      "Ġblut": 2317,
      "ĠgehÃ¶ren": 2318,
      "Ġschlafen": 2319,
      "rÃ¼cken": 2320,
      "wehr": 2321,
      "Ġbra": 2322,
      "Ġgehe": 2323,
      "gucken": 2324,
      "Ġhu": 2325,
      "Ġnormal": 2326,
      "ĠschÃ¶ne": 2327,
      "ry": 2328,
      "Ġerf": 2329,
      "heim": 2330,
      "......": 2331,
      "hnen": 2332,
      "els": 2333,
      "Ġverschw": 2334,
      "Ġlok": 2335,
      "Ġprof": 2336,
      "Ġziehen": 2337,
      "Ġtele": 2338,
      "Ġwinter": 2339,
      "ĠdrauÃŁen": 2340,
      "Ġlandes": 2341,
      "Ġstunden": 2342,
      "Ġgeschrieben": 2343,
      "Ġminuten": 2344,
      "Ġfunktion": 2345,
      "ĠschlieÃŁlich": 2346,
      "echt": 2347,
      "Ġweihn": 2348,
      "schÃ¶n": 2349,
      "Ġgesetz": 2350,
      "hall": 2351,
      "ĠmÃ¤nn": 2352,
      "fon": 2353,
      "lage": 2354,
      "Ã¤ndern": 2355,
      "Ġinteress": 2356,
      "hig": 2357,
      "Ġverloren": 2358,
      "eilen": 2359,
      "mÃ¼": 2360,
      "stÃ¼t": 2361,
      "Ġname": 2362,
      "Ġgewalt": 2363,
      "Ġspricht": 2364,
      "Ġdarin": 2365,
      "Ġdessen": 2366,
      "Ġtrotzdem": 2367,
      "Ġkan": 2368,
      "uder": 2369,
      "Ġdaher": 2370,
      "ftig": 2371,
      "ĠkrÃ¤": 2372,
      "weiÃŁ": 2373,
      "Ġentde": 2374,
      "Ġverschiedene": 2375,
      "roffen": 2376,
      "ĠmuÃŁte": 2377,
      "Ġerfolg": 2378,
      "utzt": 2379,
      "Ġsport": 2380,
      "Ġglauben": 2381,
      "Ã¼ssel": 2382,
      "meine": 2383,
      "Ġwarte": 2384,
      "Ġkunst": 2385,
      "Ġsil": 2386,
      "ĠdÃ¼rfen": 2387,
      "Ġsache": 2388,
      "ogra": 2389,
      "nisse": 2390,
      "Ġtunnel": 2391,
      "grÃ¼n": 2392,
      "Ġregen": 2393,
      "kÃ¶n": 2394,
      "oo": 2395,
      "Ġbesten": 2396,
      "ĠkÃ¶nne": 2397,
      "Ġantwor": 2398,
      "sterreich": 2399,
      "ieten": 2400,
      "Ġsohn": 2401,
      "Ġfolgen": 2402,
      "Ġsprache": 2403,
      "schon": 2404,
      "ĠrÃ¶": 2405,
      "wohner": 2406,
      "zte": 2407,
      "Ġdirekt": 2408,
      "ĠbÃ¶": 2409,
      "aun": 2410,
      "stÃ¼ck": 2411,
      "deut": 2412,
      "Ġyyy": 2413,
      "Ġlesen": 2414,
      "Ġwert": 2415,
      "Ġbegann": 2416,
      "Ġreich": 2417,
      "ĠeuropÃ¤": 2418,
      "dert": 2419,
      "Ġser": 2420,
      "Ġkasper": 2421,
      "ĠlÃ¤ndern": 2422,
      "ĠgroÃŁer": 2423,
      "Ġroten": 2424,
      "Ġdau": 2425,
      "ĠberÃ¼": 2426,
      "alis": 2427,
      "ĠstÃ¤d": 2428,
      "Ġgilt": 2429,
      "ĠmÃ¼n": 2430,
      "Ġwa": 2431,
      "Ġtat": 2432,
      "Ġentst": 2433,
      "ĠlÃ¤nger": 2434,
      "Ġand": 2435,
      "gramm": 2436,
      "ĠÃ¤l": 2437,
      "okrat": 2438,
      "Ġaugenblick": 2439,
      "rig": 2440,
      "Ġcar": 2441,
      "Ġselber": 2442,
      "orin": 2443,
      "Ġirgendwie": 2444,
      "seite": 2445,
      "meister": 2446,
      "ĠÃ¼berle": 2447,
      "ĠwÃ¼": 2448,
      "igung": 2449,
      "einer": 2450,
      "Ġgegeben": 2451,
      "Ġsiehst": 2452,
      "Ġstill": 2453,
      "Ġschlimm": 2454,
      "Ġbesuch": 2455,
      "Ġangeb": 2456,
      "Ġdeinem": 2457,
      "Ġkatze": 2458,
      "esser": 2459,
      "Ġkaufen": 2460,
      "arbeit": 2461,
      "Ġpat": 2462,
      "alitÃ¤t": 2463,
      "ins": 2464,
      "ĠÃ¶ffent": 2465,
      "hi": 2466,
      "Ġwarten": 2467,
      "gi": 2468,
      "Ġgener": 2469,
      "Ġpferd": 2470,
      "ami": 2471,
      "Ġrel": 2472,
      "scheinlich": 2473,
      "),": 2474,
      "Ġta": 2475,
      "ĠbiÃŁchen": 2476,
      "ckte": 2477,
      "viele": 2478,
      "Ġgold": 2479,
      "Ã¤cht": 2480,
      "ickt": 2481,
      "Ġweiss": 2482,
      "aner": 2483,
      "Ġschwarz": 2484,
      "Ġdon": 2485,
      "Ġversch": 2486,
      "weit": 2487,
      "gaben": 2488,
      "atsÃ¤chlich": 2489,
      "Ġfinger": 2490,
      "Ġtief": 2491,
      "kur": 2492,
      "Ġfliegen": 2493,
      "stu": 2494,
      "Ġzer": 2495,
      "ehme": 2496,
      "ov": 2497,
      "sollen": 2498,
      "Ġleid": 2499,
      "Ã¤chst": 2500,
      "Ġletzte": 2501,
      "krieg": 2502,
      "ĠgroÃŁes": 2503,
      "Ġsowie": 2504,
      "siehst": 2505,
      "Ġwoche": 2506,
      "ĠbrÃ¼cke": 2507,
      "Ġfei": 2508,
      "Ġbruder": 2509,
      "Ġsuper": 2510,
      "Ġkirche": 2511,
      "wollen": 2512,
      "Ġgehei": 2513,
      "Ġeisenbahn": 2514,
      "jÃ¤hrige": 2515,
      "ĠbrÃ¼": 2516,
      "blik": 2517,
      "Ġtau": 2518,
      "Ġkranken": 2519,
      "ĠhÃ¶rte": 2520,
      "jekt": 2521,
      "pen": 2522,
      "Ġnase": 2523,
      "pass": 2524,
      "iner": 2525,
      "Ġsand": 2526,
      "Ġzent": 2527,
      "Ġangel": 2528,
      "Ġnix": 2529,
      "Ġstimme": 2530,
      "ĠschÃ¼": 2531,
      "Ġflugzeug": 2532,
      "Ġverw": 2533,
      "gestellt": 2534,
      "ante": 2535,
      "Ġbestimmt": 2536,
      "ĠwÃ¤r": 2537,
      "Ġengl": 2538,
      "itel": 2539,
      "ĠgeschÃ¤ft": 2540,
      "Ġukra": 2541,
      "Ġdanach": 2542,
      "Ġ0": 2543,
      "Ġerle": 2544,
      "zeitig": 2545,
      "ĠfÃ¤llt": 2546,
      "ĠunterstÃ¼t": 2547,
      "fs": 2548,
      "Ġbill": 2549,
      "Ġbevor": 2550,
      "Ġdank": 2551,
      "Ġjedes": 2552,
      "puter": 2553,
      "Ġkalt": 2554,
      "Ġgestern": 2555,
      "tra": 2556,
      "Ġfrem": 2557,
      "Ġgarten": 2558,
      "Ġfiel": 2559,
      "sprechen": 2560,
      "bist": 2561,
      "Ġentfern": 2562,
      "ĠÃ¼berall": 2563,
      "pe": 2564,
      "Ġhung": 2565,
      "Ġbezahl": 2566,
      "Ġwus": 2567,
      "Ġjen": 2568,
      "Ġrest": 2569,
      "garten": 2570,
      "hallo": 2571,
      "Ġtragen": 2572,
      "Ġtom": 2573,
      "gucke": 2574,
      "Ġdeutlich": 2575,
      "Ġfinde": 2576,
      "Ġdadurch": 2577,
      "Ġtod": 2578,
      "Ġidee": 2579,
      "ĠerzÃ¤hlen": 2580,
      "Ã¶lker": 2581,
      "Ġak": 2582,
      "ĠhÃ¤nde": 2583,
      "Ã¤tze": 2584,
      "ĠfrÃ¼h": 2585,
      "Ġerwar": 2586,
      "ts": 2587,
      "Ġspielt": 2588,
      "sichtig": 2589,
      "Ġgefa": 2590,
      "anischen": 2591,
      "Ġtex": 2592,
      "damit": 2593,
      "Ġguten": 2594,
      "Ġpolitik": 2595,
      "Ġstre": 2596,
      "Ġregel": 2597,
      "band": 2598,
      "macht": 2599,
      "Ġautos": 2600,
      "wÃ¤rts": 2601,
      "atur": 2602,
      "Ġres": 2603,
      "Ġkomme": 2604,
      "digt": 2605,
      "sol": 2606,
      "Ġker": 2607,
      "Ġwissenschaft": 2608,
      "Ġsim": 2609,
      "Ġhielt": 2610,
      "Ġpeter": 2611,
      "licht": 2612,
      "Ġmond": 2613,
      "gung": 2614,
      "ober": 2615,
      "Ġkil": 2616,
      "onnen": 2617,
      "Ġrolle": 2618,
      "ochter": 2619,
      "Ġhilfe": 2620,
      "Ġszene": 2621,
      "Ġordnung": 2622,
      "Ġverwen": 2623,
      "th": 2624,
      "Ġgell": 2625,
      "ise": 2626,
      "Ġph": 2627,
      "Ġgegangen": 2628,
      "Ġwest": 2629,
      "drei": 2630,
      "Ġreise": 2631,
      "Ġglas": 2632,
      "Ġinform": 2633,
      "ĠgesprÃ¤": 2634,
      "Ġkriegt": 2635,
      "schlag": 2636,
      "Ġsex": 2637,
      "bung": 2638,
      "Ġmaus": 2639,
      "egen": 2640,
      "ĠrÃ¼": 2641,
      "Ġebenfalls": 2642,
      "Ġeigene": 2643,
      "aÃŁ": 2644,
      "Ġweh": 2645,
      "Ġarbeits": 2646,
      "Ġener": 2647,
      "Ġirgendwo": 2648,
      "ĠlÃ¤uft": 2649,
      "Ġbrauche": 2650,
      "Ġgesund": 2651,
      "ling": 2652,
      "ons": 2653,
      "Ġwirst": 2654,
      "Ã¤ude": 2655,
      "satz": 2656,
      "gÃ¤n": 2657,
      "nochmal": 2658,
      "ĠgefÃ¼hl": 2659,
      "eiden": 2660,
      "ĠfÃ¼hl": 2661,
      "Ġrichtung": 2662,
      "steigen": 2663,
      "Ġmot": 2664,
      "Ġerinner": 2665,
      "Ġgebaut": 2666,
      "atte": 2667,
      "Ġzukunft": 2668,
      "ĠstÃ¤r": 2669,
      "eller": 2670,
      "Ġsage": 2671,
      "darf": 2672,
      "Ġemme": 2673,
      "hab": 2674,
      "vo": 2675,
      "Ġneues": 2676,
      "ende": 2677,
      "Ġspe": 2678,
      "Ġbrie": 2679,
      "Ġnimmt": 2680,
      "Ġschwierig": 2681,
      "ĠÃ¶sterreich": 2682,
      "Ġbrot": 2683,
      "abel": 2684,
      "hu": 2685,
      "Ġzuerst": 2686,
      "Ġrussland": 2687,
      "Ġstrom": 2688,
      "see": 2689,
      "heits": 2690,
      "stelle": 2691,
      "sweise": 2692,
      "zung": 2693,
      "ial": 2694,
      "Ġwider": 2695,
      "gesetzt": 2696,
      "reise": 2697,
      "Ġlernen": 2698,
      "leisch": 2699,
      "frie": 2700,
      "wÃ¤": 2701,
      "Ġfarbe": 2702,
      "mon": 2703,
      "anzig": 2704,
      "Ġfuhr": 2705,
      "ĠmÃ¼s": 2706,
      "Ġernst": 2707,
      "mehr": 2708,
      "ĠwÃ¼n": 2709,
      "Ġpaul": 2710,
      "Ġbauch": 2711,
      "Ġpflanzen": 2712,
      "Ġbeginn": 2713,
      "Ġlegen": 2714,
      "Ġwild": 2715,
      "Ġbein": 2716,
      "Ã¶pf": 2717,
      "Ġmel": 2718,
      "Ġverste": 2719,
      "Ġgrie": 2720,
      "Ġseiten": 2721,
      "Ġsam": 2722,
      "Ġtreffen": 2723,
      "Ġwal": 2724,
      "ĠmÃ¤r": 2725,
      "Ġkultur": 2726,
      "Ġunserer": 2727,
      "Ġfinanz": 2728,
      "Ġtechn": 2729,
      "Ġmitglie": 2730,
      "Ġgetan": 2731,
      "fil": 2732,
      "welche": 2733,
      "Ġ30": 2734,
      "Ġzahlen": 2735,
      "nahmen": 2736,
      "Ġmeter": 2737,
      "lein": 2738,
      "Ġdenke": 2739,
      "eilt": 2740,
      "Ġapfel": 2741,
      "anc": 2742,
      "Ġerinn": 2743,
      "Ġgefahren": 2744,
      "Ġ10": 2745,
      "Ġcomputer": 2746,
      "Ġdaten": 2747,
      "stimm": 2748,
      "ink": 2749,
      "uchs": 2750,
      "Ã¤ndert": 2751,
      "ĠÃ¤hnlich": 2752,
      "papa": 2753,
      "stet": 2754,
      "ppen": 2755,
      "bet": 2756,
      "Ġehe": 2757,
      "sonst": 2758,
      "keine": 2759,
      "rÃ¼ckt": 2760,
      "Ġkuh": 2761,
      "Ġhundert": 2762,
      "ĠhÃ¤user": 2763,
      "Ġumge": 2764,
      "Ġscheint": 2765,
      "ane": 2766,
      "Ġtie": 2767,
      "ĠheiÃŁ": 2768,
      "ĠsÃ¤": 2769,
      "ice": 2770,
      "Ġverd": 2771,
      "Ġorganis": 2772,
      "wahl": 2773,
      "egal": 2774,
      "ĠfuÃŁball": 2775,
      "Ġwann": 2776,
      "sto": 2777,
      "Ġvogel": 2778,
      "Ġsetzen": 2779,
      "Ġmax": 2780,
      "Ġsogen": 2781,
      "sser": 2782,
      "aren": 2783,
      "Ġinner": 2784,
      "Ġdunkel": 2785,
      "mt": 2786,
      "zentr": 2787,
      "ĠlÃ¤nder": 2788,
      "ffer": 2789,
      "Ġdur": 2790,
      "fra": 2791,
      "ĠjÃ¼n": 2792,
      "Ġhoff": 2793,
      "Ġlass": 2794,
      "Ġinsel": 2795,
      "Ġgedanken": 2796,
      "gemacht": 2797,
      "Ġziel": 2798,
      "ĠbeschÃ¤ft": 2799,
      "ernt": 2800,
      "Ġbringt": 2801,
      "Ġblumen": 2802,
      "hÃ¤ng": 2803,
      "letzt": 2804,
      "ĠnÃ¤he": 2805,
      "minister": 2806,
      "Ġkasperle": 2807,
      "ument": 2808,
      "Ġsonnen": 2809,
      "ĠgegenÃ¼ber": 2810,
      "bten": 2811,
      "Ġmilch": 2812,
      "ĠkÃ¼nst": 2813,
      "Ġschwimm": 2814,
      "Ġsorgen": 2815,
      "od": 2816,
      "Ġitalien": 2817,
      "Ġnachdem": 2818,
      "ÃŁten": 2819,
      "Ġrote": 2820,
      "hrt": 2821,
      "Ġanderem": 2822,
      "Ġverlassen": 2823,
      "gib": 2824,
      "tun": 2825,
      "anische": 2826,
      "Ġbemer": 2827,
      "Ġgedacht": 2828,
      "Ġgegessen": 2829,
      "Ġhervor": 2830,
      "geg": 2831,
      "Ġseines": 2832,
      "daten": 2833,
      "Ġbauern": 2834,
      "Ġweise": 2835,
      "Ġtages": 2836,
      "fre": 2837,
      "ies": 2838,
      "orben": 2839,
      "Ġkindern": 2840,
      "frei": 2841,
      "muss": 2842,
      "Ġheil": 2843,
      "Ġalleine": 2844,
      "Ġchar": 2845,
      "Ġschnee": 2846,
      "punkt": 2847,
      "zur": 2848,
      "Ġverstehen": 2849,
      "mel": 2850,
      "uar": 2851,
      "Ġeier": 2852,
      "Ġpriv": 2853,
      "ĠsÃ¼d": 2854,
      "far": 2855,
      "Ġsamm": 2856,
      "Ġkuchen": 2857,
      "lauf": 2858,
      "usst": 2859,
      "Ġblieb": 2860,
      "zeichnet": 2861,
      "ed": 2862,
      "holen": 2863,
      "ellen": 2864,
      "Ġzweite": 2865,
      "Ġjede": 2866,
      "Ġschweiz": 2867,
      "Ġfrankreich": 2868,
      "Ġverwand": 2869,
      "Ġperson": 2870,
      "ĠfÃ¼hren": 2871,
      "Ġ199": 2872,
      "Ġsinn": 2873,
      "Ġlebt": 2874,
      "âĢĿ": 2875,
      "feld": 2876,
      "iste": 2877,
      "Ã¤nde": 2878,
      "Ã¤ngt": 2879,
      "les": 2880,
      "Ġach": 2881,
      "kÃ¼": 2882,
      "annten": 2883,
      "Ġobwohl": 2884,
      "bin": 2885,
      "Ã¤che": 2886,
      "Ġafr": 2887,
      "ĠgÃ¤": 2888,
      "up": 2889,
      "damm": 2890,
      "Ġbisher": 2891,
      "meckt": 2892,
      "Ġelekt": 2893,
      "Ġthema": 2894,
      "Ġdagegen": 2895,
      "brau": 2896,
      "Ġecht": 2897,
      "Ġsk": 2898,
      "Ġkosten": 2899,
      "sein": 2900,
      "Ġvergangenen": 2901,
      "Ġhaut": 2902,
      "ĠgehÃ¶r": 2903,
      "Ġwilhelmine": 2904,
      "Ġschlaf": 2905,
      "ĠfÃ¤": 2906,
      "maxe": 2907,
      "Ġmedien": 2908,
      "Ġsozial": 2909,
      "chi": 2910,
      "Ġeinigen": 2911,
      "Ġgefr": 2912,
      "ĠnÃ¤chste": 2913,
      "denten": 2914,
      "Ġstunde": 2915,
      "isst": 2916,
      "Ġlhr": 2917,
      "Ġ16": 2918,
      "Ġarmen": 2919,
      "jo": 2920,
      "gabe": 2921,
      "Ġkontro": 2922,
      "wegs": 2923,
      "Ġverkehr": 2924,
      "Ġweib": 2925,
      "Ġgefallen": 2926,
      "Ġnetz": 2927,
      "Ġnehme": 2928,
      "Ġtochter": 2929,
      "Ġdeiner": 2930,
      "Ġheut": 2931,
      "Ġsto": 2932,
      "Ġwach": 2933,
      "Ġwusste": 2934,
      "ĠhÃ¶her": 2935,
      "Ġbraun": 2936,
      "Ġfreunde": 2937,
      "Ġgenommen": 2938,
      "Ġgruppe": 2939,
      "Ġreicht": 2940,
      "eben": 2941,
      "ddy": 2942,
      "iffen": 2943,
      "richten": 2944,
      "Ġsan": 2945,
      "ĠwuÃŁ": 2946,
      "Ġkauf": 2947,
      "Ġselten": 2948,
      "Ġbahnhof": 2949,
      "Ġmiss": 2950,
      "Ġsetzte": 2951,
      "Ġpapier": 2952,
      "Ġad": 2953,
      "Ġ17": 2954,
      "Ġsonn": 2955,
      "Ġfamilien": 2956,
      "Ġpos": 2957,
      "Ġsau": 2958,
      "Ġfehlt": 2959,
      "lex": 2960,
      "Ġkraft": 2961,
      "gefÃ¤hr": 2962,
      "ĠtatsÃ¤chlich": 2963,
      "Ġkriegen": 2964,
      "wert": 2965,
      "blei": 2966,
      "Ġdaraus": 2967,
      "Ġkerstin": 2968,
      "ĠrÃ¼cken": 2969,
      "ager": 2970,
      "Ġkreu": 2971,
      "Ġschreibt": 2972,
      "bauen": 2973,
      "Ġkennt": 2974,
      "ffee": 2975,
      "piel": 2976,
      "Ġmed": 2977,
      "Ġpra": 2978,
      "Ġgebracht": 2979,
      "arbeiter": 2980,
      "Ġzog": 2981,
      "Ġkeiner": 2982,
      "stit": 2983,
      "ĠÃ¤h": 2984,
      "uche": 2985,
      "enden": 2986,
      "gegangen": 2987,
      "mittag": 2988,
      "straÃŁe": 2989,
      "Ġkal": 2990,
      "lament": 2991,
      "Ġverf": 2992,
      "ienen": 2993,
      "markt": 2994,
      "Ġklima": 2995,
      "Ġgetr": 2996,
      "Ġwahrscheinlich": 2997,
      "ud": 2998,
      "Ġoffenbar": 2999,
      "ĠzÃ¤hl": 3000,
      "selben": 3001,
      "mutter": 3002,
      "rt": 3003,
      "Ġsterben": 3004,
      "Ġdemokrat": 3005,
      "Ġunivers": 3006,
      "mir": 3007,
      "ĠerklÃ¤rt": 3008,
      "Ġmittler": 3009,
      "Ġsir": 3010,
      "iebt": 3011,
      "ity": 3012,
      "Ġruhig": 3013,
      "ember": 3014,
      "ator": 3015,
      "Ġkre": 3016,
      "Ġteile": 3017,
      "mÃ¶glich": 3018,
      "uation": 3019,
      "Ġhart": 3020,
      "Ġmittag": 3021,
      "Ġnachbar": 3022,
      "osima": 3023,
      "Ġapp": 3024,
      "Ġbeob": 3025,
      "Ġkommun": 3026,
      "Ġgeburtstag": 3027,
      "lÃ¼ck": 3028,
      "Ġvide": 3029,
      "ĠerklÃ¤r": 3030,
      "Ġol": 3031,
      "Ġklo": 3032,
      "Ġgrau": 3033,
      "Ġbesteht": 3034,
      "Ġkompl": 3035,
      "Ġindem": 3036,
      "sent": 3037,
      "ffel": 3038,
      "ĠkÃ¼che": 3039,
      "Ġecke": 3040,
      "dige": 3041,
      "hÃ¶ren": 3042,
      "Ġeinzige": 3043,
      "Ã¼ge": 3044,
      "Ġisra": 3045,
      "Ġschar": 3046,
      "Ġdenk": 3047,
      "nÃ¼": 3048,
      "ansp": 3049,
      "schte": 3050,
      "Ġ12": 3051,
      "Ġjan": 3052,
      "ĠschÃ¶nen": 3053,
      "iar": 3054,
      "Ġtu": 3055,
      "zeig": 3056,
      "lÃ¶": 3057,
      "ĠwÃ¤ren": 3058,
      "vol": 3059,
      "Ġrat": 3060,
      "Ġschlie": 3061,
      "ct": 3062,
      "wieder": 3063,
      "Ġstaaten": 3064,
      "ĠgrÃ¼nen": 3065,
      "Ġschwester": 3066,
      "Ġmor": 3067,
      "Ġ14": 3068,
      "Ġfalsch": 3069,
      "ĠflÃ¼cht": 3070,
      "Ġ100": 3071,
      "dessen": 3072,
      "Ã¤tter": 3073,
      "Ġjahrhundert": 3074,
      "kriegt": 3075,
      "urnal": 3076,
      "Ġjob": 3077,
      "Ġisst": 3078,
      "eck": 3079,
      "schutz": 3080,
      "Ġtagen": 3081,
      "Ġchina": 3082,
      "Ġpost": 3083,
      "ias": 3084,
      "Ġlief": 3085,
      "Ġkarte": 3086,
      "Ġwicht": 3087,
      "Ġmat": 3088,
      "ĠgebÃ¤ude": 3089,
      "ĠfÃ¶r": 3090,
      "Ġunters": 3091,
      "Ġjedem": 3092,
      "ance": 3093,
      "Ġinnen": 3094,
      "trem": 3095,
      "Ġversuchen": 3096,
      "Ġding": 3097,
      "brochen": 3098,
      "baum": 3099,
      "mh": 3100,
      "erne": 3101,
      "ds": 3102,
      "anst": 3103,
      "Ġtelefon": 3104,
      "Ġgesprochen": 3105,
      "wur": 3106,
      "Ġstuhl": 3107,
      "ative": 3108,
      "Ġdoll": 3109,
      "iser": 3110,
      "ĠmÃ¼sse": 3111,
      "Ġfir": 3112,
      "beh": 3113,
      "ign": 3114,
      "wart": 3115,
      "Ġgeist": 3116,
      "Ġgingen": 3117,
      "mpfen": 3118,
      "ĠfranzÃ¶s": 3119,
      "Ġice": 3120,
      "aur": 3121,
      "ku": 3122,
      "herr": 3123,
      "Ġstaats": 3124,
      "Ġnimm": 3125,
      "Ġanderer": 3126,
      "han": 3127,
      "Ġfluss": 3128,
      "ĠsaÃŁ": 3129,
      "ĠgrÃ¶ÃŁte": 3130,
      "Ġauseinander": 3131,
      "weile": 3132,
      "reiten": 3133,
      "fahrt": 3134,
      "ĠzunÃ¤chst": 3135,
      "unken": 3136,
      "ppel": 3137,
      "Ġruhe": 3138,
      "Ġzerst": 3139,
      "Ġwein": 3140,
      "Ġba": 3141,
      "Ġgeschw": 3142,
      "raten": 3143,
      "Ġmenge": 3144,
      "Ġinternet": 3145,
      "ure": 3146,
      "Ġkamer": 3147,
      "Ġboot": 3148,
      "Ġvolk": 3149,
      "schluss": 3150,
      "itÃ¤r": 3151,
      "dieser": 3152,
      "Ġverschiedenen": 3153,
      "weiter": 3154,
      "Ġhaare": 3155,
      "Ġebenso": 3156,
      "bs": 3157,
      "Ġdeutsch": 3158,
      "gebracht": 3159,
      "Ġgeschen": 3160,
      "ĠmÃ¼de": 3161,
      "Ġenergie": 3162,
      "denn": 3163,
      "Ġhinauf": 3164,
      "wirtschaft": 3165,
      "ote": 3166,
      "hmhm": 3167,
      "irn": 3168,
      "denken": 3169,
      "antwort": 3170,
      "Ġnew": 3171,
      "Ġmarkt": 3172,
      "vent": 3173,
      "hÃ¼": 3174,
      "Ġgericht": 3175,
      "Ġarzt": 3176,
      "Ġschrift": 3177,
      "Ġbas": 3178,
      "lesen": 3179,
      "ta": 3180,
      "ĠfÃ¤hrst": 3181,
      "afft": 3182,
      "Ġregion": 3183,
      "50": 3184,
      "recher": 3185,
      "Ġscha": 3186,
      "eitung": 3187,
      "Ġ:": 3188,
      "Ġsolchen": 3189,
      "ham": 3190,
      "Ġdicht": 3191,
      "Ġbank": 3192,
      "Ġbeispielsweise": 3193,
      "ĠnÃ¤her": 3194,
      "digung": 3195,
      "Ġfur": 3196,
      "Ġjul": 3197,
      "merk": 3198,
      "folge": 3199,
      "ĠbÃ¼cher": 3200,
      "Ġbereit": 3201,
      "Ġbay": 3202,
      "Ġkol": 3203,
      "Ġmiteinander": 3204,
      "Ġpun": 3205,
      "Ġmussten": 3206,
      "Ġgefangen": 3207,
      "Ġvertrau": 3208,
      "Ġstanden": 3209,
      "Ġjahres": 3210,
      "ef": 3211,
      "lÃ¤": 3212,
      "wirk": 3213,
      "kat": 3214,
      "lungen": 3215,
      "Ġdorf": 3216,
      "Ġfische": 3217,
      "Ġnik": 3218,
      "ĠÃ¤lter": 3219,
      "Ġkreis": 3220,
      "Ã¤nd": 3221,
      "Ġlat": 3222,
      "sehr": 3223,
      "ommy": 3224,
      "Ġmut": 3225,
      "uni": 3226,
      "gibt": 3227,
      "bil": 3228,
      "vÃ¶lker": 3229,
      "ĠauÃŁen": 3230,
      "Ġgeheim": 3231,
      "ĠfÃ¼hrt": 3232,
      "Ġnational": 3233,
      "laden": 3234,
      "ore": 3235,
      "laufen": 3236,
      "Ġhunger": 3237,
      "ieht": 3238,
      "Ġgenannt": 3239,
      "seh": 3240,
      "Ġans": 3241,
      "Ġerh": 3242,
      "Ġgebe": 3243,
      "ĠzwÃ¶l": 3244,
      "ĠwuÃŁte": 3245,
      "passen": 3246,
      "ĠhÃ¶he": 3247,
      "ĠpersÃ¶n": 3248,
      "Ġwachsen": 3249,
      "ĠprÃ¤sident": 3250,
      "gten": 3251,
      "Ġversucht": 3252,
      "orinna": 3253,
      "eitag": 3254,
      "Ġsollst": 3255,
      "Ġschwein": 3256,
      "bast": 3257,
      "Ġpsy": 3258,
      "ations": 3259,
      "Ġworte": 3260,
      "Ġgelb": 3261,
      "Ġwenige": 3262,
      "Ġisrael": 3263,
      "ient": 3264,
      "po": 3265,
      "rik": 3266,
      "Ġlauf": 3267,
      "Ġinternation": 3268,
      "eisen": 3269,
      "ĠschÃ¼ler": 3270,
      "ĠbloÃŁ": 3271,
      "Ġerhalten": 3272,
      "nchen": 3273,
      "bald": 3274,
      "ou": 3275,
      "Ġkart": 3276,
      "ffiz": 3277,
      "Ġdisk": 3278,
      "Ġnutz": 3279,
      "Ġnahe": 3280,
      "fisch": 3281,
      "ukt": 3282,
      "Ġaufzu": 3283,
      "Ġihres": 3284,
      "wissen": 3285,
      "ĠspÃ¤t": 3286,
      "ĠzÃ¤": 3287,
      "ehmer": 3288,
      "ĠÃ¼brigen": 3289,
      "ement": 3290,
      "Ġsonntag": 3291,
      "ckel": 3292,
      "Ġglaub": 3293,
      "obo": 3294,
      "Ġsicht": 3295,
      "ĠhÃ¤l": 3296,
      "Ġinzwischen": 3297,
      "irgend": 3298,
      "kn": 3299,
      "Ġauge": 3300,
      "Ã¤ten": 3301,
      "Ġbekommt": 3302,
      "Ġhof": 3303,
      "treten": 3304,
      "glichen": 3305,
      "Ġleuten": 3306,
      "Ġwarm": 3307,
      "Ġ50": 3308,
      "reicht": 3309,
      "ĠgÃ¤n": 3310,
      "ĠheiÃŁen": 3311,
      "Ġgleichzeitig": 3312,
      "iegel": 3313,
      "anne": 3314,
      "stoff": 3315,
      "Ġros": 3316,
      "Ġdarfst": 3317,
      "appen": 3318,
      "Ġzuletzt": 3319,
      "Ġentscheiden": 3320,
      "Ġehm": 3321,
      "Ġstud": 3322,
      "teten": 3323,
      "Ġgegend": 3324,
      "bÃ¼r": 3325,
      "ech": 3326,
      "Ġloch": 3327,
      "publik": 3328,
      "Ġche": 3329,
      "Ġparlament": 3330,
      "Ġherein": 3331,
      "Ġunterschied": 3332,
      "gesetz": 3333,
      "ba": 3334,
      "Ġeink": 3335,
      "Ġrede": 3336,
      "ometer": 3337,
      "dienst": 3338,
      "Ġgep": 3339,
      "Ġstei": 3340,
      "Ġkaffee": 3341,
      "fest": 3342,
      "Ġschreck": 3343,
      "Ġehem": 3344,
      "Ġfallen": 3345,
      "hung": 3346,
      "Ġost": 3347,
      "ĠvÃ¶gel": 3348,
      "Ġaf": 3349,
      "Ġaktiv": 3350,
      "stitut": 3351,
      "Ġpark": 3352,
      "har": 3353,
      "Ġsauber": 3354,
      "Ġwelcher": 3355,
      "linge": 3356,
      "Ġgast": 3357,
      "krÃ¤": 3358,
      "olz": 3359,
      "Ġknapp": 3360,
      "Ġfing": 3361,
      "fÃ¼hrer": 3362,
      "ente": 3363,
      "Ġbat": 3364,
      "Ġgross": 3365,
      "gesehen": 3366,
      "vater": 3367,
      "Ġanziehen": 3368,
      "Ġzeichen": 3369,
      "Ġfig": 3370,
      "Ġchristian": 3371,
      "ĠspaÃŁ": 3372,
      "Ġhose": 3373,
      "Ġbehand": 3374,
      "umt": 3375,
      "weis": 3376,
      "Ġwerk": 3377,
      "Ġgefahr": 3378,
      "ĠblÃ¼": 3379,
      "Ġzeu": 3380,
      "Ġumwelt": 3381,
      "Ġwww": 3382,
      "malen": 3383,
      "Ġnennen": 3384,
      "achts": 3385,
      "Ġwechs": 3386,
      "Ġrut": 3387,
      "ippen": 3388,
      "Ġfreude": 3389,
      "Ġbrief": 3390,
      "Ġanzu": 3391,
      "Ġhohen": 3392,
      "esch": 3393,
      "aler": 3394,
      "Ġdruck": 3395,
      "Ġprob": 3396,
      "Ġlustig": 3397,
      "Ġkindergarten": 3398,
      "Ġrobert": 3399,
      "19": 3400,
      "Ġzieht": 3401,
      "Ġmeistens": 3402,
      "Ġarbeitet": 3403,
      "Ġfeuerwehr": 3404,
      "Ġprinzess": 3405,
      "Ġrepar": 3406,
      "Ġgeboren": 3407,
      "Ġukraine": 3408,
      "Ġzentr": 3409,
      "elten": 3410,
      "wechs": 3411,
      "lig": 3412,
      "Ġtyp": 3413,
      "Ġ13": 3414,
      "Ġwolle": 3415,
      "keln": 3416,
      "Ġbeste": 3417,
      "nimm": 3418,
      "Ġdat": 3419,
      "Ġsetzt": 3420,
      "stÃ¤ndig": 3421,
      "igr": 3422,
      "vest": 3423,
      "Ġstrasse": 3424,
      "ĠhÃ¶rt": 3425,
      "gekommen": 3426,
      "Ġarten": 3427,
      "ologie": 3428,
      "musst": 3429,
      "Ġschaffen": 3430,
      "annen": 3431,
      "Ġrechte": 3432,
      "Ġkapit": 3433,
      "iter": 3434,
      "achtet": 3435,
      "Ġseid": 3436,
      "ĠvÃ¶llig": 3437,
      "gesamt": 3438,
      "pft": 3439,
      "Ġwes": 3440,
      "Ġfleisch": 3441,
      "ĠmuÃŁt": 3442,
      "Ġschok": 3443,
      "Ġcl": 3444,
      "arbeitet": 3445,
      "bastian": 3446,
      "Ġturm": 3447,
      "ĠdÃ¼n": 3448,
      "oben": 3449,
      "Ġunge": 3450,
      "Ġdreh": 3451,
      "Ġlegte": 3452,
      "finden": 3453,
      "Ġwarst": 3454,
      "Ġantwort": 3455,
      "Ġjournal": 3456,
      "ikt": 3457,
      "Ġschwarzen": 3458,
      "nat": 3459,
      "Ġstellt": 3460,
      "Ġpop": 3461,
      "schlÃ¤": 3462,
      "Ġbeine": 3463,
      "fÃ¼hrt": 3464,
      "Ġverantwort": 3465,
      "Ġunseren": 3466,
      "ĠhÃ¶ch": 3467,
      "ĠgrÃ¶ÃŁten": 3468,
      "stimmt": 3469,
      "schung": 3470,
      "Ġkommst": 3471,
      "to": 3472,
      "neten": 3473,
      "ĠhÃ¤ufig": 3474,
      "Ġmik": 3475,
      "weisen": 3476,
      "elbe": 3477,
      "hey": 3478,
      "bare": 3479,
      "20": 3480,
      "Ġfressen": 3481,
      "ĠzwÃ¶lf": 3482,
      "ĠungefÃ¤hr": 3483,
      "Ġpersonen": 3484,
      "Ġterr": 3485,
      "fahrer": 3486,
      "ĠmÃ¤u": 3487,
      "sex": 3488,
      "nie": 3489,
      "gefallen": 3490,
      "ĠÃ¼berr": 3491,
      "schlieÃŁen": 3492,
      "Ġreihe": 3493,
      "sieh": 3494,
      "Ġheimat": 3495,
      "sver": 3496,
      "Ġkampf": 3497,
      "Ġsprachen": 3498,
      "Ġerwachsen": 3499,
      "arbeiten": 3500,
      "anien": 3501,
      "Ġrichtige": 3502,
      "ifft": 3503,
      "indest": 3504,
      "Ġtour": 3505,
      "Ġphil": 3506,
      "Ġaufs": 3507,
      "Ġteam": 3508,
      "ÂŃ": 3509,
      "Ġherunter": 3510,
      "Ġherrn": 3511,
      "statt": 3512,
      "Ġunver": 3513,
      "ufel": 3514,
      "schne": 3515,
      "amerik": 3516,
      "rech": 3517,
      "Ġsituation": 3518,
      "walt": 3519,
      "entlich": 3520,
      "Ġegal": 3521,
      "iven": 3522,
      "iten": 3523,
      "Ġbezieh": 3524,
      "igten": 3525,
      "Ġdumm": 3526,
      "Ġgelegen": 3527,
      "Ġschwarze": 3528,
      "ĠhieÃŁ": 3529,
      "Ġbie": 3530,
      "Ġgespielt": 3531,
      "ĠfÃ¼hrte": 3532,
      "hÃ¤us": 3533,
      "dieses": 3534,
      "Ġherzen": 3535,
      "imin": 3536,
      "baren": 3537,
      "ĠgefÃ¤hrlich": 3538,
      "Ġmode": 3539,
      "gren": 3540,
      "Ġschuhe": 3541,
      "Ġkarten": 3542,
      "Ġabzu": 3543,
      "las": 3544,
      "erweise": 3545,
      "Ġhell": 3546,
      "Ġbal": 3547,
      "testen": 3548,
      "hein": 3549,
      "Ġpreis": 3550,
      "Ġfreitag": 3551,
      "hilfe": 3552,
      "ufen": 3553,
      "yn": 3554,
      "Ġhinzu": 3555,
      "ĠmÃ¼ll": 3556,
      "zial": 3557,
      "ums": 3558,
      "arm": 3559,
      "Ġpal": 3560,
      "Ġstat": 3561,
      "Ġtrat": 3562,
      "ĠweiÃŁe": 3563,
      "frieden": 3564,
      "bus": 3565,
      "passt": 3566,
      "Ġband": 3567,
      "Ġverz": 3568,
      "Ġgrossen": 3569,
      "ĠgesprÃ¤ch": 3570,
      "Ġsagst": 3571,
      "ĠstÃ¼r": 3572,
      "fÃ¼nf": 3573,
      "Ġorden": 3574,
      "Ġblaue": 3575,
      "bÃ¼": 3576,
      "stÃ¼r": 3577,
      "inkt": 3578,
      "Ġelef": 3579,
      "ĠberÃ¼hm": 3580,
      "Ġtext": 3581,
      "kein": 3582,
      "Ġunterwegs": 3583,
      "chem": 3584,
      "ĠbÃ¤r": 3585,
      "Ġrelig": 3586,
      "itzer": 3587,
      "Ġantwortete": 3588,
      "ĠÃ¤u": 3589,
      "Ġsuch": 3590,
      "Ġauszu": 3591,
      "habe": 3592,
      "bie": 3593,
      "Ġmart": 3594,
      "Ġeule": 3595,
      "ĠmilitÃ¤r": 3596,
      "Ã¼l": 3597,
      "Ġmerk": 3598,
      "Ġelektr": 3599,
      "teste": 3600,
      "schule": 3601,
      "Ġfunktioniert": 3602,
      "Ġas": 3603,
      "Ġstellte": 3604,
      "ĠhÃ¤lfte": 3605,
      "Ġzit": 3606,
      "Ġof": 3607,
      "Ã¤nger": 3608,
      "Ġladen": 3609,
      "Ġzauber": 3610,
      "Ġ11": 3611,
      "Ġgutes": 3612,
      "Ġsoldaten": 3613,
      "Ġbun": 3614,
      "itzt": 3615,
      "ĠbevÃ¶lker": 3616,
      "ĠlÃ¼": 3617,
      "Ġschluss": 3618,
      "Ġsystem": 3619,
      "lÃ¤u": 3620,
      "Ġerkennen": 3621,
      "Ġhotel": 3622,
      "hstÃ¼ck": 3623,
      "inne": 3624,
      "Ġprobleme": 3625,
      "polit": 3626,
      "port": 3627,
      "Ġles": 3628,
      "Ġprogramm": 3629,
      "kraft": 3630,
      "Ġfurcht": 3631,
      "gern": 3632,
      "Ġdavor": 3633,
      "Ġvorsichtig": 3634,
      "fter": 3635,
      "Ġinte": 3636,
      "Ġbestimmte": 3637,
      "su": 3638,
      "klar": 3639,
      "Ġleiden": 3640,
      "ĠschÃ¶nes": 3641,
      "Ġwaffen": 3642,
      "Ġleider": 3643,
      "Ġsc": 3644,
      "Ġwetter": 3645,
      "unser": 3646,
      "Ġoh": 3647,
      "Ġtausend": 3648,
      "Ġonkel": 3649,
      "kan": 3650,
      "met": 3651,
      "Ġind": 3652,
      "Ġparis": 3653,
      "aschine": 3654,
      "sal": 3655,
      "indung": 3656,
      "hmen": 3657,
      "ĠgewÃ¶hn": 3658,
      "Ġhilft": 3659,
      "Ġlauter": 3660,
      "wesen": 3661,
      "Ġschritt": 3662,
      "ĠtrÃ¤gt": 3663,
      "nehmer": 3664,
      "ĠweiÃŁen": 3665,
      "Ġspiele": 3666,
      "Ġzuvor": 3667,
      "zept": 3668,
      "Ġpferde": 3669,
      "ilien": 3670,
      "Ã¤nen": 3671,
      "Ġente": 3672,
      "Ġkriegst": 3673,
      "Ġbro": 3674,
      "icken": 3675,
      "Ġmonate": 3676,
      "mu": 3677,
      "reiche": 3678,
      "flug": 3679,
      "Ġfrosch": 3680,
      "Ġmeint": 3681,
      "Ġgebrau": 3682,
      "Ġwohnen": 3683,
      "stung": 3684,
      "Ġschloss": 3685,
      "blieben": 3686,
      "Ġverbr": 3687,
      "Ġaussehen": 3688,
      "Ġmeinte": 3689,
      "zeigt": 3690,
      "pfl": 3691,
      "Ġzudem": 3692,
      "Ġrech": 3693,
      "part": 3694,
      "uell": 3695,
      "Ã¤hrt": 3696,
      "deten": 3697,
      "Ġhing": 3698,
      "org": 3699,
      "Ġfahrrad": 3700,
      "gemein": 3701,
      "chtet": 3702,
      "Ġpsych": 3703,
      "Ġries": 3704,
      "Ġsalz": 3705,
      "Ġlehrer": 3706,
      "Ġmittlerweile": 3707,
      "Ġunserem": 3708,
      "Ġ198": 3709,
      "Ġsitz": 3710,
      "Ġwollt": 3711,
      "Ġbeglei": 3712,
      "ĠsÃ¼den": 3713,
      "kreis": 3714,
      "recken": 3715,
      "Ġschauen": 3716,
      "eid": 3717,
      "Ġring": 3718,
      "Ġhals": 3719,
      "Ġversuch": 3720,
      "Ġerwachte": 3721,
      "Ġfreundin": 3722,
      "Ġentgegen": 3723,
      "schrift": 3724,
      "Ġabgesch": 3725,
      "Ġdarunter": 3726,
      "Ġbrachte": 3727,
      "Ġtreppe": 3728,
      "geld": 3729,
      "Ġeinsatz": 3730,
      "ĠblÃ¶": 3731,
      "Ġmitten": 3732,
      "Ġgelang": 3733,
      "Ġschmer": 3734,
      "mitt": 3735,
      "brechen": 3736,
      "Ġzeigte": 3737,
      "Ġschienen": 3738,
      "pel": 3739,
      "por": 3740,
      "tritt": 3741,
      "tert": 3742,
      "Ġtal": 3743,
      "Ġfach": 3744,
      "Ġzucker": 3745,
      "fan": 3746,
      "iete": 3747,
      "Ġnahr": 3748,
      "Ġplast": 3749,
      "kannt": 3750,
      "zeichen": 3751,
      "Ġlen": 3752,
      "Ġklapp": 3753,
      "Ġhinunter": 3754,
      "ĠkÃ¼r": 3755,
      "Ġkro": 3756,
      "schiff": 3757,
      "ĠnÃ¶t": 3758,
      "Ġpauline": 3759,
      "ĠbÃ¶se": 3760,
      "Ġnorden": 3761,
      "ona": 3762,
      "Ġindu": 3763,
      "steller": 3764,
      "fangen": 3765,
      "Ġkoch": 3766,
      "Ġroll": 3767,
      "Ġleer": 3768,
      "Ġdienst": 3769,
      "Ġlachen": 3770,
      "Ġbekam": 3771,
      "Ġstau": 3772,
      "Ġteufel": 3773,
      "Ġklasse": 3774,
      "Ġmilliar": 3775,
      "Ġgeg": 3776,
      "istische": 3777,
      "Ġteilen": 3778,
      "paar": 3779,
      "Ġsolle": 3780,
      "zeuge": 3781,
      "Ġsicherheit": 3782,
      "agger": 3783,
      "Ġschatz": 3784,
      "dort": 3785,
      "hase": 3786,
      "istischen": 3787,
      "Ġmeines": 3788,
      "holt": 3789,
      "Ġberuf": 3790,
      "Ġdauer": 3791,
      "ischt": 3792,
      "blau": 3793,
      "Ġeinzu": 3794,
      "merksam": 3795,
      "ĠmaÃŁ": 3796,
      "auso": 3797,
      "wig": 3798,
      "ila": 3799,
      "Ġtransp": 3800,
      "Ġreisen": 3801,
      "Ġhans": 3802,
      "ile": 3803,
      "yr": 3804,
      "ĠverfÃ¼": 3805,
      "Ġchin": 3806,
      "Ġschutz": 3807,
      "ĠerzÃ¤hlte": 3808,
      "ĠhÃ¼b": 3809,
      "uter": 3810,
      "hafen": 3811,
      "Ġirgendwann": 3812,
      "Ġaug": 3813,
      "Ġli": 3814,
      "omen": 3815,
      "Ġgrade": 3816,
      "Ġdoktor": 3817,
      "schnitt": 3818,
      "Ġeinst": 3819,
      "wau": 3820,
      "ĠÃ¤rger": 3821,
      "Ġdonner": 3822,
      "Ġnutzen": 3823,
      "Ġzoo": 3824,
      "Ġpfle": 3825,
      "Ġgo": 3826,
      "Ã¶st": 3827,
      "Ã¶rter": 3828,
      "ĠschlÃ¤": 3829,
      "Ġbetroffen": 3830,
      "Ġschneller": 3831,
      "ĠkÃ¶nnt": 3832,
      "ime": 3833,
      "Ġport": 3834,
      "Ġpassen": 3835,
      "Ġkaiser": 3836,
      "Ġfer": 3837,
      "Ġbrauchst": 3838,
      "burger": 3839,
      "line": 3840,
      "jÃ¤hrigen": 3841,
      "kle": 3842,
      "arr": 3843,
      "ĠrÃ¼ber": 3844,
      "sslich": 3845,
      "hem": 3846,
      "Ġbon": 3847,
      "iti": 3848,
      "Ġriesen": 3849,
      "Ġzuge": 3850,
      "Ġkle": 3851,
      "Ġfarben": 3852,
      "ĠgrÃ¤": 3853,
      "tut": 3854,
      "ĠschloÃŁ": 3855,
      "Ġsahen": 3856,
      "dungen": 3857,
      "reibt": 3858,
      "Ã¤tzen": 3859,
      "Ġsuche": 3860,
      "ex": 3861,
      "Ġbad": 3862,
      "abhÃ¤ng": 3863,
      "Ġhabee": 3864,
      "Ġgeschichten": 3865,
      "zzz": 3866,
      "beim": 3867,
      "Ġheidi": 3868,
      "gebaut": 3869,
      "Ġerreichen": 3870,
      "dorf": 3871,
      "no": 3872,
      "Ġaufmerksam": 3873,
      "Ġvergleich": 3874,
      "Ġzumindest": 3875,
      "Ġzugleich": 3876,
      "Ġ40": 3877,
      "Ġblatt": 3878,
      "Ġangucken": 3879,
      "fÃ¼hren": 3880,
      "schreiben": 3881,
      "ehler": 3882,
      "Ġbade": 3883,
      "Ġverwendet": 3884,
      "ong": 3885,
      "Ġlage": 3886,
      "Ġinvest": 3887,
      "Ġmonat": 3888,
      "Ġweder": 3889,
      "boden": 3890,
      "karte": 3891,
      "sinn": 3892,
      "ĠglÃ¼cklich": 3893,
      "Ġbewegung": 3894,
      "Ġsimone": 3895,
      "30": 3896,
      "Ġ25": 3897,
      "ĠhÃ¤ngt": 3898,
      "ĠtÃ¼": 3899,
      "ĠkÃ¼nstler": 3900,
      "by": 3901,
      "wn": 3902,
      "Ġverspr": 3903,
      "igte": 3904,
      "Ġrauf": 3905,
      "Ġerfahr": 3906,
      "Ġoffiz": 3907,
      "Ġmeinung": 3908,
      "ym": 3909,
      "Ã¤ndig": 3910,
      "gelegt": 3911,
      "kerstin": 3912,
      "Ġstock": 3913,
      "bildung": 3914,
      "Ġehemal": 3915,
      "dis": 3916,
      "Ġherab": 3917,
      "ĠerklÃ¤ren": 3918,
      "Ġkenne": 3919,
      "berei": 3920,
      "Ġgeschle": 3921,
      "Ġergeb": 3922,
      "iko": 3923,
      "rÃ¼ben": 3924,
      "mÃ¤ÃŁig": 3925,
      "setzt": 3926,
      "Ġoster": 3927,
      "Ġentfernt": 3928,
      "natÃ¼rlich": 3929,
      "lÃ¤nder": 3930,
      "Ġtob": 3931,
      "Ġpunkt": 3932,
      "Ġleise": 3933,
      "kopf": 3934,
      "Ġident": 3935,
      "Ġbot": 3936,
      "Ġbegriff": 3937,
      "Ġspieler": 3938,
      "Ġgucke": 3939,
      "Ġzeiten": 3940,
      "Ġpolitiker": 3941,
      "Ġprofess": 3942,
      "Ġerstaun": 3943,
      "Ġtasche": 3944,
      "Ġstift": 3945,
      "ĠblÃ¤tter": 3946,
      "Ġkreuz": 3947,
      "Ġohren": 3948,
      "ĠbÃ¤ume": 3949,
      "Ã¤tzchen": 3950,
      "Ġmoder": 3951,
      "film": 3952,
      "Ġlala": 3953,
      "Ġtanz": 3954,
      "ohann": 3955,
      "Ġfeld": 3956,
      "Ġmotor": 3957,
      "Ġgang": 3958,
      "Ġohr": 3959,
      "Ġgehol": 3960,
      "ĠhÃ¤ngen": 3961,
      "Ġyor": 3962,
      "griffen": 3963,
      "bra": 3964,
      "hang": 3965,
      "kuchen": 3966,
      "Ġregeln": 3967,
      "hause": 3968,
      "Ġverdien": 3969,
      "ĠstÃ¤dte": 3970,
      "Ġberei": 3971,
      "Ġgruppen": 3972,
      "Ġsatz": 3973,
      "Ã¼nst": 3974,
      "Ġfreiheit": 3975,
      "frage": 3976,
      "Ġpil": 3977,
      "Ġosten": 3978,
      "Ġcor": 3979,
      "hoch": 3980,
      "Ġdenkt": 3981,
      "Ġtrug": 3982,
      "wal": 3983,
      "Ġag": 3984,
      "denk": 3985,
      "Ġverschl": 3986,
      "ĠhÃ¤usern": 3987,
      "Ġpolitische": 3988,
      "ampe": 3989,
      "ograf": 3990,
      "ole": 3991,
      "wil": 3992,
      "llo": 3993,
      "Ġgib": 3994,
      "Ġwelches": 3995,
      "Ġhauptstadt": 3996,
      "Ã¤rm": 3997,
      "Ġdauert": 3998,
      "dammt": 3999,
      "Ġkomp": 4000,
      "Ġschmeckt": 4001,
      "old": 4002,
      "Ġfle": 4003,
      "izin": 4004,
      "Ġexper": 4005,
      "ĠprÃ¼": 4006,
      "Ġviertel": 4007,
      "wÃ¤hrend": 4008,
      "go": 4009,
      "ison": 4010,
      "Ġgenauso": 4011,
      "Ġtrocken": 4012,
      "ĠflÃ¼gel": 4013,
      "Ġdollar": 4014,
      "andid": 4015,
      "rag": 4016,
      "Ġsamstag": 4017,
      "the": 4018,
      "Ġner": 4019,
      "Ġerfahren": 4020,
      "ĠmÃ¼sste": 4021,
      "nÃ¤": 4022,
      "ĠschlÃ¼ssel": 4023,
      "Ġsilber": 4024,
      "Ġwien": 4025,
      "ĠschÃ¤": 4026,
      "Ġtante": 4027,
      "omas": 4028,
      "ĠgrÃ¼ne": 4029,
      "Ġwichtige": 4030,
      "inde": 4031,
      "auspiel": 4032,
      "Ġdritten": 4033,
      "Ġfrieden": 4034,
      "bon": 4035,
      "Ġrechten": 4036,
      "Ġdecke": 4037,
      "zeugen": 4038,
      "ĠeuropÃ¤ischen": 4039,
      "Ġdanke": 4040,
      "Ġwem": 4041,
      "Ġhor": 4042,
      "Ġ197": 4043,
      "Ġmilliarden": 4044,
      "morgen": 4045,
      "Ġokt": 4046,
      "Ġtommy": 4047,
      "hlt": 4048,
      "Ġbestimmten": 4049,
      "mag": 4050,
      "Ġahn": 4051,
      "arten": 4052,
      "Ġ2024": 4053,
      "ĠunglÃ¼ck": 4054,
      "kinder": 4055,
      "zin": 4056,
      "Ġderzeit": 4057,
      "Ġgehst": 4058,
      "bu": 4059,
      "dingt": 4060,
      "kap": 4061,
      "Ġeinwohner": 4062,
      "Ġopfer": 4063,
      "isiert": 4064,
      "spl": 4065,
      "abrik": 4066,
      "ĠuniversitÃ¤t": 4067,
      "beweg": 4068,
      "Ġguter": 4069,
      "kenn": 4070,
      "tu": 4071,
      "wald": 4072,
      "ĠgefÃ¤ng": 4073,
      "Ġbrei": 4074,
      "iken": 4075,
      "forder": 4076,
      "flÃ¤che": 4077,
      "Ġweihnachts": 4078,
      "Ġpuppe": 4079,
      "Ġteddy": 4080,
      "Ġrass": 4081,
      "enz": 4082,
      "ĠdÃ¤": 4083,
      "Ġdom": 4084,
      "reisen": 4085,
      "Ġwohnt": 4086,
      "Ġschen": 4087,
      "ĠtÃ¤": 4088,
      "Ġgekriegt": 4089,
      "Ġwesten": 4090,
      "Ġopa": 4091,
      "fluss": 4092,
      "Ġkriege": 4093,
      "abend": 4094,
      "Ġprojekt": 4095,
      "Ġzeich": 4096,
      "system": 4097,
      "Ġbewegen": 4098,
      "laut": 4099,
      "Ġgras": 4100,
      "Ġbegeg": 4101,
      "Ġgemalt": 4102,
      "Ġteller": 4103,
      "Ġkurve": 4104,
      "Ġherzog": 4105,
      "ĠbevÃ¶lkerung": 4106,
      "opf": 4107,
      "schrau": 4108,
      "halte": 4109,
      "glei": 4110,
      "istor": 4111,
      "Ġzwanzig": 4112,
      "Ġbuchsta": 4113,
      "bÃ¤r": 4114,
      "Ġwelchen": 4115,
      "Ġtraurig": 4116,
      "Ġx": 4117,
      "Ġwohin": 4118,
      "Ġminde": 4119,
      "lu": 4120,
      "ution": 4121,
      "ĠfrÃ¼hstÃ¼ck": 4122,
      "Ġkatzen": 4123,
      "Ġhaste": 4124,
      "Ġverstanden": 4125,
      "kÃ¶nnen": 4126,
      "hÃ¤nger": 4127,
      "dabei": 4128,
      "Ã¤ul": 4129,
      "Ã¤ne": 4130,
      "dein": 4131,
      "dul": 4132,
      "sh": 4133,
      "ĠdrÃ¼ber": 4134,
      "Ġislam": 4135,
      "Ġverkauft": 4136,
      "stÃ¤nde": 4137,
      "Ġschokol": 4138,
      "of": 4139,
      "standen": 4140,
      "ĠgetÃ¶": 4141,
      "Ġandre": 4142,
      "Ġbeginnt": 4143,
      "Ġmikro": 4144,
      "Ġjap": 4145,
      "deshalb": 4146,
      "Ġweihnachten": 4147,
      "Ġprakt": 4148,
      "laubt": 4149,
      "bruch": 4150,
      "Ġschild": 4151,
      "klei": 4152,
      "Ġgebiet": 4153,
      "zel": 4154,
      "akter": 4155,
      "Ġerinnern": 4156,
      "ĠgÃ¶t": 4157,
      "Ġhaar": 4158,
      "Ġbrand": 4159,
      "anders": 4160,
      "Ġhut": 4161,
      "Ġrand": 4162,
      "brot": 4163,
      "spekt": 4164,
      "Ġsteuer": 4165,
      "sieht": 4166,
      "bach": 4167,
      "ĠfrÃ¶": 4168,
      "Ġnov": 4169,
      "nichts": 4170,
      "trÃ¤": 4171,
      "Ġzweit": 4172,
      "Ġinsgesamt": 4173,
      "Ġgekauft": 4174,
      "ĠÃ¤g": 4175,
      "mmern": 4176,
      "geschichte": 4177,
      "Ġafrika": 4178,
      "ause": 4179,
      "Ġweile": 4180,
      "Ġentstanden": 4181,
      "bank": 4182,
      "mut": 4183,
      "ela": 4184,
      "Ġtrump": 4185,
      "Ġschuld": 4186,
      "dition": 4187,
      "zut": 4188,
      "auÃŁer": 4189,
      "wiesen": 4190,
      "vin": 4191,
      "eis": 4192,
      "Ġfliegt": 4193,
      "Ġprinzessin": 4194,
      "Ġris": 4195,
      "Ġ24": 4196,
      "Ġgewonnen": 4197,
      "Ġerkennt": 4198,
      "Ġschrieb": 4199,
      "spielen": 4200,
      "ĠlÃ¤ngst": 4201,
      "Ġvolks": 4202,
      "Ġumf": 4203,
      "ĠverÃ¶ff": 4204,
      "spiele": 4205,
      "Ġbrumm": 4206,
      "Ġmeister": 4207,
      "mart": 4208,
      "Ġjuni": 4209,
      "Ġlieben": 4210,
      "Ġneuer": 4211,
      "Ġvoller": 4212,
      "onstr": 4213,
      "Ġsteigen": 4214,
      "ornstein": 4215,
      "zÃ¼": 4216,
      "Ġschie": 4217,
      "bÃ¤": 4218,
      "ana": 4219,
      "mÃ¤n": 4220,
      "schrei": 4221,
      "iziert": 4222,
      "Ġdrogen": 4223,
      "Ġanges": 4224,
      "Ġjohn": 4225,
      "Ġinformationen": 4226,
      "jet": 4227,
      "anen": 4228,
      "ara": 4229,
      "orgt": 4230,
      "ĠunabhÃ¤ng": 4231,
      "omot": 4232,
      "Ġgeschehen": 4233,
      "Ġtee": 4234,
      "Ġgrad": 4235,
      "ĠkÃ¤mpfen": 4236,
      "mil": 4237,
      "Ġbestehen": 4238,
      "bern": 4239,
      "ps": 4240,
      "Ġga": 4241,
      "Ġstimmen": 4242,
      "wÃ¼rdig": 4243,
      "Ġfroh": 4244,
      "Ġdreck": 4245,
      "prÃ¤sident": 4246,
      "umpf": 4247,
      "Ġprotest": 4248,
      "Ġbrit": 4249,
      "ipi": 4250,
      "bi": 4251,
      "dler": 4252,
      "Ġkehr": 4253,
      "eng": 4254,
      "Ġsucht": 4255,
      "Ġhunde": 4256,
      "Ġverfol": 4257,
      "Ġcorinna": 4258,
      "Ġschauspiel": 4259,
      "Ġerreicht": 4260,
      "Ġtiger": 4261,
      "altung": 4262,
      "Ġmami": 4263,
      "irm": 4264,
      "press": 4265,
      "meinst": 4266,
      "ativen": 4267,
      "Ã¤tzlich": 4268,
      "Ġtrans": 4269,
      "gruppe": 4270,
      "eien": 4271,
      "Ġdeswegen": 4272,
      "Ġmesser": 4273,
      "Ġbesondere": 4274,
      "Ġarg": 4275,
      "schneiden": 4276,
      "ondon": 4277,
      "Ġkilometer": 4278,
      "Ġwelchem": 4279,
      "Ġschwimmen": 4280,
      "Ġzeitung": 4281,
      "sidenten": 4282,
      "Ġgrenze": 4283,
      "fertig": 4284,
      "eister": 4285,
      "Ġsingen": 4286,
      "Ġschlag": 4287,
      "dient": 4288,
      "ius": 4289,
      "oge": 4290,
      "Ġren": 4291,
      "Ġgelernt": 4292,
      "Ã¤ger": 4293,
      "ettern": 4294,
      "urs": 4295,
      "ierungs": 4296,
      "Ġsek": 4297,
      "chtete": 4298,
      "ĠÃ¤uÃŁer": 4299,
      "ielten": 4300,
      "book": 4301,
      "runter": 4302,
      "ĠÃ¤ndern": 4303,
      "Ã¤re": 4304,
      "Ġsowas": 4305,
      "ĠverÃ¤ndert": 4306,
      "dia": 4307,
      "besonder": 4308,
      "kampf": 4309,
      "ĠzÃ¤hne": 4310,
      "Ġerz": 4311,
      "Ġbauer": 4312,
      "Ġentsteht": 4313,
      "stchen": 4314,
      "Ġpet": 4315,
      "Ġjeweil": 4316,
      "Ġweiteren": 4317,
      "ĠfÃ¼ÃŁe": 4318,
      "Ġeingesch": 4319,
      "orfen": 4320,
      "Ġapr": 4321,
      "Ġnett": 4322,
      "estag": 4323,
      "tragen": 4324,
      "emie": 4325,
      "Ġcosima": 4326,
      "Ġvertei": 4327,
      "Ġgefragt": 4328,
      "hÃ¶rt": 4329,
      "sitzen": 4330,
      "Ġgrosse": 4331,
      "Ġkartoff": 4332,
      "frÃ¼": 4333,
      "ĠlÃ¤ch": 4334,
      "spro": 4335,
      "Ġdrehen": 4336,
      "Ġunbedingt": 4337,
      "Ġbewusst": 4338,
      "Ġfoto": 4339,
      "Ġbeit": 4340,
      "mÃ¼ssen": 4341,
      "leute": 4342,
      "rÃ¤umen": 4343,
      "ĠÃ¶l": 4344,
      "ĠthÃ¼r": 4345,
      "ĠmÃ¼nchen": 4346,
      "Ġdennoch": 4347,
      "Ġ196": 4348,
      "zun": 4349,
      "Ġrasen": 4350,
      "ĠerfÃ¼": 4351,
      "Ġgleichen": 4352,
      "setzung": 4353,
      "ĠschÃ¼tzen": 4354,
      "ĠmÃ¤rz": 4355,
      "ĠÃ¼berw": 4356,
      "Ġreichen": 4357,
      "Ġhole": 4358,
      "volution": 4359,
      "Ġplastik": 4360,
      "Ġhohe": 4361,
      "zern": 4362,
      "Ġhen": 4363,
      "Ġbrust": 4364,
      "Ġprivat": 4365,
      "Ġdig": 4366,
      "Ġrasch": 4367,
      "Ġtitel": 4368,
      "Ġunfall": 4369,
      "kla": 4370,
      "Ġguckt": 4371,
      "ichts": 4372,
      "Ġstolz": 4373,
      "Ġjohann": 4374,
      "guckt": 4375,
      "erzÃ¤hl": 4376,
      "Ġtieren": 4377,
      "Ġtaschen": 4378,
      "Ġaufmachen": 4379,
      "Ġatom": 4380,
      "Ġdampf": 4381,
      "ĠschÃ¶ner": 4382,
      "Ġmonaten": 4383,
      "Ġbeteil": 4384,
      "Ġabends": 4385,
      "Ġurlaub": 4386,
      "Ġoktober": 4387,
      "gott": 4388,
      "Ġmai": 4389,
      "Ġwege": 4390,
      "saft": 4391,
      "Ġaugust": 4392,
      "hte": 4393,
      "Ġheu": 4394,
      "Ġfehler": 4395,
      "Ġjes": 4396,
      "fÃ¼hrung": 4397,
      "kÃ¤fer": 4398,
      "Ġbutter": 4399,
      "ĠmÃ¼t": 4400,
      "Ġmittelalter": 4401,
      "Ġmindestens": 4402,
      "Ġfanden": 4403,
      "Ġgezeigt": 4404,
      "Ġhingegen": 4405,
      "ĠlÃ¶ffel": 4406,
      "Ġkrankheit": 4407,
      "urop": 4408,
      "Ġmachten": 4409,
      "ions": 4410,
      "Ġsagten": 4411,
      "Ġnachts": 4412,
      "Ġpolitischen": 4413,
      "Ġfangen": 4414,
      "Ġverkaufen": 4415,
      "Ġordentlich": 4416,
      "neu": 4417,
      "atisch": 4418,
      "Ġvorstellen": 4419,
      "Ġglob": 4420,
      "Ġkleider": 4421,
      "Ã¤st": 4422,
      "Ġmanchen": 4423,
      "Ġjuden": 4424,
      "tÃ¼r": 4425,
      "anzler": 4426,
      "how": 4427,
      "emin": 4428,
      "ĠfÃ¤hrste": 4429,
      "ĠhÃ¤nden": 4430,
      "Ġparteien": 4431,
      "car": 4432,
      "ĠschlÃ¤ft": 4433,
      "Ġweltweit": 4434,
      "ĠtÃ¼rkei": 4435,
      "Ġwolf": 4436,
      "mb": 4437,
      "ĠwÃ¶rter": 4438,
      "Ġlondon": 4439,
      "Ġwasch": 4440,
      "Ġkrankenhaus": 4441,
      "jen": 4442,
      "strie": 4443,
      "Ġgriechen": 4444,
      "Ġflughafen": 4445,
      "Ġkugel": 4446,
      "Ġeinzelnen": 4447,
      "sagt": 4448,
      "seum": 4449,
      "Ġrepublik": 4450,
      "Ġschlug": 4451,
      "ckten": 4452,
      "âĢľ": 4453,
      "Ġpuzz": 4454,
      "schauen": 4455,
      "ĠgehÃ¶rte": 4456,
      "Ġkant": 4457,
      "Ġveranst": 4458,
      "ĠmÃ¶glichkeit": 4459,
      "aschinen": 4460,
      "Ġterror": 4461,
      "gliche": 4462,
      "Ġentlang": 4463,
      "ĠgewiÃŁ": 4464,
      "deln": 4465,
      "kor": 4466,
      "kir": 4467,
      "Ġwart": 4468,
      "produ": 4469,
      "Ġvideo": 4470,
      "Ġvern": 4471,
      "machst": 4472,
      "Ã¤te": 4473,
      "grÃ¶": 4474,
      "Ġnummer": 4475,
      "Ġstern": 4476,
      "Ġhind": 4477,
      "Ġkochen": 4478,
      "Ġwobei": 4479,
      "Ġnee": 4480,
      "Ġ2023": 4481,
      "Ġdigit": 4482,
      "brit": 4483,
      "Ġweltkrieg": 4484,
      "Ġverboten": 4485,
      "prob": 4486,
      "Ġaussieht": 4487,
      "lafen": 4488,
      "Ġextrem": 4489,
      "ĠerklÃ¤rte": 4490,
      "stre": 4491,
      "Ġausger": 4492,
      "Ġspielte": 4493,
      "Ġarmee": 4494,
      "chr": 4495,
      "Ġdemonstr": 4496,
      "Ġsebastian": 4497,
      "Ġtheater": 4498,
      "Ġmedizin": 4499,
      "Ġgewinnen": 4500,
      "bahnhof": 4501,
      "Ġentwickelt": 4502,
      "Ġspann": 4503,
      "Ġklingt": 4504,
      "Ġsonder": 4505,
      "Ġlegt": 4506,
      "Ġstarb": 4507,
      "Ġbezahlen": 4508,
      "Ġdor": 4509,
      "Ġara": 4510,
      "stieg": 4511,
      "Ġzahn": 4512,
      "anger": 4513,
      "manchmal": 4514,
      "Ġbayern": 4515,
      "tro": 4516,
      "wahr": 4517,
      "Ġsteine": 4518,
      "Ġfrag": 4519,
      "Ġfernseh": 4520,
      "gd": 4521,
      "guten": 4522,
      "Ġbeein": 4523,
      "Ġnachmittag": 4524,
      "Ġgeschlossen": 4525,
      "ĠkÃ¤se": 4526,
      "ĠhÃ¼hn": 4527,
      "ĠdrÃ¼ben": 4528,
      "ĠzÃ¼r": 4529,
      "Ġsow": 4530,
      "werke": 4531,
      "ĠlÃ¶s": 4532,
      "Ġalltag": 4533,
      "Ġmontag": 4534,
      "ĠgeschÃ¤fts": 4535,
      "Ġke": 4536,
      "Ġmale": 4537,
      "ikel": 4538,
      "sÃ¤tzlich": 4539,
      "itÃ¤ten": 4540,
      "Ã¤hlt": 4541,
      "Ġwissenschaftler": 4542,
      "Ġposit": 4543,
      "ĠfÃ¤ngt": 4544,
      "schm": 4545,
      "Ġgeblieben": 4546,
      "Ġchance": 4547,
      "Ġverletzt": 4548,
      "Ġmaria": 4549,
      "losen": 4550,
      "Ġpartner": 4551,
      "Ġmater": 4552,
      "Ġfeu": 4553,
      "annien": 4554,
      "chtig": 4555,
      "Ġstammt": 4556,
      "tre": 4557,
      "Ġbier": 4558,
      "Ġerb": 4559,
      "Ġstreit": 4560,
      "istisch": 4561,
      "othe": 4562,
      "plan": 4563,
      "regierung": 4564,
      "uellen": 4565,
      "woch": 4566,
      "Ġblock": 4567,
      "Ġprima": 4568,
      "Ġgetroffen": 4569,
      "Ġbehau": 4570,
      "Ġaben": 4571,
      "Ġwander": 4572,
      "oma": 4573,
      "ĠgetÃ¶tet": 4574,
      "vid": 4575,
      "Ġgestellt": 4576,
      "Ġausdruck": 4577,
      "ĠfrÃ¤ul": 4578,
      "Ġwolltest": 4579,
      "Ġtoten": 4580,
      "ĠbeschÃ¤ftigt": 4581,
      "Ġseg": 4582,
      "heben": 4583,
      "bund": 4584,
      "Ġdel": 4585,
      "Ġgir": 4586,
      "Ġdazwischen": 4587,
      "Ġmitnehmen": 4588,
      "bewer": 4589,
      "Ġautor": 4590,
      "Ġbedro": 4591,
      "kas": 4592,
      "eise": 4593,
      "Ġamt": 4594,
      "ibel": 4595,
      "ĠvergnÃ¼": 4596,
      "Ġgesam": 4597,
      "zeugt": 4598,
      "Ġnass": 4599,
      "Ġran": 4600,
      "Ġjim": 4601,
      "Ġgottes": 4602,
      "ĠrÃ¶m": 4603,
      "Ġmigr": 4604,
      "Ġzufrieden": 4605,
      "schlagen": 4606,
      "Ġweiterhin": 4607,
      "Ġgolden": 4608,
      "ĠtÃ¶ten": 4609,
      "kÃ¼n": 4610,
      "uelle": 4611,
      "Ġabt": 4612,
      "schel": 4613,
      "Ġdurchaus": 4614,
      "Ġhandelt": 4615,
      "Ġbedeut": 4616,
      "Ġerster": 4617,
      "Ġbefr": 4618,
      "Ġkamera": 4619,
      "ymp": 4620,
      "ĠverhÃ¤lt": 4621,
      "ĠÃ¼berlegen": 4622,
      "abil": 4623,
      "obil": 4624,
      "ĠmÃ¶gen": 4625,
      "dium": 4626,
      "lÃ¼": 4627,
      "Ġentscheidung": 4628,
      "Ġindustrie": 4629,
      "Ġapril": 4630,
      "iften": 4631,
      "gebung": 4632,
      "tember": 4633,
      "Ġyork": 4634,
      "Ġhamburg": 4635,
      "staat": 4636,
      "Ġhoffnung": 4637,
      "Ġsozialen": 4638,
      "prÃ¼": 4639,
      "Ġdest": 4640,
      "Ġbesuchen": 4641,
      "Ġanfangen": 4642,
      "Ġbuchstaben": 4643,
      "beln": 4644,
      "tin": 4645,
      "Ġumher": 4646,
      "Ġgemeint": 4647,
      "mr": 4648,
      "Ġrauch": 4649,
      "Ġherbst": 4650,
      "verstÃ¤n": 4651,
      "Ġhalte": 4652,
      "Ġrichtigen": 4653,
      "untern": 4654,
      "jahren": 4655,
      "habt": 4656,
      "Ġelf": 4657,
      "Ġengland": 4658,
      "schÃ¼t": 4659,
      "Ġverhalten": 4660,
      "ĠâĢľ": 4661,
      "Ġgepl": 4662,
      "Ġfragt": 4663,
      "ĠmÃ¶glichst": 4664,
      "pferd": 4665,
      "drehen": 4666,
      "Ġforder": 4667,
      "ichtete": 4668,
      "Ġmaul": 4669,
      "Ġteuer": 4670,
      "Ġther": 4671,
      "Ġuner": 4672,
      "Ġeigent": 4673,
      "richtig": 4674,
      "Ġwett": 4675,
      "ppich": 4676,
      "Ã¼tzt": 4677,
      "Ġerwachen": 4678,
      "Ġufer": 4679,
      "ĠtÃ¼ren": 4680,
      "Ġgehalten": 4681,
      "Ġbetrieb": 4682,
      "ĠfÃ¼hlen": 4683,
      "Ġdoppel": 4684,
      "Ġonline": 4685,
      "britannien": 4686,
      "lungs": 4687,
      "organis": 4688,
      "Ġsyr": 4689,
      "Ġstecken": 4690,
      "Ġdritte": 4691,
      "Ġsogenannten": 4692,
      "Ġinnerhalb": 4693,
      "Ġdok": 4694,
      "ĠgÃ¼": 4695,
      "Ġinstitut": 4696,
      "Ġversuchte": 4697,
      "Ġentwicklung": 4698,
      "Ġbir": 4699,
      "Ġdeb": 4700,
      "Ġgriech": 4701,
      "koh": 4702,
      "gebiet": 4703,
      "Ġgestorben": 4704,
      "Ġdaneben": 4705,
      "Ã¶pfe": 4706,
      "ĠfrÃ¤ulein": 4707,
      "star": 4708,
      "stau": 4709,
      "Ġentstehen": 4710,
      "Ġbundestag": 4711,
      "ging": 4712,
      "unsch": 4713,
      "ola": 4714,
      "Ġleisten": 4715,
      "Ġhinterher": 4716,
      "Ġlinken": 4717,
      "uktur": 4718,
      "Ġoffizie": 4719,
      "Ġschwanz": 4720,
      "Ġverlieren": 4721,
      "Ġjemanden": 4722,
      "Ġdurfte": 4723,
      "Ġsowjet": 4724,
      "za": 4725,
      "Ġdame": 4726,
      "Ġherren": 4727,
      "Ġletzt": 4728,
      "Ġ21": 4729,
      "Ġwenigen": 4730,
      "Ġglo": 4731,
      "ico": 4732,
      "Ġbilden": 4733,
      "baby": 4734,
      "leu": 4735,
      "liegen": 4736,
      "teln": 4737,
      "Ġsep": 4738,
      "ĠgefÃ¤ngnis": 4739,
      "igkeiten": 4740,
      "Ġreag": 4741,
      "Ġleiter": 4742,
      "Ġniedr": 4743,
      "Ġgemeinde": 4744,
      "ĠstÃ¤rker": 4745,
      "Ġbaden": 4746,
      "ĠgefÃ¤llt": 4747,
      "mord": 4748,
      "sicher": 4749,
      "Ġsech": 4750,
      "hÃ¤ngen": 4751,
      "abet": 4752,
      "cebook": 4753,
      "boot": 4754,
      "----": 4755,
      "Ġlatein": 4756,
      "gest": 4757,
      "Ġend": 4758,
      "Ġmitglieder": 4759,
      "pag": 4760,
      "ĠmÃ¤cht": 4761,
      "Ã¤ck": 4762,
      "Ġtemp": 4763,
      "Ġleip": 4764,
      "manche": 4765,
      "ubschrau": 4766,
      "otz": 4767,
      "ehnte": 4768,
      "Ġspaz": 4769,
      "Ġkannte": 4770,
      "Ġbefindet": 4771,
      "Ġkirchen": 4772,
      "Ġfrankf": 4773,
      "Ġmartin": 4774,
      "Ġangriff": 4775,
      "Ġversteckt": 4776,
      "hre": 4777,
      "aller": 4778,
      "Ġed": 4779,
      "ĠbÃ¼ro": 4780,
      "dat": 4781,
      "kind": 4782,
      "Ġwarf": 4783,
      "mpft": 4784,
      "ĠfÃ¼hlte": 4785,
      "Ġsuchte": 4786,
      "Ã¼sse": 4787,
      "Ġklim": 4788,
      "Ġeichi": 4789,
      "gelassen": 4790,
      "Ġschaute": 4791,
      "Ġerwartet": 4792,
      "Ġschaff": 4793,
      "ca": 4794,
      "kom": 4795,
      "ingungen": 4796,
      "rechts": 4797,
      "bad": 4798,
      "Ġstreich": 4799,
      "mmert": 4800,
      "Ġlager": 4801,
      "Ġvi": 4802,
      "Ã¶te": 4803,
      "ils": 4804,
      "Ġgas": 4805,
      "Ġbern": 4806,
      "Ġtrain": 4807,
      "ĠkÃ¶nigin": 4808,
      "Ġerinnert": 4809,
      "ĠverÃ¤nder": 4810,
      "Ġminister": 4811,
      "Ġtradition": 4812,
      "Ġ60": 4813,
      "Ġiss": 4814,
      "einmal": 4815,
      "ino": 4816,
      "Ġrunden": 4817,
      "hnt": 4818,
      "Ġgeschickt": 4819,
      "assung": 4820,
      "Ġwahrheit": 4821,
      "Ġradio": 4822,
      "Ġseptember": 4823,
      "Ġmos": 4824,
      "Ġhir": 4825,
      "Ġrunde": 4826,
      "ĠerhÃ¶": 4827,
      "Ġlebe": 4828,
      "ĠtÃ¼rk": 4829,
      "ubschrauber": 4830,
      "mes": 4831,
      "ĠsÃ¤u": 4832,
      "emann": 4833,
      "atsch": 4834,
      "Ġgelten": 4835,
      "Ġdonnerstag": 4836,
      "Ġnachrichten": 4837,
      "ene": 4838,
      "Ġev": 4839,
      "sprÃ¼n": 4840,
      "Ġunterschei": 4841,
      "Ġdrunter": 4842,
      "Ġarbeiter": 4843,
      "Ġberliner": 4844,
      "Ġjanuar": 4845,
      "Ġgelegt": 4846,
      "Ġsauer": 4847,
      "Ã¶rder": 4848,
      "iene": 4849,
      "Ġschulen": 4850,
      "Ġfernsehen": 4851,
      "Ġfas": 4852,
      "altet": 4853,
      "rock": 4854,
      "Ġlebte": 4855,
      "achtung": 4856,
      "Ġschlange": 4857,
      "Ġdiesmal": 4858,
      "ĠÃ¼brigens": 4859,
      "Ġaufgew": 4860,
      "Ġverab": 4861,
      "verb": 4862,
      "Ġ194": 4863,
      "Ġlego": 4864,
      "deine": 4865,
      "Ã¼d": 4866,
      "etzte": 4867,
      "ĠspÃ¼r": 4868,
      "Ġtest": 4869,
      "maÃŁ": 4870,
      "nor": 4871,
      "Ġgezogen": 4872,
      "Ġbereich": 4873,
      "Ġplatt": 4874,
      "Ġeure": 4875,
      "lose": 4876,
      "afel": 4877,
      "wilhelmine": 4878,
      "Ġbagger": 4879,
      "Ġaustr": 4880,
      "oline": 4881,
      "Ġkoffer": 4882,
      "Ġliter": 4883,
      "kannte": 4884,
      "ĠkÃ¼hl": 4885,
      "Ġfeier": 4886,
      "mme": 4887,
      "Ġflasche": 4888,
      "haha": 4889,
      "Ã¼tte": 4890,
      "Ġnovember": 4891,
      "llte": 4892,
      "gefahren": 4893,
      "artig": 4894,
      "weder": 4895,
      "getan": 4896,
      "Ġmittwoch": 4897,
      "Ġentdeckt": 4898,
      "nitten": 4899,
      "Ġmad": 4900,
      "Ġmerkte": 4901,
      "Ġtobias": 4902,
      "ahe": 4903,
      "feuer": 4904,
      "Ġschrie": 4905,
      "Ġmehreren": 4906,
      "Ġrock": 4907,
      "zwanzig": 4908,
      "ite": 4909,
      "steh": 4910,
      "Ġabs": 4911,
      "imeter": 4912,
      "Ġdez": 4913,
      "ĠÃ¼brig": 4914,
      "Ġschaden": 4915,
      "Ġput": 4916,
      "Ġentsprechen": 4917,
      "krank": 4918,
      "Ġwau": 4919,
      "Ġhom": 4920,
      "auen": 4921,
      "Ġerwider": 4922,
      "ollegen": 4923,
      "mpfe": 4924,
      "omotive": 4925,
      "aktion": 4926,
      "Ġkeller": 4927,
      "Ġter": 4928,
      "Ġsteckt": 4929,
      "Ġsogenannte": 4930,
      "Ġhon": 4931,
      "Ġlied": 4932,
      "Ġholt": 4933,
      "Ġamerika": 4934,
      "ystem": 4935,
      "Ġnannte": 4936,
      "Ġinse": 4937,
      "urteil": 4938,
      "zten": 4939,
      "entschul": 4940,
      "Ġdrinnen": 4941,
      "Ġfacebook": 4942,
      "Ġstrich": 4943,
      "Ġworten": 4944,
      "ĠnÃ¶tig": 4945,
      "\"-": 4946,
      "Ġmauer": 4947,
      "Ġzuhause": 4948,
      "ĠstÃ¤ndig": 4949,
      "Ġkolon": 4950,
      "ael": 4951,
      "drÃ¼cken": 4952,
      "Ġmitarbeiter": 4953,
      "Ġstieg": 4954,
      "ĠgerÃ¤t": 4955,
      "paÃŁ": 4956,
      "ĠlÃ¶wen": 4957,
      "ĠmÃ¶chtest": 4958,
      "Ġvorn": 4959,
      "ĠwÃ¤hl": 4960,
      "Ã¼lt": 4961,
      "Ġflucht": 4962,
      "zeiten": 4963,
      "ĠjÃ¼nger": 4964,
      "Ġfreundlich": 4965,
      "Ġwenigstens": 4966,
      "Ġsieh": 4967,
      "bÃ¼rger": 4968,
      "hose": 4969,
      "Ġfahrt": 4970,
      "Ġverkauf": 4971,
      "Ġniederl": 4972,
      "Ġehren": 4973,
      "ĠgÃ¤ste": 4974,
      "eier": 4975,
      "Ġvir": 4976,
      "Ġkons": 4977,
      "Ġrussischen": 4978,
      ".!": 4979,
      "Ġabsch": 4980,
      "Ã¶ffnet": 4981,
      "Ġdemokratie": 4982,
      "ĠÃ¤gyp": 4983,
      "Ġlebten": 4984,
      "Ġkleid": 4985,
      "Ġkroko": 4986,
      "wird": 4987,
      "Ġfolge": 4988,
      "Ġschliesslich": 4989,
      "Ġstart": 4990,
      "Ġabsol": 4991,
      "Ġbrem": 4992,
      "hoben": 4993,
      "ĠbehÃ¶r": 4994,
      "Ġjedenfalls": 4995,
      "Ġdicke": 4996,
      "oso": 4997,
      "ri": 4998,
      "eist": 4999,
      "Ġstro": 5000,
      "Ġeich": 5001,
      "Ġbedeuten": 5002,
      "Ġkritik": 5003,
      "Ġtransport": 5004,
      "tes": 5005,
      "eme": 5006,
      "verkehr": 5007,
      "Ġjugendliche": 5008,
      "ugen": 5009,
      "Ġok": 5010,
      "Ġkerl": 5011,
      "lern": 5012,
      "reten": 5013,
      "Ġschaf": 5014,
      "tiere": 5015,
      "Ġhem": 5016,
      "Ġkop": 5017,
      "Ġdunkl": 5018,
      "Ġgleiche": 5019,
      "hÃ¤user": 5020,
      "Ġinn": 5021,
      "Ġstefan": 5022,
      "fÃ¤lle": 5023,
      "Ġmitglied": 5024,
      "Ġpunkte": 5025,
      "ath": 5026,
      "Ġangaben": 5027,
      "fÃ¤llig": 5028,
      "Ġretten": 5029,
      "Ġsobald": 5030,
      "Ġspitze": 5031,
      "dreht": 5032,
      "ĠbrÃ¼der": 5033,
      "mi": 5034,
      "auern": 5035,
      "Ġbewer": 5036,
      "Ġniemals": 5037,
      "Ġmorgens": 5038,
      "Ġkennst": 5039,
      "schnell": 5040,
      "ohne": 5041,
      "park": 5042,
      "Ġbez": 5043,
      "echnet": 5044,
      "rein": 5045,
      "Ã¤chen": 5046,
      "Ġversuche": 5047,
      "ruf": 5048,
      "hÃ¤re": 5049,
      "Ġheutigen": 5050,
      "dil": 5051,
      "turm": 5052,
      "volle": 5053,
      "Ġkrei": 5054,
      "Ġoli": 5055,
      "wendig": 5056,
      "Ġwirtschafts": 5057,
      "Ġbehaup": 5058,
      "ohlen": 5059,
      "Ġhein": 5060,
      "Ġwieviel": 5061,
      "Ġgewissen": 5062,
      "Ġverstehe": 5063,
      "Ġahnung": 5064,
      "Ġnick": 5065,
      "Ã¤rchen": 5066,
      "wirklich": 5067,
      "Ġkoll": 5068,
      "insel": 5069,
      "Ġereig": 5070,
      "Ġjuli": 5071,
      "Ġschokolade": 5072,
      "Ġjungs": 5073,
      "Ġhierher": 5074,
      "Ġheran": 5075,
      "Ġlandschaft": 5076,
      "syl": 5077,
      "Ġzeug": 5078,
      "paul": 5079,
      "Ġbezeichnet": 5080,
      "ehren": 5081,
      "Ġhoffe": 5082,
      "Ġfreien": 5083,
      "Ġnahrung": 5084,
      "Ġknete": 5085,
      "ettet": 5086,
      "ĠÃ¼bern": 5087,
      "Ġstrassen": 5088,
      "Ġheft": 5089,
      "karten": 5090,
      "Ġzweimal": 5091,
      "iver": 5092,
      "Ġhistor": 5093,
      "Ġunion": 5094,
      "bed": 5095,
      "ĠwÃ¤hlen": 5096,
      "Ġverbunden": 5097,
      "Ġirgendwas": 5098,
      "Ġoper": 5099,
      "Ġschweizer": 5100,
      "Ġchines": 5101,
      "inter": 5102,
      "Ġfabrik": 5103,
      "ĠgroÃŁbritannien": 5104,
      "irk": 5105,
      "Ġgewohn": 5106,
      "Ġpassieren": 5107,
      "ĠmÃ¤nnern": 5108,
      "Ġkunden": 5109,
      "Ġfuss": 5110,
      "Ã¼nd": 5111,
      "sprache": 5112,
      "Ġkontroll": 5113,
      "utti": 5114,
      "Ġtraf": 5115,
      "don": 5116,
      "steht": 5117,
      "Ġgewinn": 5118,
      "Ġheisst": 5119,
      "Ġbrauch": 5120,
      "schuhe": 5121,
      "Ġerdbe": 5122,
      "Ġjesus": 5123,
      "Ġdesto": 5124,
      "Ġos": 5125,
      "Ġbehalten": 5126,
      "Ġeinander": 5127,
      "geber": 5128,
      "Ġpipi": 5129,
      "zip": 5130,
      "Ġthomas": 5131,
      "ĠhÃ¤ttest": 5132,
      "Ġwichtiger": 5133,
      "ire": 5134,
      "Ġzusch": 5135,
      "Ġklass": 5136,
      "spruch": 5137,
      "wurf": 5138,
      "Ġschornstein": 5139,
      "Ġausland": 5140,
      "Ġleichter": 5141,
      "Ġverbrei": 5142,
      "Ġstoff": 5143,
      "Ġspiegel": 5144,
      "Ġkostet": 5145,
      "Ġballa": 5146,
      "Ġdauern": 5147,
      "Ġenglisch": 5148,
      "bchen": 5149,
      "Ġmass": 5150,
      "Ġhasen": 5151,
      "Ġaufger": 5152,
      "Ġverhand": 5153,
      "ppelt": 5154,
      "Ġschuh": 5155,
      "aurant": 5156,
      "Ġseh": 5157,
      "Ġtab": 5158,
      "Ġpolen": 5159,
      "besch": 5160,
      "Ġproduz": 5161,
      "fein": 5162,
      "une": 5163,
      "Ġvorlesen": 5164,
      "ippe": 5165,
      "Ġyo": 5166,
      "ckung": 5167,
      "Ġwaschen": 5168,
      "Ġverbrau": 5169,
      "Ġburg": 5170,
      "Ġgrenzen": 5171,
      "auÃŁerdem": 5172,
      "Ġdezember": 5173,
      "ierungen": 5174,
      "Ġautom": 5175,
      "mack": 5176,
      "Ġrufen": 5177,
      "wander": 5178,
      "ĠdÃ¼": 5179,
      "auss": 5180,
      "Ġschlei": 5181,
      "geladen": 5182,
      "Ġbenutzt": 5183,
      "Ġhuhn": 5184,
      "Ġno": 5185,
      "Ġopt": 5186,
      "Ġkonfl": 5187,
      "kret": 5188,
      "Ġeinkaufen": 5189,
      "fÃ¤h": 5190,
      "vom": 5191,
      "Ġaufgabe": 5192,
      "uckt": 5193,
      "vert": 5194,
      "Ġcr": 5195,
      "schaffen": 5196,
      "Ġverdienen": 5197,
      "Ġstehe": 5198,
      "view": 5199,
      "Ġlila": 5200,
      "antwor": 5201,
      "Ġfu": 5202,
      "Ġthemen": 5203,
      "Ġdet": 5204,
      "Ġtur": 5205,
      "Ġvorder": 5206,
      "Ġliebl": 5207,
      "Ġkontakt": 5208,
      "ĠÃ¼berlegte": 5209,
      "Ġalex": 5210,
      "Ġaner": 5211,
      "ettel": 5212,
      "Ġausges": 5213,
      "Ġgumm": 5214,
      "Ġten": 5215,
      "Ġeingang": 5216,
      "Ġmitgebracht": 5217,
      "bruar": 5218,
      "ĠgemÃ¼": 5219,
      "ĠbestÃ¤t": 5220,
      "Ġelefant": 5221,
      "pekt": 5222,
      "Ġill": 5223,
      "ones": 5224,
      "istin": 5225,
      "wohin": 5226,
      "Ġknochen": 5227,
      "lok": 5228,
      "Ġgekl": 5229,
      "Ġpre": 5230,
      "spart": 5231,
      "gress": 5232,
      "Ġaua": 5233,
      "anze": 5234,
      "Ġrollen": 5235,
      "vis": 5236,
      "serv": 5237,
      "Ġsaison": 5238,
      "affe": 5239,
      "ĠvorÃ¼ber": 5240,
      "Ġentstand": 5241,
      "Ġcon": 5242,
      "ivil": 5243,
      "dio": 5244,
      "tunnel": 5245,
      "lad": 5246,
      "Ġpe": 5247,
      "Ġaufpassen": 5248,
      "Ġbreit": 5249,
      "Ġmusl": 5250,
      "Ġseitdem": 5251,
      "Ġkarl": 5252,
      "kultur": 5253,
      "ied": 5254,
      "Ġtrifft": 5255,
      "Ġselben": 5256,
      "bewegung": 5257,
      "gor": 5258,
      "Ġwitz": 5259,
      "Ġmy": 5260,
      "ĠeÃŁen": 5261,
      "Ġ22": 5262,
      "gesellschaft": 5263,
      "geschrieben": 5264,
      "ĠÃ¼b": 5265,
      "Ġmetall": 5266,
      "alisierung": 5267,
      "âĢĿ.": 5268,
      "Ġgeschlecht": 5269,
      "alte": 5270,
      "Ġlagen": 5271,
      "ĠfrÃ¼hl": 5272,
      "gien": 5273,
      "Ġhob": 5274,
      "illen": 5275,
      "wieviel": 5276,
      "Ġoliver": 5277,
      "cr": 5278,
      "gier": 5279,
      "..!": 5280,
      "werden": 5281,
      "Ġgelbe": 5282,
      "meer": 5283,
      "Ġeigenes": 5284,
      "hinter": 5285,
      "bogen": 5286,
      "super": 5287,
      "mÃ¼t": 5288,
      "Ġrhein": 5289,
      "tens": 5290,
      "Ġhinab": 5291,
      "Ġhauses": 5292,
      "stÃ¼cke": 5293,
      "gart": 5294,
      "ĠgegrÃ¼n": 5295,
      "Ġsowieso": 5296,
      "ĠgerÃ¤u": 5297,
      "sphÃ¤re": 5298,
      "ammen": 5299,
      "Ġfilme": 5300,
      "Ġerfolgreich": 5301,
      "ĠeuropÃ¤ische": 5302,
      "ĠstÃ¤dten": 5303,
      "Ġstrecke": 5304,
      "Ġnest": 5305,
      "Ġhafen": 5306,
      "Ġgeschafft": 5307,
      "ausende": 5308,
      "Ġfebruar": 5309,
      "fst": 5310,
      "Ġeindruck": 5311,
      "arn": 5312,
      "Ġpuppen": 5313,
      "ĠanhÃ¤nger": 5314,
      "Ġgradeaus": 5315,
      "Ġerwiderte": 5316,
      "Ġgans": 5317,
      "ĠbÃ¤ren": 5318,
      "Ġschatten": 5319,
      "Ġrob": 5320,
      "hÃ¶rnchen": 5321,
      "Ġwunderbar": 5322,
      "ĠrÃ¤der": 5323,
      ".)": 5324,
      "Ġdienstag": 5325,
      "aha": 5326,
      "Ġeinfluss": 5327,
      "ĠverrÃ¼ckt": 5328,
      "dazu": 5329,
      "Ġnah": 5330,
      "Ġwirklichkeit": 5331,
      "richtung": 5332,
      "ĠflÃ¼chtlinge": 5333,
      "famil": 5334,
      "Ġah": 5335,
      "Ġfc": 5336,
      "Ġversp": 5337,
      "ĠmÃ¤nnchen": 5338,
      "ĠvorwÃ¤rts": 5339,
      "ienten": 5340,
      "ppt": 5341,
      "Ġzweifel": 5342,
      "Ġseele": 5343,
      "Ġdeckel": 5344,
      "Ġhochzeit": 5345,
      "formen": 5346,
      "Ġfahrer": 5347,
      "Ġschnei": 5348,
      "jeder": 5349,
      "ĠrÃ¤u": 5350,
      "Ġberge": 5351,
      "Ġnamens": 5352,
      "ĠgefÃ¼hrt": 5353,
      "Ġlebensmittel": 5354,
      "Ġsorge": 5355,
      "eines": 5356,
      "unk": 5357,
      "int": 5358,
      "Ġstutt": 5359,
      "angel": 5360,
      "Ġverkehrs": 5361,
      "ĠdrÃ¼cken": 5362,
      "Ġvieles": 5363,
      "Ġbesucher": 5364,
      "hild": 5365,
      "mensch": 5366,
      "ĠgenÃ¼": 5367,
      "ya": 5368,
      "Ġeinsam": 5369,
      "ament": 5370,
      "dan": 5371,
      "mÃ¤h": 5372,
      "Ã¡": 5373,
      "Ġtue": 5374,
      "Ġolymp": 5375,
      "Ġasien": 5376,
      "mich": 5377,
      "jahre": 5378,
      "Ġbeinahe": 5379,
      "kamen": 5380,
      "tuch": 5381,
      "irge": 5382,
      "rop": 5383,
      "Ġkletter": 5384,
      "bilder": 5385,
      "Ġsturm": 5386,
      "Ġspanien": 5387,
      "Ġerschien": 5388,
      "laÃŁ": 5389,
      "maschine": 5390,
      "eltsam": 5391,
      "strich": 5392,
      "Ġschnitt": 5393,
      "Ġerlebt": 5394,
      "ĠhÃ¼bsch": 5395,
      "dit": 5396,
      "gute": 5397,
      "Ġgesetzt": 5398,
      "Ġfremden": 5399,
      "Ġchef": 5400,
      "hop": 5401,
      "Ġhase": 5402,
      "Ġbor": 5403,
      "leg": 5404,
      "rechte": 5405,
      "ĠgroÃŁmutter": 5406,
      "Ġglaubt": 5407,
      "Ġwichtigsten": 5408,
      "nissen": 5409,
      "sack": 5410,
      "Ġass": 5411,
      "stes": 5412,
      "etwas": 5413,
      "Ġtim": 5414,
      "Ġschiffe": 5415,
      "Ġgesundheit": 5416,
      "Ġprobieren": 5417,
      "Ġreal": 5418,
      "Ġarab": 5419,
      "wind": 5420,
      "woher": 5421,
      "groÃŁ": 5422,
      "seine": 5423,
      "toll": 5424,
      "scheln": 5425,
      "ĠÃ¼berleben": 5426,
      "krÃ¤fte": 5427,
      "pert": 5428,
      "Ġindien": 5429,
      "Ġwirkt": 5430,
      "Ġtrink": 5431,
      "Ġkriegs": 5432,
      "Ġfehlen": 5433,
      "leitung": 5434,
      "chern": 5435,
      "ĠlÃ¤rm": 5436,
      "ĠbefÃ¼r": 5437,
      "Ġleucht": 5438,
      "ehrlich": 5439,
      "ĠlieÃŁen": 5440,
      "klÃ¤r": 5441,
      "Ġzeig": 5442,
      "Ġhalbe": 5443,
      "Ġtodes": 5444,
      "krimin": 5445,
      "Ġrett": 5446,
      "Ġbrauchte": 5447,
      "Ġroman": 5448,
      "andern": 5449,
      "Ġsowohl": 5450,
      "Ã¤ngst": 5451,
      "stimmung": 5452,
      "Ġeiniger": 5453,
      "mitglie": 5454,
      "Ġberichtet": 5455,
      "Ã¼cken": 5456,
      "Ġaltes": 5457,
      "staaten": 5458,
      "Ġtiefer": 5459,
      "ĠkapitÃ¤n": 5460,
      "Ġhas": 5461,
      "chthild": 5462,
      "Ġrevolution": 5463,
      "Ġschlagen": 5464,
      "ĠhÃ¶re": 5465,
      "packt": 5466,
      "ĠÃ¶ffnen": 5467,
      "Ġfried": 5468,
      "Ġbietet": 5469,
      "mbol": 5470,
      "Ġweinen": 5471,
      "gezogen": 5472,
      "ĠsÃ¼ÃŁ": 5473,
      "Ġminder": 5474,
      "Ġbienen": 5475,
      "Ġhindurch": 5476,
      "Ġhann": 5477,
      "Ġneg": 5478,
      "Ġgelben": 5479,
      "Ġengag": 5480,
      "dach": 5481,
      "Ġsw": 5482,
      "ĠtÃ¤t": 5483,
      "Ġwiederum": 5484,
      "Ġorient": 5485,
      "Ġfotos": 5486,
      "Ġsign": 5487,
      "Ġfans": 5488,
      "Ġot": 5489,
      "rak": 5490,
      "Ġkonzentr": 5491,
      "Ġdorthin": 5492,
      "Ġbestand": 5493,
      "Ġvermut": 5494,
      "Ġfelsen": 5495,
      "Ġsteigt": 5496,
      "Ġlandwirtschaft": 5497,
      "Ġdahinter": 5498,
      "Ġkleidung": 5499,
      "Ġverschwunden": 5500,
      "flÃ¼": 5501,
      "essel": 5502,
      "Ġruft": 5503,
      "Ġorange": 5504,
      "musik": 5505,
      "Ġjunger": 5506,
      "Ġprofessor": 5507,
      "tor": 5508,
      "Ġwesen": 5509,
      "Ġki": 5510,
      "lligen": 5511,
      "Ġanal": 5512,
      "Ġausgesch": 5513,
      "Ġwerfen": 5514,
      "Ġ23": 5515,
      "Ġvertrauen": 5516,
      "Ġfett": 5517,
      "Ã¶rung": 5518,
      "pfte": 5519,
      "komme": 5520,
      "Ġautob": 5521,
      "Ġstrand": 5522,
      "Ġeinzigen": 5523,
      "Ġbewegt": 5524,
      "freund": 5525,
      "Ġentschieden": 5526,
      "ĠgewÃ¤hlt": 5527,
      "Ġgelesen": 5528,
      "ĠwÃ¼rdest": 5529,
      "helfen": 5530,
      "Ġperfe": 5531,
      "stellungen": 5532,
      "Ġlanger": 5533,
      "Ġschrank": 5534,
      "Ġlaufe": 5535,
      "Ġasyl": 5536,
      "Ġstall": 5537,
      "Ġgraf": 5538,
      "ĠstÃ¼ckchen": 5539,
      "Ġbedeutung": 5540,
      "Ġleipzig": 5541,
      "Ġhum": 5542,
      "Ġaufgrund": 5543,
      "ehrt": 5544,
      "Ġkling": 5545,
      "Ġteppich": 5546,
      "Ġglaubte": 5547,
      "stren": 5548,
      "Ġlinie": 5549,
      "Ġmeeres": 5550,
      "ĠmÃ¼ssten": 5551,
      "zunehmen": 5552,
      "fung": 5553,
      "Ġsprang": 5554,
      "Ġkapitel": 5555,
      "Ġ80": 5556,
      "zeln": 5557,
      "Ġsat": 5558,
      "Ġlast": 5559,
      "Ġzufolge": 5560,
      "Ġgehirn": 5561,
      "Ġabgel": 5562,
      "Ġsteu": 5563,
      "yl": 5564,
      "Ġban": 5565,
      "gefÃ¼": 5566,
      "Ġbeginnen": 5567,
      "Ġpublik": 5568,
      "Ġbemerkte": 5569,
      "greifen": 5570,
      "Ġholl": 5571,
      "Ġbeute": 5572,
      "ĠzÃ¼ge": 5573,
      "arzt": 5574,
      "Ġtanzen": 5575,
      "ission": 5576,
      "Ġ2022": 5577,
      "chnungen": 5578,
      "Ġfurchtbar": 5579,
      "unternehmen": 5580,
      "Ġlande": 5581,
      "ucken": 5582,
      "gewÃ¶hn": 5583,
      "Ġverdient": 5584,
      "Ġbring": 5585,
      "hindern": 5586,
      "rufen": 5587,
      "mÃ¶chte": 5588,
      "ĠdÃ¼rfte": 5589,
      "ihre": 5590,
      "Ġgeschwind": 5591,
      "Ġdiskut": 5592,
      "kohol": 5593,
      "trotz": 5594,
      "union": 5595,
      "Ġlas": 5596,
      "igar": 5597,
      "ssig": 5598,
      "Ġjur": 5599,
      "otten": 5600,
      "Ġkohlen": 5601,
      "Ġsolcher": 5602,
      "Ġquad": 5603,
      "ĠursprÃ¼n": 5604,
      "Ġreparieren": 5605,
      "Ã¤ufer": 5606,
      "ĠwÃ¤chst": 5607,
      "ĠunterstÃ¼tzung": 5608,
      "Ġafrik": 5609,
      "Ġastr": 5610,
      "Ġverh": 5611,
      "Ġinteressant": 5612,
      "wissenschaft": 5613,
      "Ġjeweils": 5614,
      "Ġkrokodil": 5615,
      "atik": 5616,
      "strasse": 5617,
      "Ġschmei": 5618,
      "programm": 5619,
      "Ġeinzelne": 5620,
      "ton": 5621,
      "endet": 5622,
      "Ġerfr": 5623,
      "Ġwillen": 5624,
      "ĠmÃ¼he": 5625,
      "Ġversteht": 5626,
      "Ġschweren": 5627,
      "holz": 5628,
      "Ġplaneten": 5629,
      "Ġinsekten": 5630,
      "10": 5631,
      "Ġsogleich": 5632,
      "Ġstets": 5633,
      "drich": 5634,
      "kao": 5635,
      "Ġrahmen": 5636,
      "Ġfalsche": 5637,
      "Ġrestaurant": 5638,
      "cl": 5639,
      "Ġimm": 5640,
      "Ġverhindern": 5641,
      "ratet": 5642,
      "Ġbildung": 5643,
      "ĠmÃ¤use": 5644,
      "rich": 5645,
      "Ġdasselbe": 5646,
      "Ġengel": 5647,
      "Ġfreunden": 5648,
      "Ġfolgte": 5649,
      "nu": 5650,
      "raus": 5651,
      "Ġap": 5652,
      "Ġnad": 5653,
      "raut": 5654,
      "haltung": 5655,
      "mund": 5656,
      "Ġskla": 5657,
      "Ġkass": 5658,
      "Ġzivil": 5659,
      "schÃ¼": 5660,
      "orge": 5661,
      "Ġbewohner": 5662,
      "Ġfrisch": 5663,
      "verein": 5664,
      "Ġafd": 5665,
      "dir": 5666,
      "kw": 5667,
      "Ġfell": 5668,
      "ittel": 5669,
      "Ġ70": 5670,
      "kehrt": 5671,
      "Ġgeneration": 5672,
      "nÃ¶": 5673,
      "west": 5674,
      "ĠtÃ¶n": 5675,
      "Ã¤nk": 5676,
      "angt": 5677,
      "kommst": 5678,
      "Ġaktuell": 5679,
      "Ġjugendlichen": 5680,
      "ĠmÃ¤rchen": 5681,
      "Ġmh": 5682,
      "Ġthun": 5683,
      "Ġ2014": 5684,
      "Ġfirma": 5685,
      "ju": 5686,
      "sechs": 5687,
      "Ġmannschaft": 5688,
      "eigentlich": 5689,
      "Ġdicken": 5690,
      "ĠverÃ¶ffent": 5691,
      "Ġkern": 5692,
      "Ġvertrag": 5693,
      "enne": 5694,
      "Ġsolange": 5695,
      "Ġtopf": 5696,
      "Ġrespekt": 5697,
      "Ġfrankfurt": 5698,
      "legt": 5699,
      "Ġbaut": 5700,
      "ĠglÃ¤n": 5701,
      "stÃ¤d": 5702,
      "Ġeinf": 5703,
      "Ġohn": 5704,
      "spieler": 5705,
      "schwein": 5706,
      "Ġergebnis": 5707,
      "ube": 5708,
      "Ġul": 5709,
      "Ġeinger": 5710,
      "eli": 5711,
      "Ġjagd": 5712,
      "stete": 5713,
      "Ġwurst": 5714,
      "Ġkurze": 5715,
      "Ġbenutzen": 5716,
      "Ġuntersuch": 5717,
      "dacht": 5718,
      "glau": 5719,
      "mark": 5720,
      "igin": 5721,
      "Ġweisst": 5722,
      "neben": 5723,
      "ĠwÃ¤l": 5724,
      "Ġschwere": 5725,
      "Ġextra": 5726,
      "Ġartikel": 5727,
      "Ġerneut": 5728,
      "ĠprÃ¤sent": 5729,
      "siehste": 5730,
      "nehm": 5731,
      "Ġseltsam": 5732,
      "Ġlch": 5733,
      "Ġkathol": 5734,
      "ight": 5735,
      "rÃ¤ge": 5736,
      "Ġgelassen": 5737,
      "erseits": 5738,
      "Ġkomisch": 5739,
      "mÃ¶gen": 5740,
      "Ġvan": 5741,
      "lli": 5742,
      "Ġsong": 5743,
      "ĠzÃ¼rich": 5744,
      "Ġwauwau": 5745,
      "ki": 5746,
      "Ġversamm": 5747,
      "Ġausbildung": 5748,
      "olit": 5749,
      "dafÃ¼r": 5750,
      "verl": 5751,
      "zend": 5752,
      "stellte": 5753,
      "Ġfindest": 5754,
      "Ġfreiwill": 5755,
      "Ġernie": 5756,
      "kau": 5757,
      "kÃ¶r": 5758,
      "rum": 5759,
      "aua": 5760,
      "Ġschlau": 5761,
      "Ġbrille": 5762,
      "Ġenten": 5763,
      "Ġstraf": 5764,
      "Ġletzter": 5765,
      "Ġunterschiedlich": 5766,
      "Ġinteressiert": 5767,
      "hard": 5768,
      "ochte": 5769,
      "anda": 5770,
      "Ġparty": 5771,
      "Ġbom": 5772,
      "ĠkÃ¶": 5773,
      "ĠkÃ¤l": 5774,
      "ierter": 5775,
      "eilung": 5776,
      "gelb": 5777,
      "Ġfiguren": 5778,
      "Ġkollegen": 5779,
      "Ġze": 5780,
      "frist": 5781,
      "Ġsoziale": 5782,
      "ac": 5783,
      "Ġthr": 5784,
      "Ġtannen": 5785,
      "steckt": 5786,
      "Ġdreht": 5787,
      "ĠregelmÃ¤ÃŁig": 5788,
      "aster": 5789,
      "Ġmist": 5790,
      "Ġgeraten": 5791,
      "Ġkeines": 5792,
      "Ġbelieb": 5793,
      "Ġstudieren": 5794,
      "Ġfigur": 5795,
      "brÃ¼cke": 5796,
      "zÃ¼n": 5797,
      "Ġsh": 5798,
      "undzwanzig": 5799,
      "etchen": 5800,
      "Ġganzes": 5801,
      "Ġexpl": 5802,
      "Ġmas": 5803,
      "Ġmord": 5804,
      "schwar": 5805,
      "Ġschein": 5806,
      "tend": 5807,
      "Ġandr": 5808,
      "iller": 5809,
      "Ġsitze": 5810,
      "stift": 5811,
      "Ġkiste": 5812,
      "Ġnachhalt": 5813,
      "Ġlecker": 5814,
      "iment": 5815,
      "Ġstudien": 5816,
      "Ġausgest": 5817,
      "Ġstarken": 5818,
      "Ġvergangenheit": 5819,
      "fÃ¤hrt": 5820,
      "Ġtafel": 5821,
      "Ġanger": 5822,
      "Ġaltern": 5823,
      "Ġprozess": 5824,
      "fliegen": 5825,
      "Ġpresse": 5826,
      "bleiben": 5827,
      "kul": 5828,
      "sagen": 5829,
      "Ġlern": 5830,
      "Ġwoher": 5831,
      "hafte": 5832,
      "ĠgerÃ¼": 5833,
      "Ġ500": 5834,
      "jekte": 5835,
      "Ġliebsten": 5836,
      "ble": 5837,
      "Ġbre": 5838,
      "etzung": 5839,
      "Ġflor": 5840,
      "andere": 5841,
      "Ġschmutz": 5842,
      "Ġtiefe": 5843,
      "Ġzuschauer": 5844,
      "Ġgearbeitet": 5845,
      "Ġsieb": 5846,
      "isa": 5847,
      "ike": 5848,
      "Ġgriff": 5849,
      "Ġmuseum": 5850,
      "christ": 5851,
      "lhr": 5852,
      "Ġddr": 5853,
      "Ġwunsch": 5854,
      "Ã¤s": 5855,
      "sport": 5856,
      "chef": 5857,
      "Ġchem": 5858,
      "Ġthat": 5859,
      "ĠlaÃŁ": 5860,
      "Ġkino": 5861,
      "milch": 5862,
      "drÃ¼ck": 5863,
      "vÃ¶": 5864,
      "ĠkÃ¶l": 5865,
      "Ġbislang": 5866,
      "Ġeil": 5867,
      "getragen": 5868,
      "ĠÃ¶ffentlichen": 5869,
      "Ġscharf": 5870,
      "Ġentschul": 5871,
      "ivi": 5872,
      "Ġbezahlt": 5873,
      "com": 5874,
      "Ġgre": 5875,
      "Ġangesch": 5876,
      "Ġaufw": 5877,
      "Ġ2015": 5878,
      "Ġniklas": 5879,
      "ĠrÃ¤uber": 5880,
      "cosima": 5881,
      "moment": 5882,
      "olaus": 5883,
      "ĠtrÃ¤nen": 5884,
      "ildet": 5885,
      "ĠkÃ¼mmern": 5886,
      "packen": 5887,
      "ĠlÃ¶sung": 5888,
      "riere": 5889,
      "Ġsmart": 5890,
      "Ġhubschrauber": 5891,
      "Ġerlaubt": 5892,
      "Ġwirken": 5893,
      "Ġwartet": 5894,
      "ĠunmÃ¶glich": 5895,
      "Ġverstand": 5896,
      "Ġorgan": 5897,
      "ĠgrÃ¶ÃŁere": 5898,
      "Ġbieten": 5899,
      "Ġalkohol": 5900,
      "osition": 5901,
      "Ġreis": 5902,
      "Ġangefangen": 5903,
      "Ġfeiern": 5904,
      "Ġgeheimnis": 5905,
      "xen": 5906,
      "Ġsehn": 5907,
      "ring": 5908,
      "Ġschil": 5909,
      "Ġmitteil": 5910,
      "Ġdurchs": 5911,
      "Ġschnabel": 5912,
      "Ġwichtigste": 5913,
      "Ġschicken": 5914,
      "mper": 5915,
      "tau": 5916,
      "inik": 5917,
      "ĠallmÃ¤h": 5918,
      "Ġsteh": 5919,
      "Ġentschl": 5920,
      "menschen": 5921,
      "Ġbezeich": 5922,
      "isieren": 5923,
      "Ġweibchen": 5924,
      "Ġgeholt": 5925,
      "mpfer": 5926,
      "stÃ¤t": 5927,
      "Ġaufgenommen": 5928,
      "ney": 5929,
      "gerade": 5930,
      "Ġtritt": 5931,
      "oper": 5932,
      "Ġdiskuss": 5933,
      "Ġschmerz": 5934,
      "mami": 5935,
      "Ġbast": 5936,
      "rÃ¤umt": 5937,
      "Ġmars": 5938,
      "ĠkÃ¼ste": 5939,
      "Ġtreppen": 5940,
      "ministerium": 5941,
      "Ġintegr": 5942,
      "ĠgegrÃ¼ndet": 5943,
      "grÃ¼": 5944,
      "sw": 5945,
      "Ġwahn": 5946,
      "Ġbobo": 5947,
      "Ġkandid": 5948,
      "Ġerr": 5949,
      "Ġnachricht": 5950,
      "Ġums": 5951,
      "leiter": 5952,
      "Ġsaft": 5953,
      "Ġwolken": 5954,
      "Ġfirmen": 5955,
      "Ġisses": 5956,
      "Ġsamen": 5957,
      "Ġentweder": 5958,
      "Ġstudenten": 5959,
      "Ġhonig": 5960,
      "traum": 5961,
      "Ġausgel": 5962,
      "Ġmehrheit": 5963,
      "Ġhandel": 5964,
      "ĠzÃ¤hlen": 5965,
      "ĠdrÃ¼ck": 5966,
      "Ġmaschinen": 5967,
      "Ġvorhin": 5968,
      "treter": 5969,
      "Ġdrinne": 5970,
      "kehren": 5971,
      "Ġerinnerung": 5972,
      "unt": 5973,
      "Ġlasse": 5974,
      "olf": 5975,
      "stecken": 5976,
      "ĠprÃ¤sidenten": 5977,
      "Ġgesetze": 5978,
      "ancen": 5979,
      "ĠfrÃ¶h": 5980,
      "dlichen": 5981,
      "res": 5982,
      "ĠmÃ¤": 5983,
      "Ġhit": 5984,
      "Ġbitten": 5985,
      "Ġwieso": 5986,
      "Ġruf": 5987,
      "Ġschneiden": 5988,
      "Ġ2016": 5989,
      "Ġgeschenkt": 5990,
      "let": 5991,
      "zchen": 5992,
      "Ġlar": 5993,
      "ĠgemÃ¼se": 5994,
      "Ġpuzzle": 5995,
      "15": 5996,
      "zert": 5997,
      "Ã¼rf": 5998,
      "Ġfrucht": 5999,
      "Ġhintergrund": 6000,
      "hy": 6001,
      "unen": 6002,
      "Ġfie": 6003,
      "Ġsieg": 6004,
      "Ġausziehen": 6005,
      "werfen": 6006,
      "Ġbeliebt": 6007,
      "Ġbekannte": 6008,
      "Ġphiloso": 6009,
      "Ġerl": 6010,
      "isen": 6011,
      "Ġbras": 6012,
      "Ġtreu": 6013,
      "ippt": 6014,
      "Ġerschienen": 6015,
      "welches": 6016,
      "ĠbÃ¼rgermeister": 6017,
      "Ġerfunden": 6018,
      "Ġschrecklich": 6019,
      "schirm": 6020,
      "eule": 6021,
      "agten": 6022,
      "zustellen": 6023,
      "ĠmÃ¶glichkeiten": 6024,
      "Ġ2021": 6025,
      "Ġkontrolle": 6026,
      "ĠbekÃ¤": 6027,
      "Ġvieler": 6028,
      "sichtlich": 6029,
      "frÃ¼her": 6030,
      "pauline": 6031,
      "einige": 6032,
      "Ġderselben": 6033,
      "Ġkost": 6034,
      "Ġkomplett": 6035,
      "oc": 6036,
      "tÃ¤u": 6037,
      "Ġ000": 6038,
      "ĠfÃ¼hlt": 6039,
      "gab": 6040,
      "kanzler": 6041,
      "otte": 6042,
      "Ġgering": 6043,
      "Ġinterview": 6044,
      "Ġzigar": 6045,
      "usse": 6046,
      "haste": 6047,
      "Ġteilweise": 6048,
      "Ġzieh": 6049,
      "Ġtouristen": 6050,
      "ĠhÃ¼hner": 6051,
      "ĠallmÃ¤hlich": 6052,
      "fle": 6053,
      "Ġaffen": 6054,
      "Ġmassen": 6055,
      "Ġumgebung": 6056,
      "digte": 6057,
      "heiÃŁ": 6058,
      "Ġinteresse": 6059,
      "Ġsymbol": 6060,
      "Ġfreuen": 6061,
      "Ġansehen": 6062,
      "waren": 6063,
      "schlieÃŁlich": 6064,
      "zieht": 6065,
      "Ġverbindung": 6066,
      "Ġschnu": 6067,
      "ĠlÃ¶we": 6068,
      "Ġbuben": 6069,
      "Ġ90": 6070,
      "Ġantworten": 6071,
      "ĠtÃ¤glich": 6072,
      "fang": 6073,
      "vi": 6074,
      "Ġrenn": 6075,
      "Ã¤hrung": 6076,
      "Ġpfarr": 6077,
      "Ġideen": 6078,
      "Ġschweden": 6079,
      "Ġjener": 6080,
      "unten": 6081,
      "mmen": 6082,
      "Ġstahl": 6083,
      "Ġstreifen": 6084,
      "Ġsorgt": 6085,
      "deutschland": 6086,
      "imal": 6087,
      "ĠjÃ¼d": 6088,
      "Ġgeschlafen": 6089,
      "flie": 6090,
      "Ġehrlich": 6091,
      "schlÃ¤ge": 6092,
      "arch": 6093,
      "Ġtust": 6094,
      "Ġschritte": 6095,
      ".,": 6096,
      "Ġbitter": 6097,
      "Ġwochenende": 6098,
      "ĠjÃ¼ng": 6099,
      "ĠlÃ¤cheln": 6100,
      "lings": 6101,
      "Ġtuch": 6102,
      "ĠkÃ¶nigs": 6103,
      "ket": 6104,
      "ment": 6105,
      "ash": 6106,
      "Ã¤nden": 6107,
      "Ġtreten": 6108,
      "ĠdreiÃŁig": 6109,
      "hÃ¤ngt": 6110,
      "ĠbÃ¼hne": 6111,
      "stuhl": 6112,
      "ĠzÃ¤hlt": 6113,
      "va": 6114,
      "ĠzÃ¼": 6115,
      "Ġangen": 6116,
      "Ġbericht": 6117,
      "Ġtemper": 6118,
      "kete": 6119,
      "ĠÃ¶fter": 6120,
      "Ġpfei": 6121,
      "Ġtotal": 6122,
      "Ġzunehmen": 6123,
      "Ġnimmst": 6124,
      "gelt": 6125,
      "mond": 6126,
      "Ġmisch": 6127,
      "asi": 6128,
      "Ã¼m": 6129,
      "Ġpause": 6130,
      "istan": 6131,
      "Ġmichael": 6132,
      "Ġhandeln": 6133,
      "schied": 6134,
      "Ġvaters": 6135,
      "Ġstarke": 6136,
      "Ġtonband": 6137,
      "Ġosterhase": 6138,
      "aust": 6139,
      "Ġlog": 6140,
      "..?": 6141,
      "Ġmex": 6142,
      "Ġ2020": 6143,
      "Ġmie": 6144,
      "Ġlippen": 6145,
      "Ġalb": 6146,
      "drau": 6147,
      "iam": 6148,
      "preis": 6149,
      "Ġsus": 6150,
      "orte": 6151,
      "Ġliebes": 6152,
      "Ġgift": 6153,
      "Ġnudeln": 6154,
      "Ġbacken": 6155,
      "Ġstuttgart": 6156,
      "ebt": 6157,
      "Ġward": 6158,
      "neun": 6159,
      "Ġmannes": 6160,
      "Ġsar": 6161,
      "Ġblume": 6162,
      "Ġstudie": 6163,
      "Ġsicherheits": 6164,
      "ĠhÃ¼gel": 6165,
      "Ġlokomotive": 6166,
      "bleib": 6167,
      "Ġindi": 6168,
      "Ġklotz": 6169,
      "Ġnormalerweise": 6170,
      "Ġprofit": 6171,
      "augen": 6172,
      "Ġtolle": 6173,
      "perrt": 6174,
      "Ġangekommen": 6175,
      "Ġrussische": 6176,
      "Ġcaroline": 6177,
      "bein": 6178,
      "Ġrennen": 6179,
      "ĠjÃ¤ger": 6180,
      "ĠgroÃŁvater": 6181,
      "Ġwohnzimmer": 6182,
      "Ġbefinden": 6183,
      "ifiz": 6184,
      "Ġgegner": 6185,
      "Ġdokument": 6186,
      "ĠbehÃ¶rden": 6187,
      "Ġhinweg": 6188,
      "schafts": 6189,
      "ĠbegrÃ¼": 6190,
      "yer": 6191,
      "unnen": 6192,
      "ĠgÃ¼nst": 6193,
      "Ġklassen": 6194,
      "Ġbeton": 6195,
      "Ġorte": 6196,
      "ĠgrÃ¼nden": 6197,
      "Ġdiener": 6198,
      "Ġerhielt": 6199,
      "sextrem": 6200,
      "kÃ¼r": 6201,
      "Ġsach": 6202,
      "Ġiniti": 6203,
      "gert": 6204,
      "uppa": 6205,
      "Ġposition": 6206,
      "Ġbart": 6207,
      "Ġnehm": 6208,
      "ĠschÃ¤d": 6209,
      "Ġarch": 6210,
      "Ġgerecht": 6211,
      "ĠbenÃ¶t": 6212,
      "Ġinseln": 6213,
      "Ġminute": 6214,
      "Ġbehinder": 6215,
      "Ġcorona": 6216,
      "fuÃŁ": 6217,
      "ose": 6218,
      "Ġjack": 6219,
      "reift": 6220,
      "Ġlux": 6221,
      "Ġfahre": 6222,
      "regen": 6223,
      "Ġherbei": 6224,
      "Ġschlimmer": 6225,
      "artigen": 6226,
      "Ġfahrzeug": 6227,
      "Ġentwickeln": 6228,
      "ĠtrÃ¤ume": 6229,
      "ĠflieÃŁt": 6230,
      "groÃŁe": 6231,
      "Ġlhre": 6232,
      "ĠzerstÃ¶rt": 6233,
      "maus": 6234,
      "tur": 6235,
      "Ġesse": 6236,
      "waschen": 6237,
      "Ġgebiete": 6238,
      "Ġtoil": 6239,
      "Ġfreilich": 6240,
      "hausen": 6241,
      "Ġbefrei": 6242,
      "Ġgeschenk": 6243,
      "feln": 6244,
      "lager": 6245,
      "szen": 6246,
      "xt": 6247,
      "Ġweint": 6248,
      "Ġverzwei": 6249,
      "Ġstil": 6250,
      "Ġfreut": 6251,
      "illa": 6252,
      "Ġhergestellt": 6253,
      "Ġfinn": 6254,
      "Ġserie": 6255,
      "Ġangebot": 6256,
      "Ġgelegenheit": 6257,
      "anlage": 6258,
      "techn": 6259,
      "Ġ27": 6260,
      "Ġleist": 6261,
      "Ġpolitisch": 6262,
      "Ġnull": 6263,
      "ĠfÃ¶rder": 6264,
      "ĠfrÃ¼hling": 6265,
      "cy": 6266,
      "Ġwachte": 6267,
      "inchen": 6268,
      "bring": 6269,
      "Ġgleichsam": 6270,
      "lant": 6271,
      "Ġseu": 6272,
      "Ġturn": 6273,
      "mmel": 6274,
      "ĠschlieÃŁen": 6275,
      "Ġspringen": 6276,
      "gehend": 6277,
      "ĠfranzÃ¶sischen": 6278,
      "ĠbrÃ¤": 6279,
      "Ġlad": 6280,
      "ĠmÃ¶chten": 6281,
      "ĠgrÃ¶ÃŁe": 6282,
      "Ġschreib": 6283,
      "gewalt": 6284,
      "Ġ2017": 6285,
      "ĠhÃ¤schen": 6286,
      "Ġprinz": 6287,
      "Ġukrain": 6288,
      "ii": 6289,
      "win": 6290,
      "Ġhalle": 6291,
      "mosphÃ¤re": 6292,
      "gas": 6293,
      "Ġbord": 6294,
      "schmer": 6295,
      "ĠanschlieÃŁen": 6296,
      "Ġvoraus": 6297,
      "Ġhattest": 6298,
      "Ġdikt": 6299,
      "ĠwÃ¼nschen": 6300,
      "brauch": 6301,
      "Ġklimawand": 6302,
      "ĠdÃ¤n": 6303,
      "gegeben": 6304,
      "Ġschlief": 6305,
      "Ġmarie": 6306,
      "Ġfeind": 6307,
      "fÃ¶r": 6308,
      "fÃ¤lt": 6309,
      "Ġanstren": 6310,
      "ĠrÃ¶mer": 6311,
      "Ġbehandelt": 6312,
      "Ġbeziehung": 6313,
      "tier": 6314,
      "Ġscher": 6315,
      "ocht": 6316,
      "Ġstabil": 6317,
      "Ġ28": 6318,
      "ĠkÃ¶nntest": 6319,
      "Ġschlechte": 6320,
      "mode": 6321,
      "kre": 6322,
      "orgung": 6323,
      "Ġobst": 6324,
      "Ġsolltest": 6325,
      "Ġaufmerksamkeit": 6326,
      "bett": 6327,
      "higen": 6328,
      "jem": 6329,
      "ny": 6330,
      "ĠhÃ¼tte": 6331,
      "Ġbach": 6332,
      "ffekt": 6333,
      "Ġbrach": 6334,
      "quem": 6335,
      "Ġhaufen": 6336,
      "Ġstattdessen": 6337,
      "Ġbauernhof": 6338,
      "Ġnutzer": 6339,
      "ĠÃ¤gypten": 6340,
      "Ġquadrat": 6341,
      "Ġbibel": 6342,
      "ley": 6343,
      "gericht": 6344,
      "opfen": 6345,
      "Ġbegeister": 6346,
      "achtete": 6347,
      "Ġgeneral": 6348,
      "Ġkartoffeln": 6349,
      "rut": 6350,
      "ĠgemÃ¼t": 6351,
      "ĠgetrÃ¤umt": 6352,
      "stÃ¤nden": 6353,
      "Ġfeste": 6354,
      "Ġzeige": 6355,
      "ĠzurÃ¼ckzu": 6356,
      "Ġbilderbuch": 6357,
      "Ġproduktion": 6358,
      "stoffe": 6359,
      "diger": 6360,
      "ziel": 6361,
      "chtern": 6362,
      "steine": 6363,
      "Ġofen": 6364,
      "ĠgeschÃ¤": 6365,
      "Ġbesonderen": 6366,
      "Ġschmetter": 6367,
      "Ġverschwinden": 6368,
      "zentrum": 6369,
      "ĠblÃ¼ten": 6370,
      "verstÃ¤ndlich": 6371,
      "Ġbringe": 6372,
      "ehnt": 6373,
      "ace": 6374,
      "Ġschere": 6375,
      "Ġweich": 6376,
      "Ġkurs": 6377,
      "Ġnachbarn": 6378,
      "chse": 6379,
      "Ġadr": 6380,
      "Ġzogen": 6381,
      "Ġpiz": 6382,
      "Ġkomment": 6383,
      "geschÃ¤ft": 6384,
      "Ġgestalt": 6385,
      "Ġtheor": 6386,
      "uropa": 6387,
      "dy": 6388,
      "rÃ¤t": 6389,
      "anwalt": 6390,
      "Ġnirgend": 6391,
      "iniert": 6392,
      "ĠverÃ¤ndern": 6393,
      "Ġjacke": 6394,
      "Ġbeam": 6395,
      "Ġschwach": 6396,
      "Ġjust": 6397,
      "Ġfinanzie": 6398,
      "jenigen": 6399,
      "anche": 6400,
      "ĠvÃ¶lker": 6401,
      "Ġschrau": 6402,
      "Ġspitz": 6403,
      "reche": 6404,
      "Ġbesucht": 6405,
      "Ġbaue": 6406,
      "Ġformen": 6407,
      "Ġarbeitete": 6408,
      "Ġbekannten": 6409,
      "Ġfremd": 6410,
      "ĠÃ¤nder": 6411,
      "Ġ26": 6412,
      "Ġrosen": 6413,
      "Ġweb": 6414,
      "ĠerwÃ¤": 6415,
      "Ġmillion": 6416,
      "Ġjene": 6417,
      "Ġjournalisten": 6418,
      "Ġstaub": 6419,
      "Ġback": 6420,
      "Ġras": 6421,
      "Ġritter": 6422,
      "Ġpan": 6423,
      "Ġstad": 6424,
      "reiÃŁen": 6425,
      "Ġblitz": 6426,
      "Ġversicher": 6427,
      "Ġpolizisten": 6428,
      "ftet": 6429,
      "heil": 6430,
      "Ġhy": 6431,
      "Ġdavid": 6432,
      "Ġspitzen": 6433,
      "herz": 6434,
      "Ġschnecke": 6435,
      "Ġkurzen": 6436,
      "Ġmagst": 6437,
      "Ġzentimeter": 6438,
      "Ġsteuern": 6439,
      "sÃ¤": 6440,
      "ese": 6441,
      "ambahn": 6442,
      "weisst": 6443,
      "haften": 6444,
      "mitteln": 6445,
      "Ġpatienten": 6446,
      "Ġerwarten": 6447,
      "Ġjapan": 6448,
      "pun": 6449,
      "schten": 6450,
      "Ġermitt": 6451,
      "deckt": 6452,
      "Ġgesucht": 6453,
      "immern": 6454,
      "Ġjahrzehn": 6455,
      "Ġ300": 6456,
      "ĠkÃ¤fer": 6457,
      "ĠbÃ¤umen": 6458,
      "Ġbeobachten": 6459,
      "Ġmodell": 6460,
      "erte": 6461,
      "ĠdÃ¶r": 6462,
      "Ġaufnahme": 6463,
      "robert": 6464,
      "Ã¼ckt": 6465,
      "astrop": 6466,
      "weilen": 6467,
      "bart": 6468,
      "uÃŁt": 6469,
      "Ġstach": 6470,
      "ĠÃ¼berzeugt": 6471,
      "krise": 6472,
      "Ġzahlreiche": 6473,
      "ĠeichhÃ¶rnchen": 6474,
      "fÃ¤llt": 6475,
      "fleisch": 6476,
      "Ġdingen": 6477,
      "Ġaffe": 6478,
      "Ġaufstehen": 6479,
      "Ġumgang": 6480,
      "ĠtÃ¼re": 6481,
      "Ġrelativ": 6482,
      "Ġerfahrung": 6483,
      "Ġehemaligen": 6484,
      "nam": 6485,
      "erkt": 6486,
      "Ġfuchs": 6487,
      "gruppen": 6488,
      "Ġdraussen": 6489,
      "Ġkommenden": 6490,
      "Ġsterne": 6491,
      "ĠfÃ¤llen": 6492,
      "Ġzitr": 6493,
      "politik": 6494,
      "Ġatem": 6495,
      "Ã¤hm": 6496,
      "Ġerober": 6497,
      "Ġangem": 6498,
      "Ġallgem": 6499,
      "ĠgeflÃ¼": 6500,
      "Ġgegenteil": 6501,
      "Ġmuster": 6502,
      "Ġenglischen": 6503,
      "ĠunterstÃ¼tzen": 6504,
      "mor": 6505,
      "Ġsass": 6506,
      "Ġversteh": 6507,
      "Ġknaben": 6508,
      "ĠschÃ¼ttel": 6509,
      "Ġverantwortung": 6510,
      "organisation": 6511,
      "undert": 6512,
      "Ġenthalten": 6513,
      "Ġsack": 6514,
      "kreu": 6515,
      "Ġschwert": 6516,
      "zusagen": 6517,
      "amerika": 6518,
      "ris": 6519,
      "Ġsoviel": 6520,
      "isierung": 6521,
      "Ġflog": 6522,
      "okay": 6523,
      "ĠglÃ¼": 6524,
      "schrank": 6525,
      "Ġsekunden": 6526,
      "dor": 6527,
      "tausend": 6528,
      "Ġbecher": 6529,
      "sprach": 6530,
      "geworfen": 6531,
      "Ġfremde": 6532,
      "Ġverstecken": 6533,
      "Ġclub": 6534,
      "unsere": 6535,
      "ohn": 6536,
      "Ġrico": 6537,
      "Ġess": 6538,
      "wartet": 6539,
      "phie": 6540,
      "Ġkapital": 6541,
      "ĠnÃ¼t": 6542,
      "Ġlampe": 6543,
      "Ġverdammt": 6544,
      "Ġlege": 6545,
      "Ġred": 6546,
      "Ġdiesel": 6547,
      "Ġwellen": 6548,
      "chite": 6549,
      "wechsel": 6550,
      "peter": 6551,
      "Ġkie": 6552,
      "Ġerhe": 6553,
      "Ġgesamt": 6554,
      "Ġklang": 6555,
      "Ġherauf": 6556,
      "Ġfreie": 6557,
      "idar": 6558,
      "Ġeuropas": 6559,
      "Ġmedik": 6560,
      "Ġpublikum": 6561,
      "Ġesel": 6562,
      "Ġspd": 6563,
      "Ġgretchen": 6564,
      "oph": 6565,
      "ĠbetrÃ¼": 6566,
      "Ġeuer": 6567,
      "Ġfotograf": 6568,
      "ĠmerkwÃ¼rdig": 6569,
      "ĠverfÃ¼gung": 6570,
      "osen": 6571,
      "ĠstÃ¶": 6572,
      "Ġsaal": 6573,
      "Ġerstmals": 6574,
      "Ġgegenseit": 6575,
      "ogle": 6576,
      "Ġkakao": 6577,
      "liga": 6578,
      "ĠidentitÃ¤t": 6579,
      "Ġsowjetunion": 6580,
      "sich": 6581,
      "ica": 6582,
      "Ġnahmen": 6583,
      "Ġwahnsinn": 6584,
      "sache": 6585,
      "Ġschmal": 6586,
      "spiegel": 6587,
      "Ã¤ttern": 6588,
      "ĠenttÃ¤u": 6589,
      "ĠverstÃ¤r": 6590,
      "Ġfilmen": 6591,
      "selbst": 6592,
      "Ġnil": 6593,
      "Ġfutter": 6594,
      "Ġputzen": 6595,
      "Ġausgeb": 6596,
      "Ġliest": 6597,
      "Ġrechtsextrem": 6598,
      "Ġkorb": 6599,
      "Ġfunktionieren": 6600,
      "ogramm": 6601,
      "gÃ¤nger": 6602,
      "ĠmÃ¤uschen": 6603,
      "Ġklappt": 6604,
      "allerdings": 6605,
      "ĠmiÃŁ": 6606,
      "Ġgot": 6607,
      "Ġtrinkt": 6608,
      "ĠÃ¤pfel": 6609,
      "Ġbelei": 6610,
      "Ġreligion": 6611,
      "hor": 6612,
      "Ġgeflo": 6613,
      "iban": 6614,
      "Ġflei": 6615,
      "Ġzunge": 6616,
      "Ġliste": 6617,
      "verdammt": 6618,
      "ivien": 6619,
      "ĠhÃ¶hle": 6620,
      "Ġrichter": 6621,
      "ĠÃ¶ffnete": 6622,
      "ĠbemÃ¼": 6623,
      "Ġschauspieler": 6624,
      "dischen": 6625,
      "mache": 6626,
      "our": 6627,
      "team": 6628,
      "ini": 6629,
      "Ġstief": 6630,
      "Ġflach": 6631,
      "ĠstrÃ¶": 6632,
      "kay": 6633,
      "Ġ2019": 6634,
      "ĠstÃ¼cke": 6635,
      "Ġheiligen": 6636,
      "Ġdauerte": 6637,
      "stall": 6638,
      "ets": 6639,
      "Ġschaut": 6640,
      "Ġstor": 6641,
      "Ġaussteigen": 6642,
      "reif": 6643,
      "ikation": 6644,
      "Ġdrum": 6645,
      "Ġregisse": 6646,
      "ockel": 6647,
      "zahlen": 6648,
      "ĠkrÃ¤ftig": 6649,
      "Ġorganisation": 6650,
      "Ġnikolaus": 6651,
      "Ġgriechenland": 6652,
      "Ġleuchtturm": 6653,
      "Ġvermutlich": 6654,
      "tell": 6655,
      "Ġzustand": 6656,
      "Ġkammer": 6657,
      "Ġmrs": 6658,
      "xis": 6659,
      "Ġdra": 6660,
      "schuss": 6661,
      "euert": 6662,
      "reib": 6663,
      "zellen": 6664,
      "Ġneugier": 6665,
      "Ġbilli": 6666,
      "Ġsexu": 6667,
      "Ġrosa": 6668,
      "besondere": 6669,
      "ey": 6670,
      "eiert": 6671,
      "Ġlor": 6672,
      "etzten": 6673,
      "Ġleb": 6674,
      "kriegen": 6675,
      "eichi": 6676,
      "ĠÃ¶ffentlich": 6677,
      "freiheit": 6678,
      "Ġpraktisch": 6679,
      "brÃ¼": 6680,
      "sucht": 6681,
      "ziger": 6682,
      "Ġvis": 6683,
      "heimlich": 6684,
      "umente": 6685,
      "Ġschlechter": 6686,
      "ĠauÃŁerhalb": 6687,
      "fragen": 6688,
      "kennen": 6689,
      "endlich": 6690,
      "ari": 6691,
      "Ġlab": 6692,
      "Ġstir": 6693,
      "Ġimmerhin": 6694,
      "Ġgelangen": 6695,
      "Ġbeschlossen": 6696,
      "Ġbessere": 6697,
      "kasten": 6698,
      "Ġstimmung": 6699,
      "ifte": 6700,
      "nes": 6701,
      "sÃ¼": 6702,
      "Ġgal": 6703,
      "Ã¤nge": 6704,
      "Ġbeschlo": 6705,
      "Ġgedanke": 6706,
      "liebe": 6707,
      "Ġspezie": 6708,
      "Ġwechseln": 6709,
      "nern": 6710,
      "Ġ&": 6711,
      "Ġlob": 6712,
      "Ġoze": 6713,
      "Ġvorstellung": 6714,
      "artige": 6715,
      "Ġdeutscher": 6716,
      "Ġtrainer": 6717,
      "Ġmoral": 6718,
      "sste": 6719,
      "Ġ2000": 6720,
      "Ġschla": 6721,
      "aufnahme": 6722,
      "ĠkÃ¼he": 6723,
      "ĠgrÃ¼nde": 6724,
      "frauen": 6725,
      "Ġinternationalen": 6726,
      "ividu": 6727,
      "Ġmand": 6728,
      "Ġmaler": 6729,
      "Ġbergen": 6730,
      "Ġgelaufen": 6731,
      "Ġreihen": 6732,
      "Ġmerken": 6733,
      "Ġanteil": 6734,
      "Ġelefanten": 6735,
      "lala": 6736,
      "Ġmobil": 6737,
      "ckchen": 6738,
      "ssystem": 6739,
      "Ġwiese": 6740,
      "stritten": 6741,
      "Ġinteressen": 6742,
      "Ġpflege": 6743,
      "Ġord": 6744,
      "Ġigel": 6745,
      "bereich": 6746,
      "Ġgenutzt": 6747,
      "ĠsaÃŁen": 6748,
      "stellten": 6749,
      "Ġgrab": 6750,
      "Ġfalls": 6751,
      "Ġmaterial": 6752,
      "mat": 6753,
      "Ġauftrag": 6754,
      "Ġaufgaben": 6755,
      "chteten": 6756,
      "graben": 6757,
      "Ġfriedrich": 6758,
      "Ġwaffe": 6759,
      "Ġangeblich": 6760,
      "Ġwiderstand": 6761,
      "Ġmess": 6762,
      "Ġhie": 6763,
      "pper": 6764,
      "âĢĵ": 6765,
      "Ġdreimal": 6766,
      "Ġgebraucht": 6767,
      "Ġschade": 6768,
      "Ġtaten": 6769,
      "imon": 6770,
      "Ġtrag": 6771,
      "Ã¶tchen": 6772,
      "Ġfarb": 6773,
      "andemie": 6774,
      "Ġalice": 6775,
      "klus": 6776,
      "Ġleib": 6777,
      "Ġzugang": 6778,
      "ĠlÃ¶sen": 6779,
      "Ġerscheinen": 6780,
      "zusehen": 6781,
      "nik": 6782,
      "ĠermÃ¶": 6783,
      "Ġverpf": 6784,
      "Ġdieselbe": 6785,
      "Ġmain": 6786,
      "krit": 6787,
      "losigkeit": 6788,
      "ĠatmosphÃ¤re": 6789,
      "Ġsachsen": 6790,
      "Ġkut": 6791,
      "Ġverfahren": 6792,
      "Ġkrimin": 6793,
      "ĠwÃ¼rfel": 6794,
      "Ġverwenden": 6795,
      "Ġmagen": 6796,
      "schmei": 6797,
      "Ġzurecht": 6798,
      "Ã¶ten": 6799,
      "Ġbesonderes": 6800,
      "ruhe": 6801,
      "Ġunglaub": 6802,
      "vollen": 6803,
      "Ġgaben": 6804,
      "such": 6805,
      "Ġwag": 6806,
      "ĠfÃ¤h": 6807,
      "raft": 6808,
      "Ġbefehl": 6809,
      "cen": 6810,
      "Ġpie": 6811,
      "reicher": 6812,
      "ferenz": 6813,
      "Ġlud": 6814,
      "Ġdeutschlands": 6815,
      "ustrie": 6816,
      "ĠÃ¶ffentlichkeit": 6817,
      "Ġsyrien": 6818,
      "bot": 6819,
      "Ġkab": 6820,
      "Ġerblick": 6821,
      "ĠtÃ¤ter": 6822,
      "Ġhahn": 6823,
      "Ġkannste": 6824,
      "Ġgespen": 6825,
      "Ġradik": 6826,
      "poliz": 6827,
      "Ġliefer": 6828,
      "gesp": 6829,
      "Ġerstes": 6830,
      "Ã¤lde": 6831,
      "ĠfÃ¼ÃŁen": 6832,
      "Ġmechthild": 6833,
      "Ġ2025": 6834,
      "Ġchristus": 6835,
      "ĠscheiÃŁe": 6836,
      "ĠunterstÃ¼tzt": 6837,
      "ĠschlÃ¤gt": 6838,
      "Ġgewohnt": 6839,
      "18": 6840,
      "prechen": 6841,
      "ram": 6842,
      "schwei": 6843,
      "Ġschach": 6844,
      "Ġschme": 6845,
      "weiÃŁte": 6846,
      "Ġforscher": 6847,
      "ĠlÃ¤ÃŁt": 6848,
      "farben": 6849,
      "nd": 6850,
      "chan": 6851,
      "ĠmÃ¼ller": 6852,
      "Ġblieben": 6853,
      "ĠschÃ¶nheit": 6854,
      "Ġschulter": 6855,
      "Ġknie": 6856,
      "Ġsammeln": 6857,
      "acken": 6858,
      "belt": 6859,
      "Ġgalt": 6860,
      "Ġansch": 6861,
      "Ã¤uschen": 6862,
      "Ġlangweil": 6863,
      "ĠwunderschÃ¶n": 6864,
      "teile": 6865,
      "wunder": 6866,
      "xi": 6867,
      "teuer": 6868,
      "Ġsomit": 6869,
      "Ġdemselben": 6870,
      "woll": 6871,
      "Ġquer": 6872,
      "ackel": 6873,
      "Ġfeder": 6874,
      "wach": 6875,
      "ĠlÃ¤u": 6876,
      "Ġlachte": 6877,
      "Ġtw": 6878,
      "ĠfÃ¼rs": 6879,
      "Ġentsp": 6880,
      "Ġkonkur": 6881,
      "bundes": 6882,
      "weh": 6883,
      "Ġnag": 6884,
      "Ġschrecken": 6885,
      "Ġrap": 6886,
      "Ġversprechen": 6887,
      "ĠscheiÃŁ": 6888,
      "katze": 6889,
      "Ġlhnen": 6890,
      "Ġdut": 6891,
      "roland": 6892,
      "ware": 6893,
      "ogh": 6894,
      "ĠpaÃŁ": 6895,
      "Ġverbrechen": 6896,
      "Ġlinke": 6897,
      "ĠfrÃ¼heren": 6898,
      "Ġwalde": 6899,
      "Ġgetrunken": 6900,
      "Ġverantwortlich": 6901,
      "fische": 6902,
      "lÃ¤ndern": 6903,
      "Ġsing": 6904,
      "Ġmatt": 6905,
      "Ġfind": 6906,
      "berger": 6907,
      "Ġokay": 6908,
      "verband": 6909,
      "Ġ195": 6910,
      "ĠÃ¤hnliches": 6911,
      "behÃ¶r": 6912,
      "tom": 6913,
      "use": 6914,
      "ĠnÃ¶r": 6915,
      "Ã¤umt": 6916,
      "ĠzufÃ¤llig": 6917,
      "Ġaufgebaut": 6918,
      "industrie": 6919,
      "Ġampel": 6920,
      "Ġschwanger": 6921,
      "Ġemp": 6922,
      "wÃ¤l": 6923,
      "Ã¤tzt": 6924,
      "ĠÃ¶k": 6925,
      "Ġpoten": 6926,
      "ĠgÃ¼ter": 6927,
      "Ġeingesetzt": 6928,
      "atzen": 6929,
      "Ġunterricht": 6930,
      "Ġwohnungen": 6931,
      "Ġaktuellen": 6932,
      "stoÃŁen": 6933,
      "Ġspazieren": 6934,
      "ui": 6935,
      "Ã¤hren": 6936,
      "Ġzaun": 6937,
      "ĠÃ¼bernehmen": 6938,
      "spe": 6939,
      "Ġsteckte": 6940,
      "Ġkohle": 6941,
      "alsozial": 6942,
      "Ġoffenen": 6943,
      "Ġtechnik": 6944,
      "Ġ1990": 6945,
      "gÃ¼lt": 6946,
      "iÃ¶": 6947,
      "Ġmessen": 6948,
      "urz": 6949,
      "Ġheiraten": 6950,
      "Ġ(\"": 6951,
      "Ġkrankheiten": 6952,
      "Ġstammen": 6953,
      "apfel": 6954,
      "ida": 6955,
      "Ġverurs": 6956,
      "Ġgere": 6957,
      "Ġ193": 6958,
      "ĠrÃ¼ckwÃ¤rts": 6959,
      "druckt": 6960,
      "Ġpatr": 6961,
      "Ġrechnen": 6962,
      "kauf": 6963,
      "ony": 6964,
      "Ġerfor": 6965,
      "Ġgedul": 6966,
      "ĠaufhÃ¶ren": 6967,
      "Ġarsch": 6968,
      "Ġgeschieht": 6969,
      "sieben": 6970,
      "klasse": 6971,
      "Ġwohnte": 6972,
      "Ġgramm": 6973,
      "Ġperspekt": 6974,
      "Ġarmut": 6975,
      "Ġindividu": 6976,
      "het": 6977,
      "Ġhielten": 6978,
      "ĠerhÃ¤lt": 6979,
      "Ġverwir": 6980,
      "Ġreform": 6981,
      "Ġgerettet": 6982,
      "Ġzusammenhang": 6983,
      "ĠvollstÃ¤ndig": 6984,
      "spricht": 6985,
      "vogel": 6986,
      "Ġcharakter": 6987,
      "halle": 6988,
      "sachen": 6989,
      "Ġsinne": 6990,
      "stei": 6991,
      "ĠrÃ¤t": 6992,
      "Ġanna": 6993,
      "eitungen": 6994,
      "Ã¤ngen": 6995,
      "Ġkla": 6996,
      "ĠheiÃŁe": 6997,
      "links": 6998,
      "Ġschwerer": 6999,
      "ĠwÃ¼nsche": 7000,
      "jemand": 7001,
      "lingen": 7002,
      "ena": 7003,
      "Ġaktion": 7004,
      "Ġtreiben": 7005,
      "Ġverhei": 7006,
      "Ġschweine": 7007,
      "Ġbefand": 7008,
      "ĠgrÃ¶ÃŁeren": 7009,
      "viertel": 7010,
      "Ġgrenz": 7011,
      "ĠwÃ¼ste": 7012,
      "bÃ¼cher": 7013,
      "Ġkonsum": 7014,
      "iw": 7015,
      "sequ": 7016,
      "Ġvorberei": 7017,
      "Ġdurchge": 7018,
      "Ġ35": 7019,
      "ĠfrÃ¼hen": 7020,
      "Ġexperten": 7021,
      "Ġgiraffe": 7022,
      "kung": 7023,
      "nungen": 7024,
      "ologen": 7025,
      "Ġstreng": 7026,
      "Ġ2013": 7027,
      "Ġbestimmen": 7028,
      "zusetzen": 7029,
      "Ġunterscheiden": 7030,
      "fiel": 7031,
      "mas": 7032,
      "Ġbum": 7033,
      "Ġschal": 7034,
      "Ġschim": 7035,
      "decke": 7036,
      "Ġopp": 7037,
      "gelaufen": 7038,
      "aktiv": 7039,
      "Ġwindel": 7040,
      "iÃŁt": 7041,
      "meter": 7042,
      "Ġtasse": 7043,
      "Ġedel": 7044,
      "spolit": 7045,
      "Ġgeschm": 7046,
      "willste": 7047,
      "Ġlohn": 7048,
      "Ġleuchten": 7049,
      "Ġamerikanischen": 7050,
      "ĠhÃ¤uschen": 7051,
      "ĠgÃ¤nse": 7052,
      "Ġunterschiedliche": 7053,
      "doll": 7054,
      "hÃ¤t": 7055,
      "station": 7056,
      "Ġanblick": 7057,
      "ĠstÃ¤": 7058,
      "Ġbewa": 7059,
      "Ġhaushalt": 7060,
      "Ġhandy": 7061,
      "Ġteilte": 7062,
      "Ġgenauer": 7063,
      "geschlagen": 7064,
      "stÃ¤": 7065,
      "etzungen": 7066,
      "Ġtrambahn": 7067,
      "hoff": 7068,
      "Ġfolgt": 7069,
      "Ġszenen": 7070,
      "lÃ¤nd": 7071,
      "Ġgis": 7072,
      "Ġfo": 7073,
      "Ġfischer": 7074,
      "Ġermord": 7075,
      "amer": 7076,
      "Ġschlacht": 7077,
      "Ġchancen": 7078,
      "Ġlanges": 7079,
      "Ġdoof": 7080,
      "Ġ2018": 7081,
      "Ġmodern": 7082,
      "Ġseuf": 7083,
      "kÃ¶": 7084,
      "mot": 7085,
      "nungs": 7086,
      "estern": 7087,
      "maÃŁen": 7088,
      "Ġteils": 7089,
      "Ġempor": 7090,
      "Ġdringend": 7091,
      "ĠÃ¤hnliche": 7092,
      "gehÃ¶rt": 7093,
      "Ġprodukt": 7094,
      "Ġgoogle": 7095,
      "Ġmeilen": 7096,
      "ĠstÃ¼": 7097,
      "reide": 7098,
      "Ġbesetzt": 7099,
      "Ġhoffen": 7100,
      "Ġstube": 7101,
      "ĠpersÃ¶nlich": 7102,
      "ĠhÃ¶chste": 7103,
      "Ġintelligen": 7104,
      "Ġferien": 7105,
      "Ġverfolgt": 7106,
      "Ġsmartph": 7107,
      "gumm": 7108,
      "schmeckt": 7109,
      "Ġaufbauen": 7110,
      "bew": 7111,
      "warten": 7112,
      "Ġseel": 7113,
      "flu": 7114,
      "balla": 7115,
      "schriften": 7116,
      "niemand": 7117,
      "Ġgesamte": 7118,
      "iden": 7119,
      "Ġerleben": 7120,
      "Ġunheimlich": 7121,
      "Ġwiederhol": 7122,
      "scheiÃŁe": 7123,
      "Ġbabys": 7124,
      "onta": 7125,
      "Ġnationalsozial": 7126,
      "schi": 7127,
      "Ġtv": 7128,
      "Ġpir": 7129,
      "Ġspan": 7130,
      "ĠrealitÃ¤t": 7131,
      "barkeit": 7132,
      "Ġhosen": 7133,
      "Ġchristen": 7134,
      "Ġstroh": 7135,
      "ĠursprÃ¼nglich": 7136,
      "-,": 7137,
      "kore": 7138,
      "tÃ¶n": 7139,
      "schild": 7140,
      "Ġdamen": 7141,
      "Ġbequem": 7142,
      "Ġwerbung": 7143,
      "Ġechte": 7144,
      "Ġkleinere": 7145,
      "nachdem": 7146,
      "gefunden": 7147,
      "Ġvollen": 7148,
      "alisiert": 7149,
      "Ġverfassung": 7150,
      "Ġafg": 7151,
      "miss": 7152,
      "onom": 7153,
      "Ġstich": 7154,
      "umte": 7155,
      "rocken": 7156,
      "Ġklaus": 7157,
      "kosten": 7158,
      "Ġrotes": 7159,
      "Ġferne": 7160,
      "Ġbarbie": 7161,
      "ĠverhÃ¤ltnis": 7162,
      "Ġrettungs": 7163,
      "zÃ¼ge": 7164,
      "Ġwit": 7165,
      "ĠselbstverstÃ¤ndlich": 7166,
      "ĠfÃ¼hle": 7167,
      "Ġorten": 7168,
      "Ġabgeord": 7169,
      "Ġgeholfen": 7170,
      "Ġkanton": 7171,
      "Ġmc": 7172,
      "Ġspur": 7173,
      "Ġentgeg": 7174,
      "Ġdoppelt": 7175,
      "schuh": 7176,
      "Ġamerikaner": 7177,
      "Ġerwachsene": 7178,
      "Ġwettbewer": 7179,
      "iehen": 7180,
      "Ġwall": 7181,
      "Ġeinheit": 7182,
      "ĠzÃ¶": 7183,
      "Ġpreise": 7184,
      "Ġdurchschnitt": 7185,
      "kleine": 7186,
      "antas": 7187,
      "trud": 7188,
      "Ġorigin": 7189,
      "Ġprinzip": 7190,
      "Ġdenkst": 7191,
      "Ġportug": 7192,
      "fÃ¶rm": 7193,
      "Ġzweck": 7194,
      "struktur": 7195,
      "Ġlaster": 7196,
      "Ġsorg": 7197,
      "ĠhÃ¤uf": 7198,
      "ĠkÃ¶ln": 7199,
      "corinna": 7200,
      "Ã¤ss": 7201,
      "ischem": 7202,
      "hme": 7203,
      "Ġeck": 7204,
      "Ġ29": 7205,
      "Ġnackt": 7206,
      "Ġallerlei": 7207,
      "Ġkloster": 7208,
      "Ġgrauen": 7209,
      "Ġversprochen": 7210,
      "Ġkonflikt": 7211,
      "Ġtin": 7212,
      "Ġaufnehmen": 7213,
      "Ġdeines": 7214,
      "Ġverbesser": 7215,
      "Ġqual": 7216,
      "tum": 7217,
      "alition": 7218,
      "reckt": 7219,
      "ucker": 7220,
      "Ġdurcheinander": 7221,
      "Ġcamp": 7222,
      "Ġseen": 7223,
      "Ġhalben": 7224,
      "Ġsolidar": 7225,
      "Ġstren": 7226,
      "heiÃŁt": 7227,
      "Ġanton": 7228,
      "Ġruntergefallen": 7229,
      "Ġanfangs": 7230,
      "ĠrÃ¤umen": 7231,
      "Ġkette": 7232,
      "ĠschoÃŁ": 7233,
      "ĠzusÃ¤tzlich": 7234,
      "Ġsozusagen": 7235,
      "Ġhinsetzen": 7236,
      "Ġarchite": 7237,
      "ival": 7238,
      "Ġbegonnen": 7239,
      "Ġexist": 7240,
      "Ġbildet": 7241,
      "jÃ¤hriger": 7242,
      "Ġeinkauf": 7243,
      "mÃ¶chtest": 7244,
      "kern": 7245,
      "loch": 7246,
      "tchen": 7247,
      "Ġbeinen": 7248,
      "Ġinstr": 7249,
      "anzer": 7250,
      "Ġgelingt": 7251,
      "Ġwilden": 7252,
      "Ġberufs": 7253,
      "Ġwechsel": 7254,
      "wechseln": 7255,
      "Ġerwachsenen": 7256,
      "ĠmÃ¼tze": 7257,
      "bÃ¤ren": 7258,
      "enten": 7259,
      "Ġshow": 7260,
      "Ġzettel": 7261,
      "indungen": 7262,
      "Ġsprecher": 7263,
      "zudem": 7264,
      "Ġwillste": 7265,
      "rÃ¤der": 7266,
      "Ġverlor": 7267,
      "Ġunseres": 7268,
      "frika": 7269,
      "appt": 7270,
      "Ġerstaunt": 7271,
      "bÃ¤ume": 7272,
      "Ġsatt": 7273,
      "schÃ¤": 7274,
      "versuch": 7275,
      "Ġamerikanische": 7276,
      "Ġwichtigen": 7277,
      "ĠmaÃŁnahmen": 7278,
      "Ġgeplant": 7279,
      "Ġeingeladen": 7280,
      "Ġaustau": 7281,
      "Ġzorn": 7282,
      "Ġschafft": 7283,
      "Ġklettern": 7284,
      "Ġep": 7285,
      "ĠgemÃ¤lde": 7286,
      "frag": 7287,
      "Ġschnur": 7288,
      "Ã¤rtner": 7289,
      "Ġakzept": 7290,
      "magst": 7291,
      "schmerzen": 7292,
      "?\",": 7293,
      "char": 7294,
      "ehle": 7295,
      "Ġeimer": 7296,
      "Ġberichten": 7297,
      "dreh": 7298,
      "prima": 7299,
      "\":": 7300,
      "Ġ_": 7301,
      "Ġgon": 7302,
      "Ġgeschah": 7303,
      "flogen": 7304,
      "drin": 7305,
      "max": 7306,
      "Ġherausforder": 7307,
      "lieber": 7308,
      "Ġprodukte": 7309,
      "Ġnotwendig": 7310,
      "Ġerfahrungen": 7311,
      "Ġagen": 7312,
      "ani": 7313,
      "Ġkult": 7314,
      "Ġrobo": 7315,
      "Ġstudent": 7316,
      "ington": 7317,
      "Ġverteilt": 7318,
      "Ġbedeckt": 7319,
      "ĠwÃ¼tend": 7320,
      "stimmen": 7321,
      "wahrscheinlich": 7322,
      "fir": 7323,
      "muÃŁ": 7324,
      "Ġkok": 7325,
      "Ġkleben": 7326,
      "irt": 7327,
      "Ġtank": 7328,
      "ĠgeÃ¤ndert": 7329,
      "ierst": 7330,
      "reden": 7331,
      "Ġgelebt": 7332,
      "ĠwÃ¼rstchen": 7333,
      "Ġangezogen": 7334,
      "Ġkurzem": 7335,
      "post": 7336,
      "Ġhemd": 7337,
      "ĠgenÃ¼gend": 7338,
      "falt": 7339,
      "Ġmaschine": 7340,
      "atoren": 7341,
      "Ġgeorg": 7342,
      "Ġleder": 7343,
      "ĠhinÃ¼ber": 7344,
      "Ġabmachen": 7345,
      "Ġcdu": 7346,
      "Ġreintun": 7347,
      "schieben": 7348,
      "Ġeinfacher": 7349,
      "ski": 7350,
      "Ġhenry": 7351,
      "Ġdeta": 7352,
      "ada": 7353,
      "bul": 7354,
      "hes": 7355,
      "nimmt": 7356,
      "Ġisser": 7357,
      "Ġina": 7358,
      "Ġstille": 7359,
      "Ġmalt": 7360,
      "Ġvoran": 7361,
      "Ã¤nke": 7362,
      "ots": 7363,
      "abl": 7364,
      "beide": 7365,
      "wollt": 7366,
      "Ġbrennt": 7367,
      "Ġgefor": 7368,
      "Ġzwang": 7369,
      "Ġattra": 7370,
      "mÃ¤ÃŁ": 7371,
      "Ġfeiert": 7372,
      "ĠgepÃ¤ck": 7373,
      "oghurt": 7374,
      "hunder": 7375,
      "Ġwis": 7376,
      "Ġnar": 7377,
      "ĠvermÃ¶gen": 7378,
      "rauen": 7379,
      "Ã¼nden": 7380,
      "rÃ¤ger": 7381,
      "eutr": 7382,
      "Ġbildungs": 7383,
      "Ġerscheint": 7384,
      "Ġadler": 7385,
      "'t": 7386,
      "Ġfemin": 7387,
      "ĠgeÃ¶ffnet": 7388,
      "gestern": 7389,
      "Ġsodass": 7390,
      "iga": 7391,
      "ktionen": 7392,
      "Ġgewicht": 7393,
      "Ġbrut": 7394,
      "Ġgeschlagen": 7395,
      "Ġsprich": 7396,
      "Ġzusammenge": 7397,
      "Ġdienen": 7398,
      "Ġdial": 7399,
      "Ġkrebs": 7400,
      "Ġnerven": 7401,
      "tatsÃ¤chlich": 7402,
      "Ġhass": 7403,
      "Ġpul": 7404,
      "Ġameisen": 7405,
      "ierenden": 7406,
      "Ġkinderzimmer": 7407,
      "Ġstrafe": 7408,
      "Ġemot": 7409,
      "Ġkasten": 7410,
      "ae": 7411,
      "Ġanzahl": 7412,
      "Ġverraten": 7413,
      "ucher": 7414,
      "Ġdefin": 7415,
      "Ġkeinem": 7416,
      "Ġpflaster": 7417,
      "ĠpalÃ¤st": 7418,
      "name": 7419,
      "sitz": 7420,
      "Ġurteil": 7421,
      "irr": 7422,
      "Ġruck": 7423,
      "Ġmitgenommen": 7424,
      "ĠflÃ¤che": 7425,
      "ĠâĢļ": 7426,
      "sprung": 7427,
      "Ġbundesregierung": 7428,
      "ĠoberflÃ¤che": 7429,
      "dding": 7430,
      "Ġfolgenden": 7431,
      "Ġmotiv": 7432,
      "messer": 7433,
      "Ġschieben": 7434,
      "Ġstrei": 7435,
      "Ġhaft": 7436,
      "enthalt": 7437,
      "Ġthor": 7438,
      "Ġfenstern": 7439,
      "figur": 7440,
      "ĠwÃ¤hler": 7441,
      "Ġwut": 7442,
      "Ġeiniges": 7443,
      "gener": 7444,
      "Ġabl": 7445,
      "cial": 7446,
      "Ġsl": 7447,
      "Ġachten": 7448,
      "ĠerÃ¶ff": 7449,
      "Ġgeeig": 7450,
      "Ġherkunft": 7451,
      "Ġdrittel": 7452,
      "Ġ,,": 7453,
      "Ġirr": 7454,
      "ĠflÃ¼ss": 7455,
      "ĠÃ¼bel": 7456,
      "Ġschaukel": 7457,
      "Ġyou": 7458,
      "Ġschicksal": 7459,
      "Ġdunklen": 7460,
      "Ġverbreitet": 7461,
      "Ġklimawandel": 7462,
      "Ġpizza": 7463,
      "ascht": 7464,
      "Ġlacht": 7465,
      "ĠjÃ¤hr": 7466,
      "ĠfÃ¼rchten": 7467,
      "Ġstehst": 7468,
      "hahn": 7469,
      "Ġbogen": 7470,
      "Ġgetragen": 7471,
      "Ġjoe": 7472,
      "Ġmetho": 7473,
      "Ġinternationale": 7474,
      "Ġopposition": 7475,
      "inos": 7476,
      "Ã¶re": 7477,
      "wood": 7478,
      "Ġreiche": 7479,
      "Ġvollkommen": 7480,
      "Ġbildern": 7481,
      "Ġgeister": 7482,
      "fred": 7483,
      "Ġbeobachtet": 7484,
      "kaputt": 7485,
      "vp": 7486,
      "Ġlernt": 7487,
      "Ġsagste": 7488,
      "wege": 7489,
      "Ġdiskrimin": 7490,
      "Ġserv": 7491,
      "ĠgerÃ¤usch": 7492,
      "Ġregisseur": 7493,
      "drÃ¼ckt": 7494,
      "nien": 7495,
      "Ġsha": 7496,
      "Ġwh": 7497,
      "Ġhuck": 7498,
      "institut": 7499,
      "Ġdaheim": 7500,
      "ftigen": 7501,
      "ernie": 7502,
      "assungs": 7503,
      "Ġziehe": 7504,
      "Ġfordert": 7505,
      "Ġorangen": 7506,
      "ĠblÃ¶d": 7507,
      "Ġhitler": 7508,
      "Ġdamal": 7509,
      "Ġcomm": 7510,
      "ĠfÃ¼hrer": 7511,
      "bieten": 7512,
      "over": 7513,
      "wein": 7514,
      "Ġmochte": 7515,
      "apie": 7516,
      "Ġeinzeln": 7517,
      "huch": 7518,
      "Ġac": 7519,
      "Ġwehr": 7520,
      "ĠfÃ¼rchter": 7521,
      "ĠmÃ¼ÃŁte": 7522,
      "Ġiran": 7523,
      "Ġsolches": 7524,
      "Ġ150": 7525,
      "Ġgriechischen": 7526,
      "Ġaufgewacht": 7527,
      "ly": 7528,
      "ehin": 7529,
      "Ġschlangen": 7530,
      "Ġgeschmack": 7531,
      "ĠfrÃ¼chte": 7532,
      "damerik": 7533,
      "mittelt": 7534,
      "zumachen": 7535,
      "Ġbeitrag": 7536,
      "24": 7537,
      "offen": 7538,
      "Ġzo": 7539,
      "etern": 7540,
      "Ġtsche": 7541,
      "Ġgez": 7542,
      "decken": 7543,
      "Ġausgang": 7544,
      "Ġhinlegen": 7545,
      "Ġamts": 7546,
      "ammelt": 7547,
      "Ġblaues": 7548,
      "prof": 7549,
      "ĠfÃ¼hrung": 7550,
      "Ġmittelmeer": 7551,
      "Ġrassismus": 7552,
      "besonders": 7553,
      "uh": 7554,
      "aturen": 7555,
      "acher": 7556,
      "Ġangeln": 7557,
      "Ġbesitz": 7558,
      "Ġgrunde": 7559,
      "Ġbetont": 7560,
      "Ġverliert": 7561,
      "Ġheftig": 7562,
      "Ġkurzer": 7563,
      "ĠbÃ¤cker": 7564,
      "gefÃ¼hl": 7565,
      "mÃ¤dchen": 7566,
      "nas": 7567,
      "pern": 7568,
      "Ã¤ÃŁ": 7569,
      "schwer": 7570,
      "Ġtop": 7571,
      "Ġtausende": 7572,
      "ssel": 7573,
      "Ġimpf": 7574,
      "Ġvorteil": 7575,
      "rate": 7576,
      "Ġwurzeln": 7577,
      "Ġcol": 7578,
      "ĠhÃ¶chst": 7579,
      "wenden": 7580,
      "ĠmuÃŁten": 7581,
      "Ġkarriere": 7582,
      "Ġgraben": 7583,
      "ips": 7584,
      "Ġpflicht": 7585,
      "wanne": 7586,
      "Ġbunt": 7587,
      "ĠvergnÃ¼gen": 7588,
      "tisch": 7589,
      "steig": 7590,
      "daÃŁ": 7591,
      "ĠenthÃ¤lt": 7592,
      "ĠschlÃ¼": 7593,
      "gesprÃ¤": 7594,
      "ĠzurÃ¼ckge": 7595,
      "ĠbegrÃ¼n": 7596,
      "otto": 7597,
      "ĠwÃ¤rme": 7598,
      "Ġriesige": 7599,
      "Ġpfarrer": 7600,
      "ĠsÃ¤nger": 7601,
      "Ġinhalt": 7602,
      "Ã¼rtel": 7603,
      "Ġbeantwor": 7604,
      "fenster": 7605,
      "verstanden": 7606,
      "blatt": 7607,
      "Ġgebirge": 7608,
      "Ġtraur": 7609,
      "Ġfeinde": 7610,
      "Ġgesundheits": 7611,
      "ĠfÃ¤lle": 7612,
      "ĠfranzÃ¶sische": 7613,
      "zehnte": 7614,
      "Ġgockel": 7615,
      "atter": 7616,
      "Ġverurt": 7617,
      "Ġumzu": 7618,
      "otter": 7619,
      "Ġgerman": 7620,
      "Ġgemerkt": 7621,
      "Ġstudium": 7622,
      "getreten": 7623,
      "umpen": 7624,
      "Ġharry": 7625,
      "Ġtonnen": 7626,
      "Ġkilogramm": 7627,
      "vention": 7628,
      "hÃ¤usern": 7629,
      "Ġautobahn": 7630,
      "fot": 7631,
      "pul": 7632,
      "ĠbÃ¶s": 7633,
      "euten": 7634,
      "klein": 7635,
      "Ġspielzeug": 7636,
      "Ġfreiburg": 7637,
      "ĠÃ¤ltere": 7638,
      "vÃ¶gel": 7639,
      "Ġsab": 7640,
      "Ġlanden": 7641,
      "Ġtrieb": 7642,
      "lehr": 7643,
      "Ġausnahme": 7644,
      "Ġabger": 7645,
      "Ġcap": 7646,
      "ĠmÃ¶cht": 7647,
      "diglich": 7648,
      "Ġebene": 7649,
      "Ġbleib": 7650,
      "ballon": 7651,
      "Ġblickte": 7652,
      "Ġtiefen": 7653,
      "kennst": 7654,
      "Ġoffiziell": 7655,
      "Ġscheinen": 7656,
      "leichen": 7657,
      "Ġbrennen": 7658,
      "obwohl": 7659,
      "ĠstraÃŁenbahn": 7660,
      "',": 7661,
      "stÃ¶": 7662,
      "hrte": 7663,
      "Ġerleich": 7664,
      "Ġteich": 7665,
      "Ġmantel": 7666,
      "republik": 7667,
      "gerÃ¤t": 7668,
      "Ġca": 7669,
      "Ġkonzert": 7670,
      "Ġangekl": 7671,
      "Ġ400": 7672,
      "Ġentscheidungen": 7673,
      "richtungen": 7674,
      "Ġzentral": 7675,
      "Ġadel": 7676,
      "Ġveg": 7677,
      "ĠmÃ¶gliche": 7678,
      "Ġholte": 7679,
      "Ġfesthalten": 7680,
      "ĠgefÃ¼hle": 7681,
      "ĠrÃ¤ume": 7682,
      "Ġehre": 7683,
      "Ġentdecken": 7684,
      "Ġkehrte": 7685,
      "Ġglocken": 7686,
      "Ġyout": 7687,
      "bauer": 7688,
      "urer": 7689,
      "reichs": 7690,
      "Ġredu": 7691,
      "Ġeilig": 7692,
      "blÃ¼": 7693,
      "Ġstrate": 7694,
      "ĠsÃ¼damerik": 7695,
      "Ġschwierigkeiten": 7696,
      "ĠgÃ¤be": 7697,
      "Ġsichtbar": 7698,
      "Ġfingern": 7699,
      "Ġletztes": 7700,
      "ek": 7701,
      "eia": 7702,
      "Ġkauft": 7703,
      "Ġlut": 7704,
      "itionen": 7705,
      "Ġratten": 7706,
      "igem": 7707,
      "Ġhallo": 7708,
      "Ġwirft": 7709,
      "Ġvorauss": 7710,
      "sprecher": 7711,
      "Ġkonserv": 7712,
      "Ġgefeiert": 7713,
      "Ġlebendig": 7714,
      "Ġinsbesondere": 7715,
      "Ġziegen": 7716,
      "Ġherrscher": 7717,
      "alender": 7718,
      "kammer": 7719,
      "Ġfalle": 7720,
      "konom": 7721,
      "ampen": 7722,
      "Ġstellung": 7723,
      "ĠÃ¼berrasch": 7724,
      "Ġmoskau": 7725,
      "Ġmedikamen": 7726,
      "Ġslo": 7727,
      "Ġeinsteigen": 7728,
      "ors": 7729,
      "Ġernte": 7730,
      "ĠfluÃŁ": 7731,
      "brach": 7732,
      "Ġleistung": 7733,
      "Ġkrim": 7734,
      "ĠlÃ¶cher": 7735,
      "Ġknopf": 7736,
      "farbe": 7737,
      "Ġpersonal": 7738,
      "Ġbedroht": 7739,
      "Ġputin": 7740,
      "Ġindianer": 7741,
      "?!": 7742,
      "sÃ¤chlich": 7743,
      "Ġmi": 7744,
      "ologe": 7745,
      "ftige": 7746,
      "ĠgeschÃ¼tzt": 7747,
      "ierende": 7748,
      "ĠmÃ¶glichen": 7749,
      "erstoff": 7750,
      "sky": 7751,
      "Ġentdeckte": 7752,
      "Ġzentrum": 7753,
      "bÃ¶": 7754,
      "dro": 7755,
      "Ġq": 7756,
      "Ġhig": 7757,
      "ital": 7758,
      "Ġgebrochen": 7759,
      "anna": 7760,
      "Ġbedien": 7761,
      "Ġgestiegen": 7762,
      "Ġgemeinschaft": 7763,
      "Ġsegel": 7764,
      "bill": 7765,
      "kal": 7766,
      "vel": 7767,
      "ĠfÃ¼t": 7768,
      "Ġschale": 7769,
      "Ġanne": 7770,
      "Ġbenzin": 7771,
      "Ġmuscheln": 7772,
      "Ġraupe": 7773,
      "Ġgemeinsamen": 7774,
      "Ġmarkus": 7775,
      "ĠfÃ¶rster": 7776,
      "abeth": 7777,
      "sc": 7778,
      "Ġhan": 7779,
      "Ã¤nkt": 7780,
      "Ġprot": 7781,
      "Ġheiss": 7782,
      "ĠkÃ¼nftig": 7783,
      "ĠÃ¤rzte": 7784,
      "Ġbatter": 7785,
      "mÃ¤nnchen": 7786,
      "Ġgeschwindigkeit": 7787,
      "Ġohnehin": 7788,
      "ĠanschlieÃŁend": 7789,
      "punkte": 7790,
      "11": 7791,
      "Ġmurm": 7792,
      "undern": 7793,
      "Ġfang": 7794,
      ".....": 7795,
      "Ġwerd": 7796,
      "Ġunterhalten": 7797,
      "Ã¼tzen": 7798,
      "bock": 7799,
      "wohnern": 7800,
      "Ġbemerkt": 7801,
      "Ġbreite": 7802,
      "back": 7803,
      "gs": 7804,
      "werken": 7805,
      "Ġdrachen": 7806,
      "Ġzeitpunkt": 7807,
      "ungsmittel": 7808,
      "Ġhalf": 7809,
      "Ġirma": 7810,
      "Ġprem": 7811,
      "hauen": 7812,
      "Ġworauf": 7813,
      "prÃ¤sent": 7814,
      "Ġregional": 7815,
      "Ġmoderne": 7816,
      "wissenschaftler": 7817,
      "fast": 7818,
      "rund": 7819,
      "Ġhi": 7820,
      "ĠtrÃ¼": 7821,
      "Ġvorles": 7822,
      "Ġhopp": 7823,
      "Ġfedern": 7824,
      "Ġfliege": 7825,
      "Ġmittagessen": 7826,
      "Ġjahrhunderts": 7827,
      "Ġargument": 7828,
      "Ġtempel": 7829,
      "Ġroboter": 7830,
      "Ġbreiten": 7831,
      "Ġweite": 7832,
      "Ġspar": 7833,
      "rauch": 7834,
      "Ġreda": 7835,
      "Ġzumachen": 7836,
      "brumm": 7837,
      "blÃ¤tter": 7838,
      "Ġmay": 7839,
      "problem": 7840,
      "law": 7841,
      "Ġdrehte": 7842,
      "dollar": 7843,
      "enzen": 7844,
      "Ġmahl": 7845,
      "Ġfaul": 7846,
      "ita": 7847,
      "sebastian": 7848,
      "Ġeig": 7849,
      "Ġschluck": 7850,
      "Ġneulich": 7851,
      "Ġmusiker": 7852,
      "Ġque": 7853,
      "vielen": 7854,
      "Ġkorru": 7855,
      "Ġerinnere": 7856,
      "Ġvideos": 7857,
      "Ġschildkr": 7858,
      "Ġtermin": 7859,
      "Ġweiche": 7860,
      "Ġdritt": 7861,
      "Ġmeike": 7862,
      "iefert": 7863,
      "Ġherrscht": 7864,
      "Ġbeherr": 7865,
      "Ġbundeskanzler": 7866,
      "dp": 7867,
      "lst": 7868,
      "Ã¥": 7869,
      "Ġtsch": 7870,
      "Ġkonsequ": 7871,
      "opft": 7872,
      "Ġregierungs": 7873,
      "Ġkontin": 7874,
      "Ġgesichter": 7875,
      "akterien": 7876,
      "Ġrisiko": 7877,
      "Ġgegenseitig": 7878,
      "fro": 7879,
      "einfach": 7880,
      "Ġbit": 7881,
      "Ġeinkommen": 7882,
      "Ġlkw": 7883,
      "Ġprie": 7884,
      "Ġanzei": 7885,
      "Ġwoanders": 7886,
      "Ġclo": 7887,
      "deutsche": 7888,
      "rigol": 7889,
      "ĠverÃ¶ffentlicht": 7890,
      "bungen": 7891,
      "osse": 7892,
      "Ġerkannte": 7893,
      "Ġbeides": 7894,
      "Ġnebel": 7895,
      "Ġpacken": 7896,
      "Ġforschung": 7897,
      "Ġpfeil": 7898,
      "Ġehemalige": 7899,
      "glo": 7900,
      "Ġdist": 7901,
      "Ġrang": 7902,
      "berecht": 7903,
      "Ġausb": 7904,
      "spÃ¤ter": 7905,
      "ĠgebÃ¼": 7906,
      "ĠmÃ¶bel": 7907,
      "hopp": 7908,
      "Ġgestanden": 7909,
      "Ġschreien": 7910,
      "Ġ2011": 7911,
      "Ġpopul": 7912,
      "Ġaustralien": 7913,
      "Ġmuslim": 7914,
      "Ġfieber": 7915,
      "Ġseil": 7916,
      "Ġpor": 7917,
      "Ġhaaren": 7918,
      "anzt": 7919,
      "pfe": 7920,
      "Ġcity": 7921,
      "blumen": 7922,
      "autos": 7923,
      "ordnet": 7924,
      "Ġhauen": 7925,
      "ĠkÃ¼mmert": 7926,
      "Ġjemals": 7927,
      "Ġgemeinsame": 7928,
      "familie": 7929,
      "terin": 7930,
      "Ġmitlei": 7931,
      "Ġvermei": 7932,
      "Ġverdamm": 7933,
      "Ġlieder": 7934,
      "verfahren": 7935,
      "ungsweise": 7936,
      "Ġmonchen": 7937,
      "ichteten": 7938,
      "stagram": 7939,
      "Ġdurften": 7940,
      "wirkungen": 7941,
      "Ġbeschloss": 7942,
      "lag": 7943,
      "nacht": 7944,
      "Ġrak": 7945,
      "olin": 7946,
      "Ġenor": 7947,
      "Ã¤ub": 7948,
      "ĠmÃ¶glicherweise": 7949,
      "Ġbetrifft": 7950,
      "Ġalters": 7951,
      "\"?": 7952,
      "Ã³": 7953,
      "atischen": 7954,
      "Ġhierhin": 7955,
      "regung": 7956,
      "Ġnerv": 7957,
      "Ġglocke": 7958,
      "bedingungen": 7959,
      "Ġentgegnete": 7960,
      "vide": 7961,
      "eicher": 7962,
      "ichert": 7963,
      "Ġintens": 7964,
      "leger": 7965,
      "entwick": 7966,
      "haber": 7967,
      "Ġgeworfen": 7968,
      "Ġgelungen": 7969,
      "Ġeinziges": 7970,
      "Ġschweigen": 7971,
      "kÃ¶nnte": 7972,
      "Ġtoilette": 7973,
      "nei": 7974,
      "oft": 7975,
      "swahl": 7976,
      "Ġpuppa": 7977,
      "ĠstÃ¶ren": 7978,
      "enny": 7979,
      "ĠnatÃ¼r": 7980,
      "Ġschmerzen": 7981,
      "Ġdiskussion": 7982,
      "gu": 7983,
      "handen": 7984,
      "Ġwik": 7985,
      "stock": 7986,
      "Ġbanken": 7987,
      "Ġungeh": 7988,
      "ward": 7989,
      "Ġgraus": 7990,
      "wirken": 7991,
      "Ġmerkt": 7992,
      "Ġatlant": 7993,
      "Ġwinkel": 7994,
      "Ġfalschen": 7995,
      "Ġkaninchen": 7996,
      "lÃ¶sen": 7997,
      "Ġausgesprochen": 7998,
      "russ": 7999,
      "zÃ¤": 8000,
      "Ġil": 8001,
      "anlagen": 8002,
      "Ġaufenthalt": 8003,
      "Ġspeise": 8004,
      "essern": 8005,
      "Ġbundesland": 8006,
      "Ġwahlkampf": 8007,
      "ĠtrÃ¤umen": 8008,
      "Ġliber": 8009,
      "ĠgÃ¶tter": 8010,
      "Ġdebatte": 8011,
      "Ġschmecken": 8012,
      "erei": 8013,
      "Ġzwie": 8014,
      "Ġrich": 8015,
      "Ġmalst": 8016,
      "Ġfrisst": 8017,
      "Ġandererseits": 8018,
      "schlaf": 8019,
      "ĠâĢĵ,": 8020,
      "Ġverlangen": 8021,
      "Ġriefen": 8022,
      "Ġjose": 8023,
      "Ġfelix": 8024,
      "ĠtÃ¶chter": 8025,
      "kurs": 8026,
      "Ġbritischen": 8027,
      "Ġfuhren": 8028,
      "manden": 8029,
      "rang": 8030,
      "Ġ#": 8031,
      "esa": 8032,
      "Ġnachge": 8033,
      "Ġheimlich": 8034,
      "Ġzusammenarbeit": 8035,
      "ĠhaustÃ¼r": 8036,
      "Ġgetreide": 8037,
      "Ġbenutz": 8038,
      "ĠkÃ¤fig": 8039,
      "Ġperfekt": 8040,
      "inke": 8041,
      "Ġzoll": 8042,
      "Ġschief": 8043,
      "oler": 8044,
      "Ã¤rten": 8045,
      "bringt": 8046,
      "Ġungarn": 8047,
      "Ġtolles": 8048,
      "ĠfranzÃ¶sisch": 8049,
      "Ġbalkon": 8050,
      "pflanzen": 8051,
      "Ġrande": 8052,
      "aming": 8053,
      "Ġew": 8054,
      "zukommen": 8055,
      "Ġbrachten": 8056,
      "brand": 8057,
      "Ġkatastrop": 8058,
      "Ġpolizist": 8059,
      "kontro": 8060,
      "Ġschmuck": 8061,
      "Ġzauberer": 8062,
      "szene": 8063,
      "sau": 8064,
      "Ġankl": 8065,
      "Ġjagen": 8066,
      "riebe": 8067,
      "Ġcent": 8068,
      "Ġgewann": 8069,
      "wirt": 8070,
      "ĠwÃ¤sche": 8071,
      "Ġplus": 8072,
      "kannten": 8073,
      "Ġstruktur": 8074,
      "Ġbescheid": 8075,
      "ĠhÃ¶lle": 8076,
      "projekt": 8077,
      "ĠÃ¤lteren": 8078,
      "Ġschweinchen": 8079,
      "Ġinternational": 8080,
      "nummer": 8081,
      "Ġbrasilien": 8082,
      "fal": 8083,
      "hielt": 8084,
      "wi": 8085,
      "Ġmam": 8086,
      "lla": 8087,
      "Ġinstagram": 8088,
      "Ġanwalt": 8089,
      "Ġunschul": 8090,
      "Ġtrenn": 8091,
      "Ġfortschr": 8092,
      "welcher": 8093,
      "Ġbewegungen": 8094,
      "ukturen": 8095,
      "Ġbadewanne": 8096,
      "ĠunabhÃ¤ngig": 8097,
      "ĠrÃ¶mischen": 8098,
      "fÃ¤hr": 8099,
      "mÃ¼n": 8100,
      "wem": 8101,
      "ĠwÃ¶l": 8102,
      "einhalb": 8103,
      "Ġnutzt": 8104,
      "Ġfund": 8105,
      "Ġzelt": 8106,
      "Ġsche": 8107,
      "ĠungewÃ¶hn": 8108,
      "raben": 8109,
      "Ã¤nken": 8110,
      "Ġreiten": 8111,
      "ption": 8112,
      "Ġregnet": 8113,
      "Ġziele": 8114,
      "pack": 8115,
      "Ġkindes": 8116,
      "Ġbefest": 8117,
      "Ġpflanze": 8118,
      "wÃ¼rfe": 8119,
      "Ġinnenstadt": 8120,
      "stum": 8121,
      "streifen": 8122,
      "Ġkau": 8123,
      "Ġschna": 8124,
      "Ġpen": 8125,
      "ĠÃ¼berprÃ¼": 8126,
      "Ġamaz": 8127,
      "Ġkrise": 8128,
      "Ġmaj": 8129,
      "Ġtexte": 8130,
      "tain": 8131,
      "Ġgebrauchen": 8132,
      "luft": 8133,
      "Ġabenteuer": 8134,
      "Ġtschech": 8135,
      "cel": 8136,
      "fehl": 8137,
      "ÃŃ": 8138,
      "stunde": 8139,
      "Ġlot": 8140,
      "etwa": 8141,
      "Ġerfol": 8142,
      "euen": 8143,
      "olen": 8144,
      "Ġspuren": 8145,
      "Ġumdrehen": 8146,
      "Ġbranden": 8147,
      "ĠweiÃŁte": 8148,
      "Ġue": 8149,
      "ĠÃ¤hm": 8150,
      "Ġflugzeuge": 8151,
      "Ġbedingungen": 8152,
      "Ġbayer": 8153,
      "ĠÃ¼berraschen": 8154,
      "Ġbeteiligt": 8155,
      "Ġgesamten": 8156,
      "trotzdem": 8157,
      "sim": 8158,
      "stande": 8159,
      "Ġnic": 8160,
      "Ġkissen": 8161,
      "schicht": 8162,
      "Ġschwie": 8163,
      "ĠgeprÃ¤": 8164,
      "Ġjens": 8165,
      "Ġunmittel": 8166,
      "bellen": 8167,
      "sour": 8168,
      "ĠabhÃ¤ng": 8169,
      "stru": 8170,
      "Ġstrahlen": 8171,
      "ĠfÃ¼nfzig": 8172,
      "Ġfreundschaft": 8173,
      "ĠgehÃ¶rten": 8174,
      "flugzeug": 8175,
      "--------": 8176,
      "kÃ¶rper": 8177,
      "polizei": 8178,
      "lange": 8179,
      "ĠsÃ¶": 8180,
      "Ġpist": 8181,
      "weite": 8182,
      "Ġschlitten": 8183,
      "Ġtrugen": 8184,
      "Ġgebieten": 8185,
      "Ġniemanden": 8186,
      "hÃ¤nomen": 8187,
      "Ġhilf": 8188,
      "Ġtomaten": 8189,
      "llover": 8190,
      "Ġotto": 8191,
      "din": 8192,
      "kob": 8193,
      "sÃ¤tz": 8194,
      "Ġgreifen": 8195,
      "Ġvul": 8196,
      "Ġausprob": 8197,
      "Ġfront": 8198,
      "ikes": 8199,
      "person": 8200,
      "ood": 8201,
      "Ġstrassenbahn": 8202,
      "klÃ¤rung": 8203,
      "christian": 8204,
      "Ã¤sar": 8205,
      "ritt": 8206,
      "wetter": 8207,
      "Ġvivien": 8208,
      "Ġzwer": 8209,
      "Ġwiesen": 8210,
      "Ġbeweisen": 8211,
      "Ġarbeite": 8212,
      "Ġheb": 8213,
      "hauses": 8214,
      "Ã¤hle": 8215,
      "fÃ¤llen": 8216,
      "Ġbetroffenen": 8217,
      "rand": 8218,
      "Ġrapp": 8219,
      "Ġangesehen": 8220,
      "Ġhinge": 8221,
      "verg": 8222,
      "rÃ¤ume": 8223,
      "Ġrose": 8224,
      "Ġbetrachtet": 8225,
      "25": 8226,
      "mutti": 8227,
      "val": 8228,
      "atische": 8229,
      "Ġallgemein": 8230,
      "Ġgibst": 8231,
      "Ġgerufen": 8232,
      "schlafen": 8233,
      "Ġheide": 8234,
      "sammlung": 8235,
      "Ġaussah": 8236,
      "Ġgespannt": 8237,
      "reckte": 8238,
      "Ġerwart": 8239,
      "Ġstudiert": 8240,
      "Ġbegleitet": 8241,
      "ĠgrÃ¤fin": 8242,
      "Ġbotschaft": 8243,
      "gleichen": 8244,
      "Ġsklaven": 8245,
      "dliche": 8246,
      "namen": 8247,
      "Ġjer": 8248,
      "istik": 8249,
      "Ġliege": 8250,
      "Ġjahrhunder": 8251,
      "Ġinneren": 8252,
      "fun": 8253,
      "rÃ¶": 8254,
      "tja": 8255,
      "Ġsofa": 8256,
      "Ġgleis": 8257,
      "Ġphys": 8258,
      "ĠwildgÃ¤n": 8259,
      "Ġsauerstoff": 8260,
      "ĠdÃ¼nn": 8261,
      "ĠÃ¼berrascht": 8262,
      "ĠmerkwÃ¼r": 8263,
      "ĠerfÃ¼llt": 8264,
      "Ġafghan": 8265,
      "kna": 8266,
      "kord": 8267,
      "seht": 8268,
      "Ġhitze": 8269,
      "arkt": 8270,
      "Ġvorschlag": 8271,
      "Ã¤nglich": 8272,
      "Ġwerdet": 8273,
      "ĠgegenstÃ¤nde": 8274,
      "Ġbeschrieben": 8275,
      "Ġgestohlen": 8276,
      "Ġwirkung": 8277,
      "Ġsub": 8278,
      "Ġangeboten": 8279,
      "Ġerinnerte": 8280,
      "Ã¶pfchen": 8281,
      "Ġapothe": 8282,
      "Ġreduz": 8283,
      "junge": 8284,
      "pra": 8285,
      "wachsen": 8286,
      "uns": 8287,
      "Ġgaz": 8288,
      "eldet": 8289,
      "Ġrings": 8290,
      "ĠstieÃŁ": 8291,
      "beg": 8292,
      "leidet": 8293,
      "Ġlediglich": 8294,
      "Ġeinfache": 8295,
      "ĠkÃ¤mpf": 8296,
      "phon": 8297,
      "ĠnÃ¤chstes": 8298,
      "ĠhauptsÃ¤chlich": 8299,
      "Ġkirch": 8300,
      "Ġlorry": 8301,
      "Ġlangweilig": 8302,
      "Ġvortrag": 8303,
      "Ġdres": 8304,
      "Ġleiche": 8305,
      "Ġhandels": 8306,
      "gebÃ¤ude": 8307,
      "darum": 8308,
      "kamer": 8309,
      "Ġknabe": 8310,
      "ĠrÃ¤um": 8311,
      "Ġlese": 8312,
      "Ġmikrofon": 8313,
      "Ġdiskutiert": 8314,
      "17": 8315,
      "Ġnr": 8316,
      "Ġnationen": 8317,
      "Ġvermein": 8318,
      "ĠstÃ¶r": 8319,
      "Ġhammer": 8320,
      "Ġverband": 8321,
      "Ã¤hÃ¤": 8322,
      "Ġaufgestellt": 8323,
      "ologischen": 8324,
      "Ġdurst": 8325,
      "Ġstoffe": 8326,
      "Ġnirgends": 8327,
      "Ġkonkurren": 8328,
      "heu": 8329,
      "tnam": 8330,
      "Ġacker": 8331,
      "Ã¤rter": 8332,
      "Ġbesorgt": 8333,
      "Ġgewiss": 8334,
      "okraten": 8335,
      "Ġcha": 8336,
      "Ġdicker": 8337,
      "Ġelektro": 8338,
      "Ġleidenschaft": 8339,
      "Ġmexiko": 8340,
      "Ġjahrzehnten": 8341,
      "Ġgisela": 8342,
      "tim": 8343,
      "ĠmÃ¶rder": 8344,
      "Ġby": 8345,
      "Ġbiene": 8346,
      "schwe": 8347,
      "Ġvergeben": 8348,
      "Ġdemnach": 8349,
      "becken": 8350,
      "Ġflur": 8351,
      "apel": 8352,
      "blasen": 8353,
      "Ġpapi": 8354,
      "Ġ45": 8355,
      "Ġformul": 8356,
      "ĠhÃ¶chsten": 8357,
      "bnis": 8358,
      "fuhr": 8359,
      "Ġdachten": 8360,
      "Ġwuchs": 8361,
      "Ġgedreht": 8362,
      "Ġstation": 8363,
      "Ġunsicher": 8364,
      "Ġdecken": 8365,
      "ĠangehÃ¶r": 8366,
      "Ġforsch": 8367,
      "Ġschreibe": 8368,
      "ologische": 8369,
      "blich": 8370,
      "tÃ¼": 8371,
      "Ġmasse": 8372,
      "Ġbob": 8373,
      "Ġpein": 8374,
      "Ġvertreten": 8375,
      "ĠfÃ¼rchte": 8376,
      "reffen": 8377,
      "Ġregionen": 8378,
      "gewicht": 8379,
      "ĠkÃ¤me": 8380,
      "Ġbiste": 8381,
      "aa": 8382,
      "bien": 8383,
      "oÃŁen": 8384,
      "Ġsingt": 8385,
      "Ġsens": 8386,
      "Ġgym": 8387,
      "Ġkast": 8388,
      "Ġeinsch": 8389,
      "auert": 8390,
      "Ġunangen": 8391,
      "chtigen": 8392,
      "Ġsperr": 8393,
      "istr": 8394,
      "Ġgeschaffen": 8395,
      "Ġchamp": 8396,
      "Ġ36": 8397,
      "Ġtrock": 8398,
      "Ġbetrachten": 8399,
      "Ġrauchen": 8400,
      "ĠbÃ¶sen": 8401,
      "Ġfielen": 8402,
      "ĠstÃ¤rk": 8403,
      "Ġstatue": 8404,
      "kretÃ¤r": 8405,
      "witz": 8406,
      "Ġ...": 8407,
      "Ġwandern": 8408,
      "Ġfassen": 8409,
      "Ġweichen": 8410,
      "Ġgesessen": 8411,
      "Ġewig": 8412,
      "ppchen": 8413,
      "Ġliefen": 8414,
      "ĠgerÃ¤te": 8415,
      "Ġtode": 8416,
      "Ġaussicht": 8417,
      "Ġatmen": 8418,
      "Ġbegannen": 8419,
      "ĠÃ¼berlegt": 8420,
      "Ġmelden": 8421,
      "Ġphilipp": 8422,
      "Ġbeziehungen": 8423,
      "ĠÃ¼bernommen": 8424,
      "kart": 8425,
      "Ġmem": 8426,
      "stoÃŁ": 8427,
      "Ġken": 8428,
      "Ġalae": 8429,
      "Ġfranken": 8430,
      "Ġsteck": 8431,
      "Ġweiterer": 8432,
      "Ġbraut": 8433,
      "Ġausser": 8434,
      "ĠflÃ¼ster": 8435,
      "handel": 8436,
      "Ġbritische": 8437,
      "Ġalaedd": 8438,
      "derte": 8439,
      "Ġvierzig": 8440,
      "Ġrabe": 8441,
      "Ġbursch": 8442,
      "Ġdonald": 8443,
      "eisenbahn": 8444,
      "hten": 8445,
      "higt": 8446,
      "jan": 8447,
      "not": 8448,
      "osex": 8449,
      "Ġ$": 8450,
      "Ġkump": 8451,
      "Ġvar": 8452,
      "ĠergÃ¤n": 8453,
      "Ġstol": 8454,
      "Ġweiteres": 8455,
      "prungen": 8456,
      "Ã¤chter": 8457,
      "Ġanti": 8458,
      "Ġlou": 8459,
      "Ġerhob": 8460,
      "Ġsignal": 8461,
      "hungen": 8462,
      "Ġmom": 8463,
      "Ġeinges": 8464,
      "berlin": 8465,
      "Ġanrufen": 8466,
      "Ġwies": 8467,
      "ingu": 8468,
      "Ġliebt": 8469,
      "Ã¼nde": 8470,
      "Ġgefiel": 8471,
      "Ġtote": 8472,
      "springen": 8473,
      "Ġ2012": 8474,
      "Ġstattfinden": 8475,
      "ĠÃ¶ffentliche": 8476,
      "ĠfrÃ¼hjahr": 8477,
      "ĠhÃ¶chstens": 8478,
      "ĠgewÃ¶hnlich": 8479,
      "Ġabgeschlossen": 8480,
      "Ġdreckig": 8481,
      "Ġgoldenen": 8482,
      "ontainer": 8483,
      "12": 8484,
      "flich": 8485,
      "kennt": 8486,
      "ln": 8487,
      "rid": 8488,
      "wichtig": 8489,
      "Ġgreg": 8490,
      "Ġkund": 8491,
      "Ġtats": 8492,
      "Ġnachdenken": 8493,
      "Ġumgehen": 8494,
      "allel": 8495,
      "schlie": 8496,
      "Ġstrick": 8497,
      "Ġtrauer": 8498,
      "mannschaft": 8499,
      "Ġbenannt": 8500,
      "Ġdunkle": 8501,
      "Ġkerzen": 8502,
      "Ġzunehmend": 8503,
      "haut": 8504,
      "nation": 8505,
      "Ġzellen": 8506,
      "Ġschauf": 8507,
      "Ġrannte": 8508,
      "Ġabschluss": 8509,
      "ĠkÃ¶nige": 8510,
      "Ġbrunnen": 8511,
      "Ġgegenstand": 8512,
      "Ġobgleich": 8513,
      "Ġteilnehmen": 8514,
      "ics": 8515,
      "geteilt": 8516,
      "Ġwinz": 8517,
      "Ġlautet": 8518,
      "lÃ¤sst": 8519,
      "ĠkÃ¤lte": 8520,
      "dank": 8521,
      "Ġsur": 8522,
      "Ġay": 8523,
      "Ġbakterien": 8524,
      "instr": 8525,
      "Ġalarm": 8526,
      "spir": 8527,
      "Ġberat": 8528,
      "Ġhilfs": 8529,
      "laubnis": 8530,
      "Ġorganisiert": 8531,
      "bas": 8532,
      "ode": 8533,
      "Ġmehl": 8534,
      "ĠbÃ¶r": 8535,
      "auff": 8536,
      "Ġerlau": 8537,
      "Ġanstatt": 8538,
      "Ġanspruch": 8539,
      "Ġgrosser": 8540,
      "ula": 8541,
      "Ġgewisse": 8542,
      "Ġsoldat": 8543,
      "ĠkÃ¼mmer": 8544,
      "Ġherauszu": 8545,
      "papier": 8546,
      "Ġwandte": 8547,
      "ĠwÃ¼nschte": 8548,
      "Ġfaszin": 8549,
      "Ġgewinnt": 8550,
      "Ġlieblings": 8551,
      "danach": 8552,
      "biegen": 8553,
      "felt": 8554,
      "kop": 8555,
      "kauft": 8556,
      "Ġbase": 8557,
      "Ġnom": 8558,
      "ĠnÃ¼sse": 8559,
      "emark": 8560,
      "Ġunrecht": 8561,
      "Ġvorgestellt": 8562,
      "Ġnachzu": 8563,
      "Ġredet": 8564,
      "Ġgelei": 8565,
      "ĠerzÃ¤hlung": 8566,
      "Ġgemeinden": 8567,
      "Ġstandard": 8568,
      "Ã¤rtchen": 8569,
      "Ġrakete": 8570,
      "Ġgleise": 8571,
      "kÃ¶nig": 8572,
      "Ġsupermarkt": 8573,
      "Ġverwandelt": 8574,
      "Ġweshalb": 8575,
      "Ġandres": 8576,
      "Ġstirbt": 8577,
      "aben": 8578,
      "stamm": 8579,
      "ĠschÃ¤tz": 8580,
      "ktiv": 8581,
      "Ġgewe": 8582,
      "ierend": 8583,
      "Ġrufe": 8584,
      "Ġwohnten": 8585,
      "Ġschreit": 8586,
      "Ġkupfer": 8587,
      "welchen": 8588,
      "Ġfunk": 8589,
      "ĠflÃ¼chtlings": 8590,
      "Ġuntersucht": 8591,
      "Ġlebewesen": 8592,
      "Ġproduziert": 8593,
      "strichen": 8594,
      "rin": 8595,
      "tommy": 8596,
      "Ġmisst": 8597,
      "Ġlach": 8598,
      "Ġann": 8599,
      "Ġanwesen": 8600,
      "Ġsocken": 8601,
      "ĠÃ¼bertragen": 8602,
      "ĠtrÃ¶": 8603,
      "zif": 8604,
      "ĠbeschÃ¤": 8605,
      "Ġhamburger": 8606,
      "Ġberlinale": 8607,
      "ĠverdÃ¤cht": 8608,
      "Ġkompliziert": 8609,
      "Ġschafe": 8610,
      "Ġdorian": 8611,
      "Ġhirsch": 8612,
      "Ġalexander": 8613,
      "fristig": 8614,
      "ĠdrÃ¼ckte": 8615,
      "tent": 8616,
      "Ġalpen": 8617,
      "Ġbesitzer": 8618,
      "Ġgegensatz": 8619,
      "aurier": 8620,
      "Ġgeflogen": 8621,
      "lar": 8622,
      "Ġast": 8623,
      "Ġale": 8624,
      "Ġbrechen": 8625,
      "itsch": 8626,
      "jawohl": 8627,
      "Ġauftritt": 8628,
      "Ġvorbild": 8629,
      "reiber": 8630,
      "Ġeffekt": 8631,
      "âĢ¦": 8632,
      "Ġkonzept": 8633,
      "ĠrÃ¼ckkehr": 8634,
      "versicher": 8635,
      "Ġkali": 8636,
      "Ġwiener": 8637,
      "Ġletztlich": 8638,
      "Ġgondel": 8639,
      "Ġyoutube": 8640,
      "40": 8641,
      "pal": 8642,
      "Ġeg": 8643,
      "ĠschieÃŁen": 8644,
      "Ġhingehen": 8645,
      "Ġblind": 8646,
      "ĠâĢ¦": 8647,
      "Ġdeck": 8648,
      "Ġteilt": 8649,
      "Ġteilnehmer": 8650,
      "Ġhaltung": 8651,
      "Ġtaxi": 8652,
      "solche": 8653,
      "netz": 8654,
      "ocken": 8655,
      "put": 8656,
      "ĠnÃ¼": 8657,
      "llten": 8658,
      "eltern": 8659,
      "Ġpel": 8660,
      "Ġpur": 8661,
      "Ġstirn": 8662,
      "necht": 8663,
      "block": 8664,
      "ĠkÃ¼chen": 8665,
      "hÃ¤ndler": 8666,
      "Ġnebeneinander": 8667,
      "Ġungleich": 8668,
      "Ġschickt": 8669,
      "Ġgetrennt": 8670,
      "ĠvernÃ¼n": 8671,
      "Ġfeucht": 8672,
      "200": 8673,
      "ban": 8674,
      "kes": 8675,
      "Ġvorsitzen": 8676,
      "Ġklingen": 8677,
      "Ġtrick": 8678,
      "Ġ31": 8679,
      "Ġversehen": 8680,
      "front": 8681,
      "Ġfordern": 8682,
      "Ġkate": 8683,
      "katzen": 8684,
      "Ġpeters": 8685,
      "Ġverabschie": 8686,
      "Ġliebling": 8687,
      "fÃ¤ltig": 8688,
      "Ġunglaublich": 8689,
      "gol": 8690,
      "lasst": 8691,
      "pat": 8692,
      "ypt": 8693,
      "Ġhorn": 8694,
      "Ġkalten": 8695,
      "elig": 8696,
      "Ġgesungen": 8697,
      "Ġklat": 8698,
      "einend": 8699,
      "indert": 8700,
      "Ġspielten": 8701,
      "ĠlÃ¤nge": 8702,
      "Ġverstorben": 8703,
      "azin": 8704,
      "ancy": 8705,
      "Ġmittags": 8706,
      "Ġergebnisse": 8707,
      "Ġsiehste": 8708,
      "Ġair": 8709,
      "ĠwÃ¤nde": 8710,
      "anie": 8711,
      "arte": 8712,
      "schle": 8713,
      "Ġfrische": 8714,
      "Ġvorhanden": 8715,
      "anzug": 8716,
      "Ã¤use": 8717,
      "frank": 8718,
      "gling": 8719,
      "Ġnato": 8720,
      "umenten": 8721,
      "zwungen": 8722,
      "aktionen": 8723,
      "Ġbriefe": 8724,
      "Ġheutige": 8725,
      "ĠkÃ¼rzlich": 8726,
      "Ġmotorrad": 8727,
      "mÃ¤nner": 8728,
      "Ġbegeistert": 8729,
      "Ġig": 8730,
      "Ã¤llig": 8731,
      "ders": 8732,
      "Ġvertreter": 8733,
      "rote": 8734,
      "reichte": 8735,
      "Ġherstellen": 8736,
      "werte": 8737,
      "blÃ¶": 8738,
      "altungen": 8739,
      "barer": 8740,
      "Ġ--\"": 8741,
      "Ġ2008": 8742,
      "Ġsetzten": 8743,
      "Ġkrab": 8744,
      "groÃŁer": 8745,
      "Ġumgefallen": 8746,
      "Ġrepariert": 8747,
      "fb": 8748,
      "Ġdiejenigen": 8749,
      "ierer": 8750,
      "Ġbron": 8751,
      "Ġgefol": 8752,
      "ĠmÃ¼h": 8753,
      "ĠmÃ¼sst": 8754,
      "Ġreifen": 8755,
      "Ġglatt": 8756,
      "Ġup": 8757,
      "Ġbeschreibt": 8758,
      "Ġgestalten": 8759,
      "Ġpassag": 8760,
      "Ġhelfe": 8761,
      "ĠhÃ¶rst": 8762,
      "Ġraub": 8763,
      "ĠkrÃ¤fte": 8764,
      "Ġmathem": 8765,
      "ĠberÃ¼hmt": 8766,
      "Ġsekunde": 8767,
      "Ġanaly": 8768,
      ".'": 8769,
      "Ġirak": 8770,
      "schatz": 8771,
      "Ġzut": 8772,
      "ĠzustÃ¤ndig": 8773,
      "ehnen": 8774,
      "Ġweiten": 8775,
      "rest": 8776,
      "ĠgroÃŁt": 8777,
      "Ġbaustelle": 8778,
      "que": 8779,
      "ĠqualitÃ¤t": 8780,
      "Ġhelden": 8781,
      "ĠhÃ¶rten": 8782,
      "Ġstarten": 8783,
      "teilen": 8784,
      "gÃ¤nge": 8785,
      "ĠerklÃ¤rung": 8786,
      "Ġscro": 8787,
      "Ġverheiratet": 8788,
      "spolitik": 8789,
      "Ġarchitekt": 8790,
      "dom": 8791,
      "mchen": 8792,
      "Ġaschen": 8793,
      "Ġmutti": 8794,
      "Ġaneinander": 8795,
      "Ġstreiten": 8796,
      "reibung": 8797,
      "angr": 8798,
      "Ġfaden": 8799,
      "ĠschÃ¶nsten": 8800,
      "Ġfreier": 8801,
      "Ã¤ndnis": 8802,
      "Ġermordet": 8803,
      "elang": 8804,
      "Ġschuss": 8805,
      "Ġersatz": 8806,
      "Ġvorzu": 8807,
      "Ġvorsicht": 8808,
      "Ġwiedersehen": 8809,
      "werks": 8810,
      "Ġflaschen": 8811,
      "ĠbrÃ¶tchen": 8812,
      "Ġkoalition": 8813,
      "astet": 8814,
      "Ġpreu": 8815,
      "Ġwilde": 8816,
      "Ġdrohen": 8817,
      "ĠgesprÃ¤che": 8818,
      "hans": 8819,
      "Ġsuppe": 8820,
      "Ġmauern": 8821,
      "asste": 8822,
      "ĠkÃ¶pfe": 8823,
      "emmt": 8824,
      "Ġbegren": 8825,
      "Ġvietnam": 8826,
      "Ġgegenwart": 8827,
      "Ġ2010": 8828,
      "Ġfliehen": 8829,
      "Ġpraxis": 8830,
      "Ġkalte": 8831,
      "kugel": 8832,
      "Ġostsee": 8833,
      "Ġjournalist": 8834,
      "Ġsuchst": 8835,
      "Ġverteidigen": 8836,
      "Ġpriester": 8837,
      "Ġraketen": 8838,
      "gÃ¤": 8839,
      "arat": 8840,
      "ĠÃ¼bersetzt": 8841,
      "Ġechten": 8842,
      "Ġeifer": 8843,
      "ĠgewÃ¼n": 8844,
      "Ġdire": 8845,
      "ives": 8846,
      "ops": 8847,
      "Ġbleibe": 8848,
      "Ġarbeitspl": 8849,
      "Ġsorgte": 8850,
      "Ġscheibe": 8851,
      "Ġkanada": 8852,
      "Ġstaatsanwalt": 8853,
      "Ġamazon": 8854,
      "dÃ¤": 8855,
      "dische": 8856,
      "nick": 8857,
      "pon": 8858,
      "ĠÃ¤ngst": 8859,
      "Ġaufeinander": 8860,
      "Ġausstellung": 8861,
      "Ġwerte": 8862,
      "ĠflieÃŁen": 8863,
      "flÃ¤chen": 8864,
      "okal": 8865,
      "vorsicht": 8866,
      "Ġeleg": 8867,
      "Ġwohnungs": 8868,
      "istenz": 8869,
      "Ġbio": 8870,
      "ĠunabhÃ¤ngigkeit": 8871,
      "Ġliteratur": 8872,
      "irkus": 8873,
      "\")": 8874,
      "sil": 8875,
      "Ġoch": 8876,
      "Ġbusse": 8877,
      "Ġrennt": 8878,
      "sspr": 8879,
      "Ġhermann": 8880,
      "sprÃ¼": 8881,
      "rief": 8882,
      "Ġberichtete": 8883,
      "Ġbricht": 8884,
      "ĠverkÃ¼n": 8885,
      "kate": 8886,
      "Ġstarr": 8887,
      "Ġstarben": 8888,
      "Ġunterschiede": 8889,
      "Ġskand": 8890,
      "Ġgrosses": 8891,
      "Ġriesigen": 8892,
      "ĠsÃ¤uget": 8893,
      "ĠschÃ¼ttelte": 8894,
      "hut": 8895,
      "king": 8896,
      "mung": 8897,
      "achter": 8898,
      "Ġtar": 8899,
      "Ġfritz": 8900,
      "Ġklagen": 8901,
      "Ġrecher": 8902,
      "Ġmehrmals": 8903,
      "Ġtrend": 8904,
      "unterricht": 8905,
      "Ġspringt": 8906,
      "Ġmechan": 8907,
      "afÃ©": 8908,
      "Ġfranzosen": 8909,
      "Ġenglische": 8910,
      "Ġlaterne": 8911,
      "ynam": 8912,
      "Ġelektron": 8913,
      "probier": 8914,
      "Ġozean": 8915,
      "Ġgackel": 8916,
      "ankt": 8917,
      "Ġkuck": 8918,
      "Ġgewerk": 8919,
      "Ġpandemie": 8920,
      "Ġstin": 8921,
      "rap": 8922,
      "Ġabstand": 8923,
      "Ġeifr": 8924,
      "Ġgewehr": 8925,
      "bli": 8926,
      "Ġreiter": 8927,
      "Ġguckst": 8928,
      "antje": 8929,
      "Ġfreizeit": 8930,
      "Ġendete": 8931,
      "ĠernÃ¤hren": 8932,
      "Ġdaniel": 8933,
      "zusammen": 8934,
      "ĠpersÃ¶nliche": 8935,
      "mitglieder": 8936,
      "alem": 8937,
      "Ġscheu": 8938,
      "Ġvergewalt": 8939,
      "Ġgewand": 8940,
      "ĠblÃ¤ttern": 8941,
      "Ġplatten": 8942,
      "kteur": 8943,
      "ĠberÃ¼hmte": 8944,
      "ĠverÃ¶ffentlich": 8945,
      "Ġklimasch": 8946,
      "direkt": 8947,
      "ĠgeschÃ¤fte": 8948,
      "ustr": 8949,
      "Ġfasch": 8950,
      "itar": 8951,
      "Ġerkannt": 8952,
      "Ġgeguckt": 8953,
      "ĠÃ¼berzeugen": 8954,
      "Ġabges": 8955,
      "Ġreichte": 8956,
      "Ġschulden": 8957,
      "Ġerschrocken": 8958,
      "Ġoberen": 8959,
      "ĠbÃ¼chern": 8960,
      "Ġwahlen": 8961,
      "Ġmetern": 8962,
      "Ġbonbon": 8963,
      "Ġandreas": 8964,
      "neue": 8965,
      "Ġdol": 8966,
      "Ġwick": 8967,
      "Ġbub": 8968,
      "Ġkell": 8969,
      "rohr": 8970,
      "Ġbege": 8971,
      "Ġfluter": 8972,
      "Ġglaubst": 8973,
      "Ġverbessern": 8974,
      "Ġdaraufhin": 8975,
      "ĠfÃ¼hrten": 8976,
      "Ġfelder": 8977,
      "Ġlocker": 8978,
      "Ġsalat": 8979,
      "melade": 8980,
      "Ġverwandt": 8981,
      "Ġrathaus": 8982,
      "ĠlÃ¼gen": 8983,
      "kirche": 8984,
      "Ġeinfachen": 8985,
      "drauf": 8986,
      "Ġnas": 8987,
      "Ġjames": 8988,
      "Ġalph": 8989,
      "Ġbekamen": 8990,
      "Ġgesell": 8991,
      "Ġbesitzt": 8992,
      "Ġschleu": 8993,
      "Ġprovin": 8994,
      "Ġheiter": 8995,
      "plÃ¤tze": 8996,
      "freu": 8997,
      "Ġangegriffen": 8998,
      "Ġschwarzer": 8999,
      "Ġraff": 9000,
      "Ġvereinigten": 9001,
      "kurz": 9002,
      "Ġapfelsaft": 9003,
      "Ġbehandlung": 9004,
      "Ġschenken": 9005,
      "ĠmÃ¤chtig": 9006,
      "Ġnadel": 9007,
      "ĠglÃ¤nzen": 9008,
      "16": 9009,
      "mÃ¤r": 9010,
      "wol": 9011,
      "zerne": 9012,
      "strom": 9013,
      "attet": 9014,
      "Ġdenselben": 9015,
      "andet": 9016,
      "beeren": 9017,
      "Ġabsicht": 9018,
      "Ġleichen": 9019,
      "ĠplÃ¤ne": 9020,
      "Ġwestlichen": 9021,
      "500": 9022,
      "lust": 9023,
      "zone": 9024,
      "ĠmÃ¤d": 9025,
      "emit": 9026,
      "ague": 9027,
      "hmus": 9028,
      "Ġwomit": 9029,
      "Ġklug": 9030,
      "brem": 9031,
      "ĠflÃ¼sse": 9032,
      "ruhig": 9033,
      "voller": 9034,
      "Ġrutsche": 9035,
      "ĠdÃ¤nemark": 9036,
      "Ġludwig": 9037,
      "ecke": 9038,
      "hington": 9039,
      "Ġ>": 9040,
      "artet": 9041,
      "ago": 9042,
      "Ġnachfrage": 9043,
      "Ġliefern": 9044,
      "Ġschnecken": 9045,
      "ĠangekÃ¼n": 9046,
      "Ġjemandem": 9047,
      "john": 9048,
      "Ġtwitter": 9049,
      "zis": 9050,
      "Ġpanzer": 9051,
      "Ġsoweit": 9052,
      "ĠaufrÃ¤umen": 9053,
      "Ġmitfahren": 9054,
      "Ã¼rzt": 9055,
      "ams": 9056,
      "Ġausgew": 9057,
      "Ġspinn": 9058,
      "serie": 9059,
      "Ġroter": 9060,
      "Ġmerke": 9061,
      "Ġdroht": 9062,
      "Ġumgekehrt": 9063,
      "Ġpalast": 9064,
      "Ġkartoffel": 9065,
      "gorit": 9066,
      "schwarz": 9067,
      "Ġzitronen": 9068,
      "ios": 9069,
      "erd": 9070,
      "Ġsult": 9071,
      "Ġbumm": 9072,
      "tele": 9073,
      "Ġkasse": 9074,
      "ckern": 9075,
      "Ġwozu": 9076,
      "Ġklinik": 9077,
      "leist": 9078,
      "Ġdram": 9079,
      "schaff": 9080,
      "Ġbaust": 9081,
      "Ġkamel": 9082,
      "Ġelement": 9083,
      "Ġkombin": 9084,
      "Ġaltertum": 9085,
      "Ġstellten": 9086,
      "Ġgeschwister": 9087,
      "Ġ1980": 9088,
      "Ġabsolut": 9089,
      "14": 9090,
      "?.": 9091,
      "ee": 9092,
      "kunde": 9093,
      "ror": 9094,
      "van": 9095,
      "Ġvit": 9096,
      "Ġzerr": 9097,
      "Ġangenommen": 9098,
      "Ġbeispiele": 9099,
      "Ġmehrfach": 9100,
      "Ġbesitzen": 9101,
      "Ġplant": 9102,
      "digungs": 9103,
      "Ġbegraben": 9104,
      "ĠkÃ¤stchen": 9105,
      "Ġpullover": 9106,
      "Ġhauptbahnhof": 9107,
      "Ġbraunen": 9108,
      "udeln": 9109,
      "Ġmodernen": 9110,
      "Ġaggress": 9111,
      "Ġangenehm": 9112,
      "ĠhÃ¤ufiger": 9113,
      "fft": 9114,
      "gy": 9115,
      "haufen": 9116,
      "arme": 9117,
      "Ġergeben": 9118,
      "Ġvereins": 9119,
      "Ġostern": 9120,
      "Ġgertrud": 9121,
      "Ġvielmehr": 9122,
      "ĠgebÃ¤u": 9123,
      "Ã¤lter": 9124,
      "linie": 9125,
      "Ġbefrie": 9126,
      "Ġriecht": 9127,
      "jeden": 9128,
      "Ġunternehmens": 9129,
      "Ġhimmels": 9130,
      "ĠÃ¤lteste": 9131,
      "Ġversprach": 9132,
      "ĠwÃ¤lder": 9133,
      "Ġschmetterling": 9134,
      ",.": 9135,
      "bagger": 9136,
      "orten": 9137,
      "Ã¼rgen": 9138,
      "ĠwomÃ¶glich": 9139,
      "Ġgesammelt": 9140,
      "ĠreprÃ¤sent": 9141,
      "Ġrohst": 9142,
      "Ġbesseren": 9143,
      "Ġtrecker": 9144,
      "ĠgrundsÃ¤tzlich": 9145,
      "Ġniedrig": 9146,
[...]
