{
  "version": "1.0",
  "truncation": {
    "direction": "Right",
    "max_length": 256,
    "strategy": "LongestFirst",
    "stride": 0
  },
  "padding": {
    "strategy": "BatchLongest",
    "direction": "Right",
    "pad_to_multiple_of": null,
    "pad_id": 0,
    "pad_type_id": 0,
    "pad_token": "PAD"
  },
  "added_tokens": [
    {
      "id": 0,
      "content": "PAD",
      "single_word": false,
      "lstrip": false,
      "rstrip": false,
      "normalized": false,
      "special": true
    },
    {
      "id": 1,
      "content": "UNK",
      "single_word": false,
      "lstrip": false,
      "rstrip": false,
      "normalized": false,
      "special": true
    },
    {
      "id": 2,
      "content": "UTT_BOUNDARY",
      "single_word": false,
      "lstrip": false,
      "rstrip": false,
      "normalized": false,
      "special": true
    }
  ],
  "normalizer": {
    "type": "Sequence",
    "normalizers": [
      {
        "type": "NFC"
      },
      {
        "type": "Lowercase"
      },
      {
        "type": "Strip",
        "strip_left": true,
        "strip_right": true
      }
    ]
  },
  "pre_tokenizer": {
    "type": "ByteLevel",
    "add_prefix_space": true,
    "trim_offsets": true,
    "use_regex": true
  },
  "post_processor": {
    "type": "TemplateProcessing",
    "single": [
      {
        "SpecialToken": {
          "id": "UTT_BOUNDARY",
          "type_id": 0
        }
      },
      {
        "Sequence": {
          "id": "A",
          "type_id": 0
        }
      }
    ],
    "pair": [
      {
        "SpecialToken": {
          "id": "UTT_BOUNDARY",
          "type_id": 0
        }
      },
      {
        "Sequence": {
          "id": "A",
          "type_id": 0
        }
      },
      {
        "SpecialToken": {
          "id": "UTT_BOUNDARY",
          "type_id": 1
        }
      },
      {
        "Sequence": {
          "id": "B",
          "type_id": 1
        }
      }
    ],
    "special_tokens": {
      "UTT_BOUNDARY": {
        "id": "UTT_BOUNDARY",
        "ids": [
          2
        ],
        "tokens": [
          "UTT_BOUNDARY"
        ]
      }
    }
  },
  "decoder": {
    "type": "ByteLevel",
    "add_prefix_space": true,
    "trim_offsets": true,
    "use_regex": true
  },
  "model": {
    "type": "BPE",
    "dropout": null,
    "unk_token": "UNK",
    "continuing_subword_prefix": null,
    "end_of_word_suffix": null,
    "fuse_unk": false,
    "byte_fallback": false,
    "ignore_merges": false,
    "vocab": {
      "PAD": 0,
      "UNK": 1,
      "UTT_BOUNDARY": 2,
      "!": 3,
      "\"": 4,
      "#": 5,
      "$": 6,
      "%": 7,
      "&": 8,
      "'": 9,
      "(": 10,
      ")": 11,
      "*": 12,
      "+": 13,
      ",": 14,
      "-": 15,
      ".": 16,
      "/": 17,
      "0": 18,
      "1": 19,
      "2": 20,
      "3": 21,
      "4": 22,
      "5": 23,
      "6": 24,
      "7": 25,
      "8": 26,
      "9": 27,
      ":": 28,
      ";": 29,
      "<": 30,
      "=": 31,
      ">": 32,
      "?": 33,
      "@": 34,
      "[": 35,
      "]": 36,
      "^": 37,
      "_": 38,
      "`": 39,
      "a": 40,
      "b": 41,
      "c": 42,
      "d": 43,
      "e": 44,
      "f": 45,
      "g": 46,
      "h": 47,
      "i": 48,
      "j": 49,
      "k": 50,
      "l": 51,
      "m": 52,
      "n": 53,
      "o": 54,
      "p": 55,
      "q": 56,
      "r": 57,
      "s": 58,
      "t": 59,
      "u": 60,
      "v": 61,
      "w": 62,
      "x": 63,
      "y": 64,
      "z": 65,
      "{": 66,
      "|": 67,
      "}": 68,
      "~": 69,
      "¡": 70,
      "¢": 71,
      "£": 72,
      "¤": 73,
      "¥": 74,
      "¦": 75,
      "§": 76,
      "¨": 77,
      "©": 78,
      "ª": 79,
      "«": 80,
      "¬": 81,
      "®": 82,
      "¯": 83,
      "°": 84,
      "±": 85,
      "²": 86,
      "³": 87,
      "´": 88,
      "µ": 89,
      "¶": 90,
      "·": 91,
      "¸": 92,
      "¹": 93,
      "º": 94,
      "»": 95,
      "¼": 96,
      "½": 97,
      "¾": 98,
      "¿": 99,
      "Â": 100,
      "Ã": 101,
      "Ä": 102,
      "Å": 103,
      "Æ": 104,
      "Ç": 105,
      "È": 106,
      "Ê": 107,
      "Ë": 108,
      "Ì": 109,
      "Ð": 110,
      "Ñ": 111,
      "á": 112,
      "â": 113,
      "ä": 114,
      "å": 115,
      "ç": 116,
      "é": 117,
      "ï": 118,
      "Ĝ": 119,
      "Ğ": 120,
      "Ġ": 121,
      "Ģ": 122,
      "ģ": 123,
      "Ĥ": 124,
      "ĥ": 125,
      "Ħ": 126,
      "ħ": 127,
      "Ĩ": 128,
      "ĩ": 129,
      "Ī": 130,
      "ī": 131,
      "ĭ": 132,
      "Į": 133,
      "į": 134,
      "İ": 135,
      "ı": 136,
      "Ĳ": 137,
      "ĳ": 138,
      "Ĵ": 139,
      "ĵ": 140,
      "Ķ": 141,
      "ķ": 142,
      "ĺ": 143,
      "Ļ": 144,
      "ļ": 145,
      "Ľ": 146,
      "ľ": 147,
      "Ŀ": 148,
      "ŀ": 149,
      "Ł": 150,
      "ł": 151,
      "Ń": 152,
      "Ġd": 153,
      "en": 154,
      "ch": 155,
      "er": 156,
      "ei": 157,
      "Ġs": 158,
      "Ġw": 159,
      "ie": 160,
      "Ġi": 161,
      "Ġa": 162,
      "Ġm": 163,
      "Ġda": 164,
      "ein": 165,
      "st": 166,
      "Ġh": 167,
      "un": 168,
      "Ġg": 169,
      "Ġn": 170,
      "Ġb": 171,
      "ich": 172,
      "Ġk": 173,
      "an": 174,
      "Ġdie": 175,
      "Ġein": 176,
      "es": 177,
      "Ġun": 178,
      "Ġj": 179,
      "te": 180,
      "Ġdas": 181,
      "Ġau": 182,
      "Ã¼": 183,
      "in": 184,
      "Ġund": 185,
      "Ġf": 186,
      "al": 187,
      "Ġv": 188,
      "Ġz": 189,
      "Ã¤": 190,
      "Ġder": 191,
      "au": 192,
      "Ġja": 193,
      "ll": 194,
      "on": 195,
      "ar": 196,
      "Ġich": 197,
      "sch": 198,
      "Ġl": 199,
      "Ġha": 200,
      "it": 201,
      "Ġist": 202,
      "as": 203,
      "eh": 204,
      "Ġsch": 205,
      "der": 206,
      "em": 207,
      "et": 208,
      "el": 209,
      "gen": 210,
      "ach": 211,
      "icht": 212,
      "ir": 213,
      "Ġr": 214,
      "Ġso": 215,
      "och": 216,
      "Ġin": 217,
      "or": 218,
      "ck": 219,
      "Ġzu": 220,
      "xx": 221,
      "Ġden": 222,
      "Ġdu": 223,
      "Ġp": 224,
      "Ġt": 225,
      "ten": 226,
      "mm": 227,
      "ier": 228,
      "Ã¶": 229,
      "Ġnicht": 230,
      "Ġer": 231,
      "ber": 232,
      "ÃŁ": 233,
      "Ġan": 234,
      "hr": 235,
      "ter": 236,
      "Ġmal": 237,
      "ge": 238,
      "ben": 239,
      "Ġwas": 240,
      "Ġes": 241,
      "Ġauf": 242,
      "Ġwir": 243,
      "Ġmit": 244,
      "Ġo": 245,
      "Ġsie": 246,
      "Ġge": 247,
      "ur": 248,
      "nn": 249,
      "Ġauch": 250,
      "den": 251,
      "de": 252,
      "Ġnoch": 253,
      "Ġwie": 254,
      "ig": 255,
      "Ã¼r": 256,
      "lich": 257,
      "etz": 258,
      "ss": 259,
      "Ġwar": 260,
      "Ġst": 261,
      "um": 262,
      "at": 263,
      "Ġver": 264,
      "ut": 265,
      "ann": 266,
      "Ġhat": 267,
      "Ġxx": 268,
      "Ġxxx": 269,
      "Ġeine": 270,
      "ung": 271,
      "ro": 272,
      "ag": 273,
      "Ġwo": 274,
      "etzt": 275,
      "Ġdann": 276,
      "Ġhier": 277,
      "Ġal": 278,
      "Ġdem": 279,
      "isch": 280,
      "Ġjetzt": 281,
      "Ġwei": 282,
      "am": 283,
      "hn": 284,
      "Ġmach": 285,
      "Ġaber": 286,
      "be": 287,
      "omm": 288,
      "iel": 289,
      "is": 290,
      "Ġaus": 291,
      "eu": 292,
      "Ġ\"": 293,
      "sen": 294,
      "Ġvon": 295,
      "..": 296,
      "and": 297,
      "rau": 298,
      "Ġsich": 299,
      "eit": 300,
      "ind": 301,
      "chen": 302,
      "uck": 303,
      "eg": 304,
      "il": 305,
      "ehr": 306,
      "cht": 307,
      "ol": 308,
      "Ġals": 309,
      "eine": 310,
      "se": 311,
      "ft": 312,
      "Ġhm": 313,
      "anz": 314,
      "Ġall": 315,
      "ste": 316,
      "Ġbei": 317,
      "Ġvor": 318,
      "Ġkann": 319,
      "Ġkl": 320,
      "ĠfÃ¼r": 321,
      "enn": 322,
      "Ġim": 323,
      "ra": 324,
      "Ġbe": 325,
      "Ġman": 326,
      "rei": 327,
      "re": 328,
      "Ġges": 329,
      "Ġgeh": 330,
      "Ġmu": 331,
      "fen": 332,
      "Ġnach": 333,
      "Ġle": 334,
      "Ġnein": 335,
      "Ġsind": 336,
      "Ġdenn": 337,
      "Ġguck": 338,
      "Ġihr": 339,
      "Ã¼ber": 340,
      "hl": 341,
      "Ġsp": 342,
      "aus": 343,
      "Ġdoch": 344,
      "Ġwer": 345,
      "Ġkomm": 346,
      "ent": 347,
      "ill": 348,
      "ser": 349,
      "Ġganz": 350,
      "Ġoder": 351,
      "Ġdass": 352,
      "ne": 353,
      "Ġgl": 354,
      "schen": 355,
      "Ġzw": 356,
      "Ġwieder": 357,
      "Ġum": 358,
      "Ã¤n": 359,
      "Ġeinen": 360,
      "Ġhin": 361,
      "le": 362,
      "mmer": 363,
      "Ġschon": 364,
      "mal": 365,
      "rÃ¼": 366,
      "ĠÃ¼ber": 367,
      "Ġhaben": 368,
      "Ġne": 369,
      "Ġdes": 370,
      "kt": 371,
      "ion": 372,
      "Ġwenn": 373,
      "Ġander": 374,
      "ahr": 375,
      "Ġsein": 376,
      "bt": 377,
      "ing": 378,
      "Ġmir": 379,
      "Ġab": 380,
      "om": 381,
      "Ġ1": 382,
      "sten": 383,
      "Ġe": 384,
      "Ġbl": 385,
      "Ġsoll": 386,
      "Ġnur": 387,
      "ern": 388,
      "ik": 389,
      "ap": 390,
      "ĠkÃ¶": 391,
      "Ġmein": 392,
      "und": 393,
      "Ġviel": 394,
      "ssen": 395,
      "ehen": 396,
      "Ġmehr": 397,
      "Ġdr": 398,
      "Ġsag": 399,
      "Ġmachen": 400,
      "Ġher": 401,
      "all": 402,
      "Ġde": 403,
      "eich": 404,
      "Ġre": 405,
      "Ġste": 406,
      "Ġleo": 407,
      "hm": 408,
      "Ġwill": 409,
      "ot": 410,
      "ist": 411,
      "ff": 412,
      "Ġhast": 413,
      "Ġ2": 414,
      "ischen": 415,
      "rie": 416,
      "Ġger": 417,
      "Ġhabe": 418,
      "Ġgen": 419,
      "Ġgro": 420,
      "pf": 421,
      "ĠkÃ¶nn": 422,
      "Ã¶r": 423,
      "sp": 424,
      "ort": 425,
      "ien": 426,
      "Ġei": 427,
      "Ġar": 428,
      "Ã¤t": 429,
      "ang": 430,
      "acht": 431,
      "Ġschw": 432,
      "Ġgut": 433,
      "uch": 434,
      "Ġimmer": 435,
      "Ġeiner": 436,
      "Ġzum": 437,
      "Ġeinem": 438,
      "pp": 439,
      "âĢ": 440,
      "ĠmÃ¼": 441,
      "Ġzwei": 442,
      "ĠweiÃŁ": 443,
      "us": 444,
      "Ġunter": 445,
      "Ã¤r": 446,
      "Ġdur": 447,
      "llen": 448,
      "Ġschl": 449,
      "Ġbis": 450,
      "os": 451,
      "ab": 452,
      "imm": 453,
      "Ġc": 454,
      "Ġam": 455,
      "Ġdurch": 456,
      "Ġmich": 457,
      "zen": 458,
      "Ġlie": 459,
      "Ġfl": 460,
      "Ġwird": 461,
      "bei": 462,
      "Ġbes": 463,
      "gt": 464,
      "ges": 465,
      "zu": 466,
      "eute": 467,
      "oll": 468,
      "Ġmuss": 469,
      "ĠgroÃŁ": 470,
      "im": 471,
      "Ġdir": 472,
      "ĠâĢ": 473,
      "her": 474,
      "ick": 475,
      "ungen": 476,
      "Ã¤hr": 477,
      "ht": 478,
      "ger": 479,
      "Ġhatte": 480,
      "Ġpro": 481,
      "che": 482,
      "nen": 483,
      "Ġsa": 484,
      "Ġent": 485,
      "iv": 486,
      "Ġgeht": 487,
      "Ġgem": 488,
      "Ġgew": 489,
      "Ġweil": 490,
      "Ġgel": 491,
      "iert": 492,
      "elt": 493,
      "ehm": 494,
      "ken": 495,
      "ad": 496,
      "Ġhei": 497,
      "Ġgi": 498,
      "hen": 499,
      "Ġihn": 500,
      "Ġmam": 501,
      "he": 502,
      "Ġdar": 503,
      "Ġgef": 504,
      "Ġwerden": 505,
      "ass": 506,
      "Ġ'": 507,
      "gel": 508,
      "Ġerst": 509,
      "Ġbr": 510,
      "Ã¤u": 511,
      "eil": 512,
      "ĠâĢĵ": 513,
      "Ġfr": 514,
      "alt": 515,
      "Ġna": 516,
      "Ġkommt": 517,
      "Ġalle": 518,
      "igen": 519,
      "sst": 520,
      "Ġklein": 521,
      "Ġrein": 522,
      "Ġgesch": 523,
      "Âł": 524,
      "ade": 525,
      "Ġtr": 526,
      "Ġgar": 527,
      "gend": 528,
      "ul": 529,
      "Ġson": 530,
      "Ġmacht": 531,
      "ieren": 532,
      "Ġen": 533,
      "Ġet": 534,
      "mit": 535,
      "Ġbau": 536,
      "Ġkon": 537,
      "ĠschÃ¶": 538,
      "ĠfÃ¼": 539,
      "ahn": 540,
      "cken": 541,
      "ahren": 542,
      "aft": 543,
      "Ġmen": 544,
      "ert": 545,
      "Ġmama": 546,
      "ische": 547,
      "rauf": 548,
      "Ġse": 549,
      "to": 550,
      "Ġweg": 551,
      "ige": 552,
      "Ġjahr": 553,
      "chte": 554,
      "was": 555,
      "ÃŁen": 556,
      "Ġgr": 557,
      "achen": 558,
      "Ġsehr": 559,
      "ke": 560,
      "ster": 561,
      "Ġalso": 562,
      "ze": 563,
      "Ġkein": 564,
      "ĠkÃ¶nnen": 565,
      "Ġber": 566,
      "Ġalles": 567,
      "Ġgleich": 568,
      "Ġgenau": 569,
      "assen": 570,
      "Ġuns": 571,
      "Ġgibt": 572,
      "eln": 573,
      "Ġsei": 574,
      "ommen": 575,
      "tet": 576,
      ".\"": 577,
      "Ġmon": 578,
      "ffen": 579,
      "Ġwur": 580,
      "eicht": 581,
      "Ġob": 582,
      "amm": 583,
      "dern": 584,
      "ation": 585,
      "angen": 586,
      "Ġfrau": 587,
      "Ġspiel": 588,
      "bl": 589,
      "schl": 590,
      "Ġheute": 591,
      "Ġhaus": 592,
      "Ġhab": 593,
      "Ġbin": 594,
      "unter": 595,
      "tlich": 596,
      "Ġsel": 597,
      "Ġma": 598,
      "Ġglau": 599,
      "Ġte": 600,
      "Ġje": 601,
      "Ã¼ck": 602,
      "Ġwaren": 603,
      "kl": 604,
      "ĠmÃ¶": 605,
      "rÃ¤": 606,
      "ÃŁt": 607,
      "art": 608,
      "ichtig": 609,
      "schaft": 610,
      "Ġpl": 611,
      "br": 612,
      "bst": 613,
      "rÃ¼ck": 614,
      "ĠschÃ¶n": 615,
      "ell": 616,
      "Ġdiese": 617,
      "Ġwarum": 618,
      "\",": 619,
      "ast": 620,
      "Ġkeine": 621,
      "Ġdies": 622,
      "Ġsagt": 623,
      "tel": 624,
      "Ġeigen": 625,
      "Ġweiter": 626,
      "Ġdrauf": 627,
      "Ġkannst": 628,
      "inder": 629,
      "iell": 630,
      "ĠwÃ¼r": 631,
      "Ġho": 632,
      "Ġwoll": 633,
      "ww": 634,
      "ĠnÃ¤": 635,
      "ine": 636,
      "Ġneu": 637,
      "ver": 638,
      "Ġgerade": 639,
      "Ġbet": 640,
      "Ġdich": 641,
      "op": 642,
      "Ġir": 643,
      "Ġwww": 644,
      "Ġdrei": 645,
      "Ġviele": 646,
      "Ġmeine": 647,
      "ĠmÃ¼ssen": 648,
      "Ġpap": 649,
      "ehmen": 650,
      "00": 651,
      "ok": 652,
      "Ġdeut": 653,
      "tern": 654,
      "Ġraus": 655,
      "Ġkr": 656,
      "Ġmer": 657,
      "Ġgemacht": 658,
      "ug": 659,
      "Ġmenschen": 660,
      "Ġro": 661,
      "Ġandere": 662,
      "me": 663,
      "Ġ-": 664,
      "Ġdein": 665,
      "Ġis": 666,
      ".?": 667,
      "ĠÃ¤": 668,
      "fl": 669,
      "end": 670,
      "Ġmar": 671,
      "est": 672,
      "hal": 673,
      "agen": 674,
      "Ġbist": 675,
      "Ġschne": 676,
      "ild": 677,
      "itz": 678,
      "ĠdaÃŁ": 679,
      "Ã¤hl": 680,
      "kommen": 681,
      "Ġanderen": 682,
      "ielleicht": 683,
      "Ġetwas": 684,
      "bar": 685,
      "Ġvielleicht": 686,
      "Ġch": 687,
      "samm": 688,
      "Ġdamit": 689,
      "pt": 690,
      "Ġ(": 691,
      "uss": 692,
      "Ġbrau": 693,
      "gl": 694,
      "heit": 695,
      "Ġhol": 696,
      "Ġko": 697,
      "Ġgeb": 698,
      "zi": 699,
      "Ġdrin": 700,
      "Ġihre": 701,
      "auf": 702,
      "ungs": 703,
      "inn": 704,
      "Ġwel": 705,
      "wei": 706,
      "Ġzur": 707,
      "Ġzei": 708,
      "Ġihm": 709,
      "Ġzeit": 710,
      "Ġauto": 711,
      "Ġkinder": 712,
      "Ġgegen": 713,
      "Ġglaube": 714,
      "Ġnochmal": 715,
      "sche": 716,
      "fer": 717,
      "ange": 718,
      "ma": 719,
      "atz": 720,
      "ahl": 721,
      "Ġirgend": 722,
      "af": 723,
      "Ġhand": 724,
      "ob": 725,
      "esen": 726,
      "Ġselbst": 727,
      "sammen": 728,
      "agt": 729,
      "Ġkrie": 730,
      "Ġkam": 731,
      "ĠfÃ¤hr": 732,
      "og": 733,
      "Ġwen": 734,
      "mlich": 735,
      "bahn": 736,
      "Ġzusammen": 737,
      "yy": 738,
      "Ġrecht": 739,
      "ant": 740,
      "Ġeinmal": 741,
      "Ġleben": 742,
      "Ġach": 743,
      "Ġeh": 744,
      "Ġpol": 745,
      "Ġwurde": 746,
      "Ġwollen": 747,
      "dem": 748,
      "iger": 749,
      "stell": 750,
      "Ġel": 751,
      "ank": 752,
      "lichen": 753,
      "keit": 754,
      "Ġseine": 755,
      "dr": 756,
      "aut": 757,
      "Ġwasser": 758,
      "issen": 759,
      "Ġhoch": 760,
      "Ã¼n": 761,
      "hin": 762,
      "Ġzie": 763,
      "Ġsagte": 764,
      "Ġunser": 765,
      "itte": 766,
      "Ġnie": 767,
      "Ġvom": 768,
      "per": 769,
      "Ġgehen": 770,
      "ĠmÃ¤": 771,
      "aufen": 772,
      "ess": 773,
      "Ġbisschen": 774,
      "Ġoben": 775,
      "Ġreg": 776,
      "Ġessen": 777,
      "ingen": 778,
      "Ġvier": 779,
      "Ġwillst": 780,
      "Ġeinf": 781,
      "Ġkur": 782,
      "hne": 783,
      "wo": 784,
      "ri": 785,
      "unden": 786,
      "Ġhal": 787,
      "liche": 788,
      "spiel": 789,
      "cke": 790,
      "Ġtun": 791,
      "Ġmus": 792,
      "tz": 793,
      "fe": 794,
      "Ġnichts": 795,
      "immt": 796,
      "Ġsehen": 797,
      "uchen": 798,
      "Ġpa": 799,
      "Ġ3": 800,
      "qu": 801,
      "ehn": 802,
      "sse": 803,
      "Ġdort": 804,
      "Ġmusst": 805,
      "upp": 806,
      "ĠweiÃŁt": 807,
      "gef": 808,
      "Ġfin": 809,
      "ho": 810,
      "ers": 811,
      "Ġblau": 812,
      "Ġlei": 813,
      "iz": 814,
      "Ġerz": 815,
      "Ġbeg": 816,
      "Ġrunter": 817,
      "Ġu": 818,
      "Ġkleine": 819,
      "Ġschnell": 820,
      "Ġpapa": 821,
      "ha": 822,
      "ckt": 823,
      "Ġsagen": 824,
      "ud": 825,
      "Ġrichtig": 826,
      ",,": 827,
      "Ã¤l": 828,
      "cher": 829,
      "Ġdabei": 830,
      "Ġfre": 831,
      "Ġeins": 832,
      "Ġham": 833,
      "ĠgrÃ¼": 834,
      "Ã¶rt": 835,
      "ler": 836,
      "ĠhÃ¤t": 837,
      "Ġor": 838,
      "Ġnun": 839,
      "Ġmone": 840,
      "Ġlang": 841,
      "Ġeigentlich": 842,
      "so": 843,
      "Ġeu": 844,
      "Ġmann": 845,
      "Ġwollte": 846,
      "ĠwÃ¼rde": 847,
      "utt": 848,
      "ust": 849,
      "Ġeinfach": 850,
      "ÃŁe": 851,
      "Ġkap": 852,
      "Ġdarf": 853,
      "att": 854,
      "Ġgucken": 855,
      "Ġspr": 856,
      "Ġsteht": 857,
      "zie": 858,
      "Ġeines": 859,
      "Ġrei": 860,
      "utter": 861,
      "Ġverl": 862,
      "Ġsieht": 863,
      "Ġhe": 864,
      "ĠtÃ¼r": 865,
      "Ġvers": 866,
      "Ġzwischen": 867,
      "gesch": 868,
      "wer": 869,
      "Ġwohn": 870,
      "Ġkonn": 871,
      "Ġang": 872,
      "ĠwÃ¤": 873,
      "Ġoh": 874,
      "ks": 875,
      "beit": 876,
      "Ġstr": 877,
      "ander": 878,
      "Ġme": 879,
      "Ġ20": 880,
      "Ġ--": 881,
      "Ġbo": 882,
      "ĠzurÃ¼ck": 883,
      "Ġfahren": 884,
      "Ġwohl": 885,
      "Ġbitte": 886,
      "Ġnee": 887,
      "under": 888,
      "Ġhau": 889,
      "Ġmax": 890,
      "Ġpr": 891,
      "Ġkommen": 892,
      "Ġgest": 893,
      "Ġdieser": 894,
      "Ġdran": 895,
      "Ġkleinen": 896,
      "hst": 897,
      "Ġem": 898,
      "erst": 899,
      "adt": 900,
      "Ġnet": 901,
      "fÃ¼r": 902,
      "ĠheiÃŁt": 903,
      "na": 904,
      "age": 905,
      "ĠerzÃ¤hl": 906,
      "Ġzug": 907,
      "pl": 908,
      "ĠfÃ¼n": 909,
      "Ġwe": 910,
      "men": 911,
      "Ġeben": 912,
      "we": 913,
      "Ġtrau": 914,
      "ochen": 915,
      "Ġsollen": 916,
      "ĠÃ¶": 917,
      "ĠfÃ¼nf": 918,
      "ekt": 919,
      "innen": 920,
      "uh": 921,
      "wie": 922,
      "Ġbest": 923,
      "Ġland": 924,
      "Ġpass": 925,
      "asse": 926,
      "ragen": 927,
      "allen": 928,
      "gar": 929,
      "chs": 930,
      "tr": 931,
      "Ġgesagt": 932,
      "geb": 933,
      "aum": 934,
      "ce": 935,
      "Ġmor": 936,
      "Ġblei": 937,
      "ald": 938,
      "ĠmÃ¶chte": 939,
      "Ġwirk": 940,
      "Ġmachst": 941,
      "Ġteil": 942,
      "Ġunten": 943,
      "Ġgu": 944,
      "Ġhinter": 945,
      "Ġnat": 946,
      "Ġbuch": 947,
      "sam": 948,
      "Ġkar": 949,
      "Ġins": 950,
      "Ġfest": 951,
      "ĠfÃ¤hrt": 952,
      "dig": 953,
      "Ġeur": 954,
      "ater": 955,
      "Ġstra": 956,
      "Ġwelt": 957,
      "Ġbeim": 958,
      "Ġsol": 959,
      "Ġschn": 960,
      "aden": 961,
      "Ġsonst": 962,
      "Ġverst": 963,
      "glich": 964,
      "machen": 965,
      "Ġlin": 966,
      "ÃŁer": 967,
      "utz": 968,
      "unde": 969,
      "wa": 970,
      "Ġohne": 971,
      "Ġfahr": 972,
      "ĠwÃ¤re": 973,
      "Ġerw": 974,
      "Ġth": 975,
      "ĠkÃ¼": 976,
      "ner": 977,
      "Ġmaxe": 978,
      "bo": 979,
      "ffe": 980,
      "aten": 981,
      "lo": 982,
      "ĠhÃ¶r": 983,
      "bis": 984,
      "kel": 985,
      "net": 986,
      "Ġkonnte": 987,
      "cker": 988,
      "anden": 989,
      "zeu": 990,
      "Ġleute": 991,
      "Ã¼hr": 992,
      "schie": 993,
      "vor": 994,
      "Ġbeispiel": 995,
      "Ġbi": 996,
      "Ġsondern": 997,
      "ĠfrÃ¼": 998,
      "ertig": 999,
      "Ġbesch": 1000,
      "Ġfrei": 1001,
      "Ġseit": 1002,
      "weg": 1003,
      "Ġlange": 1004,
      "Ġdazu": 1005,
      "Ġschu": 1006,
      "for": 1007,
      "Ġarbeit": 1008,
      "id": 1009,
      "Ġschrei": 1010,
      "Ã¤ll": 1011,
      "ĠmuÃŁ": 1012,
      "zeit": 1013,
      "Ġdeine": 1014,
      "Ã¼t": 1015,
      "Ġdis": 1016,
      "Ġschau": 1017,
      "lin": 1018,
      "ima": 1019,
      "ĠgroÃŁe": 1020,
      "Ġdan": 1021,
      "Ġbesser": 1022,
      "Ġspielen": 1023,
      "gangen": 1024,
      "bisschen": 1025,
      "Ġmhm": 1026,
      "Ġwirklich": 1027,
      "ĠhÃ¤tte": 1028,
      "Ã¤ng": 1029,
      "gr": 1030,
      "Ġget": 1031,
      "Ġihnen": 1032,
      "ale": 1033,
      "tag": 1034,
      "schland": 1035,
      "des": 1036,
      "pa": 1037,
      "ian": 1038,
      "Ġpolit": 1039,
      "Ġsu": 1040,
      "Ġlos": 1041,
      "Ġhatten": 1042,
      "orden": 1043,
      "Ġ19": 1044,
      "Ġkaputt": 1045,
      "Ġgesp": 1046,
      "\".": 1047,
      "Ġwarte": 1048,
      "Ġfor": 1049,
      "Ġfertig": 1050,
      "Ġtro": 1051,
      "Ġaugen": 1052,
      "Ġerf": 1053,
      "ĠkÃ¶nnte": 1054,
      "rechen": 1055,
      "nehmen": 1056,
      "eid": 1057,
      "Ġihren": 1058,
      "asst": 1059,
      "ĠhÃ¤n": 1060,
      "Ġkurz": 1061,
      "etzen": 1062,
      "Ġkat": 1063,
      "Ġstadt": 1064,
      "ionen": 1065,
      "ĠlÃ¶": 1066,
      "?\"": 1067,
      "Ġto": 1068,
      "Ġstell": 1069,
      "Ġmei": 1070,
      "Ġhalt": 1071,
      "Ġtag": 1072,
      "dchen": 1073,
      "ĠgroÃŁen": 1074,
      "Ġdeutschland": 1075,
      "Ġbett": 1076,
      "Ġlassen": 1077,
      "Ġkopf": 1078,
      "ak": 1079,
      "Ġgesehen": 1080,
      "itt": 1081,
      "Ġfil": 1082,
      "str": 1083,
      "ĠhÃ¶": 1084,
      "elm": 1085,
      "ĠnÃ¤mlich": 1086,
      "Ġwelche": 1087,
      "Ġnehmen": 1088,
      "hau": 1089,
      "kr": 1090,
      "umen": 1091,
      "Ġkn": 1092,
      "ief": 1093,
      "ere": 1094,
      "Ġ4": 1095,
      "Ġverb": 1096,
      "itÃ¤t": 1097,
      "Ġrum": 1098,
      "uÃŁ": 1099,
      "Ġtoll": 1100,
      "Ġseiner": 1101,
      "eiten": 1102,
      "Ġstehen": 1103,
      "halb": 1104,
      "ingt": 1105,
      "Ġgeld": 1106,
      "ia": 1107,
      "Ã¼rlich": 1108,
      "Ġsit": 1109,
      "ache": 1110,
      "einander": 1111,
      "eht": 1112,
      "Ġkenn": 1113,
      "unge": 1114,
      "Ġged": 1115,
      "Ġwa": 1116,
      "Ã¤ch": 1117,
      "land": 1118,
      "ja": 1119,
      "Ġging": 1120,
      "Ġmorgen": 1121,
      "Ġbild": 1122,
      "Ġbek": 1123,
      "ĠgehÃ¶rt": 1124,
      "Ġnich": 1125,
      "gehen": 1126,
      "Ġgerne": 1127,
      "Ġex": 1128,
      "von": 1129,
      "Ġpu": 1130,
      "Ġmutter": 1131,
      "ierung": 1132,
      "Ġvoll": 1133,
      "Ġwahr": 1134,
      "Ġneben": 1135,
      "Ġjahren": 1136,
      "immer": 1137,
      "ziehen": 1138,
      "urt": 1139,
      "Ġarbei": 1140,
      "yyy": 1141,
      "ĠdafÃ¼r": 1142,
      "Ġyyy": 1143,
      "ĠgrÃ¼n": 1144,
      "Ġqu": 1145,
      "du": 1146,
      "Ġihrer": 1147,
      "'s": 1148,
      "alen": 1149,
      "ĠnatÃ¼rlich": 1150,
      "ichte": 1151,
      "Ġgab": 1152,
      "Ġwissen": 1153,
      "wir": 1154,
      "Ã¤lt": 1155,
      "zent": 1156,
      "ehe": 1157,
      "Ġrot": 1158,
      "Ġsiehst": 1159,
      "Ġoma": 1160,
      "eter": 1161,
      "!\"": 1162,
      "Ġherr": 1163,
      "Ġletz": 1164,
      "Ġleg": 1165,
      "geben": 1166,
      "Ġganze": 1167,
      "ĠhÃ¤u": 1168,
      "Ġseinen": 1169,
      "Ġtier": 1170,
      "Ġpar": 1171,
      "Ġgek": 1172,
      "Ġant": 1173,
      "ase": 1174,
      "Ġ0": 1175,
      "Ġru": 1176,
      "Ġ201": 1177,
      "Ġkind": 1178,
      "mer": 1179,
      "app": 1180,
      "Ġhinten": 1181,
      "amil": 1182,
      "Ã¤nder": 1183,
      "Ġdieses": 1184,
      "Ġdenen": 1185,
      "Ġfrauen": 1186,
      "Ġfreund": 1187,
      "Ġsta": 1188,
      "rad": 1189,
      "Ġsollte": 1190,
      "Ġball": 1191,
      "Ġetwa": 1192,
      "Ġflie": 1193,
      "Ã¤ft": 1194,
      "kte": 1195,
      "ehl": 1196,
      "dien": 1197,
      "Ġdo": 1198,
      "Ġtraum": 1199,
      "ĠkÃ¤": 1200,
      "gessen": 1201,
      "ktion": 1202,
      "Ġtre": 1203,
      "amen": 1204,
      "...": 1205,
      "eten": 1206,
      "Ġschwer": 1207,
      "fall": 1208,
      "Ġoft": 1209,
      "ĠstÃ¼ck": 1210,
      "hof": 1211,
      "zig": 1212,
      "ĠgrÃ¶": 1213,
      "Ġanf": 1214,
      "ĠwÃ¤hr": 1215,
      "zeug": 1216,
      "ĠĠ": 1217,
      "Ġsicher": 1218,
      "Ġdiesem": 1219,
      "Ġjunge": 1220,
      "aby": 1221,
      "Ġnacht": 1222,
      "Ġinter": 1223,
      "Ġende": 1224,
      "Ġrechts": 1225,
      "Ġjem": 1226,
      "Ġklar": 1227,
      "ogen": 1228,
      "Ġah": 1229,
      "Ġschwar": 1230,
      "ĠÃ¤h": 1231,
      "anken": 1232,
      "Ġaut": 1233,
      "ĠnÃ¤ch": 1234,
      "Ġdiesen": 1235,
      "halten": 1236,
      "Ġmache": 1237,
      "Ã¤ter": 1238,
      "oren": 1239,
      "nis": 1240,
      "ive": 1241,
      "ans": 1242,
      "essen": 1243,
      "die": 1244,
      "ord": 1245,
      "Ġmin": 1246,
      "Ġmag": 1247,
      "ett": 1248,
      "Ġmusste": 1249,
      "Ġbeiden": 1250,
      "ats": 1251,
      "ucht": 1252,
      "Ġtrin": 1253,
      "aul": 1254,
      "schein": 1255,
      "Ġliegt": 1256,
      "Ġbauen": 1257,
      "gew": 1258,
      "ĠwÃ¤hrend": 1259,
      "Ġsah": 1260,
      "ix": 1261,
      "Ġanders": 1262,
      "Ġflug": 1263,
      "Ġmalen": 1264,
      "Ġgewesen": 1265,
      "Ġdavon": 1266,
      "uppe": 1267,
      "Ġauss": 1268,
      "Ġkom": 1269,
      "Ã¤rt": 1270,
      "zw": 1271,
      "ipp": 1272,
      "Ġseinem": 1273,
      "iff": 1274,
      "Ġweit": 1275,
      "Ġacht": 1276,
      "Ġfast": 1277,
      "Ġwil": 1278,
      "achte": 1279,
      "fte": 1280,
      "Ġmeinst": 1281,
      "zt": 1282,
      "Ġwenig": 1283,
      "Ġart": 1284,
      "Ġsitz": 1285,
      "fr": 1286,
      "scht": 1287,
      "ĠmÃ¤dchen": 1288,
      "Ġaller": 1289,
      "Ġfamil": 1290,
      "Ġpasst": 1291,
      "Ġverk": 1292,
      "Ġju": 1293,
      "stellen": 1294,
      "euer": 1295,
      "pro": 1296,
      "Ġbeh": 1297,
      "haus": 1298,
      "fahren": 1299,
      "Ġneue": 1300,
      "Ġerstmal": 1301,
      "Ã¼hl": 1302,
      "Ġsim": 1303,
      "gem": 1304,
      "urm": 1305,
      "Ġkeinen": 1306,
      "Ġfar": 1307,
      "Ġbaby": 1308,
      "igkeit": 1309,
      "Ġmo": 1310,
      "Ġgucke": 1311,
      "bend": 1312,
      "Ġjahre": 1313,
      "Ġwurden": 1314,
      "Ġange": 1315,
      "Ġfen": 1316,
      "isten": 1317,
      "eiden": 1318,
      "rieben": 1319,
      "Ġka": 1320,
      "Ġersten": 1321,
      "annt": 1322,
      "Ġschul": 1323,
      "Ġseite": 1324,
      "dlich": 1325,
      "Ġzimmer": 1326,
      "Ġlinks": 1327,
      "Ġzeig": 1328,
      "Ġmeinen": 1329,
      "Ġkrieg": 1330,
      "ker": 1331,
      "Ġmeiner": 1332,
      "ings": 1333,
      "ko": 1334,
      "Ġlu": 1335,
      "nahm": 1336,
      "Ġfilm": 1337,
      "ina": 1338,
      "Ġoffen": 1339,
      "Ġricht": 1340,
      "Ġstu": 1341,
      "weise": 1342,
      "Ġern": 1343,
      "one": 1344,
      "eigen": 1345,
      "Ġhund": 1346,
      "chten": 1347,
      "Ã¤um": 1348,
      "Ġfisch": 1349,
      "Ġhu": 1350,
      "ip": 1351,
      "Ġpaar": 1352,
      "ĠfÃ¼hr": 1353,
      "hol": 1354,
      "ĠmÃ¤nn": 1355,
      "ellschaft": 1356,
      "undert": 1357,
      "Ġeinz": 1358,
      "Ġjo": 1359,
      "pr": 1360,
      "schw": 1361,
      "Ġbil": 1362,
      "mus": 1363,
      "Ġsechs": 1364,
      "Ġhel": 1365,
      "bau": 1366,
      "Ġsachen": 1367,
      "Ġla": 1368,
      "Ġpfer": 1369,
      "Ã¶l": 1370,
      "ierte": 1371,
      "Ġgell": 1372,
      "Ġschlie": 1373,
      "legen": 1374,
      "Ġbahn": 1375,
      "Ġhil": 1376,
      "inger": 1377,
      "Ġstand": 1378,
      "Ġsogar": 1379,
      "Ġvorbei": 1380,
      "Ġstimmt": 1381,
      "onder": 1382,
      "Ġlieber": 1383,
      "Ġstar": 1384,
      "Ġallem": 1385,
      "pfel": 1386,
      "Ġ5": 1387,
      "stag": 1388,
      "Ġvater": 1389,
      "Ġschle": 1390,
      "Ġihrem": 1391,
      "Ġgemein": 1392,
      "ock": 1393,
      "spr": 1394,
      "haupt": 1395,
      "ichten": 1396,
      "ucken": 1397,
      "ĠhÃ¼": 1398,
      "Ġpf": 1399,
      "ĠmÃ¶glich": 1400,
      "nel": 1401,
      "itten": 1402,
      "ka": 1403,
      "rot": 1404,
      "afen": 1405,
      "Ġzehn": 1406,
      "Ġschr": 1407,
      "rage": 1408,
      "ult": 1409,
      "Ġnachher": 1410,
      "Ã¤nger": 1411,
      "helm": 1412,
      "Ġta": 1413,
      "olle": 1414,
      "Ġschm": 1415,
      "alten": 1416,
      "blem": 1417,
      "Ġmill": 1418,
      "Ġanderes": 1419,
      "Ġbaum": 1420,
      "ĠspÃ¤ter": 1421,
      "iss": 1422,
      "Ġsozi": 1423,
      "ĠlÃ¤": 1424,
      "nung": 1425,
      "Ã¤ren": 1426,
      "geh": 1427,
      "Ġjemand": 1428,
      "gang": 1429,
      "Ġkerst": 1430,
      "reich": 1431,
      ",\"": 1432,
      "Ġmeinem": 1433,
      "Ġkerstin": 1434,
      "Ġsau": 1435,
      "Ġfenster": 1436,
      "Ġpo": 1437,
      "ic": 1438,
      "Ġmensch": 1439,
      "tschaft": 1440,
      "Ġgeben": 1441,
      "Ġberlin": 1442,
      "Ġtunnel": 1443,
      "stÃ¤n": 1444,
      "stellt": 1445,
      "Ġheraus": 1446,
      "Ġmanch": 1447,
      "egt": 1448,
      "ĠÃ¼berhaupt": 1449,
      "Ġus": 1450,
      "Ġjeder": 1451,
      "zz": 1452,
      "Ġwilhelm": 1453,
      "Ġlass": 1454,
      "ĠhÃ¤": 1455,
      "ielt": 1456,
      "Ġfol": 1457,
      "Ġhabt": 1458,
      "Ġdahin": 1459,
      "Ġganzen": 1460,
      "urg": 1461,
      "Ġbald": 1462,
      "Ġplatz": 1463,
      "fel": 1464,
      "Ġholen": 1465,
      "Ġtisch": 1466,
      "Ġvert": 1467,
      "000": 1468,
      "Ġziemlich": 1469,
      "rat": 1470,
      "ÃŁchen": 1471,
      "Ġfinde": 1472,
      "Ġbesonder": 1473,
      "mp": 1474,
      "Ġabend": 1475,
      "Ġalt": 1476,
      "Ġkleines": 1477,
      "Ġdarauf": 1478,
      "umm": 1479,
      "bel": 1480,
      "Ġvorne": 1481,
      "bert": 1482,
      "Ġrie": 1483,
      "Ã¤llt": 1484,
      "Ġverw": 1485,
      "ischer": 1486,
      "ĠbÃ¼r": 1487,
      "ismus": 1488,
      "Ġchr": 1489,
      "elle": 1490,
      "Ġeurop": 1491,
      "Ġmil": 1492,
      "Ġgrund": 1493,
      "kon": 1494,
      "ausen": 1495,
      "Ġerkl": 1496,
      "Ġwilhelmine": 1497,
      "Ġfehl": 1498,
      "Ġdeshalb": 1499,
      "Ġpers": 1500,
      "eits": 1501,
      "Ġgenug": 1502,
      "Ġsuch": 1503,
      "Ġverm": 1504,
      "rÃ¼cke": 1505,
      "ĠÃ¼": 1506,
      "Ġben": 1507,
      "Ġbef": 1508,
      "Ġlaut": 1509,
      "ĠflÃ¼": 1510,
      "Ġfinden": 1511,
      "Ġide": 1512,
      "ack": 1513,
      "Ġsy": 1514,
      "gleich": 1515,
      "Ġmom": 1516,
      "viel": 1517,
      "arbei": 1518,
      "Ġgesellschaft": 1519,
      "Ġkleiner": 1520,
      "Ġproblem": 1521,
      "Ġprozent": 1522,
      "Ġentsch": 1523,
      "Ġmanchmal": 1524,
      "Ġfort": 1525,
      "stand": 1526,
      "Ġvielen": 1527,
      "Ġzwar": 1528,
      "Ġsuper": 1529,
      "Ġgra": 1530,
      "Ġhause": 1531,
      "Ġallein": 1532,
      "ĠsÃ¼": 1533,
      "si": 1534,
      "Ġbel": 1535,
      "Ġunsere": 1536,
      "Ġdrau": 1537,
      "Ġsitzt": 1538,
      "Ġlust": 1539,
      "Ġalte": 1540,
      "Ġtrotz": 1541,
      "Ġzahl": 1542,
      "Ġboden": 1543,
      "wohl": 1544,
      "are": 1545,
      "reis": 1546,
      "igt": 1547,
      "Ġangst": 1548,
      "if": 1549,
      "Ġfal": 1550,
      "ott": 1551,
      "ĠbiÃŁchen": 1552,
      "Ġku": 1553,
      "Ġdick": 1554,
      "Ġwor": 1555,
      "Ġsitzen": 1556,
      "auft": 1557,
      "Ġirgendwie": 1558,
      "isse": 1559,
      "eint": 1560,
      "par": 1561,
      "Ġfa": 1562,
      "senbahn": 1563,
      "sk": 1564,
      "mals": 1565,
      "det": 1566,
      "mann": 1567,
      "Ġfeuer": 1568,
      "Ġjeden": 1569,
      "Ġnix": 1570,
      "Ġbeide": 1571,
      "zug": 1572,
      "Ġfrag": 1573,
      "Ġbleiben": 1574,
      "Ġdachte": 1575,
      "Ġarm": 1576,
      "get": 1577,
      "Ġgeworden": 1578,
      "inge": 1579,
      "gegen": 1580,
      "Ġbus": 1581,
      "ĠfuÃŁ": 1582,
      "lie": 1583,
      "Ġbrauchen": 1584,
      "Ġchrist": 1585,
      "sy": 1586,
      "Ġszen": 1587,
      "Ġstud": 1588,
      "Ġeltern": 1589,
      "Ġuhr": 1590,
      "Ġwichtig": 1591,
      "oÃŁ": 1592,
      "ph": 1593,
      "ennen": 1594,
      "zehn": 1595,
      "zahl": 1596,
      "Ġeuch": 1597,
      "Ġmund": 1598,
      "abt": 1599,
      "Ã¶t": 1600,
      "nete": 1601,
      "halt": 1602,
      "Ġsehe": 1603,
      "pu": 1604,
      "aub": 1605,
      "buch": 1606,
      "tete": 1607,
      "etter": 1608,
      "Ġmoment": 1609,
      "del": 1610,
      "wagen": 1611,
      "Ġnamen": 1612,
      "Ġcor": 1613,
      "dent": 1614,
      "amp": 1615,
      "achten": 1616,
      "Ġpaul": 1617,
      "ationen": 1618,
      "schieden": 1619,
      "schn": 1620,
      "Ġgesicht": 1621,
      "Ġnor": 1622,
      "ah": 1623,
      "ikan": 1624,
      "Ġblauen": 1625,
      "Ġtu": 1626,
      "form": 1627,
      "Ġverh": 1628,
      "Ġsetz": 1629,
      "ĠhÃ¤user": 1630,
      "bracht": 1631,
      "sel": 1632,
      "Ġpart": 1633,
      "wor": 1634,
      "Ġeis": 1635,
      "Ġgeschichte": 1636,
      "Ġur": 1637,
      "Ġverf": 1638,
      "undes": 1639,
      "Ġschule": 1640,
      "Ġliegen": 1641,
      "zimmer": 1642,
      "Ã¶n": 1643,
      "--": 1644,
      "Ġkatze": 1645,
      "Ġstimm": 1646,
      "das": 1647,
      "Ġra": 1648,
      "Ġwieso": 1649,
      "Ã¤tz": 1650,
      "Ġecht": 1651,
      "ette": 1652,
      "Ġalten": 1653,
      "Ġfro": 1654,
      "Ġy": 1655,
      "Ġbilder": 1656,
      "Ġfall": 1657,
      "stens": 1658,
      "ball": 1659,
      "gest": 1660,
      "chst": 1661,
      "iker": 1662,
      "gan": 1663,
      "Ġtrinken": 1664,
      "ller": 1665,
      "Ġsof": 1666,
      "dd": 1667,
      "Ġjugend": 1668,
      "wick": 1669,
      "Ã¶tz": 1670,
      "Ġsieben": 1671,
      "bes": 1672,
      "ienen": 1673,
      "Ġwort": 1674,
      "Ġerste": 1675,
      "Ġkaum": 1676,
      "uten": 1677,
      "ĠauÃŁer": 1678,
      "Ġwerde": 1679,
      "Ġkir": 1680,
      "Ġleu": 1681,
      "Ġfragen": 1682,
      "ĠerzÃ¤hlt": 1683,
      "Ġsor": 1684,
      "zogen": 1685,
      "Ġeher": 1686,
      "Ġeinige": 1687,
      "Ġhaupt": 1688,
      "Ġ6": 1689,
      "Ġrau": 1690,
      "Ġerinn": 1691,
      "Ġlok": 1692,
      "recht": 1693,
      "ala": 1694,
      "Ġintern": 1695,
      "Ġweniger": 1696,
      "Ġmh": 1697,
      "blick": 1698,
      "Ġgib": 1699,
      "orn": 1700,
      "Ġtut": 1701,
      "Ġneun": 1702,
      "Ġvorher": 1703,
      "lei": 1704,
      "Ġkriegt": 1705,
      "ĠglÃ¼ck": 1706,
      "Ġnimm": 1707,
      "Ġeich": 1708,
      "Ġpfl": 1709,
      "ennt": 1710,
      "Ġeisenbahn": 1711,
      "Ġstatt": 1712,
      "burg": 1713,
      "Ġbar": 1714,
      "eig": 1715,
      "Ġruss": 1716,
      "Ġvors": 1717,
      "Ġversuch": 1718,
      "lung": 1719,
      "Ġmaus": 1720,
      "Ġco": 1721,
      "Ġjungen": 1722,
      "reck": 1723,
      "ffentlich": 1724,
      "pfer": 1725,
      "ĠdarÃ¼ber": 1726,
      "Ġerk": 1727,
      "ĠfrÃ¼her": 1728,
      "ierten": 1729,
      "ika": 1730,
      "ga": 1731,
      "los": 1732,
      "ve": 1733,
      "Ġind": 1734,
      "Ġapfel": 1735,
      "Ġdach": 1736,
      "Ġrund": 1737,
      "Ġgute": 1738,
      "Ġemme": 1739,
      "Ġakt": 1740,
      "urch": 1741,
      "Ã¶ren": 1742,
      "Ġletzten": 1743,
      "ĠbrÃ¼cke": 1744,
      "Ã¤ndern": 1745,
      "Ġthe": 1746,
      "Ġfamilie": 1747,
      "Ġhalten": 1748,
      "Ġfrage": 1749,
      "olog": 1750,
      "ĠbÃ¼": 1751,
      "indet": 1752,
      "Ġdun": 1753,
      "ĠÃ¤hn": 1754,
      "urn": 1755,
      "Ġpassiert": 1756,
      "io": 1757,
      "gefallen": 1758,
      "Ġersch": 1759,
      "uhr": 1760,
      "Ġgestern": 1761,
      "Ġlag": 1762,
      "err": 1763,
      "Ġrad": 1764,
      "Ġzeigen": 1765,
      "ĠdÃ¼r": 1766,
      "Ġlau": 1767,
      "Ġtom": 1768,
      "ĠrÃ¼ck": 1769,
      "uppen": 1770,
      "achsen": 1771,
      "Ġph": 1772,
      "licher": 1773,
      "Ġgehabt": 1774,
      "Ġbekommen": 1775,
      "Ġlebens": 1776,
      "ĠstraÃŁe": 1777,
      "ium": 1778,
      "Ġangel": 1779,
      "setzen": 1780,
      "mittel": 1781,
      "fahr": 1782,
      "Ġnehm": 1783,
      "kun": 1784,
      "mar": 1785,
      "zwischen": 1786,
      "annte": 1787,
      "Ġsolche": 1788,
      "Ġbed": 1789,
      "Ġeuro": 1790,
      "Ġbra": 1791,
      "einen": 1792,
      "fÃ¼hr": 1793,
      "wegen": 1794,
      "eren": 1795,
      "Ġfe": 1796,
      "Ġbundes": 1797,
      "Ã¤d": 1798,
      "uren": 1799,
      "Ġneuen": 1800,
      "Ġhinein": 1801,
      "Ġmark": 1802,
      "ffel": 1803,
      "ĠwÃ¼rden": 1804,
      "ame": 1805,
      "Ġat": 1806,
      "wort": 1807,
      "Ġwohnung": 1808,
      "lle": 1809,
      "Ġcar": 1810,
      "Ġper": 1811,
      "ommt": 1812,
      "Ġkont": 1813,
      "unger": 1814,
      "Ġwunder": 1815,
      "Ġbesonders": 1816,
      "Ġtiere": 1817,
      "ĠplÃ¶tz": 1818,
      "Ġon": 1819,
      "Ġblick": 1820,
      "Ġherum": 1821,
      "Ã¼ss": 1822,
      "Ġehr": 1823,
      "Ġwelch": 1824,
      "Ġallen": 1825,
      "Ġwann": 1826,
      "Ġ200": 1827,
      "Ġbede": 1828,
      "ativ": 1829,
      "Ġbill": 1830,
      "Ġkuh": 1831,
      "wohn": 1832,
      "Ġthem": 1833,
      "eile": 1834,
      "Ġice": 1835,
      "Ġschme": 1836,
      "Ã¼tz": 1837,
      "Ġschreiben": 1838,
      "ĠÃ¼berl": 1839,
      "bild": 1840,
      "Ġflugzeug": 1841,
      "Ġwind": 1842,
      "ĠplÃ¶tzlich": 1843,
      "mÃ¤": 1844,
      "ĠkÃ¶r": 1845,
      "Ġbraucht": 1846,
      "eite": 1847,
      "Ġluft": 1848,
      "oo": 1849,
      "Ġschlafen": 1850,
      "ib": 1851,
      "ieb": 1852,
      "Ġschwier": 1853,
      "da": 1854,
      "Ġdeinen": 1855,
      "Ġpoliz": 1856,
      "Ġsuchen": 1857,
      "Ġnase": 1858,
      "ĠprÃ¤": 1859,
      "Ġschwe": 1860,
      "unkt": 1861,
      "Ġniem": 1862,
      "ef": 1863,
      "Ġhelfen": 1864,
      "Ġentwick": 1865,
      "az": 1866,
      "ĠfÃ¼hl": 1867,
      "Ġpauline": 1868,
      "Ġarbeiten": 1869,
      "Ġszene": 1870,
      "Ġdanke": 1871,
      "kunft": 1872,
      "Ġlicht": 1873,
      "ĠmÃ¤nner": 1874,
      "Ġschlecht": 1875,
      "eim": 1876,
      "Ġton": 1877,
      "Ġgekommen": 1878,
      "ĠlÃ¤u": 1879,
      "Ġbew": 1880,
      "Ġkuchen": 1881,
      "Ġschiff": 1882,
      "Ġirgendwo": 1883,
      "druck": 1884,
      "enden": 1885,
      "genommen": 1886,
      "ĠâĢľ": 1887,
      "Ġdaran": 1888,
      "Ġwegen": 1889,
      "Ġsprechen": 1890,
      "Ġschwarz": 1891,
      "Ġroten": 1892,
      "Ġlo": 1893,
      "Ġgelb": 1894,
      "Ġmusik": 1895,
      "ganis": 1896,
      "ens": 1897,
      "chter": 1898,
      "Ġraum": 1899,
      "Ġherz": 1900,
      "Ġstellen": 1901,
      "ĠheiÃŁ": 1902,
      "Ġgefunden": 1903,
      "bie": 1904,
      "inden": 1905,
      "Ġfarbe": 1906,
      "ider": 1907,
      "Ġfern": 1908,
      "Ġprob": 1909,
      "Ġgeburt": 1910,
      "stem": 1911,
      "Ã¤chlich": 1912,
      "uer": 1913,
      "âĢĿ": 1914,
      "Ġkin": 1915,
      "Ġkrit": 1916,
      "Ġstaat": 1917,
      "ĠschÃ¶ne": 1918,
      "ru": 1919,
      "iere": 1920,
      "sto": 1921,
      "Ġverschieden": 1922,
      "ĠdrauÃŁen": 1923,
      "Ġanfang": 1924,
      "Ġwin": 1925,
      "Ġrote": 1926,
      "itter": 1927,
      "Ġbestimmt": 1928,
      "Ġfun": 1929,
      "ift": 1930,
      "Ġehm": 1931,
      "rÃ¼cken": 1932,
      "Ġdeutschen": 1933,
      "Ġbauch": 1934,
      "Ġalleine": 1935,
      "Ġlangsam": 1936,
      "ĠkÃ¶nnten": 1937,
      "falls": 1938,
      "teil": 1939,
      "Ġbleibt": 1940,
      "reg": 1941,
      "Ġunbe": 1942,
      "ĠmÃ¶chtest": 1943,
      "Ġhaste": 1944,
      "ĠlÃ¤sst": 1945,
      "Ġkalt": 1946,
      "Ġziehen": 1947,
      "garten": 1948,
      "Ġbrot": 1949,
      "Ġtats": 1950,
      "Ġsal": 1951,
      "schau": 1952,
      "ĠvÃ¶": 1953,
      "fern": 1954,
      "onen": 1955,
      "Ġtage": 1956,
      "Ã¼cken": 1957,
      "reiben": 1958,
      "Ġpferd": 1959,
      "iges": 1960,
      "eist": 1961,
      "gegangen": 1962,
      "Ġfinger": 1963,
      "utzen": 1964,
      "Ġwirtschaft": 1965,
      "Ġtra": 1966,
      "Ġtrotzdem": 1967,
      "ition": 1968,
      "ate": 1969,
      "ont": 1970,
      "Ġschick": 1971,
      "ĠhÃ¤lt": 1972,
      "Ġisst": 1973,
      "Ġwahl": 1974,
      "keiten": 1975,
      "pfen": 1976,
      "scheinlich": 1977,
      "Ġweh": 1978,
      "kar": 1979,
      "Ġweihn": 1980,
      "ĠgefÃ¼hl": 1981,
      "ÃŁlich": 1982,
      "Ġdamals": 1983,
      "Ġgegessen": 1984,
      "Ġhmhm": 1985,
      "ÃŁig": 1986,
      "Ġniemand": 1987,
      "aften": 1988,
      "Ġnik": 1989,
      "Ġvo": 1990,
      "Ġcos": 1991,
      "wann": 1992,
      "iet": 1993,
      "Ġschwein": 1994,
      "Ġeule": 1995,
      "ard": 1996,
      "Ġprodu": 1997,
      "ĠfÃ¤llt": 1998,
      "gek": 1999,
      "Ġwand": 2000,
      "Ġmillionen": 2001,
      "richt": 2002,
      "Ġvergessen": 2003,
      "Ġcom": 2004,
      "Ġalter": 2005,
      "Ġba": 2006,
      "Ġsofort": 2007,
      "affen": 2008,
      "Ã¤ngt": 2009,
      "stehen": 2010,
      "Ġbahnhof": 2011,
      "di": 2012,
      "steigen": 2013,
      "Ġdeinem": 2014,
      "ausend": 2015,
      "Ġheim": 2016,
      "Ġautos": 2017,
      "stein": 2018,
      "Ġglei": 2019,
      "ieg": 2020,
      "Ġkaufen": 2021,
      "dings": 2022,
      "Ġdro": 2023,
      "ide": 2024,
      "Ġmeisten": 2025,
      "hundert": 2026,
      "mpf": 2027,
      "ĠÃ¤r": 2028,
      "Ġwagen": 2029,
      "Ġprima": 2030,
      "Ġlaufen": 2031,
      "Ġaha": 2032,
      "anzig": 2033,
      "ĠmÃ¼ll": 2034,
      "ultur": 2035,
      "ante": 2036,
      "Ġerd": 2037,
      "elte": 2038,
      "ĠrÃ¤": 2039,
      "Ġdarum": 2040,
      "asen": 2041,
      "Ġhalb": 2042,
      "Ġidee": 2043,
      "Ġcosima": 2044,
      "wÃ¼r": 2045,
      "Ġ,,": 2046,
      "Ġgehe": 2047,
      "Ġgefahren": 2048,
      "zei": 2049,
      "Ġfand": 2050,
      ").": 2051,
      "ieben": 2052,
      "Ġkor": 2053,
      "Ġbeweg": 2054,
      "Ġglaub": 2055,
      "Ġworden": 2056,
      "nahme": 2057,
      "fon": 2058,
      "Ġlala": 2059,
      "Ġgeschrieben": 2060,
      "Ġlangen": 2061,
      "leben": 2062,
      "Ġlesen": 2063,
      "chn": 2064,
      "ĠbÃ¼rger": 2065,
      "ĠfÃ¤hrst": 2066,
      "Ġnu": 2067,
      "Ġeigenen": 2068,
      "fig": 2069,
      "inen": 2070,
      "jÃ¤hr": 2071,
      "ĠgroÃŁer": 2072,
      "Ġprof": 2073,
      "ande": 2074,
      "zeich": 2075,
      "ĠhÃ¤tten": 2076,
      "Ġderen": 2077,
      "Ġselber": 2078,
      "anten": 2079,
      "Ġfehlt": 2080,
      "Ġleicht": 2081,
      "Ġol": 2082,
      "sta": 2083,
      "Ġbem": 2084,
      "Ġmitt": 2085,
      "ppe": 2086,
      "Ġkrank": 2087,
      "ĠnÃ¤chsten": 2088,
      "Ġsex": 2089,
      "Ġmami": 2090,
      "Ġrut": 2091,
      "ial": 2092,
      "Ġbringen": 2093,
      "Ġhose": 2094,
      "Ġrobert": 2095,
      "Ġ7": 2096,
      "Ġmachte": 2097,
      "seite": 2098,
      "Ġans": 2099,
      "Ġvorl": 2100,
      "weil": 2101,
      "ren": 2102,
      "rÃ¼n": 2103,
      "gestellt": 2104,
      "ĠmÃ¼s": 2105,
      "Ġlieb": 2106,
      "ille": 2107,
      "Ġanh": 2108,
      "oss": 2109,
      "scher": 2110,
      "Ġwieviel": 2111,
      "Ġtele": 2112,
      "ĠstraÃŁen": 2113,
      "Ġsand": 2114,
      "rig": 2115,
      "durch": 2116,
      "Ġgross": 2117,
      "Ã¶s": 2118,
      "Ġohr": 2119,
      "pe": 2120,
      "Ġanziehen": 2121,
      "haft": 2122,
      "prÃ¤": 2123,
      "Ġwart": 2124,
      "Ġbereits": 2125,
      "ĠhÃ¤nde": 2126,
      "Ġpolizei": 2127,
      "Ġdarfst": 2128,
      "kra": 2129,
      "ys": 2130,
      "Ġstelle": 2131,
      "stra": 2132,
      "Ġbrauche": 2133,
      "man": 2134,
      "Ġfragte": 2135,
      "ĠkÃ¶rper": 2136,
      "tem": 2137,
      "alis": 2138,
      "Ġmarie": 2139,
      "je": 2140,
      "uckt": 2141,
      "Ġwahrscheinlich": 2142,
      "Ġ,": 2143,
      "Ġzeigt": 2144,
      "Ġkle": 2145,
      "Ġsimon": 2146,
      "gemacht": 2147,
      "ĠgroÃŁes": 2148,
      "Ġstuhl": 2149,
      "aun": 2150,
      "ĠgrÃ¶ÃŁer": 2151,
      "schu": 2152,
      "ĠÃ¤hnlich": 2153,
      "Ġnehme": 2154,
      "isches": 2155,
      "erk": 2156,
      "Ġallerdings": 2157,
      "Ġgegangen": 2158,
      "Ġwochen": 2159,
      "Ġschlimm": 2160,
      "inna": 2161,
      "Ġschwimm": 2162,
      "Ġlern": 2163,
      "Ġfrank": 2164,
      "ossen": 2165,
      "ktor": 2166,
      "Ġbetr": 2167,
      "esse": 2168,
      "Ġschmeckt": 2169,
      "Ġlil": 2170,
      "voll": 2171,
      "Ġnahm": 2172,
      "Ġkra": 2173,
      "amt": 2174,
      "olg": 2175,
      "Ġliebe": 2176,
      "alitÃ¤t": 2177,
      "Ġmittel": 2178,
      "Ġober": 2179,
      "Ġdirekt": 2180,
      "lossen": 2181,
      "Ġstro": 2182,
      "rieb": 2183,
      "Ġunternehmen": 2184,
      "Ġerl": 2185,
      "Ġwarten": 2186,
      "ĠtatsÃ¤chlich": 2187,
      "Ġlehr": 2188,
      "Ġcorinna": 2189,
      "wÃ¤rt": 2190,
      "Ġort": 2191,
      "Ġinteress": 2192,
      "Ġgeburtstag": 2193,
      "anzen": 2194,
      "Ġamer": 2195,
      "lam": 2196,
      "atten": 2197,
      "Ġwollten": 2198,
      "Ã¼nst": 2199,
      "Ã¤ume": 2200,
      "zer": 2201,
      "Ġzun": 2202,
      "Ġfunktion": 2203,
      "immel": 2204,
      "ĠhÃ¶ren": 2205,
      "Ġrel": 2206,
      "Ġarme": 2207,
      "Ġelef": 2208,
      "Ġmeer": 2209,
      "Ġiss": 2210,
      "stadt": 2211,
      "ven": 2212,
      "Ġengl": 2213,
      "Ġ8": 2214,
      "Ġmot": 2215,
      "Ġhunger": 2216,
      "ickt": 2217,
      "ĠmÃ¼de": 2218,
      "ĠÃ¶ffentlich": 2219,
      "Ġbraun": 2220,
      "Ġchristian": 2221,
      "Ġbu": 2222,
      "Ġecke": 2223,
      "Ġsprach": 2224,
      "ias": 2225,
      "Ġverste": 2226,
      "Ġgewalt": 2227,
      "Ġobwohl": 2228,
      "ĠlÃ¤uft": 2229,
      "Ġschok": 2230,
      "Ġfliegen": 2231,
      "Ġente": 2232,
      "Ã¶hn": 2233,
      "Ġaua": 2234,
      "Ġfein": 2235,
      "ellen": 2236,
      "Ġschlaf": 2237,
      "etten": 2238,
      "Ġpolitik": 2239,
      "Ġsonne": 2240,
      "Ġmitte": 2241,
      "annten": 2242,
      "Ġfreu": 2243,
      "sie": 2244,
      "bauen": 2245,
      "welt": 2246,
      "Ġtot": 2247,
      "reichen": 2248,
      "min": 2249,
      "Ġwald": 2250,
      "test": 2251,
      "Ġrepar": 2252,
      "Ġrolle": 2253,
      "riegt": 2254,
      "Ġarbeits": 2255,
      "Ġnormal": 2256,
      "Ġlegen": 2257,
      "Ġregierung": 2258,
      "ddy": 2259,
      "Ġgedacht": 2260,
      "Ġabs": 2261,
      "Ġkomme": 2262,
      "ĠgesprÃ¤": 2263,
      "Ġpapier": 2264,
      "Ġsollten": 2265,
      "Ġeichi": 2266,
      "doch": 2267,
      "len": 2268,
      "atte": 2269,
      "Ġbesuch": 2270,
      "Ġkindergarten": 2271,
      "amer": 2272,
      "Ġdessen": 2273,
      "geg": 2274,
      "werk": 2275,
      "ĠÃ¼berall": 2276,
      "kÃ¤": 2277,
      "Ã¤nd": 2278,
      "Ġmittag": 2279,
      "reifen": 2280,
      "Ġregen": 2281,
      "Ġsto": 2282,
      "Ġberg": 2283,
      "Ġfindet": 2284,
      "Ġkriegst": 2285,
      "Ġtomm": 2286,
      "Ġgott": 2287,
      "Ġzweiten": 2288,
      "Ġhaare": 2289,
      "ister": 2290,
      "Ġusa": 2291,
      "Ġschwierig": 2292,
      "Ġno": 2293,
      "Ġform": 2294,
      "Ġhar": 2295,
      "iver": 2296,
      "Ã¼ssel": 2297,
      "ĠbÃ¤r": 2298,
      "Ġdanach": 2299,
      "ĠÃ¼br": 2300,
      "Ġfel": 2301,
      "platz": 2302,
      "Ġteddy": 2303,
      "glie": 2304,
      "schaften": 2305,
      "Ġkriegen": 2306,
      "esser": 2307,
      "old": 2308,
      "Ġsimone": 2309,
      "Ġfrosch": 2310,
      "Ġeink": 2311,
      "itzen": 2312,
      "Ġdenke": 2313,
      "riff": 2314,
      "lang": 2315,
      "ieÃŁen": 2316,
      "ump": 2317,
      "Ġvergangen": 2318,
      "nisse": 2319,
      "urnal": 2320,
      "dest": 2321,
      "Ġwol": 2322,
      "ĠkÃ¶nne": 2323,
      "ivers": 2324,
      "Ġneues": 2325,
      "Ġblumen": 2326,
      "Ġendlich": 2327,
      "Ġspielt": 2328,
      "Ġmr": 2329,
      "oche": 2330,
      "Ġbrauchst": 2331,
      "ĠnÃ¤chste": 2332,
      "ons": 2333,
      "Ġkamen": 2334,
      "Ġgren": 2335,
      "Ġand": 2336,
      "Ġfalsch": 2337,
      "stellung": 2338,
      "grund": 2339,
      "Ġeinzel": 2340,
      "stit": 2341,
      "ften": 2342,
      "akt": 2343,
      "lein": 2344,
      "itze": 2345,
      "Ġbestimm": 2346,
      "Ġfranz": 2347,
      "auto": 2348,
      "Ġnimmt": 2349,
      "Ġsage": 2350,
      "ĠgefÃ¤hr": 2351,
      "ĠkÃ¼che": 2352,
      "zeitig": 2353,
      "dete": 2354,
      "aÃŁ": 2355,
      "Ġschei": 2356,
      "rift": 2357,
      "ÂŃ": 2358,
      "Ġsetzen": 2359,
      "Ġopa": 2360,
      "nig": 2361,
      "Ġprin": 2362,
      "ĠschlieÃŁlich": 2363,
      "Ġhilfe": 2364,
      "heiten": 2365,
      "Ġwus": 2366,
      "ĠschÃ¼": 2367,
      "Ġmilch": 2368,
      "Ġgil": 2369,
      "Ġfische": 2370,
      "iÃŁ": 2371,
      "nehm": 2372,
      "ĠerzÃ¤hlen": 2373,
      "Ġletzte": 2374,
      "Ġgemeinsam": 2375,
      "krie": 2376,
      "Ġempf": 2377,
      "Ġblaue": 2378,
      "Ġkaffe": 2379,
      "wand": 2380,
      "Ġtommy": 2381,
      "ichtet": 2382,
      "mÃ¶": 2383,
      "band": 2384,
      "gra": 2385,
      "Ġpat": 2386,
      "Ġstrasse": 2387,
      "Ġgrade": 2388,
      "Ġsieh": 2389,
      "Ġversch": 2390,
      "ĠflÃ¼cht": 2391,
      "iste": 2392,
      "Ġschaf": 2393,
      "Ġdeutsche": 2394,
      "raum": 2395,
      "Ġker": 2396,
      "Ġrief": 2397,
      "Ġhabee": 2398,
      "Ġfot": 2399,
      "Ã¼ll": 2400,
      "jahr": 2401,
      "uder": 2402,
      "Ġreich": 2403,
      "igung": 2404,
      "Ġhinaus": 2405,
      "Ġgarten": 2406,
      "ational": 2407,
      "Ġsowas": 2408,
      "Ġauseinander": 2409,
      "kten": 2410,
      "Ġnieder": 2411,
      "Ġunterschie": 2412,
      "Ġmedien": 2413,
      "Ġpartei": 2414,
      "Ġmanche": 2415,
      "zieh": 2416,
      "Ġscheint": 2417,
      "Ġangucken": 2418,
      "Ġverschw": 2419,
      "Ġstein": 2420,
      "mo": 2421,
      "Ġhall": 2422,
      "Ġtex": 2423,
      "Ġfrie": 2424,
      "gebracht": 2425,
      "eidung": 2426,
      "ÃŁte": 2427,
      "Ã¤h": 2428,
      "ftig": 2429,
      "Ġglas": 2430,
      "Ġgener": 2431,
      "ogra": 2432,
      "bringen": 2433,
      "okrat": 2434,
      "ĠtÃ¼rk": 2435,
      "Ġgegeben": 2436,
      "ckel": 2437,
      "Ġkarte": 2438,
      "ĠdÃ¼rfen": 2439,
      "ĠmuÃŁt": 2440,
      "Ġvorsichtig": 2441,
      "Ġtau": 2442,
      "Ġverloren": 2443,
      "iegen": 2444,
      "ĠmÃ¤u": 2445,
      "Ġstunden": 2446,
      "unst": 2447,
      "Ġvogel": 2448,
      "erin": 2449,
      "Ġmittler": 2450,
      "ond": 2451,
      "Ġballa": 2452,
      "Ġkommst": 2453,
      "Ġsee": 2454,
      "asche": 2455,
      "arbeit": 2456,
      "ument": 2457,
      "Ġweiss": 2458,
      "stelle": 2459,
      "roffen": 2460,
      "Ġjedoch": 2461,
      "Ġdaten": 2462,
      "usst": 2463,
      "Ġseien": 2464,
      "holen": 2465,
      "ĠpaÃŁ": 2466,
      "Ġsozial": 2467,
      "ĠlÃ¤nger": 2468,
      "Ġtob": 2469,
      "Ġausge": 2470,
      "Ġgesetz": 2471,
      "weit": 2472,
      "Ġruh": 2473,
      "yp": 2474,
      "Ġjan": 2475,
      "Ġvol": 2476,
      "Ġtor": 2477,
      "Ġantwor": 2478,
      "ĠÃ¼berleg": 2479,
      "Ġbein": 2480,
      "Ġnot": 2481,
      "Ġfuhr": 2482,
      "jekt": 2483,
      "Ġbag": 2484,
      "Ġster": 2485,
      "ise": 2486,
      "Ġpuzz": 2487,
      "Ġoffenbar": 2488,
      "sych": 2489,
      "sprechen": 2490,
      "Ġdinge": 2491,
      "schr": 2492,
      "bsch": 2493,
      "rakt": 2494,
      "Ġwelches": 2495,
      "Ġit": 2496,
      "Ġbruder": 2497,
      "Ġaufmachen": 2498,
      "ffer": 2499,
      "Ã¼hrt": 2500,
      "Ġdunkel": 2501,
      "pfl": 2502,
      "Ġgeg": 2503,
      "Ġlila": 2504,
      "Ġbesten": 2505,
      "Ġgrossen": 2506,
      "Ġholz": 2507,
      "Ġschuhe": 2508,
      "ikt": 2509,
      "orf": 2510,
      "Ġstark": 2511,
      "zess": 2512,
      "Ġfer": 2513,
      "Ġsagst": 2514,
      "Ġgebaut": 2515,
      "sehen": 2516,
      "Ã©": 2517,
      "ende": 2518,
      "ĠkÃ¶nig": 2519,
      "Ġeier": 2520,
      "Ġ9": 2521,
      "egen": 2522,
      "Ġguckt": 2523,
      "Ġrest": 2524,
      "Ġorganis": 2525,
      "Ġaugenblick": 2526,
      "Ġsogen": 2527,
      "Ã¶lker": 2528,
      "zus": 2529,
      "Ġbrie": 2530,
      "ry": 2531,
      "Ġpop": 2532,
      "Ġguten": 2533,
      "els": 2534,
      "Ġoster": 2535,
      "Ġoch": 2536,
      "Ġnetz": 2537,
      "Ġschien": 2538,
      "dert": 2539,
      "Ġdenken": 2540,
      "Ġgern": 2541,
      "ĠlÃ¤ng": 2542,
      "ĠtÃ¶": 2543,
      "Ġbezahl": 2544,
      "Ġdarin": 2545,
      "ieÃŁ": 2546,
      "Ġros": 2547,
      "ĠmuÃŁte": 2548,
      "Ġentde": 2549,
      "Ġdien": 2550,
      "aren": 2551,
      "Ġreicht": 2552,
      "Ġjournal": 2553,
      "ĠbÃ¶": 2554,
      "ĠgegenÃ¼ber": 2555,
      "puter": 2556,
      "mei": 2557,
      "Ġmarieke": 2558,
      "Ġminuten": 2559,
      "Ġzoo": 2560,
      "far": 2561,
      "wÃ¤rts": 2562,
      "Ġzzz": 2563,
      "anc": 2564,
      "Ġschreibt": 2565,
      "stitut": 2566,
      "kst": 2567,
      "nchen": 2568,
      "ĠauÃŁerdem": 2569,
      "deut": 2570,
      "anne": 2571,
      "Ġmed": 2572,
      "ĠbeschÃ¤ft": 2573,
      "Ġthema": 2574,
      "Ġehrlich": 2575,
      "Ġsollst": 2576,
      "Ġgenommen": 2577,
      "Ġmond": 2578,
      "Ġpriv": 2579,
      "Ġsauber": 2580,
      "Ġinzwischen": 2581,
      "Ġbrumm": 2582,
      "icher": 2583,
      "Ġklima": 2584,
      "Ġgilt": 2585,
      "),": 2586,
      "ow": 2587,
      "Ġdoll": 2588,
      "ĠeuropÃ¤": 2589,
      "Ġstimme": 2590,
      "Ġzuerst": 2591,
      "Ġtat": 2592,
      "egal": 2593,
      "Ã¤tze": 2594,
      "Ġwider": 2595,
      "Ġaufge": 2596,
      "Ġabge": 2597,
      "Ġwelcher": 2598,
      "Ġrauf": 2599,
      "eller": 2600,
      "Ġwoche": 2601,
      "Ġkunst": 2602,
      "Ġerde": 2603,
      "Ġberu": 2604,
      "Ã¤ngen": 2605,
      "Ġkonnten": 2606,
      "ĠrÃ¼ber": 2607,
      "Ġdisk": 2608,
      "Ġkranken": 2609,
      "Ġgeschen": 2610,
      "Ġlustig": 2611,
      "Ġhallo": 2612,
      "pol": 2613,
      "Ġsen": 2614,
      "ĠgeschÃ¤ft": 2615,
      "Ġkarten": 2616,
      "Ġwusste": 2617,
      "uation": 2618,
      "Ġturm": 2619,
      "Ġdeiner": 2620,
      "fil": 2621,
      "lagen": 2622,
      "Ġfolgen": 2623,
      "appt": 2624,
      "Ġchar": 2625,
      "trag": 2626,
      "erg": 2627,
      "Ġhundert": 2628,
      "Ġpost": 2629,
      "bast": 2630,
      "ĠkrÃ¤": 2631,
      "Ġirgendwann": 2632,
      "utzt": 2633,
      "Ġbauern": 2634,
      "Ġfinanz": 2635,
      "Ġloch": 2636,
      "Ġreden": 2637,
      "Ã¤chst": 2638,
      "ĠÃ¤l": 2639,
      "Ġerfolg": 2640,
      "ĠschÃ¼t": 2641,
      "Ġpeter": 2642,
      "Ġwach": 2643,
      "rauen": 2644,
      "Ġord": 2645,
      "Ġgesund": 2646,
      "Ġeng": 2647,
      "echt": 2648,
      "utet": 2649,
      "Ġkaffee": 2650,
      "Ġding": 2651,
      "Ġsowie": 2652,
      "Ġeuropa": 2653,
      "oten": 2654,
      "Ġwau": 2655,
      "eilen": 2656,
      "ĠtrÃ¤": 2657,
      "Ġcomputer": 2658,
      "bung": 2659,
      "laden": 2660,
      "Ġfahrrad": 2661,
      "als": 2662,
      "Ġkennen": 2663,
      "Ġrichtung": 2664,
      "Ġbob": 2665,
      "auer": 2666,
      "Ġkultur": 2667,
      "ĠzÃ¤": 2668,
      "gesetzt": 2669,
      "Ġgekriegt": 2670,
      "ling": 2671,
      "Ġstift": 2672,
      "ĠbloÃŁ": 2673,
      "weile": 2674,
      "ĠÃ¶ff": 2675,
      "Ġsommer": 2676,
      "Ġverd": 2677,
      "Ġleider": 2678,
      "Ġunterst": 2679,
      "Ġfrem": 2680,
      "Ġziel": 2681,
      "kehr": 2682,
      "Ġflei": 2683,
      "Ġpip": 2684,
      "ĠsÃ¼d": 2685,
      "Ġgleichzeitig": 2686,
      "Ġtelefon": 2687,
      "ĠdrÃ¼ber": 2688,
      "ĠdÃ¼": 2689,
      "Ġnud": 2690,
      "Ġzukunft": 2691,
      "Ġwohin": 2692,
      "Ġverein": 2693,
      "Ġwarm": 2694,
      "ins": 2695,
      "berg": 2696,
      "Ġgedanken": 2697,
      "Ġcarol": 2698,
      "rum": 2699,
      "lichkeit": 2700,
      "appen": 2701,
      "Ġfamilien": 2702,
      "stern": 2703,
      "Ġerh": 2704,
      "Ġwarst": 2705,
      "Ġunserer": 2706,
      "Ġschokol": 2707,
      "Ġwem": 2708,
      "ĠschÃ¶nes": 2709,
      "Ġwollt": 2710,
      "Ġfiel": 2711,
      "Ġzuf": 2712,
      "Ġerwachte": 2713,
      "Ġkindern": 2714,
      "mel": 2715,
      "Ġnachdem": 2716,
      "Ġsport": 2717,
      "Ġbegann": 2718,
      "Ġrom": 2719,
      "Ġverz": 2720,
      "Ġjedes": 2721,
      "Ġsache": 2722,
      "Ġzweite": 2723,
      "Ġcl": 2724,
      "Ġser": 2725,
      "alien": 2726,
      "Ġbevor": 2727,
      "Ġkeiner": 2728,
      "Ġeigene": 2729,
      "Ġinternet": 2730,
      "bastian": 2731,
      "ckte": 2732,
      "Ġtief": 2733,
      "ansp": 2734,
      "ient": 2735,
      "Ġerle": 2736,
      "Ġandern": 2737,
      "Ġsebastian": 2738,
      "Ġbagger": 2739,
      "Ġboot": 2740,
      "Ġschwester": 2741,
      "Ġdau": 2742,
      "ane": 2743,
      "Ġjob": 2744,
      "Ġangeb": 2745,
      "vers": 2746,
      "Ã¼ge": 2747,
      "hand": 2748,
      "ĠwÃ¼n": 2749,
      "Ġmet": 2750,
      "will": 2751,
      "Ġzahlen": 2752,
      "Ġstre": 2753,
      "Ġsiehste": 2754,
      "Ġbringt": 2755,
      "passen": 2756,
      "lage": 2757,
      "ity": 2758,
      "Ġkurve": 2759,
      "ĠlieÃŁ": 2760,
      "co": 2761,
      "Ġmat": 2762,
      "Ġfei": 2763,
      "Ġgefallen": 2764,
      "Ġak": 2765,
      "Ġkan": 2766,
      "Ġdagegen": 2767,
      "arbeiter": 2768,
      "heits": 2769,
      "ĠhÃ¶rte": 2770,
      "gte": 2771,
      "raus": 2772,
      "Ġpsych": 2773,
      "Ġtragen": 2774,
      "Ġbutter": 2775,
      "malen": 2776,
      "Ġversuchen": 2777,
      "wehr": 2778,
      "Ġzent": 2779,
      "onnen": 2780,
      "Ġtante": 2781,
      "Ġklo": 2782,
      "Ġnachbar": 2783,
      "olt": 2784,
      "Ġpuppe": 2785,
      "Ġverstehen": 2786,
      "ed": 2787,
      "pft": 2788,
      "Ġverg": 2789,
      "Ġdeutlich": 2790,
      "ĠfrÃ¼h": 2791,
      "Ġkompl": 2792,
      "baum": 2793,
      "Ġhimmel": 2794,
      "trem": 2795,
      "ĠgrÃ¼ne": 2796,
      "Ġdopp": 2797,
      "anke": 2798,
      "ĠfÃ¤hrste": 2799,
      "ex": 2800,
      "hlen": 2801,
      "Ġleer": 2802,
      "Ġschienen": 2803,
      "Ġschorn": 2804,
      "Ġarmen": 2805,
      "Ġreise": 2806,
      "Ġernie": 2807,
      "Ġwal": 2808,
      "schutz": 2809,
      "Ġgep": 2810,
      "wegs": 2811,
      "Ġjede": 2812,
      "Ġschnee": 2813,
      "Ġkontro": 2814,
      "Ġdavor": 2815,
      "Ġ18": 2816,
      "Ġgemalt": 2817,
      "Ġteller": 2818,
      "las": 2819,
      "Ġstill": 2820,
      "ĠhÃ¶her": 2821,
      "ĠhÃ¶rt": 2822,
      "kommt": 2823,
      "fs": 2824,
      "Ġelefant": 2825,
      "Ġzer": 2826,
      "Ġschauen": 2827,
      "ĠlÃ¶ffel": 2828,
      "Ġcaroline": 2829,
      "Ġsinn": 2830,
      "Ġentfern": 2831,
      "ĠerklÃ¤rt": 2832,
      "ĠbrÃ¼": 2833,
      "geln": 2834,
      "brochen": 2835,
      "Ġ199": 2836,
      "ub": 2837,
      "Ġ15": 2838,
      "stet": 2839,
      "Ġjen": 2840,
      "schung": 2841,
      "Ġmittlerweile": 2842,
      "Ġwert": 2843,
      "Ġseiten": 2844,
      "ppen": 2845,
      "ĠschlÃ¤ft": 2846,
      "abel": 2847,
      "nahmen": 2848,
      "Ġpipi": 2849,
      "Ġkoch": 2850,
      "Ġspe": 2851,
      "ĠsÃ¤": 2852,
      "Ġinner": 2853,
      "Ġplast": 2854,
      "Ġchina": 2855,
      "Ġpassen": 2856,
      "ative": 2857,
      "Ġgetr": 2858,
      "Ġbon": 2859,
      "Ġkro": 2860,
      "ume": 2861,
      "ĠzwÃ¶l": 2862,
      "Ġanderer": 2863,
      "Ġ202": 2864,
      "Ġdadurch": 2865,
      "reise": 2866,
      "Ġehe": 2867,
      "paar": 2868,
      "Ġbeine": 2869,
      "Ġdemokrat": 2870,
      "itel": 2871,
      "Ġdreh": 2872,
      "sslich": 2873,
      "Ġtechn": 2874,
      "hase": 2875,
      "kam": 2876,
      "Ġnass": 2877,
      "ĠblÃ¶": 2878,
      "ĠblÃ¤t": 2879,
      "Ġbade": 2880,
      "Ġvide": 2881,
      "Ġtreppe": 2882,
      "Ġdecke": 2883,
      "ĠschÃ¶nen": 2884,
      "Ġstrom": 2885,
      "ĠverÃ¤nder": 2886,
      "ĠgrÃ¼nen": 2887,
      "Ġkriege": 2888,
      "Ġwohnt": 2889,
      "denten": 2890,
      "ĠgesprÃ¤ch": 2891,
      "rÃ¤umen": 2892,
      "Ġernst": 2893,
      "Ġwillste": 2894,
      "ĠfuÃŁball": 2895,
      "ose": 2896,
      "Ġoka": 2897,
      "Ġgekl": 2898,
      "Ġarzt": 2899,
      "hÃ¤ng": 2900,
      "Ã¤re": 2901,
      "eilt": 2902,
      "Ġrussland": 2903,
      "setz": 2904,
      "Ġindem": 2905,
      "ehrt": 2906,
      "gramm": 2907,
      "hÃ¶r": 2908,
      "Ġokay": 2909,
      "Ġhielt": 2910,
      "Ġstamm": 2911,
      "hle": 2912,
      "Ġtie": 2913,
      "vÃ¶lker": 2914,
      "Ġunivers": 2915,
      "Ġgefr": 2916,
      "Ġgespr": 2917,
      "wohner": 2918,
      "Ġhart": 2919,
      "unken": 2920,
      "frei": 2921,
      "Ġgefangen": 2922,
      "Ġgruppe": 2923,
      "Ġlauter": 2924,
      "Ġmerit": 2925,
      "Ġkarto": 2926,
      "tert": 2927,
      "omot": 2928,
      "Ġdrunter": 2929,
      "neten": 2930,
      "Ġgespielt": 2931,
      "Ġkreis": 2932,
      "ĠstÃ¤d": 2933,
      "ĠmÃ¼sse": 2934,
      "Ġhole": 2935,
      "Ġwest": 2936,
      "ĠwÃ¤hl": 2937,
      "Ġperson": 2938,
      "Ġname": 2939,
      "Ġtiger": 2940,
      "Ġsetzt": 2941,
      "Ġbie": 2942,
      "liches": 2943,
      "Ġklasse": 2944,
      "Ġmel": 2945,
      "Ġwelchen": 2946,
      "Ġspricht": 2947,
      "stimm": 2948,
      "ichts": 2949,
      "satz": 2950,
      "Ġmehrere": 2951,
      "Ã¤tzchen": 2952,
      "nach": 2953,
      "eider": 2954,
      "red": 2955,
      "Ġknete": 2956,
      "Ġbisher": 2957,
      "sw": 2958,
      "vert": 2959,
      "Ġtobias": 2960,
      "fisch": 2961,
      "Ġdaher": 2962,
      "Ġinform": 2963,
      "Ġstunde": 2964,
      "Ġhervor": 2965,
      "stchen": 2966,
      "Ġapp": 2967,
      "Ġbun": 2968,
      "ĠstÃ¤r": 2969,
      "ite": 2970,
      "Ġegal": 2971,
      "Ġnatur": 2972,
      "Ġarbeitet": 2973,
      "Ġschornstein": 2974,
      "ĠzÃ¤hl": 2975,
      "Ġschwei": 2976,
      "bi": 2977,
      "han": 2978,
      "Ġwolltest": 2979,
      "Ġlernen": 2980,
      "Ġafr": 2981,
      "ĠschÃ¼ler": 2982,
      "Ġonkel": 2983,
      "Ġdrehen": 2984,
      "imin": 2985,
      "wen": 2986,
      "ieht": 2987,
      "kur": 2988,
      "Ġzwanzig": 2989,
      "ĠhÃ¤usern": 2990,
      "fan": 2991,
      "sweise": 2992,
      "Ġdeswegen": 2993,
      "Ġgir": 2994,
      "org": 2995,
      "Ġsituation": 2996,
      "Ġvorlesen": 2997,
      "ĠÃ¤lter": 2998,
      "ĠwÃ¤r": 2999,
      "Ġwissenschaft": 3000,
      "Ġgebe": 3001,
      "Ġhoff": 3002,
      "Ġkennst": 3003,
      "ĠspaÃŁ": 3004,
      "Ġruhig": 3005,
      "gefahren": 3006,
      "vo": 3007,
      "Ġbal": 3008,
      "Ġteile": 3009,
      "Ġgehst": 3010,
      "Ġfreunde": 3011,
      "Ġmagst": 3012,
      "aber": 3013,
      "Ã¤nde": 3014,
      "Ġkosten": 3015,
      "hei": 3016,
      "rag": 3017,
      "Ġsohn": 3018,
      "Ġweisst": 3019,
      "Ġmeines": 3020,
      "Ġdaraus": 3021,
      "Ġbank": 3022,
      "Ġkauf": 3023,
      "ĠlaÃŁ": 3024,
      "ĠbÃ¼cher": 3025,
      "Ġles": 3026,
      "sent": 3027,
      "stÃ¼ck": 3028,
      "ĠweiÃŁte": 3029,
      "ĠfrÃ¼hst": 3030,
      "ute": 3031,
      "auber": 3032,
      "Ġroll": 3033,
      "Ġplan": 3034,
      "digen": 3035,
      "tra": 3036,
      "gekommen": 3037,
      "ager": 3038,
      "Ġreihe": 3039,
      "Ġtasche": 3040,
      "Ġgo": 3041,
      "Ġad": 3042,
      "laub": 3043,
      "Ġpos": 3044,
      "linge": 3045,
      "Ġfreundin": 3046,
      "Ã¤nge": 3047,
      "Ġaktiv": 3048,
      "Ġbobo": 3049,
      "Ġungl": 3050,
      "Ġschluss": 3051,
      "Ġkirche": 3052,
      "Ġlego": 3053,
      "Ġdreck": 3054,
      "Ġzit": 3055,
      "ts": 3056,
      "la": 3057,
      "lassen": 3058,
      "ĠwÃ¼": 3059,
      "Ġpunkt": 3060,
      "Ġbeginn": 3061,
      "ds": 3062,
      "rÃ¼ckt": 3063,
      "Ġleuten": 3064,
      "ies": 3065,
      "Ġbezieh": 3066,
      "Ã¤lle": 3067,
      "ĠprÃ¤si": 3068,
      "ĠzunÃ¤chst": 3069,
      "ippen": 3070,
      "Ġbad": 3071,
      "Ġfur": 3072,
      "Ġamerikan": 3073,
      "ĠvÃ¶ll": 3074,
      "vent": 3075,
      "ĠrÃ¼cken": 3076,
      "Ġanzu": 3077,
      "Ġgekauft": 3078,
      "Ġkamer": 3079,
      "Ġaufzu": 3080,
      "Ġtee": 3081,
      "iegel": 3082,
      "Ġnord": 3083,
      "Ġfir": 3084,
      "Ġzieht": 3085,
      "wau": 3086,
      "ĠwÃ¤ren": 3087,
      "Ġblatt": 3088,
      "gelegt": 3089,
      "ĠÃ¼brigen": 3090,
      "geht": 3091,
      "itÃ¤r": 3092,
      "dil": 3093,
      "ĠkÃ¶nnt": 3094,
      "Ġtreffen": 3095,
      "Ġhase": 3096,
      "Ġmitglie": 3097,
      "Ġsk": 3098,
      "Ġleich": 3099,
      "gesetz": 3100,
      "Ġglauben": 3101,
      "igr": 3102,
      "up": 3103,
      "Ġhaut": 3104,
      "atur": 3105,
      "Ġlebt": 3106,
      "neben": 3107,
      "son": 3108,
      "Ġgrosse": 3109,
      "pfe": 3110,
      "Ġbrief": 3111,
      "Ġnutz": 3112,
      "ĠmÃ¼sste": 3113,
      "Ġsan": 3114,
      "Ġmik": 3115,
      "schreiben": 3116,
      "bus": 3117,
      "Ġzieh": 3118,
      "Ġpolitische": 3119,
      "wur": 3120,
      "ign": 3121,
      "ĠkÃ¤se": 3122,
      "Ġwunderbar": 3123,
      "dessen": 3124,
      "ĠkÃ¼nst": 3125,
      "Ġsamm": 3126,
      "mt": 3127,
      "ochter": 3128,
      "Ġterr": 3129,
      "Ġmenge": 3130,
      "istischen": 3131,
      "uchs": 3132,
      "ations": 3133,
      "Ġrichtige": 3134,
      "Ġniklas": 3135,
      "Ġident": 3136,
      "Ġweise": 3137,
      "Ġorden": 3138,
      "Ġwirst": 3139,
      "jÃ¤hrige": 3140,
      "hÃ¤u": 3141,
      "Ġumwelt": 3142,
      "ĠfÃ¼ÃŁe": 3143,
      "Ġgetan": 3144,
      "Ġweihnachten": 3145,
      "Ġpun": 3146,
      "ĠgehÃ¶r": 3147,
      "komm": 3148,
      "Ġparis": 3149,
      "li": 3150,
      "isst": 3151,
      "Ġpferde": 3152,
      "tun": 3153,
      "ĠgemÃ¼": 3154,
      "Ġautor": 3155,
      "kodil": 3156,
      "Ġauge": 3157,
      "Ã¼gen": 3158,
      "schlag": 3159,
      "sicht": 3160,
      "emin": 3161,
      "istische": 3162,
      "Ġsprache": 3163,
      "ay": 3164,
      "Ġmussten": 3165,
      "gabe": 3166,
      "eck": 3167,
      "ukt": 3168,
      "eitung": 3169,
      "mittag": 3170,
      "Ġgingen": 3171,
      "orgen": 3172,
      "otz": 3173,
      "Ġversucht": 3174,
      "Ġsystem": 3175,
      "gucken": 3176,
      "Ġkommun": 3177,
      "Ġherein": 3178,
      "book": 3179,
      "Ġfallen": 3180,
      "ĠpersÃ¶n": 3181,
      "bil": 3182,
      "iner": 3183,
      "ĠbevÃ¶lker": 3184,
      "Ġwein": 3185,
      "Ġdaneben": 3186,
      "mmern": 3187,
      "Ġanderem": 3188,
      "Ġselten": 3189,
      "Ġfliegt": 3190,
      "Ġnudeln": 3191,
      "ĠzwÃ¶lf": 3192,
      "aff": 3193,
      "Ġerinner": 3194,
      "ĠzÃ¤hne": 3195,
      "Ġdat": 3196,
      "Ġres": 3197,
      "iar": 3198,
      "Ġrass": 3199,
      "Ġbeob": 3200,
      "Ã¤rchen": 3201,
      "wenn": 3202,
      "inne": 3203,
      "ital": 3204,
      "Ġsolchen": 3205,
      "schneiden": 3206,
      "markt": 3207,
      "Ġkrokodil": 3208,
      "Ġinnen": 3209,
      "Ġzugleich": 3210,
      "Ġgeschw": 3211,
      "Ġdeutsch": 3212,
      "Ġprakt": 3213,
      "Ġwauwau": 3214,
      "beh": 3215,
      "rik": 3216,
      "richten": 3217,
      "indest": 3218,
      "euz": 3219,
      "Ġstefan": 3220,
      "Ġsil": 3221,
      "Ġlecker": 3222,
      "ĠnÃ¶": 3223,
      "Ġunters": 3224,
      "wirtschaft": 3225,
      "Ġhuhn": 3226,
      "Ġsexu": 3227,
      "th": 3228,
      "Ġzog": 3229,
      "Ġseines": 3230,
      "mÃ¶glich": 3231,
      "Ġtext": 3232,
      "ĠbÃ¤": 3233,
      "Ġmarkt": 3234,
      "Ġlandes": 3235,
      "Ġgumm": 3236,
      "Ġbekannt": 3237,
      "Ġentscheiden": 3238,
      "Ġyo": 3239,
      "denken": 3240,
      "raten": 3241,
      "ppich": 3242,
      "blik": 3243,
      "Ġorange": 3244,
      "ĠjÃ¼n": 3245,
      "ernt": 3246,
      "Ġtrecker": 3247,
      "Ġsam": 3248,
      "ĠweiÃŁe": 3249,
      "ufen": 3250,
      "ĠgehÃ¶ren": 3251,
      "Ġschwarze": 3252,
      "Ġkal": 3253,
      "Ġukra": 3254,
      "bet": 3255,
      "Ġihres": 3256,
      "Ġgradeaus": 3257,
      "Ġmale": 3258,
      "digt": 3259,
      "Ġerwachen": 3260,
      "Ġtages": 3261,
      "Ġweihnacht": 3262,
      "Ġ.": 3263,
      "Ġmotor": 3264,
      "Ġentst": 3265,
      "Ġregion": 3266,
      "ustrie": 3267,
      "Ġzul": 3268,
      "iven": 3269,
      "itzer": 3270,
      "Ġfig": 3271,
      "Ġruhe": 3272,
      "Ġfunktioniert": 3273,
      "endet": 3274,
      "ĠfÃ¼hrt": 3275,
      "getan": 3276,
      "Ġordnung": 3277,
      "ĠgÃ¤": 3278,
      "Ġreparieren": 3279,
      "ĠvÃ¶llig": 3280,
      "Ġzucker": 3281,
      "reiten": 3282,
      "ffiz": 3283,
      "Ġsonnen": 3284,
      "Ġpark": 3285,
      "Ġvergangenen": 3286,
      "oben": 3287,
      "Ġenerg": 3288,
      "Ġosterhase": 3289,
      "ĠnÃ¤her": 3290,
      "Ġschreck": 3291,
      "Ġtochter": 3292,
      "ĠanhÃ¤nger": 3293,
      "Ġaf": 3294,
      "ĠfÃ¼hren": 3295,
      "lt": 3296,
      "sh": 3297,
      "Ġgebracht": 3298,
      "vier": 3299,
      "Ġanges": 3300,
      "olut": 3301,
      "Ġhof": 3302,
      "antwort": 3303,
      "Ġstanden": 3304,
      "Ġplastik": 3305,
      "Ġschar": 3306,
      "ĠerklÃ¤r": 3307,
      "Ġschatz": 3308,
      "Ġsieb": 3309,
      "utti": 3310,
      "Ġdank": 3311,
      "Ġface": 3312,
      "Ġbemer": 3313,
      "omotive": 3314,
      "ĠtÃ¼": 3315,
      "Ġrechte": 3316,
      "Ġmerk": 3317,
      "Ġhinterher": 3318,
      "Ġworte": 3319,
      "Ġsetzte": 3320,
      "ech": 3321,
      "Ġdeckel": 3322,
      "Ġverschiedene": 3323,
      "Ġprofess": 3324,
      "Ġdon": 3325,
      "Ġdazwischen": 3326,
      "hnen": 3327,
      "ologie": 3328,
      "Ã¤ten": 3329,
      "Ġmiteinander": 3330,
      "Ġverstanden": 3331,
      "Ġknapp": 3332,
      "Ġlauf": 3333,
      "bÃ¼r": 3334,
      "Ġfrankreich": 3335,
      "Ġeinkaufen": 3336,
      "licht": 3337,
      "Ġinte": 3338,
      "Ġtransp": 3339,
      "sein": 3340,
      "Ġebenfalls": 3341,
      "Ġwinter": 3342,
      "wechs": 3343,
      "ĠauÃŁen": 3344,
      "inken": 3345,
      "Ġschaffen": 3346,
      "Ġring": 3347,
      "ĠÃ¤hm": 3348,
      "Ġverlassen": 3349,
      "Ġkatzen": 3350,
      "war": 3351,
      "Ġwes": 3352,
      "Ġ30": 3353,
      "ettern": 3354,
      "Ġschliesslich": 3355,
      "Ġschokolade": 3356,
      "Ġfurcht": 3357,
      "pen": 3358,
      "Ġwohnen": 3359,
      "ding": 3360,
      "ĠhÃ¤l": 3361,
      "Ġbro": 3362,
      "Ġkochen": 3363,
      "ĠhÃ¼hn": 3364,
      "Ġordentlich": 3365,
      "affe": 3366,
      "Ġeinigen": 3367,
      "itik": 3368,
      "icken": 3369,
      "ograf": 3370,
      "hnt": 3371,
      "Ġzumindest": 3372,
      "Ġwaschen": 3373,
      "Ġschwimmen": 3374,
      "hause": 3375,
      "Ġhilft": 3376,
      "Ġohren": 3377,
      "Ġpuzzle": 3378,
      "Ġband": 3379,
      "Ġabzu": 3380,
      "Ġgesprochen": 3381,
      "ÃŁten": 3382,
      "Ġausl": 3383,
      "ĠfranzÃ¶s": 3384,
      "port": 3385,
      "uar": 3386,
      "schel": 3387,
      "----": 3388,
      "ĠeÃŁen": 3389,
      "Ġhotel": 3390,
      "hafen": 3391,
      "Ġgeschle": 3392,
      "ksam": 3393,
      "Ġphil": 3394,
      "Ġbedeutet": 3395,
      "kÃ¤fer": 3396,
      "Ġkannste": 3397,
      "keln": 3398,
      "Ġausziehen": 3399,
      "ĠhÃ¤schen": 3400,
      "feld": 3401,
      "Ġfacebook": 3402,
      "Ġsicht": 3403,
      "Ġeinge": 3404,
      "19": 3405,
      "brechen": 3406,
      "Ġkak": 3407,
      "Ġjul": 3408,
      "Ġwobei": 3409,
      "Ġunterwegs": 3410,
      "Ġbauer": 3411,
      "schlÃ¤": 3412,
      "ĠtÃ¼ren": 3413,
      "Ġsuche": 3414,
      "uter": 3415,
      "orben": 3416,
      "Ġaufgew": 3417,
      "Ġerdbe": 3418,
      "Ġabgesch": 3419,
      "Ġmeist": 3420,
      "ct": 3421,
      "Ġdorf": 3422,
      "Ġleb": 3423,
      "Ġnew": 3424,
      "Ġunterschied": 3425,
      "ffeln": 3426,
      "Ġhopp": 3427,
      "Ġstellt": 3428,
      "of": 3429,
      "Ġnational": 3430,
      "Ġschie": 3431,
      "Ġirgendwas": 3432,
      "Ġoliver": 3433,
      "Ġbonb": 3434,
      "ĠrÃ¤der": 3435,
      "Ġzauber": 3436,
      "ĠlÃ¤ndern": 3437,
      "Ġrand": 3438,
      "ĠspÃ¤t": 3439,
      "Ã¤ude": 3440,
      "krieg": 3441,
      "Ġkil": 3442,
      "Ġtausend": 3443,
      "Ġerg": 3444,
      "Ġmaria": 3445,
      "Ġstaats": 3446,
      "vest": 3447,
      "Ġjim": 3448,
      "Ã¼g": 3449,
      "ĠhÃ¤ngen": 3450,
      "hel": 3451,
      "hild": 3452,
      "ĠfÃ¤ngt": 3453,
      "ĠheiÃŁen": 3454,
      "Ġdarunter": 3455,
      "Ġkennt": 3456,
      "Ġrat": 3457,
      "Ġblut": 3458,
      "ĠnÃ¤he": 3459,
      "Ġbrauch": 3460,
      "Ġpolitischen": 3461,
      "Ġsorgen": 3462,
      "Ġmutti": 3463,
      "schul": 3464,
      "Ġspiele": 3465,
      "Ġgebrau": 3466,
      "Ġerfahr": 3467,
      "Ġmode": 3468,
      "âĢĿ.": 3469,
      "ĠunterstÃ¼tz": 3470,
      "heim": 3471,
      "mpfen": 3472,
      "nicht": 3473,
      "Ġhut": 3474,
      "Ġmitnehmen": 3475,
      "Ġgegend": 3476,
      "rech": 3477,
      "blieben": 3478,
      "aschen": 3479,
      "Ġjung": 3480,
      "Ã¤ss": 3481,
      "Ġverschl": 3482,
      "ampe": 3483,
      "go": 3484,
      "Ġschen": 3485,
      "ore": 3486,
      "ure": 3487,
      "Ġfleisch": 3488,
      "Ġsatz": 3489,
      "Ġlief": 3490,
      "zept": 3491,
      "Ġgelegen": 3492,
      "Ġbring": 3493,
      "Ġantwort": 3494,
      "Ġehem": 3495,
      "Ġwechs": 3496,
      "Ã¼rz": 3497,
      "Ġauszu": 3498,
      "Ġfeuerwehr": 3499,
      "Ġaktu": 3500,
      "jahren": 3501,
      "no": 3502,
      "schine": 3503,
      "..!": 3504,
      "rÃ¼ben": 3505,
      "enz": 3506,
      "Ġgeist": 3507,
      "ĠÃ¼berlegen": 3508,
      "Ġfarben": 3509,
      "Ġabends": 3510,
      "wend": 3511,
      "eidet": 3512,
      "afft": 3513,
      "Ġviertel": 3514,
      "Ġprobieren": 3515,
      "ba": 3516,
      "straÃŁe": 3517,
      "punkt": 3518,
      "Ġkre": 3519,
      "Ġgelbe": 3520,
      "bÃ¤r": 3521,
      "Ġseid": 3522,
      "Ġmikro": 3523,
      "Ġgrau": 3524,
      "Ġhasen": 3525,
      "Ġstei": 3526,
      "Ġgefahr": 3527,
      "Ġmonchen": 3528,
      "Ã¤ndig": 3529,
      "Ġblieb": 3530,
      "line": 3531,
      "Ġarg": 3532,
      "Ġjedem": 3533,
      "Ġbekommt": 3534,
      "Ġitalien": 3535,
      "Ġschloss": 3536,
      "Ġwolle": 3537,
      "Ġschild": 3538,
      "ĠÃ¤u": 3539,
      "ĠmÃ¼t": 3540,
      "gefÃ¤hr": 3541,
      "Ġtraurig": 3542,
      "Ġeinzige": 3543,
      "Ġheimat": 3544,
      "itzt": 3545,
      "Ġbehand": 3546,
      "hÃ¶": 3547,
      "achtet": 3548,
      "ĠvÃ¶gel": 3549,
      "Ġgold": 3550,
      "Ġmitten": 3551,
      "Ġglo": 3552,
      "Ġunseren": 3553,
      "bs": 3554,
      "lafen": 3555,
      "rauber": 3556,
      "Ġriesen": 3557,
      "film": 3558,
      "ĠgÃ¼": 3559,
      "Ġost": 3560,
      "auso": 3561,
      "Ġweitere": 3562,
      "Ġschwarzen": 3563,
      "Ġdicht": 3564,
      "Ġgang": 3565,
      "Ġverantwort": 3566,
      "Ã¤llig": 3567,
      "Ġmeike": 3568,
      "Ġfindest": 3569,
      "arbeitet": 3570,
      "od": 3571,
      "Ġdampf": 3572,
      "Ġrasen": 3573,
      "Ġerwar": 3574,
      "ĠdrÃ¼cken": 3575,
      "Ġhell": 3576,
      "Ġstrassen": 3577,
      "Ġverwand": 3578,
      "Ġhon": 3579,
      "laufen": 3580,
      "Ġkol": 3581,
      "Ġeinzu": 3582,
      "Ġebenso": 3583,
      "Ġbewusst": 3584,
      "Ġaufpassen": 3585,
      "Ġgeheim": 3586,
      "spekt": 3587,
      "schluss": 3588,
      "eichen": 3589,
      "Ġsingen": 3590,
      "Ġmiss": 3591,
      "Ġdumm": 3592,
      "Ġof": 3593,
      "Ġumf": 3594,
      "Ġgenauso": 3595,
      "anst": 3596,
      "Ġpersonen": 3597,
      "Ġurlaub": 3598,
      "Ġisses": 3599,
      "bschrauber": 3600,
      "hil": 3601,
      "arm": 3602,
      "Ġinstitut": 3603,
      "Ġfragt": 3604,
      "chtig": 3605,
      "ĠgefÃ¤hrlich": 3606,
      "isiert": 3607,
      "Ġglob": 3608,
      "lungen": 3609,
      "Ġdi": 3610,
      "obil": 3611,
      "Ġ198": 3612,
      "Ġtod": 3613,
      "ĠlÃ¤nder": 3614,
      "beweg": 3615,
      "Ġ10": 3616,
      "Ġflasche": 3617,
      "Ġchin": 3618,
      "Ġregel": 3619,
      "Ġnimmst": 3620,
      "dingt": 3621,
      "chthild": 3622,
      "ometer": 3623,
      "Ġschneller": 3624,
      "Ġmechthild": 3625,
      "Ġschnu": 3626,
      "Ġwild": 3627,
      "Ġries": 3628,
      "rt": 3629,
      "Ġschlange": 3630,
      "Ġteppich": 3631,
      "drehen": 3632,
      "Ġleise": 3633,
      "ek": 3634,
      "Ġmesser": 3635,
      "fahrt": 3636,
      "piel": 3637,
      "Ġpil": 3638,
      "ama": 3639,
      "Ġsozialen": 3640,
      ".!": 3641,
      "Ġhor": 3642,
      "Ġfle": 3643,
      "Ã¶rder": 3644,
      "ĠhÃ¤ngt": 3645,
      "Ġversteckt": 3646,
      "ĠblÃ¤tter": 3647,
      "Ġfing": 3648,
      "Ġfangen": 3649,
      "Ġschuh": 3650,
      "pel": 3651,
      "Ġzahn": 3652,
      "atsch": 3653,
      "Ġwenige": 3654,
      "stÃ¤ndig": 3655,
      "Ã¤ck": 3656,
      "Ġklingt": 3657,
      "alter": 3658,
      "Ġrede": 3659,
      "ĠschlÃ¼ssel": 3660,
      "nehmer": 3661,
      "ps": 3662,
      "Ġangef": 3663,
      "Ġprotest": 3664,
      "Ġkenne": 3665,
      "Ġwasch": 3666,
      "ote": 3667,
      "Ġenten": 3668,
      "haben": 3669,
      "zeigt": 3670,
      "gern": 3671,
      "iti": 3672,
      "Ġzeitung": 3673,
      "Ġrelig": 3674,
      "ĠlÃ¤ngst": 3675,
      "ĠbevÃ¶lkerung": 3676,
      "Ġweihnachts": 3677,
      "por": 3678,
      "Ġnick": 3679,
      "Ġschnecke": 3680,
      "izi": 3681,
      "Ġban": 3682,
      "chtet": 3683,
      "Ġpull": 3684,
      "brot": 3685,
      "ĠmilitÃ¤r": 3686,
      "seh": 3687,
      "Ġran": 3688,
      "selben": 3689,
      "minister": 3690,
      "Ġfuss": 3691,
      "elten": 3692,
      "Ã¶ff": 3693,
      "Ġaufh": 3694,
      "wasser": 3695,
      "ĠÃ¼berlegte": 3696,
      "ĠfrÃ¼hstÃ¼ck": 3697,
      "Ġaufmer": 3698,
      "Ġmeint": 3699,
      "Ġflughafen": 3700,
      "lament": 3701,
      "hem": 3702,
      "wn": 3703,
      "weisen": 3704,
      "ativen": 3705,
      "ĠhÃ¤lfte": 3706,
      "turm": 3707,
      "Ġherab": 3708,
      "Ġfreiheit": 3709,
      "Ġprobleme": 3710,
      "Ġandre": 3711,
      "Ġrechten": 3712,
      "Ġwurst": 3713,
      "oph": 3714,
      "Ġbewegung": 3715,
      "Ġentgegen": 3716,
      "Ġsonn": 3717,
      "press": 3718,
      "Ġkraft": 3719,
      "Ġdok": 3720,
      "Ġmie": 3721,
      "Ġhaar": 3722,
      "Ġkreuz": 3723,
      "Ġunserem": 3724,
      "Ġmeinte": 3725,
      "Ġzweit": 3726,
      "Ġsech": 3727,
      "Ġprobier": 3728,
      "Ġgefragt": 3729,
      "ance": 3730,
      "Ġladen": 3731,
      "Ġsolle": 3732,
      "Ġstellte": 3733,
      "Ġaussehen": 3734,
      "atisch": 3735,
      "Ġdruck": 3736,
      "Ġerstaun": 3737,
      "Ġhals": 3738,
      "karte": 3739,
      "-,": 3740,
      "Ġholt": 3741,
      "Ġzeigte": 3742,
      "Ġdenk": 3743,
      "Ġverdien": 3744,
      "omen": 3745,
      "Ã¤rm": 3746,
      "Ġkugel": 3747,
      "sÃ¤tz": 3748,
      "Ã¤che": 3749,
      "Ġletzt": 3750,
      "Ġhinauf": 3751,
      "Ġbegriff": 3752,
      "ĠlÃ¶we": 3753,
      "Ġunbedingt": 3754,
      "dige": 3755,
      "saft": 3756,
      "Ġina": 3757,
      "ĠweiÃŁen": 3758,
      "ao": 3759,
      "sa": 3760,
      "yn": 3761,
      "istisch": 3762,
      "Ġhohen": 3763,
      "Ġherunter": 3764,
      "ĠsaÃŁ": 3765,
      "ĠgefÃ¤ng": 3766,
      "Ġhubschrauber": 3767,
      "Ġmilliar": 3768,
      "ĠÃ¼brigens": 3769,
      "Ġzuletzt": 3770,
      "ause": 3771,
      "Ġrunden": 3772,
      "Ġerschein": 3773,
      "hmen": 3774,
      "Ġisra": 3775,
      "Ġkomp": 3776,
      "zeichnet": 3777,
      "dung": 3778,
      "Ġabsch": 3779,
      "Ġanfangen": 3780,
      "ĠfÃ¼hrte": 3781,
      "ele": 3782,
      "Ġsteigen": 3783,
      "ona": 3784,
      "Ġmalst": 3785,
      "Ġmitgebracht": 3786,
      "ym": 3787,
      "Ġhein": 3788,
      "ela": 3789,
      "Ġtagen": 3790,
      "Ġ100": 3791,
      "Ġstaaten": 3792,
      "schte": 3793,
      "Ġtal": 3794,
      "Ġislam": 3795,
      "Ġtrans": 3796,
      "ĠwuÃŁ": 3797,
      "Ġmart": 3798,
      "Ġbir": 3799,
      "Ġlachen": 3800,
      "Ġleiter": 3801,
      "Ġkoffer": 3802,
      "ator": 3803,
      "Ġ14": 3804,
      "Ġbetroffen": 3805,
      "Ġbilli": 3806,
      "Ġheu": 3807,
      "teten": 3808,
      "ember": 3809,
      "Ġnennt": 3810,
      "Ġpuppen": 3811,
      "ĠschÃ¶ner": 3812,
      "Ġleiden": 3813,
      "ĠhÃ¤ufig": 3814,
      "bildung": 3815,
      "Ġplatt": 3816,
      "sinn": 3817,
      "iniert": 3818,
      "Ġaufmerksam": 3819,
      "Ġmigr": 3820,
      "Ġlen": 3821,
      "Ġrech": 3822,
      "Ġgras": 3823,
      "Ġbeispielsweise": 3824,
      "Ġdoktor": 3825,
      "ĠerklÃ¤ren": 3826,
      "Ġtonband": 3827,
      "Ġuni": 3828,
      "Ġtanz": 3829,
      "Ġexper": 3830,
      "zwanzig": 3831,
      "ĠtrÃ¤gt": 3832,
      "kuchen": 3833,
      "eng": 3834,
      "irm": 3835,
      "Ġinvest": 3836,
      "ĠtÃ¤": 3837,
      "schlieÃŁen": 3838,
      "Ġmorgens": 3839,
      "Ġkamera": 3840,
      "Ġpal": 3841,
      "Ġ16": 3842,
      "rÃ¤um": 3843,
      "Ġnachts": 3844,
      "hlich": 3845,
      "aur": 3846,
      "elbe": 3847,
      "Ġpreis": 3848,
      "Ġspaz": 3849,
      "abhÃ¤ng": 3850,
      "Ġlegte": 3851,
      "Ġdrogen": 3852,
      "Ġgans": 3853,
      "ĠhÃ¶he": 3854,
      "ĠstÃ¼ckchen": 3855,
      "Ġbarbie": 3856,
      "ober": 3857,
      "Ġgutes": 3858,
      "fluss": 3859,
      "Ġaffe": 3860,
      "ĠnÃ¶t": 3861,
      "Ġaufs": 3862,
      "Ġuntersch": 3863,
      "Ġelf": 3864,
      "Ġweltweit": 3865,
      "Ġvoller": 3866,
      "hang": 3867,
      "eme": 3868,
      "see": 3869,
      "Ġmonate": 3870,
      "Ġdrinne": 3871,
      "ĠbÃ¶se": 3872,
      "nein": 3873,
      "ĠdrÃ¼ben": 3874,
      "Ġzeich": 3875,
      "scheln": 3876,
      "Ġdeb": 3877,
      "Ġnikol": 3878,
      "Ġbat": 3879,
      "Ġzeu": 3880,
      "Ġstat": 3881,
      "heben": 3882,
      "Ġgeboren": 3883,
      "treten": 3884,
      "Ġverkehr": 3885,
      "Ġgast": 3886,
      "ĠzÃ¼ge": 3887,
      "herap": 3888,
      "verstÃ¤n": 3889,
      "Ġren": 3890,
      "ole": 3891,
      "Ġmonat": 3892,
      "Ġtopf": 3893,
      "Ġschrank": 3894,
      "Ġklotz": 3895,
      "ĠschlÃ¤": 3896,
      "Ġheisst": 3897,
      "Ġkomisch": 3898,
      "Ġsyr": 3899,
      "Ġag": 3900,
      "auen": 3901,
      "Ġhaha": 3902,
      "olge": 3903,
      "Ġbeste": 3904,
      "izin": 3905,
      "Ġlokomotive": 3906,
      "Ġterror": 3907,
      "bad": 3908,
      "part": 3909,
      "ĠuniversitÃ¤t": 3910,
      "ischt": 3911,
      "sex": 3912,
      "Ġvorhin": 3913,
      "Ġhalte": 3914,
      "Ġleip": 3915,
      "ĠmÃ¤uschen": 3916,
      "Ġbeit": 3917,
      "Ġbaden": 3918,
      "weis": 3919,
      "Ġlehrer": 3920,
      "lern": 3921,
      "Ġkiste": 3922,
      "onstr": 3923,
      "ement": 3924,
      "les": 3925,
      "indung": 3926,
      "Ġverschiedenen": 3927,
      "Ġalltag": 3928,
      "Ġbegeg": 3929,
      "Ġhinzu": 3930,
      "Ġaussieht": 3931,
      "ĠÃ¼berra": 3932,
      "gaben": 3933,
      "Ġrap": 3934,
      "gebaut": 3935,
      "Ġbleib": 3936,
      "Ġli": 3937,
      "Ġbereit": 3938,
      "iziert": 3939,
      "Ġrauch": 3940,
      "Ġeinst": 3941,
      "Ġmeinung": 3942,
      "Ġhunde": 3943,
      "Ġsauer": 3944,
      "Ġgiraffe": 3945,
      "Ġreisen": 3946,
      "zentr": 3947,
      "Ġkna": 3948,
      "Ġsteine": 3949,
      "Ġblume": 3950,
      "undzwanzig": 3951,
      "Ġstrich": 3952,
      "schule": 3953,
      "organis": 3954,
      "Ġbaue": 3955,
      "Ġkons": 3956,
      "Ġbilderbuch": 3957,
      "Ġzerst": 3958,
      "Ġpupp": 3959,
      "ĠtÃ¼rkei": 3960,
      "mi": 3961,
      "zel": 3962,
      "eitag": 3963,
      "Ġ17": 3964,
      "Ġhamburg": 3965,
      "Ġdicke": 3966,
      "Ġwindel": 3967,
      "nitten": 3968,
      "Ġschade": 3969,
      "annen": 3970,
      "ime": 3971,
      "fahrer": 3972,
      "hÃ¤user": 3973,
      "fallen": 3974,
      "over": 3975,
      "Ġweint": 3976,
      "egel": 3977,
      "Ġvorstellen": 3978,
      "Ġkleider": 3979,
      "ĠverhÃ¤lt": 3980,
      "Ã¼llt": 3981,
      "Ġdom": 3982,
      "Ġsh": 3983,
      "strasse": 3984,
      "Ġherrn": 3985,
      "Ġzuvor": 3986,
      "ĠprÃ¼": 3987,
      "Ġoffiz": 3988,
      "flug": 3989,
      "Ġmilliarden": 3990,
      "Ġvergleich": 3991,
      "Ġklappt": 3992,
      "Ġabmachen": 3993,
      "Ġschmei": 3994,
      "ĠÃ¤rger": 3995,
      "alle": 3996,
      "Ġmerkte": 3997,
      "ettel": 3998,
      "....": 3999,
      "Ġkonfl": 4000,
      "Ġwelchem": 4001,
      "Ġisrael": 4002,
      "opf": 4003,
      "irt": 4004,
      "Ġstreich": 4005,
      "Ġjahrhundert": 4006,
      "boten": 4007,
      "Ġsucht": 4008,
      "Ġschaff": 4009,
      "spro": 4010,
      "Ġfluter": 4011,
      "Ġerwachsen": 4012,
      "Ġdoppel": 4013,
      "Ġpet": 4014,
      "ĠgerÃ¤t": 4015,
      "Ġinsel": 4016,
      "Ġjedenfalls": 4017,
      "ĠbeschÃ¤ftigt": 4018,
      "Ġstern": 4019,
      "stes": 4020,
      "irn": 4021,
      "Ġtsch": 4022,
      "Ġstol": 4023,
      "Ġhinsetzen": 4024,
      "lege": 4025,
      "Ġwolf": 4026,
      "hi": 4027,
      "Ġmut": 4028,
      "Ġbier": 4029,
      "Ġport": 4030,
      "Ġvern": 4031,
      "Ġweib": 4032,
      "Ã¤tzen": 4033,
      "Ġgelben": 4034,
      "ĠfrÃ¶": 4035,
      "ĠkÃ¼hl": 4036,
      "ippt": 4037,
      "schauen": 4038,
      "ĠmerkwÃ¼r": 4039,
      "Ġlage": 4040,
      "..?": 4041,
      "reibt": 4042,
      "Ġsteh": 4043,
      "Ġtrug": 4044,
      "bÃ¼": 4045,
      "wissen": 4046,
      "Ġwetter": 4047,
      "Ġinternation": 4048,
      "stoff": 4049,
      "Ġberuf": 4050,
      "Ġehemal": 4051,
      "Ġzuhause": 4052,
      "ĠÃ¶l": 4053,
      "aster": 4054,
      "kÃ¶": 4055,
      "esch": 4056,
      "Ġpie": 4057,
      "Ġschneiden": 4058,
      "Ġtrocken": 4059,
      "igte": 4060,
      "Ġstock": 4061,
      "Ġkling": 4062,
      "Ġbrille": 4063,
      "boot": 4064,
      "Ġbas": 4065,
      "Ġerrei": 4066,
      "recken": 4067,
      "assung": 4068,
      "ĠflÃ¼chtlinge": 4069,
      "Ġdig": 4070,
      "Ã¼sse": 4071,
      "abil": 4072,
      "baren": 4073,
      "Ġris": 4074,
      "Ġstall": 4075,
      "rÃ¤ge": 4076,
      "bahnhof": 4077,
      "Ġ50": 4078,
      "met": 4079,
      "Ġallgem": 4080,
      "Ã¤nen": 4081,
      "Ġ12": 4082,
      "riffen": 4083,
      "iter": 4084,
      "ĠgewÃ¶hn": 4085,
      "ark": 4086,
      "Ġputzen": 4087,
      "igten": 4088,
      "Ġdritten": 4089,
      "halte": 4090,
      "fÃ¼hrer": 4091,
      "Ġschrift": 4092,
      "ĠgrÃ¶ÃŁten": 4093,
      "produ": 4094,
      "Ġerkennen": 4095,
      "Ġkakao": 4096,
      "schrift": 4097,
      "Ġzweimal": 4098,
      "Ġantwortete": 4099,
      "Ġprivat": 4100,
      "ĠdÃ¼nn": 4101,
      "daten": 4102,
      "wahl": 4103,
      "Ġbot": 4104,
      "Ġblock": 4105,
      "Ġerinnern": 4106,
      "ĠrÃ¼hr": 4107,
      "iene": 4108,
      "Ġkampf": 4109,
      "ĠhÃ¤nden": 4110,
      "Ġonline": 4111,
      "Ġsalz": 4112,
      "fach": 4113,
      "Ġkoll": 4114,
      "Ġfreitag": 4115,
      "Ġnummer": 4116,
      "fest": 4117,
      "orfen": 4118,
      "Ġprojekt": 4119,
      "Ġschaukel": 4120,
      "weh": 4121,
      "ĠungefÃ¤hr": 4122,
      "Ġbekam": 4123,
      "Ġdel": 4124,
      "Ġbrei": 4125,
      "Ġmalt": 4126,
      "Ġdennoch": 4127,
      "abrik": 4128,
      "Ġgelernt": 4129,
      "Ġnett": 4130,
      "Ġlinken": 4131,
      "Ġdiesmal": 4132,
      "Ġruntergefallen": 4133,
      "ĠlÃ¶wen": 4134,
      "Ġleucht": 4135,
      "jahre": 4136,
      "Ġposit": 4137,
      "iew": 4138,
      "Ġerhalten": 4139,
      "hren": 4140,
      "Ġgeblieben": 4141,
      "omas": 4142,
      "spl": 4143,
      "Ġsaft": 4144,
      "verb": 4145,
      "Ġmedizin": 4146,
      "Ġschmer": 4147,
      "ĠrÃ¼": 4148,
      "Ġerreichen": 4149,
      "Ġwohnzimmer": 4150,
      "ĠschÃ¤": 4151,
      "Ġdemonstr": 4152,
      "ĠwÃ¶r": 4153,
      "Ġverhalten": 4154,
      "hose": 4155,
      "Ġ197": 4156,
      "Ġabt": 4157,
      "Ġanst": 4158,
      "drÃ¼cken": 4159,
      "Ġeingesch": 4160,
      "ĠverÃ¶": 4161,
      "ikel": 4162,
      "Ġcr": 4163,
      "zip": 4164,
      "Ġparteien": 4165,
      "ĠmÃ¤r": 4166,
      "Ġtim": 4167,
      "Ġ13": 4168,
      "Ġheft": 4169,
      "Ġaussteigen": 4170,
      "rieden": 4171,
      "Ġfahrt": 4172,
      "Ġsowieso": 4173,
      "ĠwuÃŁte": 4174,
      "emie": 4175,
      "iken": 4176,
      "Ġextrem": 4177,
      "ĠÃ¤ndern": 4178,
      "ĠunabhÃ¤ng": 4179,
      "Ġschere": 4180,
      "Ġstecken": 4181,
      "Ġangeh": 4182,
      "Ã¤umt": 4183,
      "fst": 4184,
      "fre": 4185,
      "stÃ¼r": 4186,
      "do": 4187,
      "Ġnennen": 4188,
      "glichen": 4189,
      "urs": 4190,
      "ĠstÃ¤ndig": 4191,
      "Ġzeichen": 4192,
      "Ġsicherheit": 4193,
      "Ġkartoffeln": 4194,
      "Ġnachmittag": 4195,
      "Ġentlang": 4196,
      "Ġkontroll": 4197,
      "Ġkolle": 4198,
      "aubt": 4199,
      "Ġgezeigt": 4200,
      "Ġminde": 4201,
      "Ġberliner": 4202,
      "50": 4203,
      "fin": 4204,
      "Ġtram": 4205,
      "ĠgebÃ¤ude": 4206,
      "Ġteilen": 4207,
      "Ġpolitiker": 4208,
      "Ġjugendliche": 4209,
      "Ġdollar": 4210,
      "bb": 4211,
      "volut": 4212,
      "za": 4213,
      "Ġanl": 4214,
      "recher": 4215,
      "Ġmeter": 4216,
      "Ġfressen": 4217,
      "hÃ¤lt": 4218,
      "zÃ¤hl": 4219,
      "istin": 4220,
      "Ã¼ckt": 4221,
      "ĠÃ¤pfel": 4222,
      "digung": 4223,
      "Ġruft": 4224,
      "bewegung": 4225,
      "Ġpuppa": 4226,
      "Ġhem": 4227,
      "Ġrichtigen": 4228,
      "bank": 4229,
      "auch": 4230,
      "Ġend": 4231,
      "zial": 4232,
      "losen": 4233,
      "ĠmÃ¶glichkeit": 4234,
      "Ġbauernhof": 4235,
      "finden": 4236,
      "hu": 4237,
      "anen": 4238,
      "Ġkletter": 4239,
      "spielen": 4240,
      "Ġhuch": 4241,
      "Ġergeb": 4242,
      "Ġjahrzehn": 4243,
      "Ġdrinnen": 4244,
      "Ã¼tzen": 4245,
      "Ġspiegel": 4246,
      "Ġbrit": 4247,
      "Ġjahres": 4248,
      "Ġangem": 4249,
      "Ġsoziale": 4250,
      "ĠeuropÃ¤ischen": 4251,
      "Ġche": 4252,
      "ĠblÃ¼": 4253,
      "geschichte": 4254,
      "Ġweder": 4255,
      "Ġschritt": 4256,
      "Ġversuche": 4257,
      "zessin": 4258,
      "meister": 4259,
      "zte": 4260,
      "Ġsus": 4261,
      "anien": 4262,
      "geladen": 4263,
      "bare": 4264,
      "Ġsonntag": 4265,
      "Ġvolk": 4266,
      "Ġgol": 4267,
      "Ġnutzen": 4268,
      "Ġheil": 4269,
      "wal": 4270,
      "Ġgrie": 4271,
      "Ġanw": 4272,
      "Ġopfer": 4273,
      "Ġzumachen": 4274,
      "Ġgibst": 4275,
      "Ġbeglei": 4276,
      "Ġversuchte": 4277,
      "Ġfreude": 4278,
      "Ġsogenannten": 4279,
      "Ġahn": 4280,
      "stu": 4281,
      "Ġverkaufen": 4282,
      "schuhe": 4283,
      "ĠkÃ¼nstler": 4284,
      "Ġbuchsta": 4285,
      "ĠlÃ¶s": 4286,
      "macht": 4287,
      "Ġverbr": 4288,
      "Ġnahe": 4289,
      "ĠwÃ¼rstchen": 4290,
      "Ġrollen": 4291,
      "Ġkostet": 4292,
      "Ġverkauft": 4293,
      "Ġgrad": 4294,
      "lex": 4295,
      "Ġmoder": 4296,
      "Ġderzeit": 4297,
      "schÃ¶n": 4298,
      "Ġlond": 4299,
      "Ġstehe": 4300,
      "chtete": 4301,
      "Ġdauert": 4302,
      "Ġhann": 4303,
      "teg": 4304,
      "itÃ¤ten": 4305,
      "Ġaufstehen": 4306,
      "packt": 4307,
      "Ġparlament": 4308,
      "Ġfernseh": 4309,
      "ckten": 4310,
      "Ġtrat": 4311,
      "packen": 4312,
      "ĠhÃ¶ch": 4313,
      "Ġnikolaus": 4314,
      "volution": 4315,
      "mach": 4316,
      "the": 4317,
      "Ġaffen": 4318,
      "Ġkeller": 4319,
      "Ġlegt": 4320,
      "Ġsogenannte": 4321,
      "bur": 4322,
      "Ġigel": 4323,
      "Ġnil": 4324,
      "Ġgleichsam": 4325,
      "Ġelekt": 4326,
      "zeuge": 4327,
      "Ġ40": 4328,
      "Ġgei": 4329,
      "ĠbÃ¤ume": 4330,
      "Ġinf": 4331,
      "bew": 4332,
      "krimin": 4333,
      "stÃ¤nde": 4334,
      "setzt": 4335,
      "zin": 4336,
      "hop": 4337,
      "Ġwachte": 4338,
      "Ġherzen": 4339,
      "ĠhÃ¤ttest": 4340,
      "Ġausger": 4341,
      "Ġbewer": 4342,
      "ĠdreiÃŁig": 4343,
      "Ġentschul": 4344,
      "Ġdienst": 4345,
      "Ġsass": 4346,
      "Ġrunde": 4347,
      "umpf": 4348,
      "Ġbecher": 4349,
      "Ġgewonnen": 4350,
      "Ġgelegt": 4351,
      "gruppe": 4352,
      "Ġprinzessin": 4353,
      "Ġprofessor": 4354,
      "Ġmauer": 4355,
      "Ġjacke": 4356,
      "Ġtyp": 4357,
      "bruch": 4358,
      "Ġdoof": 4359,
      "hÃ¶rnchen": 4360,
      "kind": 4361,
      "nungen": 4362,
      "einer": 4363,
      "Ġzeiten": 4364,
      "Ġgeschenkt": 4365,
      "wel": 4366,
      "Ġfind": 4367,
      "Ġgruppen": 4368,
      "Ġlondon": 4369,
      "Ġwun": 4370,
      "ĠzÃ¼r": 4371,
      "Ġerm": 4372,
      "Ġkritik": 4373,
      "Ġenergie": 4374,
      "ifte": 4375,
      "Ġzudem": 4376,
      "Ġesse": 4377,
      "Ġflucht": 4378,
      "Ġgeschickt": 4379,
      "ĠmaÃŁ": 4380,
      "arbeiten": 4381,
      "aben": 4382,
      "Ġmaul": 4383,
      "altung": 4384,
      "Ġfeld": 4385,
      "sal": 4386,
      "bern": 4387,
      "Ġaufbauen": 4388,
      "ĠmÃ¶glichst": 4389,
      "Ġsterben": 4390,
      "Ġunver": 4391,
      "Ġsuchte": 4392,
      "syl": 4393,
      "ĠhÃ¼hner": 4394,
      "Ġtrambahn": 4395,
      "Ġschwanz": 4396,
      "boden": 4397,
      "gro": 4398,
      "mon": 4399,
      "Ġbast": 4400,
      "Ġeingang": 4401,
      "Ġdritte": 4402,
      "ĠgerÃ¤u": 4403,
      "Ġarch": 4404,
      "Ġhauses": 4405,
      "Ġproduz": 4406,
      "Ġgleichen": 4407,
      "Ġsw": 4408,
      "ĠlÃ¤ch": 4409,
      "steller": 4410,
      "Ġthomas": 4411,
      "rÃ¤umt": 4412,
      "kan": 4413,
      "eien": 4414,
      "Ġgestellt": 4415,
      "Ġlege": 4416,
      "Ġgeschlossen": 4417,
      "Ġextra": 4418,
      "Ġgeneration": 4419,
      "Ġentfernt": 4420,
      "Ġleipzig": 4421,
      "Ġsm": 4422,
      "Ġgon": 4423,
      "Ġprogramm": 4424,
      "Ġ2014": 4425,
      "Ġgock": 4426,
      "Ġstutt": 4427,
      "wiesen": 4428,
      "elmÃ¤": 4429,
      "Ġdahinter": 4430,
      "Ġfroh": 4431,
      "ĠglÃ¼cklich": 4432,
      "alisierung": 4433,
      "ĠjÃ¼nger": 4434,
      "lÃ¤u": 4435,
      "ĠhieÃŁ": 4436,
      "Ġtrad": 4437,
      "Ġhattest": 4438,
      "ĠwÃ¼rfel": 4439,
      "mpfe": 4440,
      "Ġukraine": 4441,
      "Ġspann": 4442,
      "Ġumdrehen": 4443,
      "gesamt": 4444,
      "Ġyor": 4445,
      "Ġinteressant": 4446,
      "aler": 4447,
      "Ġhinunter": 4448,
      "Ġpapi": 4449,
      "Ġtreppen": 4450,
      "Ġstudien": 4451,
      "feln": 4452,
      "our": 4453,
      "Ġhans": 4454,
      "Ġaufnahme": 4455,
      "Ġbeein": 4456,
      "ĠÃ¼berw": 4457,
      "istor": 4458,
      "Ġdiskut": 4459,
      "Ġbur": 4460,
      "schi": 4461,
      "Ġdenkt": 4462,
      "reisen": 4463,
      "Ġ11": 4464,
      "ĠrÃ¼ckwÃ¤rts": 4465,
      "Ġleuchtturm": 4466,
      "Ġhi": 4467,
      "Ġgack": 4468,
      "Ġter": 4469,
      "Ġgeschafft": 4470,
      "Ġpflanzen": 4471,
      "Ġrosa": 4472,
      "Ġlater": 4473,
      "Ġwoher": 4474,
      "Ġgelang": 4475,
      "ĠgefÃ¤llt": 4476,
      "Ġnull": 4477,
      "Ġdauer": 4478,
      "Ġbacken": 4479,
      "eise": 4480,
      "Ã¤st": 4481,
      "Ġschutz": 4482,
      "Ġbewegen": 4483,
      "Ġgefl": 4484,
      "ĠmÃ¤use": 4485,
      "lok": 4486,
      "Ġverspr": 4487,
      "Ġgeholt": 4488,
      "Ġheiss": 4489,
      "Ġreintun": 4490,
      "ĠgrÃ¶ÃŁte": 4491,
      "Ġachtung": 4492,
      "Ġthemen": 4493,
      "iebt": 4494,
      "Ġasyl": 4495,
      "gezogen": 4496,
      "Ã¼rzt": 4497,
      "raut": 4498,
      "Ġthor": 4499,
      "Ġdicken": 4500,
      "ĠgefÃ¤ngnis": 4501,
      "fa": 4502,
      "Ġeindruck": 4503,
      "ĠfÃ¤": 4504,
      "Ġaufgeh": 4505,
      "Ġklaus": 4506,
      "Ġerster": 4507,
      "Ġmeistens": 4508,
      "Ġtue": 4509,
      "ĠverÃ¤ndert": 4510,
      "ierungs": 4511,
      "umb": 4512,
      "utung": 4513,
      "Ġgleiche": 4514,
      "Ġlaster": 4515,
      "asi": 4516,
      "Ġanna": 4517,
      "Ġbrachte": 4518,
      "Ġleisten": 4519,
      "Ġjugendlichen": 4520,
      "20": 4521,
      "Ġrenn": 4522,
      "Ġtab": 4523,
      "Ġinnerhalb": 4524,
      "heimlich": 4525,
      "Ġbonbon": 4526,
      "ĠrÃ¶": 4527,
      "Ġrob": 4528,
      "maschine": 4529,
      "Ġ2015": 4530,
      "ĠdrÃ¼ck": 4531,
      "Ġwicht": 4532,
      "Ġhom": 4533,
      "Ġverboten": 4534,
      "othe": 4535,
      "gesellschaft": 4536,
      "Ġentwicklung": 4537,
      "hilfe": 4538,
      "zum": 4539,
      "Ġverab": 4540,
      "Ġhinlegen": 4541,
      "Ġreichen": 4542,
      "ĠerzÃ¤hlte": 4543,
      "liegen": 4544,
      "Ġfernsehen": 4545,
      "kle": 4546,
      "teste": 4547,
      "ola": 4548,
      "iko": 4549,
      "akter": 4550,
      "Ġwenigstens": 4551,
      "Ġangeln": 4552,
      "ĠkrÃ¤ftig": 4553,
      "Ġhoffnung": 4554,
      "Ġmindestens": 4555,
      "bchen": 4556,
      "zern": 4557,
      "ĠberÃ¼": 4558,
      "kla": 4559,
      "tritt": 4560,
      "Ġerfahren": 4561,
      "Ġfas": 4562,
      "Ġweile": 4563,
      "Ġbestimmte": 4564,
      "Ġzitr": 4565,
      "Ġhonig": 4566,
      "Ġdame": 4567,
      "ehler": 4568,
      "artig": 4569,
      "Ġinsgesamt": 4570,
      "Ġgetroffen": 4571,
      "Ġtolle": 4572,
      "Ġner": 4573,
      "Ġgezogen": 4574,
      "Ġstimmen": 4575,
      "Ġtransport": 4576,
      "Ġbre": 4577,
      "Ã¼d": 4578,
      "ums": 4579,
      "dreht": 4580,
      "Ġvideo": 4581,
      "ene": 4582,
      "Ġunheimlich": 4583,
      "Ġfie": 4584,
      "Ġtanzen": 4585,
      "Ã¼rf": 4586,
      "Ġsteuer": 4587,
      "bogen": 4588,
      "Ġkrankenhaus": 4589,
      "mutter": 4590,
      "Ġpin": 4591,
      "Ġausges": 4592,
      "dienst": 4593,
      "ae": 4594,
      "wig": 4595,
      "ehren": 4596,
      "ĠÃ¼berzeu": 4597,
      "Ġkinderzimmer": 4598,
      "geschrieben": 4599,
      "Ġbiste": 4600,
      "Ġsitze": 4601,
      "kraft": 4602,
      "Ġgrenzen": 4603,
      "Ġbestimmten": 4604,
      "Ġbezahlen": 4605,
      "lÃ¶": 4606,
      "zur": 4607,
      "schiff": 4608,
      "Ġgeschlafen": 4609,
      "Ġbildung": 4610,
      "Ġarbeiter": 4611,
      "Ġisser": 4612,
      "kn": 4613,
      "mil": 4614,
      "passt": 4615,
      "ram": 4616,
      "Ġreag": 4617,
      "Ġeil": 4618,
      "Ġfeste": 4619,
      "Ġzentr": 4620,
      "Ġgis": 4621,
      "Ġerb": 4622,
      "Ġwerfen": 4623,
      "Ġed": 4624,
      "Ġdrum": 4625,
      "Ġkeines": 4626,
      "ĠhÃ¶re": 4627,
      "ĠbÃ¼ro": 4628,
      "ĠeichhÃ¶rnchen": 4629,
      "Ġsven": 4630,
      "teln": 4631,
      "Ġforder": 4632,
      "prochen": 4633,
      "ĠmÃ¼ssten": 4634,
      "amerikan": 4635,
      "Ġfurchtbar": 4636,
      "erweise": 4637,
      "Ġschlag": 4638,
      "ĠkÃ¤fer": 4639,
      "schnitt": 4640,
      "lauf": 4641,
      "Ġfach": 4642,
      "Ġanerk": 4643,
      "Ġsahen": 4644,
      "Ġheut": 4645,
      "Ġradio": 4646,
      "uktur": 4647,
      "haf": 4648,
      "Ġgenannt": 4649,
      "ĠmÃ¶cht": 4650,
      "forder": 4651,
      "pag": 4652,
      "eis": 4653,
      "Ġwag": 4654,
      "Ġeinfluss": 4655,
      "ath": 4656,
      "roland": 4657,
      "isieren": 4658,
      "Ġfluss": 4659,
      "Ġspielte": 4660,
      "Ã¼tzt": 4661,
      "mb": 4662,
      "Ġx": 4663,
      "Ġanstr": 4664,
      "Ã¤hrt": 4665,
      "geld": 4666,
      "plan": 4667,
      "Ġguter": 4668,
      "Ġrotes": 4669,
      "Ġangefangen": 4670,
      "Ġleid": 4671,
      "Ġfahre": 4672,
      "ĠgetrÃ¤umt": 4673,
      "ĠunglÃ¼ck": 4674,
      "ĠprÃ¤sident": 4675,
      "ĠwÃ¶rter": 4676,
      "ente": 4677,
      "arch": 4678,
      "Ġhohe": 4679,
      "Ġara": 4680,
      "Ġlast": 4681,
      "ĠallmÃ¤": 4682,
      "Ġjournalisten": 4683,
      "Ġhind": 4684,
      "Ġbesteht": 4685,
      "Ġversteh": 4686,
      "stung": 4687,
      "Ġeinsteigen": 4688,
      "orgt": 4689,
      "reiche": 4690,
      "Ġeimer": 4691,
      "Ġneuer": 4692,
      "kopf": 4693,
      "Ġentwickelt": 4694,
      "Ġschweinchen": 4695,
      "szen": 4696,
      "sack": 4697,
      "vin": 4698,
      "Ġlied": 4699,
      "Ġsong": 4700,
      "phon": 4701,
      "Ġafrika": 4702,
      "jen": 4703,
      "eitet": 4704,
      "Ġkop": 4705,
      "Ġput": 4706,
      "Ġblaues": 4707,
      "wurf": 4708,
      "Ġtitel": 4709,
      "Ã¶te": 4710,
      "Ġgericht": 4711,
      "Ġteuer": 4712,
      "Ġwege": 4713,
      "Ġstudenten": 4714,
      "Ġfehlen": 4715,
      "Ġkollegen": 4716,
      "bra": 4717,
      "gart": 4718,
      "Ġsehn": 4719,
      "reut": 4720,
      "ernd": 4721,
      "ielle": 4722,
      "Ġpolitisch": 4723,
      "Ġ196": 4724,
      "spruch": 4725,
      "Ġtotal": 4726,
      "Ġdemokratie": 4727,
      "Ġgrenze": 4728,
      "Ġill": 4729,
      "ierungen": 4730,
      "Ġausgest": 4731,
      "ĠmÃ¼nchen": 4732,
      "Ġneulich": 4733,
      "Ġreis": 4734,
      "gress": 4735,
      "Ġverbrau": 4736,
      "ĠkÃ¤mpfen": 4737,
      "ĠmÃ¼tze": 4738,
      "ions": 4739,
      "Ġdraussen": 4740,
      "Ġerinnert": 4741,
      "ĠfÃ¼hlen": 4742,
      "lungs": 4743,
      "ged": 4744,
      "Ġaufger": 4745,
      "isa": 4746,
      "eger": 4747,
      "Ġkannte": 4748,
      "ĠbefÃ¼r": 4749,
      "Ġseitdem": 4750,
      "jo": 4751,
      "Ġminder": 4752,
      "rock": 4753,
      "Ġkleidung": 4754,
      "Ġgehalten": 4755,
      "gelassen": 4756,
      "lose": 4757,
      "pferd": 4758,
      "echnet": 4759,
      "\"-": 4760,
      "Ġdurchaus": 4761,
      "Ġbaust": 4762,
      "Ġtour": 4763,
      "jÃ¤hrigen": 4764,
      "Ġbadewann": 4765,
      "Ġbeginnt": 4766,
      "grÃ¼n": 4767,
      "Ġaben": 4768,
      "Ġlampe": 4769,
      "Ġkleid": 4770,
      "Ġgewissen": 4771,
      "gelaufen": 4772,
      "Ġpraktisch": 4773,
      "Ġdokument": 4774,
      "ĠbÃ¤ren": 4775,
      "Ġsteckt": 4776,
      "arton": 4777,
      "Ġbeteil": 4778,
      "Ġmusl": 4779,
      "Ġrutsche": 4780,
      "dass": 4781,
      "kÃ¼n": 4782,
      "po": 4783,
      "Ġnation": 4784,
      "Ġjog": 4785,
      "Ġesel": 4786,
      "stecken": 4787,
      "rechte": 4788,
      "sph": 4789,
      "Ġwenigen": 4790,
      "Ġschreib": 4791,
      "Ġaug": 4792,
      "Ġviv": 4793,
      "bewer": 4794,
      "anger": 4795,
      "Ġselben": 4796,
      "Ġniedr": 4797,
      "Ġschulen": 4798,
      "frau": 4799,
      "pan": 4800,
      "blei": 4801,
      "Ġjeweil": 4802,
      "Ġzeige": 4803,
      "formen": 4804,
      "Ġentscheidung": 4805,
      "Ġzeug": 4806,
      "hte": 4807,
      "Ġhuck": 4808,
      "mmert": 4809,
      "Ġsagste": 4810,
      "trud": 4811,
      "ĠgehÃ¶rte": 4812,
      "Ġgockel": 4813,
      "let": 4814,
      "rich": 4815,
      "Ġdet": 4816,
      "Ġwerk": 4817,
      "Ġumgek": 4818,
      "rid": 4819,
      "Ġlebensmittel": 4820,
      "sÃ¤tzlich": 4821,
      "gut": 4822,
      "yer": 4823,
      "Ġumgefallen": 4824,
      "appe": 4825,
      "Ġartikel": 4826,
      "Ġengag": 4827,
      "Ġwachsen": 4828,
      "Ġkau": 4829,
      "Ġsoviel": 4830,
      "Ġzweifel": 4831,
      "Ġgewo": 4832,
      "Ġ2016": 4833,
      "Ġfalsche": 4834,
      "Ġpflaster": 4835,
      "Ġstolz": 4836,
      "Ġwirklichkeit": 4837,
      "Ġtradition": 4838,
      "eier": 4839,
      "Ã¤te": 4840,
      "ony": 4841,
      "Ġaufw": 4842,
      "Ġstaub": 4843,
      "schlagen": 4844,
      "Ġworten": 4845,
      "Ġeinzelnen": 4846,
      "Ġfeier": 4847,
      "Ġgeschlecht": 4848,
      "ĠdÃ¤": 4849,
      "uni": 4850,
      "Ġze": 4851,
      "ĠspÃ¼r": 4852,
      "Ġangeg": 4853,
      "Ġbedro": 4854,
      "Ġvolks": 4855,
      "Ġschieben": 4856,
      "Ġgelesen": 4857,
      "ĠkÃ¼he": 4858,
      "fter": 4859,
      "Ġmad": 4860,
      "arr": 4861,
      "ĠmÃ¼n": 4862,
      "Ġgeschichten": 4863,
      "publik": 4864,
      "ĠidentitÃ¤t": 4865,
      "view": 4866,
      "Ġschrieb": 4867,
      "ivil": 4868,
      "Ã¤uber": 4869,
      "Ã¤ulein": 4870,
      "Ġgesundheit": 4871,
      "ars": 4872,
      "Ġlor": 4873,
      "Ã¶rden": 4874,
      "Ġtrump": 4875,
      "Ġpassieren": 4876,
      "Ġstuttgart": 4877,
      "reten": 4878,
      "Ġausland": 4879,
      "Ġ25": 4880,
      "Ġentsprechen": 4881,
      "usse": 4882,
      "karten": 4883,
      "Ġkorb": 4884,
      "Ġbuchstaben": 4885,
      "Ġbadewanne": 4886,
      "ana": 4887,
      "Ġtasse": 4888,
      "Ġwirkt": 4889,
      "Ġausgesch": 4890,
      "idar": 4891,
      "Ġluftball": 4892,
      "cr": 4893,
      "seit": 4894,
      "Ġmist": 4895,
      "igkeiten": 4896,
      "ĠÃ¶ster": 4897,
      "Ã¤ndert": 4898,
      "Ġtrinkt": 4899,
      "Ġschuld": 4900,
      "Ġstudieren": 4901,
      "Ġbunt": 4902,
      "ĠberÃ¼hm": 4903,
      "Ġschrau": 4904,
      "Ġred": 4905,
      "Ġgertrud": 4906,
      "Ġschmetter": 4907,
      "Ġindustrie": 4908,
      "Ġstoff": 4909,
      "Ġleichter": 4910,
      "Ġnutzer": 4911,
      "ube": 4912,
      "Ġbumm": 4913,
      "Ġfang": 4914,
      "Ġalae": 4915,
      "Ġbrem": 4916,
      "Ġmai": 4917,
      "Ġorangen": 4918,
      "Ġerwider": 4919,
      "Ã¶tchen": 4920,
      "Ġdiskuss": 4921,
      "burger": 4922,
      "ĠallmÃ¤hlich": 4923,
      "Ġalaedd": 4924,
      "bald": 4925,
      "dar": 4926,
      "kor": 4927,
      "Ġhistor": 4928,
      "Ġschein": 4929,
      "Ġpause": 4930,
      "Ġtuch": 4931,
      "Ġbesuchen": 4932,
      "Ġapfelsaft": 4933,
      "Ġdunkl": 4934,
      "Ġnicki": 4935,
      "bte": 4936,
      "Ġseh": 4937,
      "Ġsign": 4938,
      "ĠlÃ¤rm": 4939,
      "Ġhalle": 4940,
      "werke": 4941,
      "Ġfliege": 4942,
      "ĠmÃ¤nnern": 4943,
      "Ġvorsicht": 4944,
      "Ġdreckig": 4945,
      "prÃ¼": 4946,
      "zun": 4947,
      "Ġlacht": 4948,
      "ĠwÃ¼rdest": 4949,
      "Ġwitz": 4950,
      "Ġzaun": 4951,
      "Ġweich": 4952,
      "ausende": 4953,
      "ifft": 4954,
      "zusagen": 4955,
      "Ġkass": 4956,
      "ĠaufrÃ¤umen": 4957,
      "Ġvorber": 4958,
      "ĠfÃ¼hlte": 4959,
      "Ġzettel": 4960,
      "elei": 4961,
      "spart": 4962,
      "Ġwaffen": 4963,
      "Ġaltes": 4964,
      "Ġelefanten": 4965,
      "Ġsteigt": 4966,
      "Ġass": 4967,
      "Ġwiese": 4968,
      "Ã¶rung": 4969,
      "Ġcon": 4970,
      "Ġheia": 4971,
      "weder": 4972,
      "Ġverstehe": 4973,
      "Ġjoh": 4974,
      "Ġenglisch": 4975,
      "Ġerlebt": 4976,
      "Ġinformationen": 4977,
      "Ġmass": 4978,
      "Ġbez": 4979,
      "ĠflÃ¼chtl": 4980,
      "Ġmassen": 4981,
      "Ġjur": 4982,
      "ara": 4983,
      "tens": 4984,
      "ĠvorwÃ¤rts": 4985,
      "Ġimmerhin": 4986,
      "ĠregelmÃ¤": 4987,
      "Ġautom": 4988,
      "tragen": 4989,
      "zung": 4990,
      "stift": 4991,
      "terial": 4992,
      "Ġauff": 4993,
      "ĠstÃ¤rker": 4994,
      "ĠgÃ¼ter": 4995,
      "ging": 4996,
      "hurt": 4997,
      "testen": 4998,
      "Ġfemin": 4999,
      "ierter": 5000,
      "Ġregeln": 5001,
      "Ġregisse": 5002,
      "Ġrelativ": 5003,
      "Ġpiz": 5004,
      "Ġhierhin": 5005,
      "Ġversteht": 5006,
      "Ġquad": 5007,
      "Ġlager": 5008,
      "ĠÃ¼brig": 5009,
      "Ġkilometer": 5010,
      "tro": 5011,
      "Ġorient": 5012,
      "Ġ60": 5013,
      "Ġpunkte": 5014,
      "gliche": 5015,
      "use": 5016,
      "ĠkÃ¼n": 5017,
      "Ġfehler": 5018,
      "Ġess": 5019,
      "Ġokt": 5020,
      "igar": 5021,
      "Ġklass": 5022,
      "verl": 5023,
      "mpft": 5024,
      "Ġroman": 5025,
      "ystem": 5026,
      "inkt": 5027,
      "Ġwiederum": 5028,
      "Ġliest": 5029,
      "ĠtrÃ¤ume": 5030,
      "erseits": 5031,
      "wirk": 5032,
      "Ġerschienen": 5033,
      "jet": 5034,
      "wert": 5035,
      "Ġwahn": 5036,
      "altet": 5037,
      "Ġgelten": 5038,
      "ĠhÃ¤uschen": 5039,
      "Ġ2017": 5040,
      "Ġschmutz": 5041,
      "Ġradik": 5042,
      "Ġuntersuch": 5043,
      "Ġofen": 5044,
      "lebt": 5045,
      "nissen": 5046,
      "oge": 5047,
      "Ġul": 5048,
      "ĠrÃ¤um": 5049,
      "iefel": 5050,
      "Ġsofa": 5051,
      "regierung": 5052,
      "erkt": 5053,
      "Ġkas": 5054,
      "Ġjunger": 5055,
      "Ġras": 5056,
      "mmel": 5057,
      "Ġaufgabe": 5058,
      "steckt": 5059,
      "Ġnachrichten": 5060,
      "auspiel": 5061,
      "osk": 5062,
      "essel": 5063,
      "Ġfesthalten": 5064,
      "geholt": 5065,
      "ĠnÃ¶tig": 5066,
      "stau": 5067,
      "stre": 5068,
      "schent": 5069,
      "Ã¶st": 5070,
      "ielten": 5071,
      "Ġlieben": 5072,
      "Ġliebl": 5073,
      "schlie": 5074,
      "Ġbehalten": 5075,
      "Ã¼hle": 5076,
      "Ġgleise": 5077,
      "Ġkleben": 5078,
      "setzung": 5079,
      "sextrem": 5080,
      "ice": 5081,
      "wart": 5082,
      "Ġtust": 5083,
      "Ġanru": 5084,
      "Ġweiche": 5085,
      "Ġfahrer": 5086,
      "ĠkÃ¶nntest": 5087,
      "Ġintegr": 5088,
      "hung": 5089,
      "tliche": 5090,
      "Ġkapital": 5091,
      "Ġmoral": 5092,
      "akte": 5093,
      "ippe": 5094,
      "Ġkontakt": 5095,
      "Ġamerika": 5096,
      "Ġengland": 5097,
      "Ġast": 5098,
      "ĠmiÃŁ": 5099,
      "Ġgre": 5100,
      "ino": 5101,
      "Ġliter": 5102,
      "Ġschaut": 5103,
      "Ġohn": 5104,
      "Ġgesetzt": 5105,
      "Ġguckst": 5106,
      "ĠÃ¼bern": 5107,
      "Ġbaut": 5108,
      "Ġkurze": 5109,
      "Ġverkauf": 5110,
      "Ġbehau": 5111,
      "Ġangekommen": 5112,
      "ruh": 5113,
      "Ġsing": 5114,
      "Ġhen": 5115,
      "sser": 5116,
      "pfchen": 5117,
      "Ġgelassen": 5118,
      "Ġnah": 5119,
      "Ġfreiwill": 5120,
      "prob": 5121,
      "schrank": 5122,
      "wander": 5123,
      "Ġddr": 5124,
      "Ġausdruck": 5125,
      "Ġperspekt": 5126,
      "ĠgeschÃ¤fts": 5127,
      "Ã¡": 5128,
      "Ġalex": 5129,
      "Ġklassen": 5130,
      "Ġmonaten": 5131,
      "afel": 5132,
      "gebung": 5133,
      "ordnung": 5134,
      "Ġgemeint": 5135,
      "ĠrÃ¤umen": 5136,
      "Ġaufgewacht": 5137,
      "Ġchines": 5138,
      "lli": 5139,
      "Ġtur": 5140,
      "Ġveranst": 5141,
      "mack": 5142,
      "Ġhalbe": 5143,
      "Ġfreut": 5144,
      "Ġsolange": 5145,
      "Ġfrieden": 5146,
      "vater": 5147,
      "Ġtw": 5148,
      "Ġmitarbeiter": 5149,
      "Ġdreht": 5150,
      "urteil": 5151,
      "ĠhÃ¼bsch": 5152,
      "Ġstudie": 5153,
      "ĠstÃ¤dte": 5154,
      "ĠwÃ¤hlen": 5155,
      "Ġjuli": 5156,
      "Ġahnung": 5157,
      "Ġmachten": 5158,
      "gefÃ¼hrt": 5159,
      "Ġfolge": 5160,
      "ĠÃ¶ffentlichen": 5161,
      "Ġjanuar": 5162,
      "Ġbart": 5163,
      "schrei": 5164,
      "serv": 5165,
      "ĠfrÃ¤ulein": 5166,
      "Ġhandelt": 5167,
      "Ġfreunden": 5168,
      "Ġverhand": 5169,
      "Ġverdienen": 5170,
      "Ġerreicht": 5171,
      "mehr": 5172,
      "uÃŁt": 5173,
      "ziger": 5174,
      "Ġuner": 5175,
      "Ġstop": 5176,
      "Ġwiederhol": 5177,
      "Ġentweder": 5178,
      "kete": 5179,
      "Ġtoil": 5180,
      "ĠflÃ¼gel": 5181,
      "fÃ¼hren": 5182,
      "kampf": 5183,
      "Ġay": 5184,
      "Ġapr": 5185,
      "Ġsocken": 5186,
      "Ġstieg": 5187,
      "istan": 5188,
      "Ġgeschehen": 5189,
      "cc": 5190,
      "Ġeiniger": 5191,
      "achs": 5192,
      "andid": 5193,
      "Ġreal": 5194,
      "Ġstehst": 5195,
      "ĠselbstverstÃ¤n": 5196,
      "Ġverlieren": 5197,
      "Ġszenen": 5198,
      "Ġzufrieden": 5199,
      "Ġfirmen": 5200,
      "Ġaltern": 5201,
      "Ġrock": 5202,
      "stellungen": 5203,
      "Ġpack": 5204,
      "Ġverfol": 5205,
      "Ġtheater": 5206,
      "ĠmÃ¤rz": 5207,
      "Ġeinger": 5208,
      "Ġsozusagen": 5209,
      "urop": 5210,
      "Ġklettern": 5211,
      "otten": 5212,
      "krise": 5213,
      "Ġtrink": 5214,
      "Ġrussischen": 5215,
      "Ġerkennt": 5216,
      "Ġentdeckt": 5217,
      "Ġwett": 5218,
      "Ġnad": 5219,
      "Ġbunde": 5220,
      "Ġrevolution": 5221,
      "Ġbrust": 5222,
      "Ġziehe": 5223,
      "Ġsolch": 5224,
      "Ġfiguren": 5225,
      "helfen": 5226,
      "rÃ¤n": 5227,
      "Ġ24": 5228,
      "Ã¤ufer": 5229,
      "Ġrufen": 5230,
      "kasten": 5231,
      "Ġatt": 5232,
      "Ġkino": 5233,
      "krÃ¤": 5234,
      "ieten": 5235,
      "Ġke": 5236,
      "ĠhÃ¤h": 5237,
      "prÃ¤si": 5238,
      "Ġeinzelne": 5239,
      "nd": 5240,
      "artigen": 5241,
      "Ġwesten": 5242,
      "Ġbehinder": 5243,
      "Ġstattdessen": 5244,
      "Ġnov": 5245,
      "ĠerklÃ¤rte": 5246,
      "bÃ¼rger": 5247,
      "Ġkolon": 5248,
      "ienten": 5249,
      "Ġbeschlo": 5250,
      "Ġjemanden": 5251,
      "ĠblÃ¶d": 5252,
      "Ġsmart": 5253,
      "sste": 5254,
      "Ġjawohl": 5255,
      "Ġhafen": 5256,
      "ennung": 5257,
      "Ġbeant": 5258,
      "Ġberuh": 5259,
      "Ġui": 5260,
      "Ġspazieren": 5261,
      "acken": 5262,
      "Ġfabrik": 5263,
      "Ġschi": 5264,
      "Ġsow": 5265,
      "Ġanger": 5266,
      "Ġgesam": 5267,
      "Ġmars": 5268,
      "idu": 5269,
      "losigkeit": 5270,
      "Ġgisela": 5271,
      "Ġvivien": 5272,
      "Ġzigar": 5273,
      "Ġgewinn": 5274,
      "ahe": 5275,
      "kinder": 5276,
      "opp": 5277,
      "Ġgestorben": 5278,
      "Ġsolidar": 5279,
      "sphÃ¤re": 5280,
      "Ġbundestag": 5281,
      "Ġwh": 5282,
      "Ã¼llen": 5283,
      "rauch": 5284,
      "Ġganzes": 5285,
      "Ġberge": 5286,
      "ianer": 5287,
      "Ġfreundlich": 5288,
      "Ġschranke": 5289,
      "Ġphilos": 5290,
      "by": 5291,
      "andern": 5292,
      "arzt": 5293,
      "Ġwirken": 5294,
      "Ġfreien": 5295,
      "Ġsuchst": 5296,
      "zunehmen": 5297,
      "eisen": 5298,
      "Ã¤ne": 5299,
      "Ġletzter": 5300,
      "ĠĠĠĠ": 5301,
      "schwein": 5302,
      "Ġmittagessen": 5303,
      "Ġstil": 5304,
      "Ġbreit": 5305,
      "werfen": 5306,
      "Ġfilme": 5307,
      "Ġinterview": 5308,
      "Ġhindurch": 5309,
      "kÃ¼": 5310,
      "kultur": 5311,
      "schm": 5312,
      "Ġschatten": 5313,
      "Ġbefr": 5314,
      "Ġbewohner": 5315,
      "Ġkonzentr": 5316,
      "Ġrechtsextrem": 5317,
      "Ġlandschaft": 5318,
      "Ġquatsch": 5319,
      "Ġmitglieder": 5320,
      "Ġdigit": 5321,
      "kom": 5322,
      "enzen": 5323,
      "Ġhahn": 5324,
      "Ġschauspiel": 5325,
      "Ġstach": 5326,
      "Ġmuster": 5327,
      "stellte": 5328,
      "Ġdiskrimin": 5329,
      "Ġwirtschafts": 5330,
      "rÃ¼ndet": 5331,
      "Ġyork": 5332,
      "ku": 5333,
      "oc": 5334,
      "Ġmy": 5335,
      "Ġdurfte": 5336,
      "quem": 5337,
      "rigol": 5338,
      "Ġverstecken": 5339,
      "Ġgondel": 5340,
      "ĠÃ¶sterreich": 5341,
      ".,": 5342,
      "Ġsobald": 5343,
      "Ġiniti": 5344,
      "Ġzuschau": 5345,
      "ĠtÃ¤t": 5346,
      "geber": 5347,
      "enne": 5348,
      "Ġgeraten": 5349,
      "ĠmÃ¶gen": 5350,
      "Ġchance": 5351,
      "Ġhintergrund": 5352,
      "Ġschnitt": 5353,
      "Ã¤ngst": 5354,
      "Ġtomaten": 5355,
      "Ġbemerkte": 5356,
      "Ġlaufe": 5357,
      "Ġgolden": 5358,
      "har": 5359,
      "Ġkissen": 5360,
      "illen": 5361,
      "Ġschlug": 5362,
      "ogle": 5363,
      "Ġdorthin": 5364,
      "Ġerinnerung": 5365,
      "Ġstrassenbahn": 5366,
      "Ġkonsum": 5367,
      "Ġholl": 5368,
      "ĠlÃ¼": 5369,
      "Ġrh": 5370,
      "Ġhierher": 5371,
      "isierung": 5372,
      "Ġausbildung": 5373,
      "Ġmuscheln": 5374,
      "Ġeck": 5375,
      "Ġfrisch": 5376,
      "Ġholst": 5377,
      "aufnahme": 5378,
      "Ġsprachen": 5379,
      "Ġstreit": 5380,
      "Ġverbunden": 5381,
      "Ġangezogen": 5382,
      "Ġsymb": 5383,
      "rechts": 5384,
      "Ġschicken": 5385,
      "Ġgleis": 5386,
      "Ġprofit": 5387,
      "Ġliebsten": 5388,
      "Ġtiefer": 5389,
      "Ġlaterne": 5390,
      "Ġerwiderte": 5391,
      "Ġbienen": 5392,
      "Ġzivil": 5393,
      "Ġwartet": 5394,
      "ĠrealitÃ¤t": 5395,
      "Ġrausholen": 5396,
      "Ġgelle": 5397,
      "ĠÃ¼b": 5398,
      "system": 5399,
      "tember": 5400,
      "Ġeinkauf": 5401,
      "ĠÃ¶ffnen": 5402,
      "ĠgeflÃ¼": 5403,
      "sau": 5404,
      "inde": 5405,
      "Ġarmut": 5406,
      "Ġvorles": 5407,
      "Ġzunehmen": 5408,
      "kreis": 5409,
      "Ġweinen": 5410,
      "Ġfinn": 5411,
      "ocht": 5412,
      "Ġtrifft": 5413,
      "Ġcorona": 5414,
      "Ġferkel": 5415,
      "Ġklimawand": 5416,
      "Ġgetrunken": 5417,
      "Ġentstanden": 5418,
      "Ġoktober": 5419,
      "Ġmi": 5420,
      "Ã¤cht": 5421,
      "Ġgez": 5422,
      "ĠâĢ¦": 5423,
      "how": 5424,
      "ĠschÃ¼tzen": 5425,
      "stimmung": 5426,
      "bilder": 5427,
      "Ġrassismus": 5428,
      "Ġlorry": 5429,
      "Ġhir": 5430,
      "Ġkette": 5431,
      "schinen": 5432,
      "mmen": 5433,
      "etzte": 5434,
      "ĠberÃ¼hr": 5435,
      "Ġstrand": 5436,
      "Ġinteressen": 5437,
      "ĠstraÃŁenbahn": 5438,
      "Ġfotos": 5439,
      "Ġsamstag": 5440,
      "Ġkuck": 5441,
      "Ġanne": 5442,
      "Ġopt": 5443,
      "atzen": 5444,
      "Ġnachhalt": 5445,
      "ividu": 5446,
      "Ġbetrieb": 5447,
      "Ġbrauchte": 5448,
      "Ġlangweil": 5449,
      "Ġnamens": 5450,
      "eleia": 5451,
      "wald": 5452,
      "Ġhum": 5453,
      "ong": 5454,
      "iten": 5455,
      "Ġruck": 5456,
      "Ġhingegen": 5457,
      "Ġsteu": 5458,
      "Ġdurchs": 5459,
      "Ġhex": 5460,
      "Ġhauen": 5461,
      "Ġinteressiert": 5462,
      "Ġbeziehung": 5463,
      "hÃ¤ngen": 5464,
      "ĠfÃ¶r": 5465,
      "schmei": 5466,
      "Ġvieler": 5467,
      "Ġbrand": 5468,
      "Ġbereich": 5469,
      "blÃ¤t": 5470,
      "flÃ¤che": 5471,
      "ĠÃ¶k": 5472,
      "Ġschaute": 5473,
      "Ġjohann": 5474,
      "nam": 5475,
      "chern": 5476,
      "asil": 5477,
      "Ġ2013": 5478,
      "Ġschrecklich": 5479,
      "Ġpullover": 5480,
      "ĠlÃ¶sung": 5481,
      "bu": 5482,
      "ghan": 5483,
      "Ã¤chen": 5484,
      "Ġhoffe": 5485,
      "Ġlanges": 5486,
      "ugen": 5487,
      "ĠkÃ¼r": 5488,
      "Ġlagen": 5489,
      "Ġangen": 5490,
      "Ġmitfahren": 5491,
      "imeter": 5492,
      "Ġobst": 5493,
      "Ġpolen": 5494,
      "Ġemp": 5495,
      "Ġtaschent": 5496,
      "fÃ¼hrung": 5497,
      "Ġprinzip": 5498,
      "organisation": 5499,
      "Ġapril": 5500,
      "ac": 5501,
      "ĠwofÃ¼r": 5502,
      "Ġkla": 5503,
      "osition": 5504,
      "Ġlanger": 5505,
      "Ġsoldaten": 5506,
      "Ġfilmen": 5507,
      "Ġbeding": 5508,
      "Ġfoto": 5509,
      "Ġfigur": 5510,
      "Ġwahnsinn": 5511,
      "ĠjÃ¼d": 5512,
      "Ġhas": 5513,
      "Ġschim": 5514,
      "Ġangesch": 5515,
      "Ġglaubt": 5516,
      "Ġspringen": 5517,
      "ĠgemÃ¼se": 5518,
      "aurant": 5519,
      "Ġjoghurt": 5520,
      "kus": 5521,
      "unk": 5522,
      "Ġkunden": 5523,
      "ĠâĢĵ,": 5524,
      "klÃ¤r": 5525,
      "Ġirgendwel": 5526,
      "Ġbestehen": 5527,
      "ĠhÃ¤nger": 5528,
      "ĠÃ¤hnliches": 5529,
      "ĠrÃ¤uber": 5530,
      "rop": 5531,
      "Ġbezeich": 5532,
      "zeichen": 5533,
      "eife": 5534,
      "auss": 5535,
      "schmer": 5536,
      "Ġgearbeitet": 5537,
      "Ġspitze": 5538,
      "Ġdez": 5539,
      "elnd": 5540,
      "ĠwÃ¤sche": 5541,
      "grÃ¶": 5542,
      "ĠmÃ¶glichkeiten": 5543,
      "Ġtaschen": 5544,
      "Ġfrankf": 5545,
      "Ġgeschenk": 5546,
      "Ġschmerz": 5547,
      "ĠselbstverstÃ¤ndlich": 5548,
      "mpfer": 5549,
      "pert": 5550,
      "ptember": 5551,
      "anda": 5552,
      "iment": 5553,
      "Ġroter": 5554,
      "anders": 5555,
      "Ġschnabel": 5556,
      "Ġtolles": 5557,
      "Ġpublik": 5558,
      "ĠfÃ¼hlt": 5559,
      "Ġfotograf": 5560,
      "Ġgeguckt": 5561,
      "Ġ2020": 5562,
      "Ġregional": 5563,
      "--------": 5564,
      "Ġglocken": 5565,
      "Ġbehaup": 5566,
      "ufel": 5567,
      "vis": 5568,
      "Ġhass": 5569,
      "utscht": 5570,
      "Ġabl": 5571,
      "gesehen": 5572,
      "Ġentschieden": 5573,
      "Ġgelaufen": 5574,
      "Ġtheor": 5575,
      "Ġletztes": 5576,
      "Ġwunsch": 5577,
      "Ġarab": 5578,
      "Ġjungs": 5579,
      "Ġjust": 5580,
      "stete": 5581,
      "Ġmehrheit": 5582,
      "Ã¼tte": 5583,
      "Ġkartoffel": 5584,
      "Ġregisseur": 5585,
      "schÃ¼": 5586,
      "Ġstabil": 5587,
      "Ġbrasil": 5588,
      "Ġhosen": 5589,
      "besch": 5590,
      "Ġrutschen": 5591,
      "Ġfremden": 5592,
      "freiheit": 5593,
      "Ġkonflikt": 5594,
      "freund": 5595,
      "dann": 5596,
      "kw": 5597,
      "Ġfutter": 5598,
      "schirm": 5599,
      "Ġmanchen": 5600,
      "Ġwehgetan": 5601,
      "ancen": 5602,
      "Ġafrikan": 5603,
      "ĠgemÃ¼tlich": 5604,
      "Ġschnuller": 5605,
      "unt": 5606,
      "Ġfo": 5607,
      "Ġpan": 5608,
      "Ġanal": 5609,
      "ĠgenÃ¼": 5610,
      "gert": 5611,
      "Ġgemerkt": 5612,
      "mitglie": 5613,
      "Ġbegl": 5614,
      "Ġlinie": 5615,
      "ĠthÃ¼r": 5616,
      "Ġkriegs": 5617,
      "Ġindividu": 5618,
      "Ġschwimmbad": 5619,
      "Ġwolken": 5620,
      "Ġthorsten": 5621,
      "Ġaugust": 5622,
      "cen": 5623,
      "hier": 5624,
      "Ġtieren": 5625,
      "Ġausgel": 5626,
      "ffekt": 5627,
      "Ġgerecht": 5628,
      "Ġgewinnen": 5629,
      "Ġgeflo": 5630,
      "Ġsek": 5631,
      "Ġkai": 5632,
      "ĠverfÃ¼g": 5633,
      "Ġpopo": 5634,
      "Ġkomplett": 5635,
      "Ġgoogle": 5636,
      "ĠbÃ¤cker": 5637,
      "fung": 5638,
      "va": 5639,
      "Ġhaufen": 5640,
      "Ġfanden": 5641,
      "Ġstraf": 5642,
      "frist": 5643,
      "Ġvertrauen": 5644,
      "Ġerschien": 5645,
      "Ġpizza": 5646,
      "Ġsowjet": 5647,
      "Ġfeu": 5648,
      "Ġstreifen": 5649,
      "ingu": 5650,
      "spol": 5651,
      "Ġspieler": 5652,
      "Ġufer": 5653,
      "schieben": 5654,
      "Ġwahrheit": 5655,
      "ĠregelmÃ¤ÃŁig": 5656,
      "Ġkut": 5657,
      "Ġkrei": 5658,
      "int": 5659,
      "Ġvan": 5660,
      "ittel": 5661,
      "egor": 5662,
      "Ġ21": 5663,
      "uche": 5664,
      "Ġparty": 5665,
      "Ġschweiz": 5666,
      "wissenschaft": 5667,
      "fÃ¤h": 5668,
      "Ġhie": 5669,
      "Ġnuss": 5670,
      "ehrte": 5671,
      "Ġflo": 5672,
      "herr": 5673,
      "Ġfreie": 5674,
      "Ġfenstern": 5675,
      "ĠschlieÃŁen": 5676,
      "richtung": 5677,
      "Ġwissenschaftler": 5678,
      "Ġfirma": 5679,
      "Ġmitglied": 5680,
      "Ġgackeleia": 5681,
      "tausend": 5682,
      "Ġhelm": 5683,
      "Ġdut": 5684,
      "Ġsteck": 5685,
      "Ġentstehen": 5686,
      "ĠnÃ¤chstes": 5687,
      "Ġberlinale": 5688,
      "konom": 5689,
      "Ġsyrien": 5690,
      "kas": 5691,
      "sachen": 5692,
      "Ġneg": 5693,
      "Ġback": 5694,
      "Ġlob": 5695,
      "Ġstifte": 5696,
      "reitet": 5697,
      "Ġseptember": 5698,
      "unternehmen": 5699,
      "Ġregnet": 5700,
      "Ġgemeinschaft": 5701,
      "dient": 5702,
      "Ġkerze": 5703,
      "Ġafghan": 5704,
      "tÃ¼r": 5705,
      "Ġschauf": 5706,
      "Ġherbst": 5707,
      "Ġtritt": 5708,
      "ĠÃ¶fter": 5709,
      "Ġthun": 5710,
      "Ġverbesser": 5711,
      "Ġbenutzen": 5712,
      "Ġnachbarn": 5713,
      "Ġscharf": 5714,
      "gor": 5715,
      "Ġjuni": 5716,
      "eth": 5717,
      "Ġteich": 5718,
      "Ġturn": 5719,
      "tent": 5720,
      "Ġklim": 5721,
      "Ġdesto": 5722,
      "ĠgefÃ¼hrt": 5723,
      "kret": 5724,
      "Ġbekomm": 5725,
      "Ġsusanne": 5726,
      "frage": 5727,
      "gten": 5728,
      "Ġaufgrund": 5729,
      "ikes": 5730,
      "ĠgewiÃŁ": 5731,
      "Ġnackt": 5732,
      "riffe": 5733,
      "Ġpacken": 5734,
      "eidungen": 5735,
      "ĠsÃ¼ÃŁ": 5736,
      "staaten": 5737,
      "Ġverzwei": 5738,
      "schlÃ¤ge": 5739,
      "drÃ¼ck": 5740,
      "Ġwander": 5741,
      "ied": 5742,
      "Ġmobil": 5743,
      "Ã¼lt": 5744,
      "rak": 5745,
      "Ġgriff": 5746,
      "Ġbezahlt": 5747,
      "Ġdikt": 5748,
      "ĠunmÃ¶glich": 5749,
      "Ġoi": 5750,
      "Ġvorder": 5751,
      "Ġhinweg": 5752,
      "lepp": 5753,
      "Ġdahinten": 5754,
      "Ġserie": 5755,
      "chan": 5756,
      "Ġburg": 5757,
      "Ġbiene": 5758,
      "institut": 5759,
      "Ġschmal": 5760,
      "Ġtannen": 5761,
      "hre": 5762,
      "ĠmÃ¼he": 5763,
      "Ġdurcheinander": 5764,
      "Ġeigenes": 5765,
      "Ġweiterhin": 5766,
      "Ġreiten": 5767,
      "Ġformen": 5768,
      "onta": 5769,
      "Ġverschwunden": 5770,
      "Ġbeinahe": 5771,
      "politik": 5772,
      "Ġgummib": 5773,
      "Ġintell": 5774,
      "Ġmikrofon": 5775,
      "Ġbeschloss": 5776,
      "mchen": 5777,
      "name": 5778,
      "res": 5779,
      "zut": 5780,
      "Ġzunge": 5781,
      "Ġpir": 5782,
      "Ġtherap": 5783,
      "Ġhinstellen": 5784,
      "izieren": 5785,
      "skar": 5786,
      "ki": 5787,
      "stieg": 5788,
      "ory": 5789,
      "Ġzuge": 5790,
      "decke": 5791,
      "Ġkamel": 5792,
      "Ġeinsatz": 5793,
      "Ġknie": 5794,
      "Ġknopf": 5795,
      "Ġtraf": 5796,
      "Ġ90": 5797,
      "Ġaufmerksamkeit": 5798,
      "Ġluftballon": 5799,
      "30": 5800,
      "ibt": 5801,
      "tes": 5802,
      "Ġap": 5803,
      "Ġadr": 5804,
      "ckchen": 5805,
      "reift": 5806,
      "Ġsonder": 5807,
      "Ġinteresse": 5808,
      "Ġantworten": 5809,
      "mein": 5810,
      "ettet": 5811,
      "Ġereig": 5812,
      "reiÃŁen": 5813,
      "Ġabw": 5814,
      "Ġfremd": 5815,
      "Ġstrecke": 5816,
      "Ġerfahrungen": 5817,
      "wendig": 5818,
      "Ġunfall": 5819,
      "Ġstap": 5820,
      "reckt": 5821,
      "otte": 5822,
      "eilung": 5823,
      "Ġirma": 5824,
      "ĠfÃ¼nfzig": 5825,
      "Ġhaupts": 5826,
      "Ġpatri": 5827,
      "Ġfried": 5828,
      "ĠgepÃ¤ck": 5829,
      "Ġyout": 5830,
      "Ġargument": 5831,
      "Ġkern": 5832,
      "esa": 5833,
      "Ġaustr": 5834,
      "Ġfuchs": 5835,
      "ire": 5836,
      "Ġtafel": 5837,
      "deckt": 5838,
      "Ġausschneiden": 5839,
      "afr": 5840,
      "ĠkÃ¼mmern": 5841,
      "Ġstudium": 5842,
      "jekte": 5843,
      "ĠeuropÃ¤ische": 5844,
      "Ġquadrat": 5845,
      "lÃ¤nder": 5846,
      "techn": 5847,
      "Ġjapan": 5848,
      "Ġmitgenommen": 5849,
      "Ġschweine": 5850,
      "Ġprozess": 5851,
      "verkehr": 5852,
      "ildet": 5853,
      "Ġgegenteil": 5854,
      "Ġschnur": 5855,
      "gier": 5856,
      "Ġsar": 5857,
      "Ġlande": 5858,
      "Ġumgang": 5859,
      "ĠbrÃ¶tchen": 5860,
      "mitt": 5861,
      "Ġtodes": 5862,
      "Ġrasch": 5863,
      "Ġglocke": 5864,
      "ĠtÃ¤glich": 5865,
      "kat": 5866,
      "Ġbusse": 5867,
      "mme": 5868,
      "Ġoper": 5869,
      "Ġausprob": 5870,
      "Ġgesucht": 5871,
      "Ġandererseits": 5872,
      "Ġflor": 5873,
      "Ġsaal": 5874,
      "Ġfrisst": 5875,
      "Ġkapitel": 5876,
      "Ġpresse": 5877,
      "Ġtoten": 5878,
      "stÃ¤nden": 5879,
      "Ġ70": 5880,
      "milch": 5881,
      "gn": 5882,
      "Ġsc": 5883,
      "Ġmau": 5884,
      "Ġkauft": 5885,
      "Ġeinzig": 5886,
      "Ġungew": 5887,
      "utlich": 5888,
      "maÃŁ": 5889,
      "antje": 5890,
      "Ã¼nd": 5891,
      "ehnt": 5892,
      "ida": 5893,
      "gewalt": 5894,
      "Ġsalat": 5895,
      "izisten": 5896,
      "bleiben": 5897,
      "bbel": 5898,
      "osen": 5899,
      "vid": 5900,
      "Ġmm": 5901,
      "Ġkab": 5902,
      "brit": 5903,
      "Ġkrimin": 5904,
      "Ã¤hlt": 5905,
      "Ġerlaubt": 5906,
      "Ã¶ffnet": 5907,
      "Ġwesen": 5908,
      "irgend": 5909,
      "andemie": 5910,
      "industrie": 5911,
      "ĠÃ¼berleben": 5912,
      "gleichen": 5913,
      "udding": 5914,
      "sprache": 5915,
      "getragen": 5916,
      "Ġbedeuten": 5917,
      "drei": 5918,
      "ment": 5919,
      "ring": 5920,
      "Ġeinander": 5921,
      "llt": 5922,
      "Ġosten": 5923,
      "ĠfÃ¼t": 5924,
      "Ġspielplatz": 5925,
      "Ġtemp": 5926,
      "Ġgestalt": 5927,
      "Ġmarkus": 5928,
      "mÃ¤nn": 5929,
      "Ġgrosses": 5930,
      "Ġvergangenheit": 5931,
      "Ġcharakter": 5932,
      "Ġbalkon": 5933,
      "Ġunglaub": 5934,
      "Ġrasender": 5935,
      "ani": 5936,
      "pfte": 5937,
      "Ġschluck": 5938,
      "Ġheizung": 5939,
      "opfen": 5940,
      "ĠÃ¶h": 5941,
      "Ã¤rtchen": 5942,
      "Ġerfolgreich": 5943,
      "Ġwesent": 5944,
      "iÃ¶": 5945,
      "Ġbieg": 5946,
      "Ġauk": 5947,
      "Ġopp": 5948,
      "Ġkomment": 5949,
      "ikation": 5950,
      "Ġproduktion": 5951,
      "ĠmerkwÃ¼rdig": 5952,
      "Ġhemd": 5953,
      "ket": 5954,
      "zeiten": 5955,
      "iehen": 5956,
      "ĠgÃ¤n": 5957,
      "ĠgÃ¼nst": 5958,
      "Ġbern": 5959,
      "lla": 5960,
      "Ġschaden": 5961,
      "Ġpre": 5962,
      "reib": 5963,
      "Ġbrennt": 5964,
      "ĠhÃ¶hle": 5965,
      "Ġinternational": 5966,
      "ĠÃ¶ffentlichkeit": 5967,
      "polit": 5968,
      "Ġsegel": 5969,
      "Ġmim": 5970,
      "Ġinhalt": 5971,
      "Ġos": 5972,
      "Ġumher": 5973,
      "ĠtrÃ¤um": 5974,
      "Ġgregor": 5975,
      "Ġteilweise": 5976,
      "Ã¼tze": 5977,
      "ĠknÃ¶": 5978,
      "Ġschmecken": 5979,
      "Ġrestaurant": 5980,
      "Ġbanane": 5981,
      "Ġarchite": 5982,
      "szene": 5983,
      "Ġschmetterling": 5984,
      "pekt": 5985,
      "Ġpia": 5986,
      "Ġwarf": 5987,
      "Ġwozu": 5988,
      "isen": 5989,
      "ĠmÃ¶chten": 5990,
      "Ġlandwirtschaft": 5991,
      "ĠhÃ¶rst": 5992,
      "Ġbefrei": 5993,
      "Ġraupe": 5994,
      "Ġperfe": 5995,
      "Ġbedeutung": 5996,
      "Ġ80": 5997,
      "ĠzÃ¤hlen": 5998,
      "kul": 5999,
      "ymp": 6000,
      "stud": 6001,
      "anche": 6002,
      "Ġverdient": 6003,
      "Ġbislang": 6004,
      "ĠwÃ¼rfeln": 6005,
      "ĠbehÃ¶rden": 6006,
      "gemein": 6007,
      "Ġbabys": 6008,
      "ĠgrÃ¶ÃŁere": 6009,
      "ĠzufÃ¤llig": 6010,
      "xi": 6011,
      "artet": 6012,
      "emann": 6013,
      "Ġmithelfen": 6014,
      "Ġversp": 6015,
      "Ġversamm": 6016,
      "Ġklinger": 6017,
      "Ġspielzeug": 6018,
      "astrop": 6019,
      "Ġ(\"": 6020,
      "ichtete": 6021,
      "haltung": 6022,
      "Ġkrankheit": 6023,
      "Ġgeheimnis": 6024,
      "jenigen": 6025,
      "Ġlasse": 6026,
      "Ġrud": 6027,
      "Ġauft": 6028,
      "Ġheran": 6029,
      "Ġwillen": 6030,
      "Ġbaustelle": 6031,
      "Ġteam": 6032,
      "ĠbegrÃ¼": 6033,
      "Ġatom": 6034,
      "alisiert": 6035,
      "Ġalaeddin": 6036,
      "Ġsymbol": 6037,
      "mes": 6038,
      "ron": 6039,
      "Ġanmalen": 6040,
      "Ġvorstellung": 6041,
      "Ġerstes": 6042,
      "ĠtrÃ¤nen": 6043,
      "Ġbaukl": 6044,
      "Ġweiteren": 6045,
      "Ġdreimal": 6046,
      "Ġfolgte": 6047,
      "ĠstÃ¤dten": 6048,
      "Ġschildkr": 6049,
      "Ġswantje": 6050,
      "hafte": 6051,
      "dam": 6052,
      "hÃ¼": 6053,
      "Ġann": 6054,
      "Ġbequem": 6055,
      "Ġbesucht": 6056,
      "assungs": 6057,
      "Ġgegenseit": 6058,
      "maÃŁen": 6059,
      "Ġhandt": 6060,
      "Ġhochzeit": 6061,
      "Ġgabel": 6062,
      "Ġgeschwind": 6063,
      "Ġanstren": 6064,
      "schmerzen": 6065,
      "missen": 6066,
      "tÃ¤u": 6067,
      "Ġsab": 6068,
      "Ġmas": 6069,
      "Ġki": 6070,
      "Ġpra": 6071,
      "Ġaufgenommen": 6072,
      "Ġot": 6073,
      "ĠstÃ¶": 6074,
      "ĠfÃ¼rchter": 6075,
      "Ġmantel": 6076,
      "zieht": 6077,
      "gebiet": 6078,
      "Ġriecht": 6079,
      "Ġgrosser": 6080,
      "farben": 6081,
      "ĠerhÃ¶": 6082,
      "ĠunterstÃ¼tzung": 6083,
      "Ġverantwortung": 6084,
      "Ġwichtige": 6085,
      "fft": 6086,
      "fÃ¼n": 6087,
      "Ġsir": 6088,
      "Ġskla": 6089,
      "Ġanbie": 6090,
      "Ġbeides": 6091,
      "Ã¤nden": 6092,
      "Ġclo": 6093,
      "Ġbekannte": 6094,
      "Ġschritte": 6095,
      "Ġkirchen": 6096,
      "Ġferien": 6097,
      "xu": 6098,
      "Ġsatt": 6099,
      "annien": 6100,
      "olfen": 6101,
      "Ġhinab": 6102,
      "Ġherkunft": 6103,
      "Ġbrun": 6104,
      "Ġteufel": 6105,
      "Ġiran": 6106,
      "Ġmerken": 6107,
      "Ġ2018": 6108,
      "Ġvaters": 6109,
      "ission": 6110,
      "Ġhauptstadt": 6111,
      "icherung": 6112,
      "lu": 6113,
      "Ġhip": 6114,
      "inik": 6115,
      "Ġpe": 6116,
      "Ġgepl": 6117,
      "decken": 6118,
      "Ġdefar": 6119,
      "Ġunterricht": 6120,
      "Ġbrut": 6121,
      "ĠgrÃ¼nden": 6122,
      "Ġentsteht": 6123,
      "Ġgewohnt": 6124,
      "gorit": 6125,
      "oÃŁen": 6126,
      "xis": 6127,
      "Ġ#": 6128,
      "Ġhung": 6129,
      "aust": 6130,
      "Ġampel": 6131,
      "Ġhandeln": 6132,
      "ĠlÃ¶cher": 6133,
      "gehalten": 6134,
      "Ġergebnis": 6135,
      "inchen": 6136,
      "Ġschach": 6137,
      "Ġtank": 6138,
      "sequ": 6139,
      "Ġvieles": 6140,
      "hindern": 6141,
      "Ġniemals": 6142,
      "Ġkarl": 6143,
      "Ġschubl": 6144,
      "Ġgelegenheit": 6145,
      "Ġmartin": 6146,
      "com": 6147,
      "ummer": 6148,
      "Ġseil": 6149,
      "Ġlas": 6150,
      "Ġlog": 6151,
      "ĠrÃ¤ume": 6152,
      "ĠanschlieÃŁen": 6153,
      "Ġvortrag": 6154,
      "Ġvielf": 6155,
      "ĠplÃ¤tzchen": 6156,
      "Ġfreiburg": 6157,
      "Ã¼tten": 6158,
      "Ġschreit": 6159,
      "Ġrahmen": 6160,
      "Ġunbek": 6161,
      "Ġbraune": 6162,
      "Ġaktuell": 6163,
      "Ġfieber": 6164,
      "fein": 6165,
      "fÃ¤lle": 6166,
      "chtern": 6167,
      "Ġnahr": 6168,
      "anlage": 6169,
      "Ġeinwohner": 6170,
      "Ġaustau": 6171,
      "Ġsowohl": 6172,
      "ĠmÃ¼ÃŁen": 6173,
      "Ġheide": 6174,
      "Ġhoffentlich": 6175,
      "riften": 6176,
      "Ġbeginnen": 6177,
      "Ġschreibe": 6178,
      "Ġ194": 6179,
      "krank": 6180,
      "Ġbildungs": 6181,
      "Ġwichtiger": 6182,
      "Ġentwickeln": 6183,
      "kriegen": 6184,
      "Ġmodell": 6185,
      "ĠÃ¤uÃŁer": 6186,
      "Ġnovember": 6187,
      "Ġtaschentuch": 6188,
      "abend": 6189,
      "pap": 6190,
      "ĠschoÃŁ": 6191,
      "Ġerr": 6192,
      "Ġvoraus": 6193,
      "Ġdurst": 6194,
      "Ġpopul": 6195,
      "Ġjournalist": 6196,
      "Ġerfahrung": 6197,
      "britannien": 6198,
      "aktion": 6199,
      "fragen": 6200,
      "lad": 6201,
      "Ġkast": 6202,
      "Ġungleich": 6203,
      "Ġfahn": 6204,
      "ĠzÃ¶": 6205,
      "Ġhaif": 6206,
      "ĠneÃ¼": 6207,
      "gruppen": 6208,
      "Ġprodukt": 6209,
      "Ġsterne": 6210,
      "Ġandreas": 6211,
      "fred": 6212,
      "Ġsuppe": 6213,
      "orm": 6214,
      "Ġverhindern": 6215,
      "Ã¤tzt": 6216,
      "Ġbringe": 6217,
      "Ġvierzehn": 6218,
      "Ġkurzen": 6219,
      "Ġdranmachen": 6220,
      "pack": 6221,
      "Ġgespen": 6222,
      "Ġrepariert": 6223,
      "vention": 6224,
      "Ġmotorrad": 6225,
      "leu": 6226,
      "Ġhy": 6227,
      "Ġgas": 6228,
      "Ġeingeladen": 6229,
      "ese": 6230,
      "gegeben": 6231,
      "Ã¤nomen": 6232,
      "ĠschloÃŁ": 6233,
      "ierenden": 6234,
      "endung": 6235,
      "Ġemot": 6236,
      "Ġemmi": 6237,
      "Ġthat": 6238,
      "ĠlÃ¶sen": 6239,
      "Ġdezember": 6240,
      "fÃ¼nf": 6241,
      "tre": 6242,
      "Ġnei": 6243,
      "Ġnic": 6244,
      "Ġstets": 6245,
      "Ġgelingt": 6246,
      "Ġaussuchen": 6247,
      "ĠwÃ¼nsche": 6248,
      "xt": 6249,
      "Ġdingen": 6250,
      "Ġmand": 6251,
      "Ġzir": 6252,
      "schuh": 6253,
      "beg": 6254,
      "ile": 6255,
      "iller": 6256,
      "Ġzwang": 6257,
      "Ġabwechs": 6258,
      "angt": 6259,
      "Ġgrunde": 6260,
      "Ġmaterial": 6261,
      "oper": 6262,
      "Ġzugang": 6263,
      "Ġtelephon": 6264,
      "melade": 6265,
      "Ġphilosoph": 6266,
      "?\",": 6267,
      "ue": 6268,
      "yl": 6269,
      "une": 6270,
      "Ġklat": 6271,
      "Ġmeinste": 6272,
      "ppchen": 6273,
      "Ġmicha": 6274,
      "Ġmay": 6275,
      "Ġkost": 6276,
      "Ġpolizisten": 6277,
      "Ġdicker": 6278,
      "ĠÃ¼berlegt": 6279,
      "ĠwÃ¼nschen": 6280,
      "Ġinternationalen": 6281,
      "Ġtoilette": 6282,
      "lager": 6283,
      "Ġmisch": 6284,
      "schÃ¶": 6285,
      "beding": 6286,
      "ĠÃ¶ffnete": 6287,
      "orgung": 6288,
      "Ġlese": 6289,
      "ĠzÃ¼rich": 6290,
      "famil": 6291,
      "Ġsingt": 6292,
      "Ġretten": 6293,
      "Ġalb": 6294,
      "reche": 6295,
      "Ġspitz": 6296,
      "zustellen": 6297,
      "ĠgroÃŁbritannien": 6298,
      "Ġentschl": 6299,
      "bruar": 6300,
      "ustr": 6301,
      "Ġwohnungen": 6302,
      "Ġsolcher": 6303,
      "ĠkÃ¼ken": 6304,
      "Ġideen": 6305,
      "biegen": 6306,
      "Ġkontrolle": 6307,
      "off": 6308,
      "Ġwick": 6309,
      "ĠâĢļ": 6310,
      "Ġheile": 6311,
      "Ġbekannten": 6312,
      "Ġ2011": 6313,
      "geworfen": 6314,
      "Ġkorru": 6315,
      "staat": 6316,
      "Ġunterschiedlich": 6317,
      "ĠschÃ¼ttel": 6318,
      "ymn": 6319,
      "ĠverhÃ¤ltnis": 6320,
      "cial": 6321,
      "hahn": 6322,
      "Ġimm": 6323,
      "Ġlippen": 6324,
      "Ġhaaren": 6325,
      "acher": 6326,
      "rom": 6327,
      "Ġflur": 6328,
      "Ġtreten": 6329,
      "ĠfÃ¼sse": 6330,
      "tlichen": 6331,
      "Ġteils": 6332,
      "Ġkurzem": 6333,
      "Ġexist": 6334,
      "Ġstudiert": 6335,
      "mode": 6336,
      "ĠgerÃ¤usch": 6337,
      "Ġdefarge": 6338,
      "ca": 6339,
      "dorf": 6340,
      "win": 6341,
      "zwei": 6342,
      "Ġkitz": 6343,
      "gent": 6344,
      "agte": 6345,
      "gefÃ¼hl": 6346,
      "Ġpusten": 6347,
      "Ġstammt": 6348,
      "Ġangeguckt": 6349,
      "Ġopposition": 6350,
      "cy": 6351,
      "Ġlab": 6352,
      "Ġstart": 6353,
      "Ġmachste": 6354,
      "Ġabgel": 6355,
      "Ġberichtet": 6356,
      "Ġplatte": 6357,
      "Ġchri": 6358,
      "Ġspringt": 6359,
      "stru": 6360,
      "Ġjuden": 6361,
      "Ġwochenende": 6362,
      "Ġvergn": 6363,
      "Ġtiefe": 6364,
      "Ġrespekt": 6365,
      "Ġwechseln": 6366,
      "ĠflÃ¼chtlings": 6367,
      "preis": 6368,
      "Ġbom": 6369,
      "ĠkÃ¤l": 6370,
      "Ġeinkommen": 6371,
      "Ġanmachen": 6372,
      "Ġwoanders": 6373,
      "ommun": 6374,
      "iser": 6375,
      "abl": 6376,
      "Ġmontag": 6377,
      "ĠfÃ¼nfzehn": 6378,
      "Ã¶tze": 6379,
      "Ġfebruar": 6380,
      "ĠbemÃ¼": 6381,
      "prÃ¤sent": 6382,
      "Ġkomplex": 6383,
      "Ġangenehm": 6384,
      "bett": 6385,
      "ĠfÃ¶rder": 6386,
      "Ġvi": 6387,
      "artige": 6388,
      "Ġschaukeln": 6389,
      "Ġpartner": 6390,
      "Ġmittags": 6391,
      "Ġexperten": 6392,
      "ov": 6393,
      "volle": 6394,
      "stÃ¤": 6395,
      "Ã¼m": 6396,
      "ĠstÃ¼r": 6397,
      "ĠverÃ¤ndern": 6398,
      "Ġalko": 6399,
      "Ġhermann": 6400,
      "zend": 6401,
      "estern": 6402,
      "werden": 6403,
      "Ġverbindung": 6404,
      "Ġexpl": 6405,
      "Ġherren": 6406,
      "ĠkÃ¤stchen": 6407,
      "Ġkuschel": 6408,
      "Ġstopp": 6409,
      "ĠscheiÃŁe": 6410,
      "Ġnilpferd": 6411,
      "hard": 6412,
      "stÃ¤d": 6413,
      "ĠkÃ¼rz": 6414,
      "Ġlkw": 6415,
      "Ġindien": 6416,
      "Ġaufheben": 6417,
      "Ġvertr": 6418,
      "Ġumgebung": 6419,
      "Ġechte": 6420,
      "Ã¼cke": 6421,
      "Ġzusammenhang": 6422,
      "Ġverstand": 6423,
      "Ġruf": 6424,
      "Ġachtzehn": 6425,
      "Ġhilf": 6426,
      "Ġorganisation": 6427,
      "ĠgÃ¤ste": 6428,
      "nt": 6429,
      "Ġzelt": 6430,
      "ash": 6431,
      "Ġintens": 6432,
      "etzung": 6433,
      "Ġgering": 6434,
      "Ġziegen": 6435,
      "Ġvierzig": 6436,
      "ĠbekÃ¤": 6437,
      "Ġoffenen": 6438,
      "Ġrussische": 6439,
      "Ġwiderstand": 6440,
      "ĠaufhÃ¶ren": 6441,
      "Ġmurm": 6442,
      "Ġvis": 6443,
      "Ã¤ger": 6444,
      "Ġschil": 6445,
      "Ġschief": 6446,
      "Ġzurecht": 6447,
      "agten": 6448,
      "ungsweise": 6449,
      "Ġhandy": 6450,
      "ĠpaÃŁt": 6451,
      "Ġgespannt": 6452,
      "ĠernÃ¤hr": 6453,
      "Ġbenutzt": 6454,
      "mitteln": 6455,
      "Ġtrain": 6456,
      "Ġkerl": 6457,
      "Ġkerzen": 6458,
      "Ġniederl": 6459,
      "Ġkocht": 6460,
      "Ġbirne": 6461,
      "ohlen": 6462,
      "Ġdor": 6463,
      "Ġpick": 6464,
      "terin": 6465,
      "anzug": 6466,
      "Ġspan": 6467,
      "Ġhingehen": 6468,
      "Ġ22": 6469,
      "sprÃ¼n": 6470,
      "ĠgeschÃ¤": 6471,
      "Ġtest": 6472,
      "achtete": 6473,
      "Ġ1990": 6474,
      "Ġsilber": 6475,
      "Ġdampflok": 6476,
      "Ġmuslim": 6477,
      "Ġjeweils": 6478,
      "bin": 6479,
      "dia": 6480,
      "ou": 6481,
      "Ġlad": 6482,
      "Ġschwert": 6483,
      "Ġreihen": 6484,
      "Ġwohnte": 6485,
      "Ġbestand": 6486,
      "Ġbatter": 6487,
      "hÃ¶ren": 6488,
      "Ġsat": 6489,
      "Ġkneten": 6490,
      "Ġlanden": 6491,
      "Ġlib": 6492,
      "ĠmÃ¼ller": 6493,
      "ĠwÃ¤chst": 6494,
      "Ġque": 6495,
      "programm": 6496,
      "Ġfeiern": 6497,
      "Ġklimawandel": 6498,
      "ĠgummibÃ¤rchen": 6499,
      ".)": 6500,
      "nern": 6501,
      "Ġwien": 6502,
      "Ġaah": 6503,
      "schei": 6504,
      "ssystem": 6505,
      "olin": 6506,
      "Ġgehei": 6507,
      "Ġsack": 6508,
      "ĠenttÃ¤u": 6509,
      "chteten": 6510,
      "Ġkrise": 6511,
      "Ġkohl": 6512,
      "tagon": 6513,
      "Ġbildern": 6514,
      "Ġschlechte": 6515,
      "Ġstroh": 6516,
      "Ġkompliziert": 6517,
      "Ġfingern": 6518,
      "Ġdebatte": 6519,
      "orte": 6520,
      "ĠgeprÃ¤": 6521,
      "ĠvorÃ¼ber": 6522,
      "Ġdasselbe": 6523,
      "Ã¤nglich": 6524,
      "ĠlieÃŁen": 6525,
      "Ġirr": 6526,
      "halle": 6527,
      "Ġweb": 6528,
      "Ġgedanke": 6529,
      "Ġminister": 6530,
      "Ġhauptbahnhof": 6531,
      "Ġehren": 6532,
      "Ġfunktionieren": 6533,
      "Ġchristiane": 6534,
      "Ġschafft": 6535,
      "zusetzen": 6536,
      "Ġsach": 6537,
      "Ġaktion": 6538,
      "Ġmem": 6539,
      "Ġmosk": 6540,
      "ĠkÃ¤rtchen": 6541,
      "ĠschÃ¤tz": 6542,
      "igin": 6543,
      "Ġverkl": 6544,
      "becken": 6545,
      "ologe": 6546,
      "Ġsagten": 6547,
      "Ġreinmachen": 6548,
      "Ġknochen": 6549,
      "sprach": 6550,
      "Ġsorge": 6551,
      "Ġindianer": 6552,
      "Ġpatienten": 6553,
      "Ġehemaligen": 6554,
      "ĠverÃ¶ffentlich": 6555,
      "Ġsikes": 6556,
      "Ġwi": 6557,
      "Ġhunder": 6558,
      "tend": 6559,
      "Ã¶gen": 6560,
      "atik": 6561,
      "ucher": 6562,
      "Ġliebes": 6563,
      "stellten": 6564,
      "Ġentscheidungen": 6565,
      "Ġbille": 6566,
      "Ġmotiv": 6567,
      "Ġclub": 6568,
      "Ġjene": 6569,
      "bart": 6570,
      "ney": 6571,
      "ĠkÃ¶l": 6572,
      "fliegen": 6573,
      "drin": 6574,
      "ĠzurÃ¼ckzu": 6575,
      "ĠhÃ¤uf": 6576,
      "Ġschlechter": 6577,
      "Ġbewegt": 6578,
      "Ġoffiziell": 6579,
      "stuhl": 6580,
      "Ġzuschauer": 6581,
      "ontainer": 6582,
      "dt": 6583,
      "Ġaal": 6584,
      "Ġbumb": 6585,
      "Ġlinke": 6586,
      "Ġferne": 6587,
      "Ġgebraucht": 6588,
      "Ġbeitrag": 6589,
      "Ġyoutube": 6590,
      "ziell": 6591,
      "Ġgot": 6592,
      "Ġstahl": 6593,
      "Ġgarnicht": 6594,
      "Ġeure": 6595,
      "ĠgegrÃ¼ndet": 6596,
      "Ġtwitter": 6597,
      "eiert": 6598,
      "Ġscher": 6599,
      "elig": 6600,
      "Ġrecher": 6601,
      "Ġentgeg": 6602,
      "Ġdeines": 6603,
      "Ġweltkrieg": 6604,
      "Ġvermein": 6605,
      "Ġraff": 6606,
      "Ġfreuen": 6607,
      "mosphÃ¤re": 6608,
      "Ġbietet": 6609,
      "Ġdiskutiert": 6610,
      "dach": 6611,
      "fir": 6612,
      "leg": 6613,
      "ehin": 6614,
      "etisch": 6615,
      "Ġansp": 6616,
      "anze": 6617,
      "Ġgesungen": 6618,
      "Ġschlief": 6619,
      "Ġbessere": 6620,
      "Ġnebeneinander": 6621,
      "Ġvermutlich": 6622,
      "Ġakzept": 6623,
      "Ġschaffner": 6624,
      "ĠfrÃ¶sche": 6625,
      "Ġfrankfurt": 6626,
      "Ġsult": 6627,
      "Ġbor": 6628,
      "Ġtja": 6629,
      "Ġwomit": 6630,
      "Ġprotagon": 6631,
      "rÃ¤ger": 6632,
      "Ġrose": 6633,
      "Ġschulter": 6634,
      "Ġstudent": 6635,
      "Ġstimmung": 6636,
      "Ġschiffe": 6637,
      "riere": 6638,
      "steig": 6639,
      "Ġanschein": 6640,
      "Ġbekl": 6641,
      "Ġgesessen": 6642,
      "Ġ23": 6643,
      "Ġorte": 6644,
      "ĠhaustÃ¼r": 6645,
      "schied": 6646,
      "gehend": 6647,
      "ĠgrÃ¼nde": 6648,
      "Ġanteil": 6649,
      "Ġschweden": 6650,
      "Ġanfangs": 6651,
      "figur": 6652,
      "Ġalkohol": 6653,
      "mat": 6654,
      "itionen": 6655,
      "Ġbezeichnet": 6656,
      "Ġgeholfen": 6657,
      "eltsam": 6658,
      "Ġkran": 6659,
      "flu": 6660,
      "Ġkapit": 6661,
      "ĠÃ¶konom": 6662,
      "Ġforschung": 6663,
      "Ġrakete": 6664,
      "weilen": 6665,
      "Ġbieten": 6666,
      "Ġverkehrs": 6667,
      "Ġsteuern": 6668,
      "Ġbumble": 6669,
      "beln": 6670,
      "ocken": 6671,
      "Ġ*": 6672,
      "Ġsemin": 6673,
      "Ġwut": 6674,
      "Ġnirgend": 6675,
      "Ġkasse": 6676,
      "Ã¼gt": 6677,
      "Ġsturm": 6678,
      "Ġverfahren": 6679,
      "ament": 6680,
      "illa": 6681,
      "Ġgere": 6682,
      "Ġunterbrechen": 6683,
      "Ġmamas": 6684,
      "Ġmerkt": 6685,
      "Ġchancen": 6686,
      "Ġprodukte": 6687,
      "amerika": 6688,
      "pflicht": 6689,
      "kehren": 6690,
      "Ġerdbeeren": 6691,
      "Ġohnehin": 6692,
      "mut": 6693,
      "ny": 6694,
      "zert": 6695,
      "Ġseltsam": 6696,
      "Ġrett": 6697,
      "Ġalgorit": 6698,
      "ĠÃ¼berlege": 6699,
      "Ġneugier": 6700,
      "opft": 6701,
      "druckt": 6702,
      "Ġkritiker": 6703,
      "ĠunterstÃ¼tzen": 6704,
      "ĠpersÃ¶nlich": 6705,
      "ministerium": 6706,
      "Ġsignal": 6707,
      "Ġschaufel": 6708,
      "gelt": 6709,
      "witz": 6710,
      "ĠnÃ¼sse": 6711,
      "Ġschale": 6712,
      "ĠstrÃ¼": 6713,
      "Ġabger": 6714,
      "Ġerzeu": 6715,
      "Ġ2012": 6716,
      "ĠsÃ¼den": 6717,
      "liebe": 6718,
      "wechsel": 6719,
      "ĠfÃ¤llen": 6720,
      "Ġpublikum": 6721,
      "gger": 6722,
      "zeln": 6723,
      "Ġas": 6724,
      "Ġkult": 6725,
      "irr": 6726,
      "rap": 6727,
      "Ġabgest": 6728,
      "Ġdrachen": 6729,
      "Ġschwimmt": 6730,
      "Ġspielst": 6731,
      "Ġchem": 6732,
      "Ġsprich": 6733,
      "Ġfalls": 6734,
      "Ġklebt": 6735,
      "Ġgottes": 6736,
      "Ġsammeln": 6737,
      "ĠÃ¼berzeugt": 6738,
      "Ġlangweilig": 6739,
      "Ġregionalbahn": 6740,
      "lehr": 6741,
      "rÃ¤t": 6742,
      "Ġil": 6743,
      "Ġunge": 6744,
      "Ġschal": 6745,
      "Ġaufgebaut": 6746,
      "Ġvorn": 6747,
      "flei": 6748,
      "Ġsub": 6749,
      "Ġfarb": 6750,
      "Ġschokoladen": 6751,
      "Ġhahaha": 6752,
      "Ġinternationale": 6753,
      "Ġtannenbaum": 6754,
      "Ġunglaublich": 6755,
      "bul": 6756,
      "sich": 6757,
      "denk": 6758,
      "Ġmehreren": 6759,
      "Ġwellen": 6760,
      "Ġschwerer": 6761,
      "ologischen": 6762,
      "ĠbÃ¼hne": 6763,
      "ĠprÃ¤sent": 6764,
      "swahl": 6765,
      "Ġyou": 6766,
      "Ġbehandelt": 6767,
      "Ġerstaunt": 6768,
      "bten": 6769,
      "city": 6770,
      "fol": 6771,
      "eide": 6772,
      "Ġsinne": 6773,
      "Ġnag": 6774,
      "Ġklick": 6775,
      "ĠmÃ¼sst": 6776,
      "Ġgeweint": 6777,
      "ffent": 6778,
      "Ġdringend": 6779,
      "Ġmoritz": 6780,
      "Ġschwerin": 6781,
      "Ã¤ser": 6782,
      "schungs": 6783,
      "Ġaussch": 6784,
      "ĠÃ¤g": 6785,
      "Ġkaputtmachen": 6786,
      "ĠkÃ¤fig": 6787,
      "Ġschweren": 6788,
      "ĠursprÃ¼n": 6789,
      "Ġolymp": 6790,
      "Ġerscheint": 6791,
      "Ġdiskussion": 6792,
      ",.": 6793,
      "fle": 6794,
      "Ġq": 6795,
      "Ã¼pft": 6796,
      "ochte": 6797,
      "Ġpony": 6798,
      "Ġaufent": 6799,
      "Ġausgeb": 6800,
      "Ġums": 6801,
      "Ġbesetzt": 6802,
      "Ġhochhaus": 6803,
      "ĠmÃ¤nnchen": 6804,
      "spricht": 6805,
      "Ġsetze": 6806,
      "Ġcargo": 6807,
      "Ġgrenz": 6808,
      "ĠgenÃ¼gend": 6809,
      "ton": 6810,
      "Ġbach": 6811,
      "Ġeing": 6812,
      "llok": 6813,
      "Ġdenkst": 6814,
      "Ġpor": 6815,
      "Ġostern": 6816,
      "Ġstich": 6817,
      "Ã¤nk": 6818,
      "Ġschlagen": 6819,
      "Ġschnecken": 6820,
      "ĠbestÃ¤t": 6821,
      "Ġpoten": 6822,
      "ĠbrÃ¼der": 6823,
      "osexu": 6824,
      "Ġbeobachten": 6825,
      "Ġerwartet": 6826,
      "Ġzitronen": 6827,
      "gumm": 6828,
      "haften": 6829,
      "mas": 6830,
      "Ġsl": 6831,
      "Ġnorden": 6832,
      "Ġhai": 6833,
      "Ġinstag": 6834,
      "Ġnest": 6835,
      "klus": 6836,
      "Ġmerke": 6837,
      "Ġmannes": 6838,
      "Ġkasten": 6839,
      "Ġeinzigen": 6840,
      "Ġverteilt": 6841,
      "Ġfeder": 6842,
      "Ġ2008": 6843,
      "Ġrutscht": 6844,
      "emmt": 6845,
      "Ġanblick": 6846,
      "ival": 6847,
      "ammelt": 6848,
      "Ġdraufmachen": 6849,
      "Ġheb": 6850,
      "ĠverstÃ¤r": 6851,
      "Ġgedul": 6852,
      "Ġnora": 6853,
      "ĠÃ¤ltere": 6854,
      "hÃ¤usern": 6855,
      "bÃ¼cher": 6856,
      "tchen": 6857,
      "erei": 6858,
      "inter": 6859,
      "Ġstiefel": 6860,
      "Ġdurchfahren": 6861,
      "Ġkonsequ": 6862,
      "klettern": 6863,
      "verein": 6864,
      "flÃ¼": 6865,
      "flogen": 6866,
      "Ġfahrzeug": 6867,
      "Ġjude": 6868,
      "ĠphÃ¤nomen": 6869,
      "ĠprÃ¤sidenten": 6870,
      "ĠtÃ¼te": 6871,
      "ĠfranzÃ¶sischen": 6872,
      "ĠdÃ¶": 6873,
      "ink": 6874,
      "Ġderselben": 6875,
      "Ġsodass": 6876,
      "Ġanschauen": 6877,
      "agin": 6878,
      "eue": 6879,
      "Ġwerbung": 6880,
      "Ġschwere": 6881,
      "ollt": 6882,
      "Ġkinderwagen": 6883,
      "Ġgekocht": 6884,
      "ĠhÃ¼pfen": 6885,
      "Ġvertrau": 6886,
      "Ġmetho": 6887,
      "Ġclown": 6888,
      "cl": 6889,
      "kre": 6890,
      "chse": 6891,
      "Ġkarton": 6892,
      "Ġunmittel": 6893,
      "Ġfell": 6894,
      "arten": 6895,
      "Ġschlimmer": 6896,
      "Ġentsp": 6897,
      "Ġkonkur": 6898,
      "Ġstruktur": 6899,
      "Ġhelfe": 6900,
      "Ġkirschen": 6901,
      "ĠfÃ¼hle": 6902,
      "Ġbay": 6903,
      "Ġmeeres": 6904,
      "Ġvideos": 6905,
      "ĠgÃ¤be": 6906,
      "Ġgriechen": 6907,
      "ebt": 6908,
      "Ġpingu": 6909,
      "iele": 6910,
      "Ġherauf": 6911,
      "Ġgarage": 6912,
      "Ġdiesel": 6913,
      "ĠtÃ¼re": 6914,
      "springen": 6915,
      "Ġbenzin": 6916,
      "ĠverÃ¶ffent": 6917,
      "prÃ¤sident": 6918,
      "gehe": 6919,
      "eister": 6920,
      "Ġnok": 6921,
      "ight": 6922,
      "Ġmuse": 6923,
      "Ġzweck": 6924,
      "ĠmÃ¼h": 6925,
      "ĠmÃ¼ÃŁte": 6926,
      "Ġschlitten": 6927,
      "Ġliess": 6928,
      "Ġberichten": 6929,
      "Ġeleg": 6930,
      "Ġstren": 6931,
      "ĠstÃ¼cke": 6932,
      "ips": 6933,
      "Ġstarke": 6934,
      "ĠlÃ¤ÃŁt": 6935,
      "ĠunterstÃ¼tzt": 6936,
      "Ġknaben": 6937,
      "Ġjahrzehnten": 6938,
      "Ġirgendwelche": 6939,
      "Ġheidegger": 6940,
      "bedingungen": 6941,
      "nun": 6942,
      "wahr": 6943,
      "ĠgÃ¶t": 6944,
      "Ġkek": 6945,
      "ischem": 6946,
      "ils": 6947,
      "Ġbedien": 6948,
      "rÃ¼che": 6949,
      "hmus": 6950,
      "ĠtrÃ¶": 6951,
      "Ġseele": 6952,
      "Ġbeschlossen": 6953,
      "Ġforscher": 6954,
      "Ġabgeord": 6955,
      "Ġberufs": 6956,
      "sichtlich": 6957,
      "viertel": 6958,
      "Ġsichtbar": 6959,
      "Ġinstagram": 6960,
      "Ġmatt": 6961,
      "Ġbitter": 6962,
      "Ġdeck": 6963,
      "ots": 6964,
      "Ġunterhalten": 6965,
      "Ġkonserv": 6966,
      "Ġbeton": 6967,
      "Ġeinsam": 6968,
      "Ġausser": 6969,
      "ĠlokfÃ¼hrer": 6970,
      "ĠÃ¶ffentliche": 6971,
      "Ġposition": 6972,
      "Ġgebrauchen": 6973,
      "Ġreligion": 6974,
      "dischen": 6975,
      "mache": 6976,
      "auben": 6977,
      "schild": 6978,
      "Ġlisa": 6979,
      "Ġaufnehmen": 6980,
      "Ġgeorg": 6981,
      "Ġev": 6982,
      "Ġplus": 6983,
      "Ġirgendein": 6984,
      "Ġfreilich": 6985,
      "Ġparken": 6986,
      "Ġ2010": 6987,
      "Ġgesichter": 6988,
      "ĠauÃŁerhalb": 6989,
      "Ġnormalerweise": 6990,
      "ĠjÃ¼ng": 6991,
      "Ġstapel": 6992,
      "fÃ¶r": 6993,
      "fuhr": 6994,
      "Ġdial": 6995,
      "Ġgal": 6996,
      "Ġbol": 6997,
      "Ġkandid": 6998,
      "Ġfett": 6999,
      "ĠfÃ¤lle": 7000,
      "scha": 7001,
      "Ġpur": 7002,
      "annter": 7003,
      "gesp": 7004,
      "ĠschÃ¶nheit": 7005,
      "Ġleist": 7006,
      "Ġorgan": 7007,
      "Ġsprang": 7008,
      "Ġmechan": 7009,
      "Ġquer": 7010,
      "ologische": 7011,
      "Ġjener": 7012,
      "Ġdunklen": 7013,
      "Ġhirsch": 7014,
      "kÃ¶r": 7015,
      "sucht": 7016,
      "Ġeiniges": 7017,
      "Ġaufgest": 7018,
      "ĠgeÃ¤ndert": 7019,
      "Ġausgang": 7020,
      "Ġnachricht": 7021,
      "neun": 7022,
      "Ġcamp": 7023,
      "Ġgelbes": 7024,
      "Ġbrach": 7025,
      "Ġleib": 7026,
      "Ġ2019": 7027,
      "Ġabsicht": 7028,
      "farbe": 7029,
      "Ġerscheinen": 7030,
      "',": 7031,
      "don": 7032,
      "yt": 7033,
      "iellen": 7034,
      "Ġdamal": 7035,
      "Ġbitten": 7036,
      "Ġtina": 7037,
      "Ġimpf": 7038,
      "ĠabhÃ¤ng": 7039,
      "Ã¶rde": 7040,
      "angel": 7041,
      "zugehen": 7042,
      "Ġtrag": 7043,
      "Ġbericht": 7044,
      "ĠmÃ¶bel": 7045,
      "Ġtraudel": 7046,
      "Ġbraunen": 7047,
      "Ġformul": 7048,
      "Ġrechnen": 7049,
      "Ġliber": 7050,
      "Ġkolleg": 7051,
      "Ġvorlesung": 7052,
      "Ġaufenthalt": 7053,
      "fÃ¤llt": 7054,
      "gÃ¼lt": 7055,
      "lesen": 7056,
      "stunde": 7057,
      "Ġgymn": 7058,
      "Ġjetz": 7059,
      "Ġler": 7060,
      "ehnen": 7061,
      "orle": 7062,
      "Ġthr": 7063,
      "Ġtausende": 7064,
      "Ġerhe": 7065,
      "Ġauftrag": 7066,
      "Ġverurt": 7067,
      "sozial": 7068,
      "umente": 7069,
      "Ġleuchten": 7070,
      "Ġtraktor": 7071,
      "Ġgleisen": 7072,
      "Ġkleber": 7073,
      "ĠbÃ¤rchen": 7074,
      "Ġamerikanischen": 7075,
      "Ġkalte": 7076,
      "fleisch": 7077,
      "Ġsss": 7078,
      "stall": 7079,
      "Ġnannte": 7080,
      "Ġjag": 7081,
      "Ġpreise": 7082,
      "andet": 7083,
      "Ġgehn": 7084,
      "Ġbricht": 7085,
      "Ġorigin": 7086,
      "Ġschreien": 7087,
      "Ġarbeitete": 7088,
      "Ġaufgegessen": 7089,
      "Ġsechzig": 7090,
      "doll": 7091,
      "lÃ¤ndern": 7092,
      "nungs": 7093,
      "ode": 7094,
      "Ġdist": 7095,
      "Ġjon": 7096,
      "Ġhammer": 7097,
      "orge": 7098,
      "Ġaneinander": 7099,
      "chtigen": 7100,
      "Ġvorh": 7101,
      "Ġwerkst": 7102,
      "ike": 7103,
      "Ġdrittel": 7104,
      "Ġdecken": 7105,
      "Ġengel": 7106,
      "ption": 7107,
      "Ġverbrechen": 7108,
      "Ġvollkommen": 7109,
      "Ġsicherheits": 7110,
      "ĠatmosphÃ¤re": 7111,
      "Ġabgebrochen": 7112,
      "Ġschweizer": 7113,
      "Ġsankt": 7114,
      "Ġletztlich": 7115,
      "Ġzentral": 7116,
      "ĠsÃ¤u": 7117,
      "Ã¼l": 7118,
      "Ġvir": 7119,
      "Ġschlangen": 7120,
      "Ġfrische": 7121,
      "ula": 7122,
      "Ġhoffen": 7123,
      "Ġhandel": 7124,
      "Ġgestanden": 7125,
      "Ġempor": 7126,
      "ĠverstÃ¤nd": 7127,
      "zentrum": 7128,
      "Ġandersrum": 7129,
      "istenz": 7130,
      "Ġpfeil": 7131,
      "Ġfasch": 7132,
      "Ġzebra": 7133,
      "\":": 7134,
      "kleben": 7135,
      "pul": 7136,
      "eifen": 7137,
      "Ġunangen": 7138,
      "Ġliste": 7139,
      "Ġspinn": 7140,
      "Ġanti": 7141,
      "Ã¼hlen": 7142,
      "Ġtonnen": 7143,
      "Ġfremde": 7144,
      "vollen": 7145,
      "stÃ¼cke": 7146,
      "Ġrucksack": 7147,
      "Ġapothe": 7148,
      "lÃ¤": 7149,
      "Ġaa": 7150,
      "Ġkuss": 7151,
      "Ġviert": 7152,
      "Ġwilli": 7153,
      "Ġheimlich": 7154,
      "Ġgenauer": 7155,
      "Ġkurs": 7156,
      "Ġstrahl": 7157,
      "Ġlux": 7158,
      "mÃ¤ÃŁig": 7159,
      "ĠmÃ¼llauto": 7160,
      "Ġcharl": 7161,
      "Ġjahrhunderts": 7162,
      "Ġanrufen": 7163,
      "Ġbeantwor": 7164,
      "Ġgegenseitig": 7165,
      "imal": 7166,
      "ÄŁ": 7167,
      "Ġsur": 7168,
      "Ġisse": 7169,
      "Ġjens": 7170,
      "Ġerleben": 7171,
      "Ġspar": 7172,
      "Ġstemp": 7173,
      "Ġcontainer": 7174,
      "ĠgewÃ¤hlt": 7175,
      "Ġeigent": 7176,
      "Ġuh": 7177,
      "lerin": 7178,
      "Ġpuder": 7179,
      "Ġworauf": 7180,
      "Ġansehen": 7181,
      "aktiv": 7182,
      "Ġrosinen": 7183,
      "Ġjobs": 7184,
      "Ġpilot": 7185,
      "Ġgeflogen": 7186,
      "spolitik": 7187,
      "Ġschublade": 7188,
      "kore": 7189,
      "ware": 7190,
      "eimer": 7191,
      "Ġmessen": 7192,
      "ĠnÃ¼": 7193,
      "ĠkrÃ¼": 7194,
      "berecht": 7195,
      "ams": 7196,
      "Ġmuschel": 7197,
      "ikte": 7198,
      "ada": 7199,
      "klasse": 7200,
      "Ġquasi": 7201,
      "Ġmillion": 7202,
      "Ġsorg": 7203,
      "ĠdÃ¼rfte": 7204,
      "Ġpolizeiauto": 7205,
      "Ġgesetze": 7206,
      "Ġheinz": 7207,
      "Ġlieblings": 7208,
      "Ġarchitekt": 7209,
      "Ġatem": 7210,
      "Ġhit": 7211,
      "Ġken": 7212,
      "Ġrande": 7213,
      "Ġanz": 7214,
      "euen": 7215,
      "achtung": 7216,
      "Ġamt": 7217,
      "ierend": 7218,
      "Ġhey": 7219,
      "Ġversehen": 7220,
      "Ġkurzer": 7221,
      "ica": 7222,
      "Ġverwendet": 7223,
      "Ġkrebs": 7224,
      "Ġspannend": 7225,
      "ĠsolidaritÃ¤t": 7226,
      "schmeiÃŁen": 7227,
      "felt": 7228,
      "Ġgalt": 7229,
      "ausnd": 7230,
      "Ġblitz": 7231,
      "Ġunsicher": 7232,
      "Ġdeutscher": 7233,
      "Ġheftig": 7234,
      "Ġwohnungs": 7235,
      "Ġparall": 7236,
      "Ġdoppelt": 7237,
      "Ġidentif": 7238,
      "Ġbonbons": 7239,
      "Ġschenken": 7240,
      "ĠpalÃ¤st": 7241,
      "Ġrisiko": 7242,
      "ĠstrÃ¼mpfe": 7243,
      "ya": 7244,
      "Ġirak": 7245,
      "ari": 7246,
      "Ġscheinen": 7247,
      "ĠrÃ¤t": 7248,
      "Ġpudding": 7249,
      "Ġert": 7250,
      "Ġgebrochen": 7251,
      "ratet": 7252,
      "Ġenth": 7253,
      "ĠfÃ¼ÃŁen": 7254,
      "geschlagen": 7255,
      "ĠvermÃ¶gen": 7256,
      "Ġbefand": 7257,
      "Ġverschwinden": 7258,
      "Ġamerikanische": 7259,
      "Ġgummi": 7260,
      "Ġverantwortlich": 7261,
      "Ġproduziert": 7262,
      "Ġbedingungen": 7263,
      "Ġmichael": 7264,
      "Ġmoskau": 7265,
      "ĠkapitÃ¤n": 7266,
      "abe": 7267,
      "jetzt": 7268,
      "ĠjÃ¤hr": 7269,
      "Ġlud": 7270,
      "ita": 7271,
      "Ġaufschreiben": 7272,
      "Ġwirft": 7273,
      "ĠwomÃ¶glich": 7274,
      "Ġabit": 7275,
      "Ġdritt": 7276,
      "Ġentstand": 7277,
      "Ġdieselbe": 7278,
      "Ġstrateg": 7279,
      "nerin": 7280,
      "Ġorganisiert": 7281,
      "Ġbeziehungen": 7282,
      "Ġperspektive": 7283,
      "ace": 7284,
      "leute": 7285,
      "Ġlat": 7286,
      "ĠschÃ¤tzchen": 7287,
      "neut": 7288,
      "ĠglÃ¤n": 7289,
      "Ġschwanger": 7290,
      "Ġ--\"": 7291,
      "Ġbescheid": 7292,
      "Ġgetragen": 7293,
      "Ġwack": 7294,
      "Ġqual": 7295,
      "ĠÃ¤hnliche": 7296,
      "Ġschwarzer": 7297,
      "gekriegt": 7298,
      "Ġzunehmend": 7299,
      "Ġhaifisch": 7300,
      "Ġanscheinend": 7301,
      "kir": 7302,
      "Ġdavid": 7303,
      "Ġbanken": 7304,
      "Ġbord": 7305,
      "Ġfant": 7306,
      "alte": 7307,
      "Ġpandemie": 7308,
      "Ã¶m": 7309,
      "Ġhing": 7310,
      "Ġ28": 7311,
      "ĠsaÃŁen": 7312,
      "Ġgeworfen": 7313,
      "Ã¤ub": 7314,
      "ĠgrÃ¤": 7315,
      "Ġcha": 7316,
      "Ġhaltung": 7317,
      "ĠgrundsÃ¤tzlich": 7318,
      "Ġsupermarkt": 7319,
      "phone": 7320,
      "zerne": 7321,
      "Ġtexte": 7322,
      "Ġschreibtisch": 7323,
      "Ġdauernd": 7324,
      "Ġbuttermilch": 7325,
      "Ġgeschlechter": 7326,
      "Ġchef": 7327,
      "Ġmadame": 7328,
      "mu": 7329,
      "Ġgrauen": 7330,
      "ĠtÃ¤ter": 7331,
      "beu": 7332,
      "reif": 7333,
      "Ã¤rter": 7334,
      "Ġdreieck": 7335,
      "Ġgebacken": 7336,
      "gefunden": 7337,
      "Ġfrech": 7338,
      "Ġreifen": 7339,
      "forschung": 7340,
      "Ġworan": 7341,
      "ietnam": 7342,
      "Ġangeblich": 7343,
      "redit": 7344,
      "Ġphilipp": 7345,
      "ĠÃ¤uÃŁ": 7346,
      "Ġriesige": 7347,
      "Ġpeters": 7348,
      "Ġbasteln": 7349,
      "Ġintelligen": 7350,
      "Ġausprobieren": 7351,
      "mund": 7352,
      "oder": 7353,
      "ĠÃ¤nder": 7354,
      "Ġmehl": 7355,
      "station": 7356,
      "inos": 7357,
      "ets": 7358,
      "Ġzustand": 7359,
      "Ġtap": 7360,
      "Ġstad": 7361,
      "ĠreprÃ¤sent": 7362,
      "Ġ27": 7363,
      "ĠbrÃ¤": 7364,
      "Ġhocker": 7365,
      "Ġbetten": 7366,
      "Ġhalben": 7367,
      "Ġrichter": 7368,
      "Ġstarken": 7369,
      "Ġlohn": 7370,
      "Ġbewegungen": 7371,
      "Ġglaubte": 7372,
      "Ġschwierigkeiten": 7373,
      "Ġzentrum": 7374,
      "Ġaktivisten": 7375,
      "ukturen": 7376,
      "Ġlastwagen": 7377,
      "Ġschmutzig": 7378,
      "ain": 7379,
      "seits": 7380,
      "Ġdra": 7381,
      "stamm": 7382,
      "Ġkok": 7383,
      "Ġfans": 7384,
      "bereich": 7385,
      "Ġmitbringen": 7386,
      "Ġversprechen": 7387,
      "Ġausmachen": 7388,
      "Ġglatt": 7389,
      "Ġbesitz": 7390,
      "ierende": 7391,
      "verfahren": 7392,
      "Ġkrim": 7393,
      "ferenz": 7394,
      "Ġinszen": 7395,
      "stritten": 7396,
      "Ġfreundschaft": 7397,
      "Ġwichtigsten": 7398,
      "Ġleuchtet": 7399,
      "Ġlocker": 7400,
      "Ġschoko": 7401,
      "ĠtrÃ¤umen": 7402,
      "Ġ2021": 7403,
      "Ġtonbandaufnahme": 7404,
      "drauf": 7405,
      "Ġbeu": 7406,
      "Ġbeinen": 7407,
      "Ġkos": 7408,
      "anw": 7409,
      "Ġschrie": 7410,
      "ckern": 7411,
      "Ġpein": 7412,
      "Ġstille": 7413,
      "essour": 7414,
      "Ġerzie": 7415,
      "low": 7416,
      "Ġmodern": 7417,
      "Ġschlepp": 7418,
      "Ġentdecken": 7419,
      "deutschland": 7420,
      "Ġangebot": 7421,
      "199": 7422,
      "Ġaufgewachsen": 7423,
      "Ġcreme": 7424,
      "Ġwettbewer": 7425,
      "Ġpraxis": 7426,
      "Ġzirkus": 7427,
      "ihr": 7428,
      "wein": 7429,
      "Ġkater": 7430,
      "itu": 7431,
      "Ġtreiben": 7432,
      "Ġandr": 7433,
      "Ġaufzug": 7434,
      "Ġverwir": 7435,
      "Ġfront": 7436,
      "ĠfÃ¼ssen": 7437,
      "Ġmaschinen": 7438,
      "Ġkrach": 7439,
      "Ġziehst": 7440,
      "Ġstrumpf": 7441,
      "alender": 7442,
      "ĠhÃ¼gel": 7443,
      "zahlen": 7444,
      "Ġarmee": 7445,
      "handel": 7446,
      "Ġverfolgt": 7447,
      "Ġbrasilien": 7448,
      "ĠverfÃ¼gung": 7449,
      "ĠfÃ¼rchterlich": 7450,
      "west": 7451,
      "standen": 7452,
      "arkt": 7453,
      "Ġhaft": 7454,
      "ssig": 7455,
      "olen": 7456,
      "Ġumgehen": 7457,
      "ĠÃ¼bernehmen": 7458,
      "Ġdrang": 7459,
      "Ġliefer": 7460,
      "Ġgewaschen": 7461,
      "Ġachten": 7462,
      "Ġzufolge": 7463,
      "Ġpulli": 7464,
      "dollar": 7465,
      "gÃ¤nger": 7466,
      "ios": 7467,
      "stisch": 7468,
      "Ġeinsch": 7469,
      "Ġtin": 7470,
      "Ġverraten": 7471,
      "ĠfÃ¼rs": 7472,
      "reibung": 7473,
      "Ġspitzen": 7474,
      "Ġgeschm": 7475,
      "Ġrichtiges": 7476,
      "ĠkÃ¼chen": 7477,
      "problem": 7478,
      "Ġbesondere": 7479,
      "Ġgesellschaftlichen": 7480,
      "Ġukrain": 7481,
      "zumachen": 7482,
      "gummi": 7483,
      "Ġparallel": 7484,
      "Ġungar": 7485,
      "Ġanspruch": 7486,
      "Ġrebe": 7487,
      "Ġcaf": 7488,
      "Ġliege": 7489,
      "ĠmÃ¶gliche": 7490,
      "Ġkohle": 7491,
      "Ġkinderladen": 7492,
      "Ġels": 7493,
      "Ġunseres": 7494,
      "Ġverletzt": 7495,
      "Ġkatastrop": 7496,
      "leiter": 7497,
      "Ġlernt": 7498,
      "Ġwagg": 7499,
      "wirkungen": 7500,
      "ĠschildkrÃ¶te": 7501,
      "hunder": 7502,
      "nes": 7503,
      "wi": 7504,
      "Ġ...": 7505,
      "Ġbeute": 7506,
      "Ġsoweit": 7507,
      "ĠermÃ¶": 7508,
      "uckel": 7509,
      "ologen": 7510,
      "Ã¤nke": 7511,
      "Ġhingelegt": 7512,
      "Ġherbei": 7513,
      "âĢĵ": 7514,
      "gesprÃ¤": 7515,
      "unterricht": 7516,
      "Ġdiesellok": 7517,
      "Ġgegenwart": 7518,
      "projekt": 7519,
      "Ġsauce": 7520,
      "ĠbedÃ¼rf": 7521,
      "Ġschicksal": 7522,
      "Ġscheibe": 7523,
      "ĠkÃ¶nigin": 7524,
      "ĠkÃ¼hlschrank": 7525,
      "ĠtrÃ¤umte": 7526,
      "ĠanschlieÃŁend": 7527,
      "het": 7528,
      "ju": 7529,
      "zis": 7530,
      "ĠsÃ¤tze": 7531,
      "union": 7532,
      "Ġvietnam": 7533,
      "Ġreh": 7534,
      "Ġstreiten": 7535,
      "atischen": 7536,
      "Ġweichen": 7537,
      "eitungen": 7538,
      "Ġkommste": 7539,
      "spiegel": 7540,
      "Ġbrett": 7541,
      "Ġseel": 7542,
      "Ġplatten": 7543,
      "Ġflugzeuge": 7544,
      "Ġbilden": 7545,
      "Ġfalle": 7546,
      "Ġrutsch": 7547,
      "Ġerleich": 7548,
      "Ġkaninchen": 7549,
      "ĠwÃ¤hler": 7550,
      "ĠreligiÃ¶": 7551,
      "bungen": 7552,
      "dis": 7553,
      "eut": 7554,
      "Ġfaul": 7555,
      "Ġpig": 7556,
      "ierst": 7557,
      "ftige": 7558,
      "ĠglÃ¼": 7559,
      "wege": 7560,
      "ĠfrÃ¼hl": 7561,
      "ĠgefÃ¼hle": 7562,
      "Ġtorte": 7563,
      "Ġmetall": 7564,
      "Ġerinnerte": 7565,
      "Ġmartina": 7566,
      "ham": 7567,
      "Ġgur": 7568,
      "schne": 7569,
      "Ġsogleich": 7570,
      "ata": 7571,
      "Ġklapp": 7572,
      "ĠfÃ¼rchten": 7573,
      "Ġleder": 7574,
      "unddrei": 7575,
      "Ġeinerseits": 7576,
      "Ġlies": 7577,
      "Ġgelandet": 7578,
      "blau": 7579,
      "Ġmex": 7580,
      "Ġwirkung": 7581,
      "Ġangekl": 7582,
      "Ġvollen": 7583,
      "ĠgrÃ¶ÃŁeren": 7584,
      "Ġabsol": 7585,
      "ograph": 7586,
      "Ġerdbeere": 7587,
      "Ġzauberer": 7588,
      "ĠangehÃ¶r": 7589,
      "Ġbegleitet": 7590,
      "Ġhexe": 7591,
      "Ġafghanistan": 7592,
      "hÃ¤nd": 7593,
      "ziert": 7594,
      "ĠfÃ¤h": 7595,
      "Ġschrecken": 7596,
      "utschen": 7597,
      "rollen": 7598,
      "Ġschwach": 7599,
      "gericht": 7600,
      "ĠgewuÃŁt": 7601,
      "Ġbegonnen": 7602,
      "ĠhÃ¤ltst": 7603,
      "Ġlebte": 7604,
      "sitzen": 7605,
      "star": 7606,
      "Ġfaden": 7607,
      "Ġritter": 7608,
      "Ġinhalte": 7609,
      "Ġgeeig": 7610,
      "atische": 7611,
      "becher": 7612,
      "Ġep": 7613,
      "gerecht": 7614,
      "Ġseeh": 7615,
      "ammen": 7616,
      "Ġziege": 7617,
      "Ġeuer": 7618,
      "Ġkaiser": 7619,
      "Ġverfassung": 7620,
      "Ġblickte": 7621,
      "azin": 7622,
      "Ġgenerationen": 7623,
      "ĠÃ¤lteren": 7624,
      "Ġafd": 7625,
      "ĠfranzÃ¶sische": 7626,
      "Ġallgemein": 7627,
      "Ġschrauben": 7628,
      "ii": 7629,
      "rr": 7630,
      "Ġwit": 7631,
      "steht": 7632,
      "arat": 7633,
      "Ġpul": 7634,
      "Ġvoran": 7635,
      "raft": 7636,
      "Ġbegeist": 7637,
      "geschÃ¤ft": 7638,
      "ĠgrÃ¶ÃŁe": 7639,
      "Ġfortschr": 7640,
      "Ġtechnik": 7641,
      "ĠzÃ¤hlt": 7642,
      "Ġbeobachtet": 7643,
      "Ġunterschiedliche": 7644,
      "Ġbetroffenen": 7645,
      "Ġgriechenland": 7646,
      "Ġkekse": 7647,
      "Ġac": 7648,
      "Ġhehe": 7649,
      "Ġdiejenigen": 7650,
      "emacht": 7651,
      "etwas": 7652,
      "ĠgeÃ¶ffnet": 7653,
      "etzten": 7654,
      "Ġgesell": 7655,
      "Ġgesamt": 7656,
      "Ġkonzept": 7657,
      "barkeit": 7658,
      "ĠgetÃ¶": 7659,
      "Ġmeister": 7660,
      "Ġaussah": 7661,
      "Ġeinzeln": 7662,
      "Ġindigen": 7663,
      "Ġalters": 7664,
      "Ġfuhren": 7665,
      "Ġerwarten": 7666,
      "Ġversprochen": 7667,
      "rand": 7668,
      "enten": 7669,
      "schchen": 7670,
      "Ġinstr": 7671,
      "Ġputz": 7672,
      "Ġausnahme": 7673,
      "Ġspanien": 7674,
      "Ġey": 7675,
      "klar": 7676,
      "rÃ¤ume": 7677,
      "Ġregal": 7678,
      "Ġspritze": 7679,
      "Ġfeuerweh": 7680,
      "ĠauslÃ¤nder": 7681,
      "Ġplattform": 7682,
      "Ġunterscheiden": 7683,
      "Ġbreite": 7684,
      "Ġangemalt": 7685,
      "ĠhÃ¶chstens": 7686,
      "ĠlÃ¤cheln": 7687,
      "klÃ¤rung": 7688,
      "ommunity": 7689,
      "Ġentgegnete": 7690,
      "bot": 7691,
      "koll": 7692,
      "rin": 7693,
      "ĠdÃ¤n": 7694,
      "Ġdaumen": 7695,
      "schicht": 7696,
      "Ġannet": 7697,
      "Ġaufgestellt": 7698,
      "ĠÃ¼berg": 7699,
      "Ġgenutzt": 7700,
      "Ġschreibst": 7701,
      "front": 7702,
      "Ġideal": 7703,
      "Ġbelei": 7704,
      "mittelt": 7705,
      "wÃ¼rdig": 7706,
      "Ġfeind": 7707,
      "Ġbeziehungsweise": 7708,
      "Ġerwachsenen": 7709,
      "Ġklettert": 7710,
      "Ġdeta": 7711,
      "Ġunangenehm": 7712,
      "Ġzogen": 7713,
      "itar": 7714,
      "ĠbeiÃŁen": 7715,
      "ĠbeÃŁer": 7716,
      "icke": 7717,
      "Ġhob": 7718,
      "verhÃ¤lt": 7719,
      "Ġeinfacher": 7720,
      "Ġgestalten": 7721,
      "digte": 7722,
      "Ġtrock": 7723,
      "holz": 7724,
      "Ġfolgt": 7725,
      "schnit": 7726,
      "Ġpolizist": 7727,
      "Ġnahmen": 7728,
      "ĠscheiÃŁ": 7729,
      "ĠkÃ¶ln": 7730,
      "maus": 7731,
      "tisch": 7732,
      "Ġ&": 7733,
      "Ġseu": 7734,
      "Ġkipp": 7735,
      "anzt": 7736,
      "Ġ2000": 7737,
      "Ġarten": 7738,
      "Ġbesorgt": 7739,
      "Ġproteste": 7740,
      "Ġpropag": 7741,
      "Ġgelangen": 7742,
      "Ġhandelte": 7743,
      "Ġregionen": 7744,
      "rifft": 7745,
      "Ġreiter": 7746,
      "werken": 7747,
      "Ġgestiegen": 7748,
      "Ġarbeitspl": 7749,
      "Ã¤llst": 7750,
      "Ġfordern": 7751,
      "strich": 7752,
      "Ġknall": 7753,
      "Ġaussicht": 7754,
      "Ġpfanne": 7755,
      "Ġbundesregierung": 7756,
      "Ġmrs": 7757,
      "Ġentdeckte": 7758,
      "Ġzweites": 7759,
      "ĠdrÃ¼ckte": 7760,
      "Ġnerv": 7761,
      "Ġintegration": 7762,
      "fÃ¶rm": 7763,
      "aa": 7764,
      "ĠbÃ¶s": 7765,
      "euten": 7766,
      "olf": 7767,
      "Ġblog": 7768,
      "Ġdram": 7769,
      "Ġenkel": 7770,
      "Ġmons": 7771,
      "Ġgegensatz": 7772,
      "Ġhandlung": 7773,
      "Ġarbeite": 7774,
      "Ġminute": 7775,
      "Ġgemeinde": 7776,
      "Ġfalschen": 7777,
      "ettert": 7778,
      "Ġverfolg": 7779,
      "Ġerkannte": 7780,
      "Ġmedik": 7781,
      "Ġbunte": 7782,
      "saal": 7783,
      "Ġkeks": 7784,
      "Ġhandtuch": 7785,
      "fot": 7786,
      "steine": 7787,
      "Ġeinheit": 7788,
      "Ġfak": 7789,
      "ĠvÃ¶lker": 7790,
      "Ġgerufen": 7791,
      "Ġschweigen": 7792,
      "Ġbesorgen": 7793,
      "Ġgelungen": 7794,
      "Ġheiter": 7795,
      "Ġgebiet": 7796,
      "ĠschnÃ¤u": 7797,
      "Ġfilms": 7798,
      "Ġ500": 7799,
      "Ġgraben": 7800,
      "Ġzentimeter": 7801,
      "ĠvernÃ¼n": 7802,
      "Ġemotion": 7803,
      "bein": 7804,
      "brei": 7805,
      "fchen": 7806,
      "morgen": 7807,
      "nur": 7808,
      "teile": 7809,
      "Ġsassen": 7810,
      "Ġrennen": 7811,
      "Ġressour": 7812,
      "Ġerho": 7813,
      "Ġmitspielen": 7814,
      "Ġou": 7815,
      "ftigen": 7816,
      "Ġklang": 7817,
      "Ġzweiter": 7818,
      "Ġkonzert": 7819,
      "ĠerwÃ¤": 7820,
      "Ġhusten": 7821,
      "Ġneunzehn": 7822,
      "Ġtreppenhaus": 7823,
      "papier": 7824,
      "Ġwerkstatt": 7825,
      "woch": 7826,
      "ĠwÃ¤l": 7827,
      "unen": 7828,
      "Ġbud": 7829,
      "Ġvorauss": 7830,
      "Ġ300": 7831,
      "Ġstreng": 7832,
      "bock": 7833,
      "lohn": 7834,
      "Ġfordert": 7835,
      "Ġkatal": 7836,
      "ordnet": 7837,
      "besonder": 7838,
      "Ġherzchen": 7839,
      "iversitÃ¤t": 7840,
      "ĠtÃ¼rkischen": 7841,
      "ĠlÃ¤nglichen": 7842,
      "Ġ1980": 7843,
      "Ġangerufen": 7844,
      "Ġeinkaufs": 7845,
      "Ġabitur": 7846,
      "ev": 7847,
      "Ġgitter": 7848,
      "Ġbert": 7849,
      "Ġeindeut": 7850,
      "Ġfat": 7851,
      "Ġfass": 7852,
      "Ġward": 7853,
      "Ġredu": 7854,
      "Ġgerichts": 7855,
      "Ġprop": 7856,
      "ĠheiÃŁe": 7857,
      "Ġtramp": 7858,
      "struktur": 7859,
      "regung": 7860,
      "Ġgemeinsame": 7861,
      "Ġserv": 7862,
      "Ġastrid": 7863,
      "ĠhauptsÃ¤chlich": 7864,
      "Ġaussen": 7865,
      "Ġsocial": 7866,
      "Ġzut": 7867,
      "Ġankl": 7868,
      "Ġmitbe": 7869,
      "ĠstÃ¶ren": 7870,
      "Ġausflug": 7871,
      "rauto": 7872,
      "egte": 7873,
      "reden": 7874,
      "ingel": 7875,
      "Ġrepublik": 7876,
      "Ġunterhose": 7877,
      "ĠgroÃŁteil": 7878,
      "Ġtrend": 7879,
      "schlappen": 7880,
      "Ġhilfs": 7881,
      "Ġmomentan": 7882,
      "Ġbetrachtet": 7883,
      "Ġnoten": 7884,
      "umpen": 7885,
      "warum": 7886,
      "Ġgriech": 7887,
      "Ġfernseher": 7888,
      "Ġabente": 7889,
      "Ġwahnsinnig": 7890,
      "ĠmÃ¼hsam": 7891,
      "eiter": 7892,
      "Ġgaben": 7893,
      "Ġpau": 7894,
      "istik": 7895,
      "Ġ26": 7896,
      "ppel": 7897,
      "geschmissen": 7898,
      "Ġherrscht": 7899,
      "ĠhÃ¼b": 7900,
      "Ġpflege": 7901,
      "Ġbefrie": 7902,
      "Ġbelieb": 7903,
      "Ġamerikaner": 7904,
      "Ġrapper": 7905,
      "Ġgesamte": 7906,
      "Ġfeuerwehrauto": 7907,
      "Ġannette": 7908,
      "nimmt": 7909,
      "ritt": 7910,
      "tier": 7911,
      "Ġdings": 7912,
      "einhalb": 7913,
      "anbul": 7914,
      "Ġeingest": 7915,
      "Ġstirn": 7916,
      "amin": 7917,
      "regen": 7918,
      "Ġgeschnitten": 7919,
      "Ġerwart": 7920,
      "Ġfreier": 7921,
      "ĠbenÃ¶t": 7922,
      "park": 7923,
      "Ġbillig": 7924,
      "Ġgesundheits": 7925,
      "ĠblÃ¶de": 7926,
      "Ġbemerkt": 7927,
      "Ġbrown": 7928,
      "Ġaktuellen": 7929,
      "Ġbewusstsein": 7930,
      "ĠschlÃ¤gt": 7931,
      "Ġanstatt": 7932,
      "Ġermord": 7933,
      "ĠmaÃŁnahmen": 7934,
      "Ġturnen": 7935,
      "Ġattrakt": 7936,
      "Ġdiskriminierung": 7937,
      "afrika": 7938,
      "brÃ¼cke": 7939,
      "folge": 7940,
      "ĠtrÃ¼": 7941,
      "Ġabgeb": 7942,
      "Ġeffekt": 7943,
      "Ġvielmehr": 7944,
      "Ġdefin": 7945,
      "Ġmarmelade": 7946,
      "ĠschnÃ¶": 7947,
      "Ġverband": 7948,
      "Ġtraums": 7949,
      "Ġjohn": 7950,
      "Ġdunkle": 7951,
      "ards": 7952,
      "ĠgesprÃ¤che": 7953,
      "Ġgegner": 7954,
      "ctor": 7955,
      "Ġehemalige": 7956,
      "Ġautomatisch": 7957,
      "Ġbekomme": 7958,
      "Ġmimon": 7959,
      "Ġsultan": 7960,
      "Ġunmittelbar": 7961,
      "vi": 7962,
      "wan": 7963,
      "unruh": 7964,
      "Ġistanbul": 7965,
      "ehÃ¶r": 7966,
      "Ġvertrag": 7967,
      "Ġvertreten": 7968,
      "Ġweissen": 7969,
      "enturm": 7970,
      "ĠgroÃŁmutter": 7971,
      "Ġhaushalt": 7972,
      "Ġkaput": 7973,
      "Ġbox": 7974,
      "Ġschaue": 7975,
      "ĠerfÃ¼llt": 7976,
      "Ġ2009": 7977,
      "stoffe": 7978,
      "Ġmittwoch": 7979,
      "Ġbetrachten": 7980,
      "Ġkrake": 7981,
      "Ġabsolut": 7982,
      "stimmen": 7983,
      "vertrag": 7984,
      "ĠfrÃ¼hstÃ¼cken": 7985,
      "bewusst": 7986,
      "schlieÃŁlich": 7987,
      "Ġkolonial": 7988,
      "Ġseminar": 7989,
      "Ġpinguin": 7990,
      "ĠverÃ¶ffentlicht": 7991,
      "deten": 7992,
      "futter": 7993,
      "Ġmasse": 7994,
      "Ġungeh": 7995,
      "aucht": 7996,
      "Ġlim": 7997,
      "Ġop": 7998,
      "Ã¼rtel": 7999,
      "rolle": 8000,
      "Ġbeunruh": 8001,
      "Ġgehirn": 8002,
      "ĠÃ¼berzeug": 8003,
      "Ġabgeh": 8004,
      "Ġentz": 8005,
      "Ġhausschuhe": 8006,
      "Ġmagen": 8007,
      "Ġdraufsetzen": 8008,
      "endes": 8009,
      "Ġautobahn": 8010,
      "perrt": 8011,
      "Ġhamburger": 8012,
      "Ġwaschlappen": 8013,
      "Ġallerlei": 8014,
      "gemalt": 8015,
      "ict": 8016,
      "ĠfrÃ¼heren": 8017,
      "Ġaggress": 8018,
      "Ġallgemeinen": 8019,
      "Ġtouristen": 8020,
      "Ġkasper": 8021,
      "Ġanstrengend": 8022,
      "ĠgeprÃ¤gt": 8023,
      "con": 8024,
      "pun": 8025,
      "Ġdaheim": 8026,
      "Ġkuckt": 8027,
      "ĠschrÃ¤": 8028,
      "ĠerÃ¶ff": 8029,
      "Ġgedreht": 8030,
      "Ġmeins": 8031,
      "Ġsteckte": 8032,
      "abeth": 8033,
      "Ġdarein": 8034,
      "Ġfrucht": 8035,
      "aftet": 8036,
      "udel": 8037,
      "Ġernte": 8038,
      "Ġrauchen": 8039,
      "Ġcool": 8040,
      "ĠÃ¤rzte": 8041,
      "Ġbubi": 8042,
      "Ġtauschen": 8043,
      "Ġweshalb": 8044,
      "Ġnagel": 8045,
      "\")": 8046,
      "nerst": 8047,
      "ritten": 8048,
      "Ġurteil": 8049,
      "Ġeinwander": 8050,
      "elang": 8051,
      "Ġdemselben": 8052,
      "Ġbeam": 8053,
      "Ġwerte": 8054,
      "Ġhinkel": 8055,
      "Ġgefeiert": 8056,
      "Ġmain": 8057,
      "ĠmÃ¤us": 8058,
      "Ġverliert": 8059,
      "ĠgrÃ¶sser": 8060,
      "Ġzahlreiche": 8061,
      "ĠbÃ¼rgermeister": 8062,
      "Ġenglischen": 8063,
      "Ġtiefen": 8064,
      "Ã¤ckchen": 8065,
      "Ġbananen": 8066,
      "Ġmiete": 8067,
      "Ġniedrig": 8068,
      "Ġschachtel": 8069,
      "ĠhÃ¤ufiger": 8070,
      "ost": 8071,
      "iete": 8072,
      "Ġih": 8073,
      "stei": 8074,
      "ini": 8075,
      "Ġfra": 8076,
      "Ġerneut": 8077,
      "Ġanten": 8078,
      "Ġvergewalt": 8079,
      "spir": 8080,
      "herm": 8081,
      "herum": 8082,
      "astet": 8083,
      "Ġpapag": 8084,
      "spiele": 8085,
      "Ġspring": 8086,
      "Ġdaniel": 8087,
      "Ã¤ltig": 8088,
      "Ġstufen": 8089,
      "Ġbefest": 8090,
      "Ġneunzig": 8091,
      "mÃ¤dchen": 8092,
      "Ġfinnland": 8093,
      "Ġaustausch": 8094,
      "Ġfahne": 8095,
      "ĠchriÃŁ": 8096,
      "dat": 8097,
      "dler": 8098,
      "nat": 8099,
      "ĠwÃ¤nde": 8100,
      "Ġmiet": 8101,
      "Ġfagin": 8102,
      "Ġtaten": 8103,
      "Ġerfor": 8104,
      "ĠstÃ¼hle": 8105,
      "aming": 8106,
      "Ġabschneiden": 8107,
      "Ġblieben": 8108,
      "istr": 8109,
      "Ġeisen": 8110,
      "Ġamaz": 8111,
      "Ġberat": 8112,
      "blasen": 8113,
      "Ġplay": 8114,
      "Ġwolln": 8115,
      "verk": 8116,
      "verband": 8117,
      "ungsmittel": 8118,
      "Ã¼nscht": 8119,
      "Ġkaputtgemacht": 8120,
      "Ġwilden": 8121,
      "Ġerstmals": 8122,
      "Ġkrabb": 8123,
      "Ġeinzelheiten": 8124,
      "shirt": 8125,
      "Ġleidenschaft": 8126,
      "ĠkÃ¼rzlich": 8127,
      "200": 8128,
      "bÃ¤ren": 8129,
      "su": 8130,
      "Ġdinger": 8131,
      "Ġfischen": 8132,
      "Ġschirm": 8133,
      "emit": 8134,
      "Ġumstritten": 8135,
      "blatt": 8136,
      "Ġteen": 8137,
      "Ġplag": 8138,
      "brach": 8139,
      "Ġrog": 8140,
      "Ġrohst": 8141,
      "meer": 8142,
      "Ġmaren": 8143,
      "Ġelke": 8144,
      "Ġregul": 8145,
      "Ġrichtiger": 8146,
      "Ġemma": 8147,
      "bote": 8148,
      "Ġbio": 8149,
      "Ġjemals": 8150,
      "Ġ2005": 8151,
      "zusehen": 8152,
      "ĠstÃ¤rk": 8153,
      "Ġwechsel": 8154,
      "Ġumgekehrt": 8155,
      "Ġkassette": 8156,
      "ĠgÃ¼terzug": 8157,
      "Ġsekunden": 8158,
      "Ġwesentlich": 8159,
      "Ġbegeistert": 8160,
      "gst": 8161,
      "statt": 8162,
      "Ġbischen": 8163,
      "aner": 8164,
      "Ġschieb": 8165,
      "derte": 8166,
      "Ġaufgemacht": 8167,
      "ĠverrÃ¼ckt": 8168,
      "republik": 8169,
      "Ġledig": 8170,
      "Ġmeinungs": 8171,
      "Ġcol": 8172,
      "Ġmord": 8173,
      "ĠgrÃ¼nes": 8174,
      "Ġpfarr": 8175,
      "wÃ¼rfe": 8176,
      "Ġstromab": 8177,
      "Ġabgeschlossen": 8178,
      "Ġriesengro": 8179,
      "Ġglobalen": 8180,
      "ĠunabhÃ¤ngigkeit": 8181,
      "krÃ¤fte": 8182,
      "fertig": 8183,
      "gas": 8184,
      "Ġweht": 8185,
      "schorle": 8186,
      "Ġtrieb": 8187,
      "ĠklÃ¶tze": 8188,
      "Ġnachzu": 8189,
      "Ġleon": 8190,
      "Ġredet": 8191,
      "Ġgereg": 8192,
      "Ġdreizehn": 8193,
      "Ġmarien": 8194,
      "Ġstrafe": 8195,
      "Ġbeschreibt": 8196,
      "Ġantis": 8197,
      "Ġgesellschaftliche": 8198,
      "Ġschafe": 8199,
      "ĠwÃ¼tend": 8200,
      "Ġangesehen": 8201,
      "Ġmissb": 8202,
      "Ġkaufl": 8203,
      "Ġhumor": 8204,
      "ĠÃ¤gyp": 8205,
      "neunzig": 8206,
      "ĠchriÃŁie": 8207,
      "dy": 8208,
      "hes": 8209,
      "hat": 8210,
      "lant": 8211,
      "rang": 8212,
      "vol": 8213,
      "ĠdÃ¶r": 8214,
      "Ġwehr": 8215,
      "Ġwandern": 8216,
      "Ġgepfl": 8217,
      "ĠbeiÃŁt": 8218,
      "Ġnachdenken": 8219,
      "ĠmÃ¶glichen": 8220,
      "ĠwÃ¼rd": 8221,
      "atzt": 8222,
      "ĠgrÃ¼ner": 8223,
      "menschen": 8224,
      "ĠfrÃ¼hen": 8225,
      "Ġkathar": 8226,
      "kosten": 8227,
      "Ġsexuelle": 8228,
      "Ġgeschwindigkeit": 8229,
      "Ġjagd": 8230,
      "asten": 8231,
      "kelt": 8232,
      "mor": 8233,
      "oÄŁ": 8234,
      "vide": 8235,
      "Ã³": 8236,
      "stÃ¶": 8237,
      "ĠzusÃ¤tzlich": 8238,
      "reicher": 8239,
      "opul": 8240,
      "Ġerfr": 8241,
      "Ġkindes": 8242,
      "Ġluc": 8243,
      "Ġdrehte": 8244,
      "Ġsiebn": 8245,
      "ĠaufhÃ¤ngen": 8246,
      "Ġmigrations": 8247,
      "Ġbotschaft": 8248,
      "Ġhomosexu": 8249,
      "fristig": 8250,
      "Ġkorruption": 8251,
      "car": 8252,
      "job": 8253,
      "lag": 8254,
      "sÃ¤": 8255,
      "Ġut": 8256,
      "Ġsessel": 8257,
      "Ġkul": 8258,
      "Ġjaha": 8259,
      "achter": 8260,
      "Ã¼rgen": 8261,
      "Ġwarn": 8262,
      "rocken": 8263,
      "andelt": 8264,
      "Ġwerd": 8265,
      "Ġumso": 8266,
      "ahrt": 8267,
      "Ġpapas": 8268,
      "weiÃŁ": 8269,
      "Ġregina": 8270,
      "Ġblauer": 8271,
      "Ġwirkte": 8272,
      "Ã¼hren": 8273,
      "Ġverbreitet": 8274,
      "Ġherausforder": 8275,
      "ampen": 8276,
      "ĠerschÃ¶": 8277,
      "Ġ2007": 8278,
      "Ġfelsen": 8279,
      "Ġwolke": 8280,
      "deutsche": 8281,
      "kÃ¶ll": 8282,
      "ĠrÃ¼be": 8283,
      "ĠunabhÃ¤ngig": 8284,
      "Ġtermin": 8285,
      "Ġzitrone": 8286,
      "Ġsorgf": 8287,
      "ĠschnÃ¶bbel": 8288,
      "Ġantenne": 8289,
      "hÃ¤": 8290,
      "phin": 8291,
      "wÃ¤hr": 8292,
      "Ġ..": 8293,
      "Ġdol": 8294,
      "Ġdamen": 8295,
      "Ġhan": 8296,
      "Ġgreifen": 8297,
      "Ġfassen": 8298,
      "Ã¤llen": 8299,
      "itsch": 8300,
      "Ġrang": 8301,
      "Ã¶re": 8302,
      "ĠstÃ¶rt": 8303,
      "Ġspeich": 8304,
      "Ġspeise": 8305,
      "Ġzwieb": 8306,
      "Ġew": 8307,
      "âĢī": 8308,
      "Ġdurchschnitt": 8309,
      "Ġflaschen": 8310,
      "Ġlebendig": 8311,
      "ĠhÃ¤tt": 8312,
      "Ġzwischendurch": 8313,
      "ĠerzÃ¤hlst": 8314,
      "Ġdoo": 8315,
      "Ġdaraufhin": 8316,
      "Ġeuropas": 8317,
      "ĠÃ¼ben": 8318,
      "pferdchen": 8319,
      "Ġbemerk": 8320,
      "Ġleser": 8321,
      "Ġski": 8322,
      "Ġgeschwister": 8323,
      "Ġmigration": 8324,
      "Ġpositiv": 8325,
      "Ġilse": 8326,
      "frie": 8327,
      "fess": 8328,
      "niÃŁ": 8329,
      "anter": 8330,
      "schten": 8331,
      "Ġschinken": 8332,
      "Ġaufgaben": 8333,
      "ĠstÃ¶r": 8334,
      "Ġvorteil": 8335,
      "Ġgerettet": 8336,
      "spe": 8337,
      "Ġgewisse": 8338,
      "adet": 8339,
      "ĠnaÃŁ": 8340,
      "Ġreingucken": 8341,
      "Ġreinstecken": 8342,
      "Ġhoher": 8343,
      "Ġbetont": 8344,
      "glas": 8345,
      "weite": 8346,
      "Ã¼ndet": 8347,
      "Ġ35": 8348,
      "Ġangriff": 8349,
      "Ġstube": 8350,
      "Ġhauptstrasse": 8351,
      "Ġstaatliche": 8352,
      "Ġerwachsene": 8353,
      "produktion": 8354,
      "Ã¼rfelt": 8355,
      "Ġheutigen": 8356,
      "rÃ¤nkt": 8357,
      "Ġressourcen": 8358,
      "ena": 8359,
      "ĠiÃŁt": 8360,
      "ĠhÃ¼tte": 8361,
      "ankt": 8362,
      "Ġdieter": 8363,
      "ĠeinrÃ¤umen": 8364,
      "Ġuno": 8365,
      "Ġveg": 8366,
      "Ġjack": 8367,
      "eher": 8368,
      "Ġtick": 8369,
      "Ġgekr": 8370,
      "Ġverurs": 8371,
      "ami": 8372,
      "ielen": 8373,
      "Ġspur": 8374,
      "Ġhingefallen": 8375,
      "Ġmehrfach": 8376,
      "Ġrefer": 8377,
      "Ġflach": 8378,
      "Ġbesp": 8379,
      "zul": 8380,
      "Ġgewiss": 8381,
      "adem": 8382,
      "Ġspielten": 8383,
      "ĠplÃ¤tze": 8384,
      "Ġirgendetwas": 8385,
      "Ġstrick": 8386,
      "Ġkarriere": 8387,
      "Ã¼ttert": 8388,
      "Ġmhmh": 8389,
      "gren": 8390,
      "Ġquark": 8391,
      "Ġintercity": 8392,
      "Ġkugeln": 8393,
      "Ġelternhaus": 8394,
      "wohnern": 8395,
      "Ġkritisiert": 8396,
      "Ġbesucher": 8397,
      "Ġgemeinsamen": 8398,
      "Ġerleb": 8399,
      "Ġsinnvoll": 8400,
      "Ġbedroht": 8401,
      "Ġmemory": 8402,
      "**": 8403,
      "kamen": 8404,
      "mond": 8405,
      "oh": 8406,
      "Ġ/": 8407,
      "Ġmess": 8408,
      "stande": 8409,
      "Ġkehrte": 8410,
      "Ġeinig": 8411,
      "Ġausget": 8412,
      "Ġvorbild": 8413,
      "Ġmanfred": 8414,
      "Ġgesammelt": 8415,
      "Ġlebe": 8416,
      "ĠkÃ¶pfe": 8417,
      "Ġschlauch": 8418,
      "Ġgewe": 8419,
      "Ġmari": 8420,
      "ĠbegrÃ¼n": 8421,
      "haber": 8422,
      "Ġebene": 8423,
      "Ġbesseren": 8424,
      "Ġstellung": 8425,
      "ĠvollstÃ¤ndig": 8426,
      "Ġherauszu": 8427,
      "Ġregenbogen": 8428,
      "Ġantwortet": 8429,
      "Ġdauern": 8430,
      "wurst": 8431,
      "Ġexperiment": 8432,
      "eschÃ¶n": 8433,
      "Ġdokumentar": 8434,
      "Ġperfekt": 8435,
      "ĠursprÃ¼nglich": 8436,
      "Ġmuseum": 8437,
      "Ġlediglich": 8438,
      "leid": 8439,
      "meter": 8440,
      "zchen": 8441,
      "Ġdienen": 8442,
      "Ġhielten": 8443,
      "Ġunion": 8444,
      "Ġfu": 8445,
      "schaffen": 8446,
      "schriften": 8447,
      "Ġaufgeschrieben": 8448,
      "Ġredete": 8449,
      "Ġamts": 8450,
      "Ġlieder": 8451,
      "zif": 8452,
      "Ġmusiker": 8453,
      "Ġtrauer": 8454,
      "Ġlandet": 8455,
      "Ġminus": 8456,
      "musik": 8457,
      "Ġpferdchen": 8458,
      "ski": 8459,
      "Ġ2006": 8460,
      "Ġschwieriger": 8461,
      "daktion": 8462,
      "Ġunterschiede": 8463,
      "Ġorganisieren": 8464,
      "kurs": 8465,
      "Ġroller": 8466,
      "Ġschnupfen": 8467,
      "Ġflecken": 8468,
      "Ġbritischen": 8469,
      "schÃ¼ler": 8470,
      "ĠungewÃ¶hn": 8471,
      "Ġkonkurren": 8472,
      "Ġgymnas": 8473,
      "fÃ¤hrt": 8474,
      "mÃ¤r": 8475,
      "Ġbab": 8476,
      "Ġbreiten": 8477,
      "Ġkell": 8478,
      "Ġzorn": 8479,
      "ĠpÃ¼n": 8480,
      "Ġersatz": 8481,
      "isabeth": 8482,
      "Ġbezug": 8483,
      "Ġlea": 8484,
      "Ġumarm": 8485,
      "Ġhinfahren": 8486,
      "Ġfritz": 8487,
      "blÃ¼": 8488,
      "ĠbetrÃ¼": 8489,
      "Ġbegren": 8490,
      "Ġkindheit": 8491,
      "ĠÃ¼bel": 8492,
      "Ġnudel": 8493,
      "Ġspazier": 8494,
      "Ġmoderne": 8495,
      "Ġsmartphone": 8496,
      "familie": 8497,
      "Ġplagwitz": 8498,
      "kanne": 8499,
      "Ġeg": 8500,
      "Ġaqu": 8501,
      "Ġhig": 8502,
      "Ġzuviel": 8503,
      "ĠzustÃ¤ndig": 8504,
      "Ġanzahl": 8505,
      "Ġgezw": 8506,
      "aps": 8507,
      "Ġdepress": 8508,
      "Ġkonzern": 8509,
      "block": 8510,
      "Ġregierungs": 8511,
      "Ġwohnten": 8512,
      "Ġerwache": 8513,
      "ĠkÃ¼mmert": 8514,
      "Ġlegst": 8515,
      "ĠkÃ¤me": 8516,
      "Ġinterreg": 8517,
      "Ġkomische": 8518,
      "Ġtaxi": 8519,
      "Ġverwenden": 8520,
      "Ġwichtigste": 8521,
      "Ġcous": 8522,
      "Ġmathem": 8523,
      "ĠÃ¼berrascht": 8524,
      "Ġverabschie": 8525,
      "Ġgerechtigkeit": 8526,
      "Ġkutsche": 8527,
      "Ġgespenst": 8528,
      "mama": 8529,
      "pon": 8530,
      "Ä±": 8531,
      "Ġgoo": 8532,
      "Ġeingek": 8533,
      "Ġfund": 8534,
      "Ġzens": 8535,
      "Ġtanken": 8536,
      "geflogen": 8537,
      "Ġausru": 8538,
      "Ġabbiegen": 8539,
      "Ġherd": 8540,
      "ammt": 8541,
      "agent": 8542,
      "Ġtraur": 8543,
      "Ġbeschrieben": 8544,
      "Ġbeschreiben": 8545,
      "ĠhÃ¶chst": 8546,
      "publ": 8547,
      "Ġerinnere": 8548,
      "Ġstattf": 8549,
      "richtungen": 8550,
      "ĠtÃ¶chter": 8551,
      "Ġdienstag": 8552,
      "Ġbunten": 8553,
      "Ġsechzehn": 8554,
      "Ġsolches": 8555,
      "frauen": 8556,
      "nick": 8557,
      "stum": 8558,
      "Ġschmalen": 8559,
      "orie": 8560,
      "ierer": 8561,
      "Ġumfeld": 8562,
      "ley": 8563,
      "Ġabholen": 8564,
      "otter": 8565,
      "Ġprovin": 8566,
      "Ġreinsetzen": 8567,
      "rÃ¤der": 8568,
      "drun": 8569,
      "Ã¼nden": 8570,
      "waff": 8571,
      "ĠgedrÃ¼ckt": 8572,
      "Ġoffensichtlich": 8573,
      "Ġverhei": 8574,
      "Ġerkannt": 8575,
      "Ġphot": 8576,
      "ension": 8577,
      "Ġschlafzimmer": 8578,
      "Ġpersonal": 8579,
      "porter": 8580,
      "Ġumgekippt": 8581,
      "Ġkapitalismus": 8582,
      "uropa": 8583,
      "hoch": 8584,
      "zten": 8585,
      "Ġacker": 8586,
      "Ġhuh": 8587,
      "Ġverlegen": 8588,
      "ĠglÃ¤ser": 8589,
      "Ġechten": 8590,
      "undneunzig": 8591,
      "Ġdres": 8592,
      "ĠweiÃŁes": 8593,
      "Ġdurchschnit": 8594,
      "Ġweggehen": 8595,
      "Ġgreiner": 8596,
      "Ġheben": 8597,
      "Ġbogen": 8598,
      "Ġbleibst": 8599,
      "Ġkathol": 8600,
      "ington": 8601,
      "ĠÃ¤hÃ¤": 8602,
      "Ġwahlen": 8603,
      "Ġbestimmen": 8604,
      "Ġbriefe": 8605,
      "Ġkommunikation": 8606,
      "Ġdonnerst": 8607,
      "Ġentschuldige": 8608,
      "Ġmaulwurf": 8609,
      "Ġeilig": 8610,
      "Ġputin": 8611,
      "Ġotto": 8612,
      "Ġlatein": 8613,
      "Ġwall": 8614,
      "Ġmmm": 8615,
      "Ġnationen": 8616,
      "Ġeinschl": 8617,
      "ĠschÃ¼ssel": 8618,
      "Ġrak": 8619,
      "Ġpomm": 8620,
      "Ġtv": 8621,
      "ison": 8622,
      "Ġvorschlag": 8623,
      "reffen": 8624,
      "ĠflÃ¤che": 8625,
      "ĠgewÃ¼rfelt": 8626,
      "Ġnazis": 8627,
      "Ġkeinem": 8628,
      "Ġelisabeth": 8629,
      "Ġangaben": 8630,
      "gebÃ¤ude": 8631,
      "Ġschneid": 8632,
      "umenten": 8633,
      "Ġtoller": 8634,
      "ĠverkÃ¤ufer": 8635,
      "Ġschultern": 8636,
      "Ġstattfinden": 8637,
      "Ã¤dag": 8638,
      "Ġoberen": 8639,
      "aktionen": 8640,
      "Ġseepferdchen": 8641,
      "Ġfeiert": 8642,
      "express": 8643,
      "Ġhaltestelle": 8644,
      "ĠgewÃ¶hnt": 8645,
      "Ġnachmittags": 8646,
      "Ġschauspieler": 8647,
      "Ġmiau": 8648,
      "Ġverurteilt": 8649,
      "Ġelsli": 8650,
      ".--": 8651,
      "bon": 8652,
      "ete": 8653,
      "gott": 8654,
      "hagen": 8655,
      "kamer": 8656,
      "vel": 8657,
      "Ġnasen": 8658,
      "Ġnanc": 8659,
      "Ġket": 8660,
      "Ġsche": 8661,
      "Ã¼re": 8662,
      "Ġvergeben": 8663,
      "ĠÃ¼bert": 8664,
      "Ġabfall": 8665,
      "Ġkleinere": 8666,
      "verw": 8667,
      "weichen": 8668,
      "Ġpassag": 8669,
      "Ġteilnehmen": 8670,
      "Ġbeherr": 8671,
      "ĠlÃ¤uten": 8672,
      "Ġfelix": 8673,
      "vertr": 8674,
      "ĠpersÃ¶nlichen": 8675,
      "Ġangesichts": 8676,
      "Ġklingelt": 8677,
      "Ġjenseits": 8678,
      "drÃ¼ckt": 8679,
      "kippen": 8680,
      "sitz": 8681,
      "zieren": 8682,
      "ÃŃ": 8683,
      "Ġwu": 8684,
      "auscht": 8685,
      "onsten": 8686,
      "Ġzugesch": 8687,
      "Ġanke": 8688,
      "Ġstrei": 8689,
      "Ġverdr": 8690,
      "Ġblin": 8691,
      "Ġgeriet": 8692,
      "Ġkooper": 8693,
      "Ġprem": 8694,
      "ĠkÃ¼ste": 8695,
      "Ġanfassen": 8696,
      "Ã¶tzchen": 8697,
      "Ġwahlkampf": 8698,
      "Ġgehege": 8699,
      "Ġnormalen": 8700,
      "Ġpunk": 8701,
      "Ġjulia": 8702,
      "ĠzerstÃ¶rt": 8703,
      "flugzeug": 8704,
      "ĠgerÃ¤usche": 8705,
      "Ġhihi": 8706,
      "Ġausgesprochen": 8707,
      "Ġbeteiligt": 8708,
      "Ġwiederholte": 8709,
      "Ġeingerichtet": 8710,
      "Ġseuf": 8711,
      "10": 8712,
      "heil": 8713,
      "mag": 8714,
      "netz": 8715,
      "nummer": 8716,
      "ower": 8717,
      "Ġbit": 8718,
      "Ġeinges": 8719,
      "Ġeingesetzt": 8720,
      "ines": 8721,
      "Ġzerr": 8722,
      "arf": 8723,
      "eltern": 8724,
      "Ġrennt": 8725,
      "urz": 8726,
      "oler": 8727,
      "Ġguckste": 8728,
      "Ġspinne": 8729,
      "ĠgerÃ¼": 8730,
      "ĠweiÃŁer": 8731,
      "Ġgarant": 8732,
      "Ġselbe": 8733,
      "Ġkampag": 8734,
      "Ġvierten": 8735,
      "Ġhalst": 8736,
      "zeugen": 8737,
      "Ġdose": 8738,
      "wohnung": 8739,
      "Ġansonsten": 8740,
      "Ġorganisationen": 8741,
      "Ġsenf": 8742,
      "Ġangeboten": 8743,
      "Ġ2022": 8744,
      "ĠbÃ¤umen": 8745,
      "Ġdonald": 8746,
      "Ġweihnachtsmann": 8747,
      "Ġdomin": 8748,
      "Ġstehste": 8749,
      "Ġausgerechnet": 8750,
      "ĠjÃ¤hrlich": 8751,
      "diger": 8752,
      "flich": 8753,
      "iden": 8754,
      "miss": 8755,
      "ckert": 8756,
      "ĠpÃ¼": 8757,
      "Ġpist": 8758,
      "Ġteig": 8759,
      "Ġaufeinander": 8760,
      "etzungen": 8761,
      "Ġsteil": 8762,
      "Ġsteig": 8763,
      "Ġverwei": 8764,
      "Ġauswirkungen": 8765,
      "Ġvormittag": 8766,
      "Ġkomma": 8767,
      "pflich": 8768,
      "Ġunterb": 8769,
      "Ġsahne": 8770,
      "Ġhoppe": 8771,
      "Ġmenschenrechts": 8772,
      "wood": 8773,
      "Ġverlangen": 8774,
      "hausen": 8775,
      "Ġkriegste": 8776,
      "Ġstarb": 8777,
      "Ġbender": 8778,
      "Ġverfassungs": 8779,
      "Ġsorgt": 8780,
      "Ġjournalistin": 8781,
      "ĠblÃ¤ttern": 8782,
      "Ġstammen": 8783,
      "Ġunterschiedlichen": 8784,
      "schulen": 8785,
      "Ġ1970": 8786,
      "Ġelektr": 8787,
      "Ġsklaven": 8788,
      "Ġpiglet": 8789,
      "Ġstromabnehmer": 8790,
      "nie": 8791,
      "pte": 8792,
      "Ġeinpacken": 8793,
      "Ġauswahl": 8794,
      "ĠausschlieÃŁlich": 8795,
      "rauÃŁ": 8796,
      "anzer": 8797,
      "Ġwerbe": 8798,
      "sprecher": 8799,
      "Ã¤tte": 8800,
      "ĠfloÃŁ": 8801,
      "Ġgewerk": 8802,
      "gendes": 8803,
      "Ġbetrifft": 8804,
      "Ġrosen": 8805,
      "waschen": 8806,
      "box": 8807,
      "Ġexistenz": 8808,
      "Ġgramm": 8809,
      "Ġsort": 8810,
      "Ġpflicht": 8811,
      "Ġerschreckt": 8812,
      "Ġlaura": 8813,
      "Ġdelphin": 8814,
      "Ġergebnisse": 8815,
      "Ġpinsel": 8816,
      "Ġreagieren": 8817,
      "Ġzigarette": 8818,
      "besondere": 8819,
      "Ġdonnerstag": 8820,
      "dro": 8821,
      "xit": 8822,
      "Ġnja": 8823,
      "tell": 8824,
      "Ġklingen": 8825,
      "Ġspuren": 8826,
      "Ġumge": 8827,
      "Ġgeschmack": 8828,
      "Ġwegnehmen": 8829,
      "Ġmaschine": 8830,
      "ĠgegenstÃ¤nde": 8831,
      "Ġbleistift": 8832,
      "Ġknoten": 8833,
      "ztin": 8834,
      "Ġlukas": 8835,
      "Ġjoe": 8836,
      "Ġjose": 8837,
      "Ġpfenn": 8838,
      "Ġvermeiden": 8839,
      "Ġnormale": 8840,
      "Ġprinz": 8841,
      "Ġgeneral": 8842,
      "ĠdÃ¼ster": 8843,
      "Ġuntersucht": 8844,
      "Ġbehandlung": 8845,
      "Ġtanzt": 8846,
      "Ġabendessen": 8847,
      "Ġstachel": 8848,
      "Ġinitiative": 8849,
      "Ġbayern": 8850,
      "Ġantisemit": 8851,
      "dliche": 8852,
      "kap": 8853,
      "Ġahm": 8854,
      "ĠgieÃŁen": 8855,
      "Ġnas": 8856,
      "ĠbrÃ¼cken": 8857,
      "ales": 8858,
      "auert": 8859,
      "Ġhach": 8860,
      "emm": 8861,
      "Ġpas": 8862,
      "terung": 8863,
      "Ġoskar": 8864,
      "euert": 8865,
      "ftware": 8866,
      "Ġvorzu": 8867,
      "Ġbedenken": 8868,
      "ĠÃ¼berprÃ¼": 8869,
      "ikas": 8870,
      "Ġeifr": 8871,
      "ĠschlÃ¼": 8872,
      "Ġcola": 8873,
      "Ġflitzer": 8874,
      "Ġents": 8875,
      "Ġreingehen": 8876,
      "Ġbergen": 8877,
      "Ġholte": 8878,
      "Ġzeitungen": 8879,
      "Ġwende": 8880,
      "hinter": 8881,
      "Ġverlag": 8882,
      "werten": 8883,
      "Ã¤ngte": 8884,
      "krit": 8885,
      "Ġmindest": 8886,
      "Ġbahnsteig": 8887,
      "Ġerkenn": 8888,
      "Ġdroht": 8889,
      "Ġerhielt": 8890,
      "ĠwÃ¼ste": 8891,
      "ĠvÃ¶gelchen": 8892,
      "Ġostsee": 8893,
      "Ġkreuzung": 8894,
      "Ġportug": 8895,
      "ĠgetÃ¶tet": 8896,
      "uell": 8897,
      "ĠiÃŁ": 8898,
      "ĠgÃ¼rtel": 8899,
      "auern": 8900,
      "Ã¤nken": 8901,
      "Ġreaktion": 8902,
      "ĠunterdrÃ¼ck": 8903,
      "Ġgewachsen": 8904,
      "gelernt": 8905,
      "Ġgeschaffen": 8906,
      "brett": 8907,
      "Ġkoal": 8908,
      "Ġvierte": 8909,
      "Ġhebt": 8910,
      "Ġsitu": 8911,
      "Ġsicherlich": 8912,
      "Ã¼hlt": 8913,
      "ipul": 8914,
      "Ġsymp": 8915,
      "Ġwinkel": 8916,
      "Ġcomic": 8917,
      "Ġziele": 8918,
      "Ġverzichten": 8919,
      "ĠfranzÃ¶sisch": 8920,
      "organisationen": 8921,
      "Ġproduzieren": 8922,
      "journal": 8923,
      "Ġvorbereitet": 8924,
      "Ġalternative": 8925,
      "Ġtherapie": 8926,
      "Ġbatterie": 8927,
      "Ġdieselben": 8928,
      "ĠverstÃ¤ndnis": 8929,
      "Ġamazon": 8930,
      "Ġkatharina": 8931,
      "ĠpÃ¼nkt": 8932,
      "eben": 8933,
      "ror": 8934,
      "ule": 8935,
      "Ġwahren": 8936,
      "Ġwid": 8937,
      "Ġdampfer": 8938,
      "Ġbrechen": 8939,
      "Ġjes": 8940,
      "schÃ¤": 8941,
      "ĠstÃ¼rz": 8942,
      "Ġklische": 8943,
      "Ã¶rdert": 8944,
      "Ġgelebt": 8945,
      "Ġbrennen": 8946,
      "Ġfrid": 8947,
      "Ġmones": 8948,
      "Ġobgleich": 8949,
      "plo": 8950,
      "Ġgudrun": 8951,
      "Ġdeutschlands": 8952,
      "ichteten": 8953,
      "Ġfreundinnen": 8954,
      "Ġschmid": 8955,
      "konzern": 8956,
      "Ġwindeln": 8957,
      "Ġsenk": 8958,
      "Ġmatrat": 8959,
      "Ġdigital": 8960,
      "Ġentsprechend": 8961,
      "Ġbrunnen": 8962,
      "modell": 8963,
      "Ġintensiv": 8964,
      "beutel": 8965,
      "lar": 8966,
      "meine": 8967,
      "sichtig": 8968,
      "Ã§": 8969,
      "Ġnar": 8970,
      "Ġnutzt": 8971,
      "anlagen": 8972,
      "Ġscheu": 8973,
      "gener": 8974,
      "Ã¶ten": 8975,
      "Ġstau": 8976,
      "Ġweite": 8977,
      "egten": 8978,
      "fenster": 8979,
      "Ġspenden": 8980,
      "Ġglock": 8981,
      "Ġschlicht": 8982,
      "ĠfluÃŁ": 8983,
      "Ġprobe": 8984,
      "Ġgelber": 8985,
      "Ġtem": 8986,
      "Ġrausgehen": 8987,
      "Ġrechtsp": 8988,
      "Ġregie": 8989,
      "wollen": 8990,
      "spieler": 8991,
      "ĠerfÃ¼llen": 8992,
      "Ġtollen": 8993,
      "Ġoffene": 8994,
      "Ġbesonderes": 8995,
      "Ġkuscheln": 8996,
      "Ġchristoph": 8997,
      "reckte": 8998,
      "ologisch": 8999,
      "ĠbÃ¼chern": 9000,
      "Ġblicke": 9001,
      "Ġlichter": 9002,
      "Ġversteck": 9003,
      "Ġscheiben": 9004,
      "ĠtÃ¶pfchen": 9005,
      "ĠbeschÃ¤ftigen": 9006,
      "Ġprivate": 9007,
      "Ġkompliz": 9008,
      "Ġernsthaft": 9009,
      "Ġwestlichen": 9010,
      "ĠpersÃ¶nliche": 9011,
      "Ġschenkt": 9012,
      "ĠschmeiÃŁen": 9013,
      "uropÃ¤": 9014,
      "ĠgeschÃ¤fte": 9015,
      "!\",": 9016,
      "bach": 9017,
      "wÃ¤hl": 9018,
      "Ġwischen": 9019,
      "ĠmÃ¤rchen": 9020,
      "eins": 9021,
      "stunden": 9022,
      "Ġfeine": 9023,
      "Ġjaja": 9024,
      "Ġlars": 9025,
      "Ġint": 9026,
      "Ġgesteckt": 9027,
      "Ġstinkt": 9028,
      "entwick": 9029,
[...]
